#version: 0.2 - Trained by `huggingface/tokenizers`
Ġ ì
Ġ ë
Ġ ê
Ġì Ŀ
Ġ í
ĠìĿ ´
Ġí ķ
ë ĭ
Ġì Ĺ
Ĭ Ķ
Ġê °
Ġì ķ
· ¸
Ġë ĬĶ
Ġì ŀ
Ġê ·¸
³ ł
ĠìĹ Ĳ
ì ļ
ì Ħ
ĸ ´
Ġë ĭ
§ Ģ
Ġì ł
Ġê° Ģ
Ġíķ ĺ
Ġê ²
ëĭ Ī
ìļ Ķ
ì Ŀ
ĠìĿ Ħ
Ġê ³ł
Ġì ĸ´
ìĦ ľ
ì ł
ëĭ ¤
Ġìķ Ħ
Ġê·¸ ë
Ġë §
Ġì ĭ
¼ ë
ı Ħ
¸ °
Ġì ĺ
Ġëĭ ¤
Ġë ĵ
Ġë Ĥ
Ġìŀ Ī
ê °
ì ŀ
¡ ľ
Ġ ~
Ĥ ¬
Ġê ±
ê ²
Ġì §Ģ
Ġì ľ
ë ¦
ëĭĪ ëĭ¤
ĠìĿ Ģ
į °
© ´
Ġë ³
ì ķ
Ġë °
Ġíķ ľ
ì ĭ
í ķ
Ġë ¥
Ġë¥ ¼
Ġë ıĦ
Ġë Ħ
Į Ģ
¹ Į
Ġëĵ ¤
Ġ ?
ë ł
ì §Ģ
Ġì Ħ
Ġê± °
Ġì £
Ġë Ĳ
ë¦ ¬
Ġì Ĭ
ê ³ł
ë į°
ìĿ ´
ìł ľ
Ġì Ĥ¬
ê² Į
ë Ĥ
Ġì ļ
Ġë ¶
ê ¸°
ĠìĿ ĺ
Ġíķ ´
ê ¹Į
Ī ĺ
ĠëĦ ¤
Ġê µ
Ġë³ ´
ĠìĬ µ
Ġê ³
Ŀ ¼
ë Ł
Ġê·¸ë Ł
ĠëĤ ĺ
Ġë ©´
ĠìĿ ¸
ë §
Ġë ĮĢ
Ġìĭ ľ
Ġê² Į
Ġìĺ Ī
ê µ
Ġê ¸°
Ġì ĥ
Ġìľ ¼ë
ĠìĬµ ëĭĪëĭ¤
ê ¸
ë ŀ
ë ¬
ì Ĺ
ê° Ģ
Ġë ª
Ġì ¢
Ġì Īĺ
Ġìŀ Ĳ
Ġë Ń
ë ĵ
ìŀ ¥
ĠìĹĲ ìĦľ
Ġìł ķ
Ġìľ¼ë ¡ľ
Ġí ĸ
Ġë ¬
ĠëĲ ĺ
ê¸ Ī
Ġê² ĥ
Ġë į
ê ±
ë ¶
ì Ľ
ì ĺ
Ġì §
ĠëŃ Ĳ
ì ĥ
ì §
ĠëĬĶ ëį°
ëĤ ĺ
Ġì Ļ
ĠìĿ ¼
Ġìĸ´ ë
ì Ĭ
Ġë§ Į
ì ĸ´
ķ Į
Ġì ĸ
Ġíĸ Ī
Ġìł Ģ
Ġìĺ ¤
Ġì£ ł
ì Ĥ¬
ëĭĪ ê¹Į
Ġì ¤
Ġë Ŀ¼
Ġë ¡ľ
Ġì ²
Ġì£ ¼
ìŀ Ĳ
Ġë ²
Ġë¶ Ģ
ìĭ ľ
ìķ Ħ
Ġìķ Ī
Ġìł ģ
Ġê² ł
ìķ ¼
Ġìļ Ķ
ë ıĦ
ë ¡ľ
Ġë ı
ĩ ê²Į
Ġ ,
í ŀ
Ġê° Ļ
Ġë ķĮ
Ġìł Ħ
í ĺ
í Ļ
Ġê·¸ëŁ °
íŀ Ī
ë °
ĠìĹ ¬
Ġìļ °
íķ ´
Ġìł ľ
ŀ ĺ
ìł ķ
ëŁ °
Ġë§ Ĳ
ĠìĿ´ ìłľ
ë ¥
ì Ĩ
Ġì Ĩ
¹ Ħ
Ġí ĺ
ìĿ ¸
ĠìĿ Į
Ġíķ ł
Ġì§Ģ ê¸Ī
Ġì °
Ġì¢ Ģ
ĠìĹ Ī
ê ³
ì ľ
ĠëĤ ´
Ŀ ¼ë
ĠìķĦ ëĭĪ
ë ²
ë Ŀ¼
Ġë ĺ
ë ³
¡ °
Ġë ħ
ì ²
Ġìĥ Ŀ
ìĽ Ĳ
ĠìĹ Ĩ
Ġì Ĥ
ì ¹
Ġìĸ´ë ĸ
Ġí Ļ
Ġìĸ´ ìļĶ
Ġëĺ Ĳ
Ġêµ ¬
Ġìĭ Ń
ë ĮĢ
ê± °
¯ ¸
Ġê·¸ë ŀĺ
ĠìĿ´ ëŁ°
ëł ĩê²Į
Ġìķ Ĭ
Ġê³ ¼
ë ©´
ĠìĦ ľ
Ġìļ° ë¦¬
Ġê·¸ëŁ ¬
ê ·¸
ìĥ ģ
ë¬ ¸
Ġëį Ķ
íķ ľ
Ġìŀ ħ
Ġê·¸ë ł
ìĬ ¤
êµ ¬
ë ª
Ġë§ İ
´ Ģ
Ġìĥ ģ
ĠìĦ ¸
ì £
ĠëĿ¼ ê³ł
ê° ģ
ĠìĿ´ ëłĩê²Į
êµ Ń
Ġì ¹
ì °
ë¬ ´
Ġëĭ Ī
ì Īĺ
ìĭ ¤
ëł ¤
Ġë¶ Ħ
Ġê ·
ìĿ Į
Ġë§ Ī
Ĩ µ
ĠìĤ¬ ëŀ
ļ Į
Ġì Ľ
Ġì ¡°
Ġë Ŀ¼ë
ëŁ ¬
ë§ Į
í ĥ
ìļ °
Ġëª ¨
Ġê² ½
Ġì¤ ĳ
ëĵ ł
ë¶ Ģ
ê° Ħ
Ġë¬ ¸
Ġìķ ¼
ë¶ Ħ
¯ ¼
Ġí Į
ë Ĭ
ë ĬĶ
ĳ Ĳ
ĠìĤ¬ëŀ Į
Ġëĵ ľ
ë ı
Ġëį ĺ
ĠìĥĿ ê°ģ
Ġê³ µ
íķ ĺ
ĥ Ĳ
¦ ¬
Ġìĸ ĺ
Ĭ ¸
Ġì¢ ĭ
ì¹ ĺ
Ġìľ Ħ
ì£ ¼
Ġêµ Ń
Ġìĭ ł
ìĺ ¤
© ëĭĪëĭ¤
ĠìĨ Į
ì Ļ
Ġëĭ ¹
Ġë ¹Ħ
Ġê·¸ëŀĺ ìĦľ
Ġëĭ ĺ
ìĿ ¼
ëŀ ĺ
Ġë ´
íĻ Ķ
Ġë° Ķ
ĠìĦ ł
Ġì ¶
Ġê ¹
Ġê± ´
ìĭ ł
Ġê ¹Į
í ĸ
Ġì Ķ
ë ¡
Ġê°Ģ ì§Ģ
Ġìĸĺ ê¸°
Ġê ¸
Ġë¬ ´
ë§ Ī
Ġíķ´ ìĦľ
ëĭ ¹
Ħ °
ĠëĲ ľ
Ġì§ Ħ
Ġë ¨
ĠìĻ Ģ
Ġì ħ
ë Ħ
íķ´ ìĦľ
Ġë² Ī
ĠëĭĪ ê¹Į
Ġí ı
Ġìŀ ĺ
Ġìķ Į
ìł Ħ
ĠìĿ¸ ìłľ
Ġê³ Ħ
í Ĭ¸
Ġê·¸ëł ĩ
Ġê¹Į ì§Ģ
ëı Ļ
ìĦ ±
í Ħ°
Ġìĭ ¤
Ġ !
ì ĸ
ë ħ
Ġë ¯¸
ìĥ Ŀ
ëĭ ¨
Ġë Ķ
í Ŀ
ë¥ ´
ìĿ ĺ
ĠìĹ °
ĠëķĮ ë¬¸
ĠëĿ¼ë ĬĶ
Ġê ´Ģ
ĠìĦ ±
ĳ ľ
ì§ Ħ
Ġëĭ¤ ê³ł
Ġìĸ´ëĸ ¤
ì Ķ
ë³ ´
ĠëĮĢ í
Ġìľ ł
¼ë į°
ìĿ Ģ
ìļ ©
ĠìĤ¬ ìĭ¤
Ġë Ĩ
ê ·
Ġê° ľ
Ġìŀħ ëĭĪëĭ¤
ĠìĽ Ĳ
ëĤ ´
Ġí Ķ
Ġë ĳĲ
ì ¤
ĠìĶ ¨
Ġë Ĭ
Ġë©´ ìĦľ
ë ¯¼
ëĵ ¤
Ġìķ ĺ
Ġê±° ëĵł
Ġë° Ľ
Ġê·¸ë ¦¬
Ġë§İ ìĿ´
Ġë° ©
Ġí ĥ
Ġëħ Ħ
Ġìŀ ĸ
ìĨ Į
ĠëĦ Ī
Ġíķ ©ëĭĪëĭ¤
ìĦ ł
ĠìĿ´ ê²Į
Ġê¹ Ģ
í ļĮ
ìķ Ī
Ġìľ ¼
ë ¹Ħ
ê± ´
Ľ Ħ
Ġê±°ëĵł ìļĶ
Ġê· ¼ëį°
ĠìĤ ¼
Ġìĺ ģ
ë £
ĠìĻ ľ
Ġë Ī
ĠëĤ ¨
Ġê·¸ë¦¬ ê³ł
ìĹ ¬
Ġê² °
íĿ ¬
ìļ ´
Ġì² ĺ
Ġìŀ ¥
Ġìĸ´ëĸ »
ìĭ Ŀ
í Ķ
ĠìĬ ¤
ħ Į
ì² ´
í Į
ëª ħ
ë ¯¸
Ġì§Ģ ë§Į
ìŀ ¬
ì ¶
Ġëª »
ëĬ ĺ
Ġëı Ļ
ë§ Ĳ
Ġë ĥĲ
Ġë¬¸ ìłľ
ìł Ģ
Ġê± ¸
ì Ĥ
ëĵ ľ
ĠìĺĪ ìļĶ
ìĹ °
ìĭ ¬
Ġìħ ¨
Ġì° ¨
ê³ Ħ
ë¥ ¸
íĸ ī
ĠìĤ ´
Ġëħ ¸
Ġë ©
ĠìķĦ ìļĶ
Ġë į°
ìĨ į
ëł ¥
ìľ ł
Ġë¶ Ī
Ġëĭ¤ ëĬĶ
ĠëĲ ł
Ġëı ¼
Ġíķ Ļ
µ ľ
ìĶ Ģ
Ġë ¹
Ġìŀĸ ìķĦ
íķ Ļ
Ġë§Ĳ ìĶĢ
Ġë¨ ¹
Ġë° ľ
ĠëĲ Ĳ
ìĦ ¸
» ĺ
¶ Į
Ġêµ Ĳ
ëĦ ¤
ī ìŀ¥
ê ´Ģ
Ġìĭ ¶
Ġì§ ĳ
Ġìŀ ¬
Ġì ´
ëł ¹
Ġì µľ
Ġìłķ ëıĦ
ĠìĦ¸ ìļĶ
Ġë° ĺ
ë² Ī
í ħĮ
ì ¡
Ġëĭ¤ ìĿĮ
Ġìľ¼ë ©´
ĠìĬµ ëĭĪê¹Į
Ķ Ķ
Ġë ģ
Ġêµ īìŀ¥
Ġì² ľ
Ġìĸ´ ìĦľ
Ġë§ ŀ
ìĺ ģ
Ġêµīìŀ¥ íŀĪ
ì§ ģ
Ġìĺ¤ ëĬĺ
Ġë° ±
Ġëĭ ¨
Ġí ģ
Ġê·¸ëł ĩê²Į
ĠíĻ Ķ
ì ¦
Ġí Ĩµ
ĠëĬ Ĳ
ê² ĥ
Ġëª ħ
Ġë¶Ģ ë¶Ħ
ëĤ ľ
Ġí ļĮ
ì Ī
ìĺ Ī
Ġíķ´ ìķ¼
Ġí Ĭ
Ġìĸ´ëĸ» ê²Į
Ġì ±
Ġê·¸ëŁ° ëį°
ë¬ ¼
Ġì Ī
ĠìĿ´ ê±°
Ġê° Ĳ
Ġëĵ¤ ìĸ´
ĠëĦĪ ë¬´
Ġë° °
Ġìłķ ë§Ĳ
ìľ Ħ
ĥ ¥
ê³ ¼
ĠìĿ¸ ëį°
ĠìŀĸìķĦ ìļĶ
İ ¸
Ġíĺ Ħ
ĠìķĦ ëĭ
Ġë° ķ
ìĤ °
íĺ ¸
Ġê²½ ìļ°
Ġíķľ íħĮ
ìĹ ħ
Ġëĭ ¬
ëŁ ¼
ĠëĬĶëį° ìļĶ
êµ Ĳ
Ġê° ķ
Ġê·¸ëŁ¬ ëĭĪê¹Į
íĻ ©
Ġìĺ ¬
Ġë³ ¸
ìŀ ĳ
ìĻ Ģ
ĠíĬ ¹
ê² ½
ĠìĹ¬ ê¸°
ĠëĪ Ħ
ëĬ ¥
Ĩµ ëł¹
í ģ
ĠëĦ¤ ìļĶ
Ġíķĺ ëĤĺ
Ġí ĽĦ
Ġë´ Ĳ
Ġíķľ ëĭ¤
ĠëĮĢí Ĩµëł¹
ë Ŀ¼ë
Ġë ł
Ġê·¸ë ĥ¥
ĠìķĦ ìĿ´
ĠëĮĢ íķľ
Ġì° ¸
ĠìĹ ´
ĠëĮĢ íķ´ìĦľ
ª ½
Ġìĭľ ê°Ħ
ĠìĹĲ ìļĶ
Ġë¶ ģ
Ġê° Ħ
Ġë¶Ģ íĦ°
ë ĥĲ
ìļ ¸
ĠìĹĲ ê²Į
ĠìłĢ íĿ¬
ĠíĻ ķ
ë° ©
ê± ¸
Ġí Ŀ
Ġë§ ī
Ġì£ ¼ë
ĠìĿ´ ìķ¼
í ı
Ġë ŀ
ë² ķ
ìĦ Ŀ
Ġìķ ł
ĠëĤĺ ìĺ¤
íĥ ľ
Ġë©´ ìĿĢ
Ġì ĵ
ê¹Į ìļĶ
ì ¡°
Ġìł Ĳ
ë¡ Ŀ
Ġì² Ń
Ġí Ĺ
Ġìŀ ĳ
ê· ¼
ì¤ ĳ
Ĥ ¤
ĠìĿ ¼ë
Ġìĥģ íĻ©
í Ĺ
ĠëĶ °
ì ¼
Ġë³ ¼
ĠíĮ Ķ
ë¦ °
Ġëĭ¤ ê°Ģ
Ġìķ ŀ
Ġì¹ ľ
ĠìĹ¬ ëŁ¬
Ġëĵ ±
Ġìķ ½
ìĽ Į
ĠìĿ´ìķ¼ ê¸°
Ġê³ł ìļĶ
ê² ©
ëª ¨
í Ĵ
ì§ ľ
Ġíı ī
ìĨ ¡
Ġì¤ Ħ
Ġê² ģ
Ġê·¸ëŁ ¼
ë¦ Ħ
ì² Ń
ìķ ½
Ġë´ ¤
ê ¹
Ġê·¸ ê²Į
ĠìĹ Ń
Ġì¶ Ķ
¨ ¸
Ġëĭ¤ ë¥¸
ê° ľ
ìł ¸
Ġìĸ ¸
Ġìĥ Ī
Ġíķ ¨
Ġì§ ģ
ĠìĹ Ħ
Ġì¡° ê¸Ī
Ġë² ķ
Ġë ¯¼
ĠìĿ´ ëĤĺ
ì ħ
Ġì¤ Ģ
Ġëĭ¤ ìĭľ
Ġë¬ ¼
ĠëĤ ł
Ġìĭ Ŀ
Ġêµ¬ ìļĶ
ì ¢
Ġìĭ ¬
Ġìľ ¡
ìĸ ĳ
ìĹ Ń
Ġë ĸ
Ġë§Į ëĵ¤
ì° °
ë£ ¨
Ġêµ °
ë ĳĲ
Ġê² Ģ
Ġì¹ ĺ
ĠíĶ ¼
íĥ Ģ
Ġë³´ ëĭ¤
ëł ¨
ìł Ĳ
ìŀ Ħ
Ġíķ Ħ
ë ¹
Ġëı Į
ì§ Ī
ë¦ ´
ìĽ Ķ
Ġê³Ħ ìĨį
í Ĩµ
ë¡ ł
ë² Ħ
â Ģ
íĺ Ħ
ĠëĲľ ëĭ¤
ìĬ ¨
ì° ¨
ĠìĿĺ ìĽĲ
ĠëĮĢí ĳľ
Ġê ´
ê³ µ
Ġíĸ ī
§ Ī
ĠìĿ´ ë²Ī
Ġ '
ë£ Į
Ġìĸ ĳ
ìĹ Ĳ
Ġê·¸ ê±°
Ġì ¦
ĭ °
Ġê·¸ ëĭĪê¹Į
Ġë¶ģ íķľ
Ġì¶ ľ
ìĹ Ī
ë° ľ
Ġê ¶Į
Ġíĺ ķ
ë į
Ġë§ ¤
ëħ Ħ
ê² °
Ġë³ Ģ
Ġê±° ê¸°
ëł ¸
ĠìĦ ¤
Ġëĵľ ë¦¬
Ġë² Ħ
ĠêµŃ ë¯¼
Ġëł ¤
ĠíĮ Į
ê° Ĳ
ì¤ Ģ
Ġê°Ģ ëĬ¥
ìł ģ
Ġ âĢ
íĴ Ī
ĠìĿĢ ëį°
Ġìļ ´
ĠëĬĶ ì§Ģ
Ġìĵ °
íĶ Ħ
ĠìŀĲ ê¸°
Ġì¹ ł
· ¨
ĠíĶ Ħ
ìĬ µ
Ġê° ĸ
Ġê »ĺ
Ġì§Ħ ì§ľ
Ġìłķ ì¹ĺ
Ġì²ĺ ëŁ¼
ĠìĨ Ĳ
Ġë°Ķ ë¡ľ
ìĻ Ķ
Ġê°Ļ ìĿ´
Ġíķ´ ìļĶ
ë ģ
į ¼
Ĩ ł
Ġë¬´ ìĬ¨
Ġì° ¾
Ġê²ģ ëĭĪëĭ¤
í ĽĦ
ê »ĺ
ĠíķĦ ìļĶ
ëĭ ´
Ġì± ħ
ê¸ ī
ĠìĨ į
ĠìĻ ¸
ĠëĤĺ ìļĶ
Ġëª¨ ë¥´
Ī ¬
Ŀ ½
Ġí ŀĺ
Ġìĺ Ģ
ĠëĲ ©ëĭĪëĭ¤
ìŀ ħ
ì ±
ĠìĿ¼ ëĭ¨
Ġì ½
Ġìĸ ¼ë
ì¢ ħ
Ġíĺ ¸
Ġíı ¬
Ġì§ Ī
Ġê·¸ëŁ¬ ë©´
í ĳľ
ê ¶Į
Ġê° Ī
ë Ŀ½
Ġê ¼
í İ¸
ĠíĮ Ĳ
Ġí ĳľ
íĹ ĺ
Ġíķľ êµŃ
ì¡ ±
Ġì¤ĳ ìļĶ
ëł Ī
Ġíģ °
ë ĶĶ
Ġëĵ ł
Ġë Ĵ
ĠìĻ Ķ
Ġê·¸ë ķĮ
ĠìķĦëĭ Į
Ġê°Ģ ìŀ¥
Ġëı Ī
ĠëĨ ĵ
íģ ¬
Ġìĭľ ìŀĳ
Ġíĥ Ģ
ĠëįĶ ëĿ¼
Ġì´ Ī
ĠìķĦ ë¬´
ĠëĤĺ ëĿ¼
Ġì »
Ġëª ©
íĮ Ĳ
íĮ Į
Ġë§Ī ìĿĮ
ì¶ ľ
ë³ µ
íĺ ķ
ĠìķĦ ì£¼
ë° ĺ
ìĸ ¸
ìĺ ¨
ì§ ĳ
Ġíķ ©
ĠëĪ Ī
êµ °
í Ĥ¤
Ġìľ¼ ëĭĪê¹Į
Ġê¸ ´
ì² ľ
Ġê·¸ ê²ĥ
Ġëģ Ŀ
ëĤ ł
ĠìķĦ ìĦľ
Ġíķ¨ ê»ĺ
Ġìłķ ë¶Ģ
ĠìĿ´ ìĥģ
ìł Ī
Ġë° ĸ
ì ´
Ġë© °
ĠëŃ Ķ
Ġí İ¸
Ġìĸ¼ë §Ī
Ġìŀ ¡
Ġë¯¸ êµŃ
ëŀ ĳ
Ġê¸ ¸
Ġìħ Ķ
ìľ ¡
Ġë¨ ¼
ê² ¨
Ġê´Ģ ëł¨
Ġë§ Ľ
ìĪ ł
ĠëĦ ĺ
ë° ķ
ëĦ Ī
ĠìĪ ľ
Ġìŀ Ħ
Ġìĸ´ë ĶĶ
ê° ķ
Ġì ¸
ĠíĻ ľ
íĶ ¼
ê·¸ ëŀĺ
ĠìľĦ íķ´ìĦľ
Ġìŀħ ìŀ¥
Ġê¸ Ī
ĠëĤ ľ
Ġ 1
ì ª½
Ġì´ Ŀ
Ġì¢ ħ
Ġì ª½
Ġí Ĵ
ĠëıĦ ë¡Ŀ
ĠìķĦ ê¹Į
Ł ¬
íĺ ¼
Ġìŀ ł
Ġìĺģ íĻĶ
Ġì ¡
Ġê·¸ë ŀ
ë¦ ½
íĸ ¥
Ġë² Į
Ġì²ĺ ìĿĮ
ĠëĴ ¤
Ġí Ĭ¸
íĺ Ģ
ì± ħ
ĠëĬĲ ëĥĲ
ĠìľĦ ìĽĲ
Ġì² ´
ë§ Ŀ
ĠìĤ¬ ê±´
ì ³
ìĦ ¤
Ġì ·¨
ĠìĦł ìĥĿ
ê°Ģ ìļĶ
ìĸ µ
ĠìķĦ ë§Ī
ĠìĹĦ ë§Ī
Ġê»ĺ ìĦľ
Ġê·¸ ê±¸
ĠíķĻ ìĥĿ
Ġì ī
Ġì§ ¸
ëĤ ¨
Ġê²° êµŃ
íķ ©
ì¡ Į
ĠëĤĺ ê°Ģ
Ġìĸ´ ì
Ġëĵ¤ìĸ´ ê°Ģ
Ġìł Ī
ĠíĶĦ ë¡ľ
ĠíĹ Ī
Ġë¬ ¼ë
Ġì§Ģ ëĤľ
Ġëª ĩ
ĠìĿ´ ê²ĥ
Ġëĭ¤ ë©´
Ġì¤Ģ ë¹Ħ
Ġì¹ľ êµ¬
Ġë³ ĳ
Ġë ¦¬
Ġìĸ´ ìķ¼
Ġë³´ ëĤ´
¾ ¸
ĠëĤ´ ìļ©
Ġëĭ ´
Ġë³ Ħ
ĠìĹ Ķ
ĠìĻ Ħ
ë° Ķ
ìł ĳ
Ġë³´ ìĿ´
Ġì¶ ©
ĠëĦ £
ĠìĤ °
į ¨
Ġí Ī¬
ĠìĿ ĳ
¸ Į
ĠìĦľ ìļ¸
ë¹ ł
íķ ł
Ġíģ ¬
ĠíĻķ ìĿ¸
Ġê·¸ëŀ ¬
ì¦ Ŀ
íı ¬
¨¸ ëĭĪ
Ġë¨¼ ìłĢ
³ ¸
Ġëŀ ĳ
ĠìĤ¬ íļĮ
Ġë°© ìĨ¡
ë§ ¤
Ġê° Ķ
ê² ¬
Ġìĺ ¨
Ġëª¨ ìĬµ
Ġë³¸ ìĿ¸
Ġìķ½ ê°Ħ
Ġí į¼
Ġì£ ½
¶ ģ
Ġìĥģ ëĭ¹
ĠëĨ Ĵ
Ġëª °
ĠëĤĺ ìĻĶ
Ġì¦ Ŀ
¡ ł
Ġë³´ ìĹ¬
ĵ ł
Ġíĥ ľ
ĠìķĦ ì§ģ
ë° °
ê²Į ìļĶ
Ġë ĳ
Ġê±´ ëį°
Ġì¹ ´
Ġíĺ ¹
Ġí Ľ
ìĽ Ģ
Ġë³ µ
íĺ ľ
ĠìĿ´ ìľł
ĠìĿĦ ê¹Į
ë§ ī
ë ©
Ġë© Ķ
Ġë§Į ëĤĺ
ëł ĩ
ì ¸
ĠíĽĦ ë³´
Ġëĵľ ë¦´
Ġê´Ģ ê³Ħ
ì¦ ĺ
ëŀ Ģ
ëĵ ±
í Ĭ
Ġë ľ
ĠëĶ ±
ê·¸ ëŁ¬
Ġë ¿
ë ´
ì¼ ľ
Ġê±° ëĤĺ
ê¸ ¸
ĠëıĮ ìķĦ
Ġ 2
Ġë¹ ł
ëĭ ¬
íĻ ĺ
Ĭ Ĳ
í İ
Ġëı ħ
Ġë¯¼ ì£¼
Ġë¹ ¨
ë³ Ħ
Ġìĸ´ë ĬĲ
Ġí ĭ°
Ł ģ
ë¶ ģ
ìķ ħ
Ġê³ ³
ĠêµŃ íļĮ
Ġì¡° ìĤ¬
ĠëĮĢ ë¡ľ
Ġìĭ¤ ìłľ
ĠìķĦëĭ Ļ
Ġëĭ¹ ìĭľ
Ġìļ ©
ë Ī
ì¶ Ķ
Ġì± Ħ
íĥ Ŀ
ĠìĽ Ķ
ĠëŃĶ ê°Ģ
Ġëł¤ ê³ł
ĠëįĶëĿ¼ ê³ł
ëĭ¤ ê³ł
ìŀ Ī
ë¥ ĺ
ĠíĻ ĺ
ĠìĿ¼ë ³¸
Ġíķ Ń
ìĦ ¼
ĠìĿ´ ëŁ¬
ì² ł
ĠëĶ° ëĿ¼
ìĬ ¹
Ġëħ¸ ëŀĺ
ì ģ
ĠëıĻ ìķĪ
ħ Ĳ
ĠìŀĲ ì²´
Ġí Ĥ¤
ĠëĲĺ ê²Į
Ġëı¼ ìļĶ
ĠìĿ´ ë¯¸
ĠìĤ¬ ìĿ´
ì ½
ìĥ ī
Ġì ¼
ìĦ¸ ìļĶ
Ġíĺ ĳ
Ġì¤ĳ êµŃ
ĠëĮĢ íķĻ
Ġì¤ ĺ
ëŁ ī
ì° ®
ĠìŀĲ ìĭł
Ġì½ Ķ
ì³ Ĳ
ì² ĺ
Ġê° ĳ
ĠíķĻ êµĲ
Ġëĵ £
Ġë Ł¬
íĸ Ī
Ġê¼ Ń
ëĮĢ ë¡ľ
ê·¸ëŀĺ ìĦľ
ê¹ Ĳ
ĠìĪĺ ìĤ¬
ëı ħ
Ġê´ ľ
Ġìĥģëĭ¹ íŀĪ
Ġíķĺ ê³ł
ìĦ¼ íĬ¸
ë²Ħ ì§Ģ
ê ¾¸
Ġì² «
ìĪ ľ
Ġì¸ ¡
í Ĩł
Ġí İ
ìĸ´ ë
Ġíį¼ ìĦ¼íĬ¸
ëª ©
ëŁ ½
Ġê²½ ì°°
ì Łģ
¶ Ģ
Ġíı Ń
ìĺ ¬
ê° Ī
ĠìĿ¸ ì§Ģ
ļ ¨
íĥ ģ
ëħ Ģ
Ġëĸ ¨
ë³ ¸
Ġëª¨ ëĵł
ĠìĻľ ëĥĲ
ìĻ ¸
ĠâĢ Ļ
ìĶ ¨
ì¹ ¨
í ĭ°
ë¡ Ģ
ĠëĶ Ķ
Ġì§ģ ìłĳ
ì¼ Ģ
ĠìĿ´ ê±¸
ĠìļĶ ì¦ĺ
ĠëĤĺ ìĻĢ
ĠìķĮ ëł¤
ĠêµĲ ìľ¡
Ġë ķ
ĠëĨ Ģ
Ġê²½ ìłľ
ī ´
Ġê· ¼
ĠíĺĦ ìŀ¬
Ġëŀ Ģ
ĠìĹ¬ëŁ¬ ë¶Ħ
Ġë°ĸ ìĹĲ
ìĸ´ ì§Ģ
Ġë ¯
ì° ¬
íģ ¼
Ġí ħĮ
ëĭ ĺ
ë¦ ¼
Ġê³¼ ìłķ
ìķ ł
ĠìĿ´ ê±´
Ġê·¸ëŀĺ ìļĶ
Ġê ¶ģ
Ġë ĥ
ĠìĹĲ ìĬ¤
Ġë° Ŀ
ĠëĬĲ ëĤ
Ġëĳ ĺ
ĠêµĲ ìĪĺ
ĠíĬ¹ íŀĪ
ĠíĻ ©
Ġë² Ķ
Ġê±° ìĿĺ
ĠíĸĪ ìĹĪ
Ġì§Ģ ìĹŃ
Ġìĸ´ ëł¤
ĠìĤ¬ëŀ ĳ
ëª »
ë³ ĳ
ê¸ ´
ĠìĦł ìĪĺ
ĠëĪĦ êµ¬
ĠíĨµ íķ´ìĦľ
ì£ Ħ
ê ´
Ġê²Ģ ì°°
Ġíķ µ
Ġíķ´ ëıĦ
ĠìłĦ íĻĶ
Ġì§Ħ íĸī
Ġìĥģ íĥľ
ìĦ ¯
Ġëĵ ¯
Ġëĸ ł
Ġìĺ¬ ëĿ¼
ëĿ¼ë ıĦ
ĠëĥĲ ë©´
ë Ķ
Ġí Ĩł
Ġì¼ Ģ
ĠëĦ¤ ëĦ¤
Ġê¸ Ģ
Ġë´Ĳ ìķ¼
ĠìĿĦ ê¹ĮìļĶ
ĠìŀĲ ë¦¬
ĠìĶ ©
ĠíĶ¼ íķ´
ì¹ ´
ìĿ ĳ
ì »
Ġê° ģ
Ġíĺ¹ ìĭľ
Ġê´ľ ì°®
Ġì «
ĠâĢ ĺ
ħ ëĭĪëĭ¤
Ġê¸° ìĸµ
ĠëĿ¼ë ıĦ
Ġìĸ¼ë§Ī ëĤĺ
Ġìĸ ¼
Ġëª ¸
ĠëįĶëĿ¼ê³ł ìļĶ
ĠêµŃ ê°Ģ
Ġê¸° ìŀĲ
Ġë¨ ¸
ĠìĹ¬ ìŀĲ
Ġì» ¤
Ġê·¸ëŀĺ ëıĦ
Ġìļ´ ëıĻ
íĻ ľ
ê·¸ ëŁ°
ĠìĿ´ íĽĦ
ĠìĨĮ ë¦¬
êµ ´
ê· ¹
ĠìĭŃ ëĭĪê¹Į
ĠëĬ ĺ
Ġê·¸ ê±´
ìħ ¨
íķ Ń
ëĭ¤ ëĬĶ
¨ Į
ĠìĹ° ëĿ½
Ġê´ ĳ
ĠìĹ¬ ìĦ±
ĠìĦł ê±°
Ġìŀĺ ëª»
ëĵ Ŀ
Ġë§Į ìķ½
Ġí ħĲ
ĠìĹ ħ
ĠìĿ´ íķ´
Ġí ľ
ĠíĻľ ëıĻ
Ġìĸ µ
Ġê²° íĺ¼
Ġê²° ê³¼
ìĬ¤ íĬ¸
± ìłķ
Ġêµ¬ ëĤĺ
ìĸ´ ëĤĺ
Ġíĺ ¼
Ġë°© ë²ķ
ĭ Ģ
ëħ ķ
ĠëįĶ ëĭĪ
µ ëĭĪëĭ¤
ëŀ Į
ë² Į
Ġìłľ ìĿ¼
ĠìĿ´ ë¦Ħ
ë¶ Ī
Ġë¬¼ë ¡ł
ë Ĩ
Ġë¹¨ ë¦¬
Ġë¿ Ĳ
Ġìĭ ¸
íĺ ¹
ĠìĹĨ ìĿ´
ĠíĻ į
ê° Ķ
ë² Ķ
Ġìĭľ íĤ¤
ĠëŃ ĺ
ĠìĿ¸ëį° ìļĶ
Ġê°Ģ ì¡±
ì´ Ī
ì§Ģ ë§Į
ĠìĥĪ ë¡ľ
ì§Ģ ê¸Ī
ìľ ¼
íĻ ķ
ì¦ Ī
Ġìĸ´ì ¨Į
Ġë¬¸ ìŀ¬
ì§Ģ ë§ī
Ġê· ľ
Ġì£¼ ìŀ¥
êµ¬ ìļĶ
íŀĪ ëł¤
Ġêµ° ìļĶ
Ġê ½
Ġê± ±ìłķ
ĠíħĲ ëį°
ĠëĤĺ ìĺ¨
Ġê³µ ê°ľ
ĠëĤ¨ ìŀĲ
Ġìł ĳ
ĠìĿĺ ë¯¸
ĠìĤ¬ ì§Ħ
Ġìĸ¸ ìłľ
ìĥ Ī
ĠëĬĲëĤ Į
ĠíĴ Ģ
Ġë ī´
Ġëĭ¹ ìĭł
Ġìĺ¤ íŀĪëł¤
Ġë³Ģ íĺ¸
ĠíļĮ ìĤ¬
ë ¸Į
¸ Ķ
Ġìľ ¤
ëħ Ĳ
ìŀĲ ê¸°
Ġê· Ģ
§ Į
Ġê·¸ëŁ ´
Ġê¸ ī
Ġì º
Ġëħ ¼ë
ĠìĬ ¹
ĠìĦ¸ ê³Ħ
ëį Ķ
Ġíŀĺ ëĵ¤
Ġìī ½
Ġê¹Ģ ìłķ
ĠíĿ ¬
Ġíķľ ëį°
ĠìķĦ ë²Ħì§Ģ
ì° ½
Ġë§Ī ì§Ģë§ī
Ġê¶ģ ê¸Ī
ìĹ Ĩ
Ġìĸ´ì¨Į ëĵł
ĠìłĢ ê¸°
Ġìĸ´ ìłľ
ĠìĦ¤ ëªħ
ĠìķĦ ìķ¼
ìĹ ´
ĠëĿ¼ë ©´
ê·¸ ëłĩ
Ġë° ¥
Ġìľ¼ ìĭľ
Ġê·¸ ê¹Į
Ġë§Ľ ìŀĪ
Ġê²° ìłķ
Ġì² ł
ëĭ µ
Ġìķł ìļĶ
ĠëĤĺ ëĪ
Ġìłķ ìĥģ
ë Ń
Ġìĭ¤ìłľ ë¡ľ
Ġê ¿
Ġìµľ ê·¼
ĠìĦľ ë¡ľ
Ġì±ħ ìŀĦ
ĠëĤ¨ íİ¸
Ġí ļ¨
ļ į
Ġíĳľ íĺĦ
Ġê°Ĳ ìĤ¬
ĠëĶ ¸
Ġê´Ģ ìĭ¬
ê·¼ íĺľ
Ġëª¨ ëĳĲ
Ġì£ Ħ
Ġê²½ ê¸°
ĠìķĦëĭĻ ëĭĪê¹Į
ë Ĥ¬
ĠíĮ ¨
Ġì°¾ ìķĦ
Ġë¶Ģ íĥģ
ĠìĿ¸ ê°Ģ
ĠìŀĲ ìľł
ĠìķĦëĭĮ ê°Ģ
Ġìłķ ì±ħ
Ġì¤ ¬
Ġìķ ī
Ġëĵľ ëł¸
Ġë°ķ ê·¼íĺľ
Ġì§Ģ ìĽĲ
ìľ ¨
ìĤ ´
ì į¨
Ġë¶ Ļ
ìŀ ĸ
ĠìĿ´ ëĿ¼ë
ìĻĢ ëĮĢ
ì§ Ŀ
ĠìĽĲ ëŀĺ
ê·¸ ëŁ¼
ĠìķĦ ëĵ¤
ĠëĪĦ ê°Ģ
íķĺ ë©´
Ġë°° ìļ°
ĩ ´
Ġì° ½
ĠìĿ¸ ìĤ¬
Ġì° į
Ġíĸ ¥
Ġëĭ¹ ìĹ°
Ġì²Ń ìĻĢëĮĢ
ìħ ĺ
ĠìĤ¬ ìļ©
Ġê°ľ ìĿ¸
ëŀ Ĳ
Ġëª» íķĺ
Ġíķľ ë²Ī
Ġì§Ģ ì§Ģ
ë° ±
Ġìĭľ ìŀ¥
ĠìłĦ ë¬¸
Ġëĭ µ
Ġìĸ¼ êµ´
ëł µ
Ġë³´ íĨµ
Ġê¸° ëĭ¤
Ġì¶ ķ
Ġí ĮĢ
ĠëįĶ ëĿ¼ëıĦ
Ġê³ ¡
ë³ Ģ
Ġìŀ¥ ê´Ģ
Ġìłľ ëĮĢë¡ľ
Ġê·¸ë §Į
ëĭ¤ ê°Ģ
Ġìĸ´ë ¨¸ëĭĪ
ìłĦ íŀĪ
Ġë¯ ¿
Ġê±´ ê°ķ
ĠìĿ´ ëŀĳ
Ġëħ ¼
í Ĥ
Ġë³Ģíĺ¸ ìĤ¬
Ġê¸° ëĮĢ
Ġë² ł
í ħ
ê° Ŀ
ĠìĿ¼ë °
ìļĶ ìĿ¼
ĠìĥĿ íĻľ
Ġê³ ¨
Ġëĭ¤ ëĭĪ
Ġëĺ ĳ
ëħ ¸
Ġíĥ Ħ
Ġíķľëĭ¤ ê³ł
ĵł ì§Ģ
x x
ĠìľĦìĽĲ ìŀ¥
Ġ 3
ĠìĹŃ ìĭľ
Ġìĸ¸ ë¡ł
Ġëı¼ ìĦľ
ĠìĹĦ ì²Ń
ìĿ Ħ
ëģ ¼
ĠìĤ¬ ê³ł
Ġíıī ê°Ģ
Ġë¯¼ì£¼ ëĭ¹
Ġì§Ī ë¬¸
ĠìĨĮ ê°ľ
í ļį
Ġì į¨
Ġì§Ģ ëĤĺ
Ġíķ´ ê²°
ì£ ł
Ġë´ ħëĭĪëĭ¤
ìļ° ë¦¬
Ġìłķ ë³´
ĠëĤ´ ëł¤
ê¸ Ģ
Ġì ª
Ġê°ĳ ìŀĲê¸°
Ġê±¸ ë¡ľ
ĠìĪ ł
Ġê º
Ġì¡ ´
ìĭ Ń
ë ĳ
ĠìĹŃ íķł
ĠëĨ į
ĠíĬ¹ ë³Ħ
ĠìĿ ½
Ġíķĺ ë£¨
ì¹ ľ
ê° Ļ
ĠìĽ Į
ĠìĽ ĥ
Ġíı Ĳ
ê·¸ ë¦¬
Ġë° Ģ
ĠíļĮ ëĭ´
íķ ¨
ĠìĻľëĥĲ íķĺë©´
ìħ Ķ
íĬ ¼
Ġëł Ī
ì ·¨
ìľ ¼ë
Ġë¶Ħ ëªħ
Ġê· ¹
Ġëĵľë¦´ ê²ĮìļĶ
ê² Ģ
Ġê°Ģ ìł¸
Ġê³¼ ìĹ°
ĠìĨ ¡
0 0
ĠìļĶ ìĸ´
ŀ Ģ
Ġë £
ĠìĿĮ ìĭĿ
ĠìĿ´ ìļ©
ĠíĮĲ ëĭ¨
ĠìĹ° êµ¬
Ġë° ¤
Ġê´Ģ ë¦¬
ì° ©
ê² ¼
Ġë³´ ëıĦ
ìĺ Ģ
Ġìķ¼ ëĭ¹
ë© Ķ
ìĽ ł
ĠìĥĪë¡ľ ìļ´
Ġìĭ «
ëĭ¤ ë©´
ë° Ģ
Ġìĸ´ ëłµ
Ġìĭľ ëĮĢ
í Ľ
ĠëĤĺ ì¤ĳ
Ġê¹ ¨
ê· ¼ëį°
ĠìľĦ íķľ
ë¦½ ëĭĪëĭ¤
ìĪ Ļ
ĵł ê°Ģ
Ġê·¸ë ĮĢ
Ġê³¼ ê±°
Ġíĺ¼ ìŀĲ
Ġíĥ Ī
ë ķĮ
ĠìłĦ íĺĢ
Ġìĺ Ĩ
ĠëĤĺ ìĿ´
Ġë²Ħ ë¦¬
ê´ ĳ
ĠìļĶ ëĦ¤
ĠìķĦ ë¹ł
ĠìĿ¼ë° ĺ
Ġê¸° ìĹħ
ĠìĿ¼ë ¶Ģ
ëŀĺ ëıĦ
Ġê³Ħ ìĭľ
Ġìŀł ê¹Ĳ
íİ ĺ
ĠìĦ¸ ìĥģ
Ġëī´ ìĬ¤
Ġê·¸ë ¦
Ġìµľ ê³ł
ĠìĿ¸ íĦ°
ë ¨
Ġê³µ ë¶Ģ
Ġí Ħ°
Ġë§Į íģ¼
Ġë°ľ íĳľ
Ġìĸ´ì ©
ĠìĹ¬ íĸī
Ġë´Ĳ ìļĶ
ĠìķĦ íķĺ
ìĨĮ ë¦¬
Ġìŀ¬ íĮĲ
Ġë¶Ģ ëª¨
Ġì¶© ë¶Ħ
Ġê³ł ë¯¼
ìĹ ĩ
ì° Į
ĠìŀĲ ê¾¸
ìĭ¬ íŀĪ
Ġë ¸Į
ĠìĻĢ ìĦľ
Ġíĭ° ë¹Ħ
Ġìĭľ ì¼ľ
į ëĭĪëĭ¤
ê·¸ ëŀ
ëŃ Ĳ
ĠìħĶ ìķ¼
Ġë³ĳ ìĽĲ
Ġëľ »
ĠìĬ¤ íĥĢ
Ġë°ĺ ëĮĢ
ìĿ µ
ĠíĶ Į
Ġê· ¼ë
Ġë§Ī ëĭ¤
ìĬ ·
Ġë¬¸ìŀ¬ ìĿ¸
ì¡ ´
ĠëĦĺ ìĸ´
ê³ ¡
Ġë Į
Ġíķľëĭ¤ ëĬĶ
ì¹ ł
Ġë¬¸ íĻĶ
ĠìĿĮ ìķħ
ĠêµŃ ìłķ
ì½ Ķ
ê·¸ë¦¬ ê³ł
í Ī¬
ĠíķŃ ìĥģ
ĠëĬĶ ê°Ģ
Ġì Į
Ġíľ ´
Ġìŀ Ķ
Ġë°ľ ìĥĿ
íĽ Ī
ĠëĲľëĭ¤ ê³ł
ĠìķĪ ëħķ
ëŀ ľ
Ġìĸ´ë ¨¸
ĠìĿ´ ë£¨
ë Ģ
Ġì§ ľ
ĠíĿ Ķ
ë ¨¸
ëŀ µ
ë´ ī
ĠìķĦ ì¹¨
Ġëħ¸ ëł¥
ĠëıĦ ìĽĢ
ĠìłĦ ì²´
ĠíļĮ ìŀ¥
Ġê¸° ë³¸
Ġë°Ķ ëĢ
ĠìĿ´ ë¶Ħ
ĠìĹŃ ìĤ¬
Ġë¬´ ìĹĩ
Ġê·¸ëĮĢ ë¡ľ
¬ ¸
Ġë¹Ħ ìĬ·
ĠìĻ ķ
ê° ĳ
ĠìĿ¸ ìłķ
ë¶Ģ íĦ°
Ġìķ ķ
Ġë§ ¡
ê »
ë ĥ
Ġìłķ ë¦¬
ìģ ĺ
í ľ
ìĶ ¬
ĠìľĦ íķ´
Ġì« Į
Ġìłķ íĻķ
Ġìłķ ëĭ¹
Ġìķ ħ
ĠíĶ ¼ë
ìķ Į
ĠìħĶ ìĦľ
ĠíĺĦ ìŀ¥
íĥ Ħ
ëĿ¼ë §Ī
ê ¿
ë¥ ¼
íĺ ģ
ĠëĤ ¬
ĠëĬĶ ëĭ¤
ìŀ ¡
Ġìĸ´ë ıĦ
Ġìī ¬
Ġë¨¸ ë¦¬
Ġì ¯
Ġëĺĳ ê°Ļ
Ġê¹Ģìłķ ìĿĢ
Ġìłķ ìĭł
Ġëĵ¤ìĸ´ ìĺ¤
Ġìĺ Ľ
Ġì¼Ģ ìĿ´
Ġê°Ģ ìļĶ
Ġìĺ¤ ëŀĺ
Ġìļ ¸
Ġëģ Į
ĠìĹ´ ìĭ¬íŀĪ
ë¯¼ êµŃ
Ġê¸° ì¤Ģ
Ġìľ¼ ìĭł
Ġëĭ¹ìĹ° íŀĪ
Ġëĭ¤ ë¥´
ĠìĥĿ ê¸°
ĠìĦł íĥĿ
ĠëĶ°ëĿ¼ ìĦľ
ĠìĤ¬ ìĹħ
Ġìĥģ ëĮĢ
ê·¸ëŀ ¨
Ġê¸° ìĤ¬
Ġì§Ģ ë°©
ĠìĺĪ ìĺĪ
Ġìŀĳ íĴĪ
ìļ´ ëį°
ì¶ ķ
ëı Į
Ġë ½
Ġí ĭĢ
ìĺ¤ ëĬĺ
ë ľ
ĠìĪ ¨
ĠëĮĢíķľ ë¯¼êµŃ
ĠìĹĲ ìĿ´
ìĿ ¼ë
Ġì°¨ ìĿ´
Ġì¯ ¤
í Ħ
Ġì ı
Ġëħ¼ë ŀĢ
ĠëĤĺ íĥĢ
ë ĺ
Ġë¶Ħ ìľĦ
Ġëĭ¤ ìĸĳ
ĠìĺĪ ìłĦ
Ġë§ Ŀ
Ġê¿ Ī
Ġíĺ Ī
Ġìľł ëªħ
ĠìĿĺ ê²¬
ĠëĤ ®
Ġë Ľ
ìļ ±
Ġìĥ ī
Ġëĭ¤ ìĦ¯
ĠíĽ ¨
ì¶ °
íĶ Į
ĠëĤ´ ìĿ¼
Ġê³¼ íķĻ
Ġë¬¸ ìŀĲ
Ġì¹ ¨
ìģ ľ
Ġê² ¨
ĠíĹ Į
ë² ½
Ġì§Ģ ì¼ľ
Ġíķ© ìĿĺ
ĠëĤĺ ìĺ¬
ë ·
ĠíĽ¨ ìĶ¬
ìĿ´ íĬ¸
Ġëĸ¨ ìĸ´
ëģ Ķ
Ġìŀħ ëĭĪê¹Į
§ Ĳ
Ġì ĩ
Ġìĺ ·
íĹ Ī
ê· ľ
Ġíķĺ ì§Ģë§Į
ìŀĸ ìķĦ
ĠìĹ° ê²°
Ġì¦ Ĳ
Ġë ¡
Ġìļ° ìĦł
Ġê±´ ê°ĢìļĶ
Ġê°Ĳ ëıħ
ĠìķĦ ëĤ´
ê· ł
ĠìĦ ¼
Ġìĭľ ë¯¼
ĠìĽ Ģ
Ġìłľ ëıĦ
Ġì¡ Į
ĠìĨ Ķ
Ġë´ ī
Ġìĺģ íĸ¥
ĠíĶĦë¡ľ ê·¸ëŀ¨
³ Ģ
Ġë¡ľ ìĦľ
ĠëĤ¨ ë¶ģ
Ġì°¸ ìĹ¬
ì¸ ł
ĠìļĶ êµ¬
ĠìĿĢëį° ìļĶ
Ġì¤ĺ ìķ¼
Ġíķľëĭ¤ ë©´
Ġìĸ »
ê·¸ëŁ° ëį°
ĠìĺĽ ëĤł
ĠëĺĲ ëĬĶ
Ġë°ľ ìĸ¸
ĠëĮĢ íĻĶ
ĠëĽ °
Ġíļ¨ ê³¼
ê ¼
ë° Į
Ġë³´ ìĪĺ
ĠìķĦë¬´ ëŀĺëıĦ
Ġëĵ± ê¸ī
Ġìĺģ ìĥģ
ì§ ķ
ĠëĬ ¥
ĠìŀĲ ìĦ¸
ł ¤
Ġìłķ ê¶Į
Ġëĵł ì§Ģ
¶ Ħ
Ġê²ģ ëĭĪê¹Į
Ġë¶ĦìľĦ ê¸°
ĠìĬ¤ ëŁ½
ĠìķĦëĭĻ ëĭĪëĭ¤
ĠìķĮ ìķĦ
ìķ ¡
ĠìĤ ¶
ë¶Ģ ë¶Ħ
ĠìĪľ ê°Ħ
Ġìŀ¬ ë°Į
Ġì§ ĵ
íı ī
ê³ ³
Ġë§Ī ìĭľ
ëŁ¼ íĶĦ
Ġì° ¬
íĮ ¨
íĺ Ķ
Ġê²Ģ ìĤ¬
Ġë§Į ëĵľ
Ġëħ¸ ëıĻ
Ġìłľ íĴĪ
Ġëľ ¨
Ġì£¼ë ³Ģ
Ġê·¸ë ¶Ħ
Ġì¶©ë¶Ħ íŀĪ
ĠìĺĪ ìłķ
Ġê³Ħ íļį
Ġê°ľ ìĽĶ
Ġëĵľ ëĿ¼ë§Ī
ì¸ ¡
Ġë¹ ¼
ĠìĪ Ļ
Ń ëĭĪëĭ¤
Ġì¸ µ
ëĥ Ī
Ġê¸° ë¡Ŀ
ĠìĦ Ŀ
Ġíĺ ģ
Ġíĸī ë³µ
ĠìĦł ë¬¼
Ġëĭ¬ ëĿ¼
Ġëĵľ ëŁ¬
ĠìķĦ íĮĮ
Ġëħ ¹
¥ ¸
Ġë¹Ħ íĮĲ
Ġë¯¸ ëŀĺ
ĠëıĮìķĦ ê°Ģ
Ġë³Ħ ë¡ľ
ë´ Ĳ
Ġìł ¸
Ġì£¼ ìĿ¸
ĠíĬ¸ ëŁ¼íĶĦ
ĠìķĦëĭĪ ë©´
íı °
ı Ļ
Ġìł Ĭ
Ġìłľ ìŀĳ
Ġë°Ķ ëŀĮ
ĠìĹĲ ëĭ¤ê°Ģ
Ġ xx
Ġìĺ¬ íķ´
Ġìķ Ķ
Ġì¡° ìĦł
Ġìĺ¤ ë¹ł
ĠëĮĢ ìĥģ
Ġìĸ¸ ëĭĪ
Ġë¶Ī êµ¬
Ġê¸° íļĮ
ĠìłĪ ëĮĢ
Ġëĵ¯ ìĿ´
Ġë²Ķ ì£Ħ
ĠìĹ¬ ë¡ł
ì£ ¼ë
ĠíĻķ ìĭ¤
ĠìļĶ ë¦¬
ĠìĬ¤ ëŁ¬
íĮ ħ
ĠìļĶ ìĺĪ
ĠëĬ ¦
ê·¸ëŁ¬ ëĭĪê¹Į
Ġê°Ģ ê¹Į
ĠìĿĺ ìĤ¬
Ġì¸¡ ë©´
Ġë ¸Ķ
ĠìĤ¬ ìŀ¥
ìĨ Ĳ
ĠìłĦ íĺķ
ĠíĺĦ ìĭ¤
ĠìĿ¸ ê°Ħ
Ġëª© ìĨĮë¦¬
ë§ ŀ
ì¶ ©
Ġìļ ķ
Ġë¶Ħëªħ íŀĪ
Ġë£ ¨
ëĤ Ļ
ĠìĽĢ ì§ģ
ëį ķ
Ġìŀĳ ê°Ģ
Ġë§Į ëĵł
Ġìº Ĳ
ëŁ ´
ĠìĿ¼ ìĸ´ëĤĺ
ĠíĶ¼íķ´ ìŀĲ
Ġìĸ´ëł¤ ìļ´
Ġ 5
Ġí ŀ
ĠëĮĢ ë¶Ģë¶Ħ
Ġê¸° ë¶Ħ
ê°Ģ ì§Ģ
ê¹ Ģ
ĠëĨ Ī
Ġë¶Ħ ìĦĿ
³ ´
Ġë¶Ī ëŁ¬
ĠëıĦ ìĻĢ
ìĹ Ħ
ĠíĹ ¤
ĠìĨĮ ìĭĿ
ìĬ¤ ë¡ľ
Ġê·¸ëŁ¬ ëĤĺ
ëł¤ ê³ł
íķ Ħ
Ġë°ĶëĢ Į
Ġë°Ķ ê¿
ĠíĴ į
ì£¼ ìĿĺ
Ń ī
ĠìĹ° ê¸°
ĠëĮĢ ëĭ¨
ĠìľĦ íĹĺ
Ġê¸° ê°Ħ
Ġì¶Ķ ì²ľ
Ġìĵ ¸
ĩ Į
Ġìļ´ ìĺģ
íĤ ¨
ĠëĪĦ ë¦¬
íİ ´
ĠìĻľëĥĲ ë©´
ĠìĿ¼ ìłķ
ìĭľ ìĺ¤
ĠëĮĢ íķ´
Ġëĵľ ë¦½ëĭĪëĭ¤
ĠìĿĺ íĺ¹
Ġë¶Ģ ë¥´
ĠìĦ± ìłģ
Ġì ³
ìĭľ ìķĦ
íĥ ķ
ĠìĻĦ ìłĦíŀĪ
Ġë§ ¨
ĠëĲľëĭ¤ ëĬĶ
Ġë³Ģ íĻĶ
Ġìĸ´ ë¦°
Ġë°© ìĭĿ
ìĬ Ī
ì° ¸
ĠìĿ´ ìĸ´
Ġíĸī ëıĻ
Ġì± Ļ
ĠìĹ ł
ìĸ´ë ĸ
ĠíĮ ¬
íķĻ êµĲ
ì± Ħ
ĠìĬ¤ ìĬ¤ë¡ľ
ĠíķĻ ëħĦ
Ġêµ¬ ì¡°
Ġìĺģ ìĸ´
ì²ł ìĪĺ
ì ī
Ġê³Ħ ìĭł
Ġëģ Ĭ
Ġê² ¬
Ġê°Ģ ìļ´ëį°
íķ µ
ĠìłĢ ëŁ°
Ġê²½ íĹĺ
Ġì£Ħ ìĨ¡
Ġìĭľ ì²Ń
Ġê¹ Ĭ
ĠëĬĲ ëģ¼
Ġíģ ´
Ġí ĳ
Ġë ŀĺ
Ġìļ´ ìłĦ
ĠìĤ´ íİ´
Ġìľ¼ë©´ ìĦľ
ĠìķĦëĭ Ĳ
ĠìĿ´ ëŀĺ
Ġì²ĺ ë²Į
Ġì§Ģ ëıĦ
Ġíĺ Ĳ
Ġìľł ì§Ģ
ê±° ë¦¬
ìĻ ķ
ĠíļĮ ìĿĺ
Ġì° ©
Ġëģ ¼
ë ¨¸ëĭĪ
Ġëĵľ ë¦°
Ġê¸° ê´Ģ
Ġì§Ģ ìļĶ
ì§ ĵ
Ġìľ¼ë¡ľ ìĦľ
Ġìŀ¥ ë©´
ª ©
ëħ ģ
Ġì£¼ë ¯¼
ìķĦ ëĭĪ
Ġì¤ĳ ìĭ¬
í Ĩ
ĠìŀĲ ìĹ°
Ġì£¼ë ¬¸
Ġì¶Ķ ê°Ģ
ĠìłĦ ë¶Ģ
ĠìĿ¸ ìĥĿ
Ġë½ ĳ
ĠìłĦ ìŁģ
Ġìŀ¬ ë¯¸
ìķĦ ëĵ¤
ĠìķĪ ì²łìĪĺ
ĠìŀĲ ë£Į
ëł¤ ìĦľ
Ġë°ľ ê²¬
ĠìļĶ ëłĩê²Į
ĠìłĦ íķ´
ìľ¼ë ©´
ĠìĿ¸ ê°ĢìļĶ
Ġíĸī ìĤ¬
ĠìłĦ ëŀµ
ëłĪ ìĿ´
ìĸ´ ìļĶ
Ġê·¸ë ıĻ
Ġê·¸ëıĻ ìķĪ
ìłĢ íĿ¬
ĠìŀĲ ë©´
Ġë²Į ìį¨
ìŀĸìķĦ ìļĶ
ĠìĪĺ ì¤Ģ
ìĻ Ħ
Ġë° ĳ
ĠìĦ± ê³µ
Ġìĺ¬ëĿ¼ ê°Ģ
Ġìłľ ê¸°
ì¹ Ļ
Ġë ¹Į
Ġê¸° ìĪł
¢ °
Ġí ĩ´
Ġíİ ĺ
Ġì¶ľ ìĹ°
Ġì²ĺ ë¦¬
ĠëĬ¥ ëł¥
ĠìłĦë¬¸ ê°Ģ
ĠëĤĺëĪ ł
ĠíĨµ íķ´
ĠëĤ¨ ìĦ±
ì³ ¤
í ĭĢ
ìķ Ļ
ĠìŀĲ ìĭĿ
ìĻ ľ
ìĹ ¼
ĠìĽĲ ëĤ´
Ġëª° ëĿ¼
Ġìĸ´ ì°Į
Ġë¶Ģ ì¡±
Ġíĥ Ŀ
ĠìĪĺ ìĦĿ
Ġì¢ Į
ë ¢°
Ġë°Ķ ëŀ
Ġìĭł ì²Ń
Ġê±° ë¦¬
Ġìĭľ ìłĪ
Ġì į¼
Ġìľ¼ ìĦ¸ìļĶ
ĠìĿ µ
ë ¸Ķ
ìĦ Ń
ìĹĨ ìĿ´
Ġëĭ¨ ê³Ħ
Ġê°Ĳ ìłķ
ĠëĮĢ ìĦł
ê· Ģ
Ġìĭł ê²½
Ġíıī íĻĶ
ìĺ µëĭĪëĭ¤
Ġë¬ »
Ġë¶Ģ ëĭ´
ĠíĽ Ī
Ġìĥģ ëĭ´
Ġê³µ ìĹ°
ë¨ ¼
Ġêµ¬ ì²´
ĠêµŃ ëĤ´
ì» ¤
Ġê°ľ íĺģ
© °
ĠêµĲ ê³¼
Ġìĩ ¼
Ġì§ģ ìĽĲ
ĠìĿ´ëĿ¼ë ĵłì§Ģ
Ġì¦Ŀ ê±°
Ġì§ĳ ì¤ĳ
ĠëĿ¼ ìĦľ
ëį° ìļĶ
Ġê°Ģ ê²©
ĠìľĦìĽĲ íļĮ
Ġì Ńī
Ġì§ ķ
ĠëĶ° ë¡ľ
ì´ Ŀ
ĠëĮĢ ì²´
Ġë²ķ ìĽĲ
ĠíĿ Ĳ
¼ë ¦¬
ĠìķĪ ìłĦ
ĠëĮĢ ìĭł
Ġê³Ħ ìķ½
µ ¸
Ġì§Ģ ìłģ
ĠìĬ ¬
ĠìłĢ ëħģ
Ġë°ĺ ìĿĳ
Ġê±´ ì§Ģ
İ Ħ
ë ĥ¥
Ġë »
Ġìŀł ìĭľ
Ġë§Ī ì°¬
ĠìĻ¸ êµŃ
ĠëıĦ ìĭľ
Ġìĸ´ëĸ ł
ĠìĺĪ ìĥģ
ìľ ¤
ĠìĽĮ ëĤĻ
ë³ ¼
Ġë ĩĮ
Ġê³µ ê²©
í ĩ´
Ġë§Ī ì¹ĺ
Ġë© Ģ
Ġëĵľ ëł¤
íĹ Į
ê·¸ëŁ¬ ë©´
Ġìľ¼ ìħ¨
Ġê·¸ë¦ ¼
Ġë¶Ģ ë¶Ģ
Ġë ļ
ĠìļĶ ê±°
ëłĪ ìĬ¤
Ġë¯¸ ë¦¬
ëĨ ĵ
ĠìĻ¸ êµĲ
Ġë³´ íĺ¸
ĠìĤ¬ ê³¼
Ġëĭ¨ ì²´
Ġëķ ħ
Ġêµ° ìĤ¬
¼ë ģ
Ġìĭł ê³ł
ìĹ¬ ê¸°
ĠêµŃ ìłľ
Ġìĺ¬ ë¦¬
Ġê³ł ëĵ±
ë· °
ĠëįĶëĿ¼ êµ¬ìļĶ
Ġê ¾¸
Ġê·¸ë Ĥ
ëĮĢ ì²´
ĠìĹ ĺ
Ġëħ¼ ìĿĺ
Ġíķµ ìĭ¬
Ġê·¸ë £
ĠìĿ¸ ê¸°
ĠìĹ¬ ë¦Ħ
Ġë© ĭ
Ġëª» íĸĪ
ëĺ Ĳ
Ġì¤ĳ ê°Ħ
íķ ĳ
ëĶ °
íŀ Į
Ġê¸°ëĭ¤ ë¦¬
ĠëĲł ê¹ĮìļĶ
Ġíı¬ íķ¨
ì¸ µ
Ġë² Ĺ
íĦ ´
Ġê°ľ ë°ľ
Ġëª¨ ìĸĳ
Ġìĵ ´
Ġ 4
Ġêµ ³
ìĽĮ ìĦľ
ìķ ķ
ĠìĭŃ ìĭľìĺ¤
í ĭ
Ġìª ¼ëģ
ì§ ¸
Ġì¡´ ìŀ¬
Ġêµ¬ ìĨį
® ¤
íĬ ¹
ĠìłĦ íķĺ
Ġíķ´ ëĭ¹
íĴ į
ĠëĤ´ ë¶Ģ
Ġëĵ ŃëĭĪëĭ¤
Ġêº ¼
ĠíĻĺ ê²½
ĠëĪĦ êµ°
Ġê² ©
í į¼
ëĶĶ ìĸ´
ĠìķĦ ìĺĪ
ĠëĭĪê¹Į ìļĶ
Ġë¶Ģ ìĿ¸
Ġë§Īì°¬ ê°Ģì§Ģ
ĠëĿ¼ë ĵłì§Ģ
ìł ł
ê ¶ģ
ĠíĺĲ ìĿĺ
ì¶ ĺ
ĠìŀĲ ì£¼
ĠíĻĺ ìŀĲ
ĠìĹ¬ ìĦ¯
Ġê¼ ¬
ĠìĹ¬ ëĭ¹
Ġì¡° ì¹ĺ
Ġë°© íĸ¥
ìĬ ´
Ġì°¨ ìĽĲ
ìĭ ¸
ĠìĿ´ ìĬĪ
Ġìª¼ëģ Ķ
Ġì´Ŀ ë¦¬
Ġê·¸ë£ ¹
íĶ Ī
Ġëĸ¨ ìĸ´ì§Ģ
ì¤ Ħ
ĠëĮĢ ìļĶ
Ġëģ ĵ
Ġìĭľ ê¸°
íĥ Ī
Ġë¯¸ ìķĪ
ĠìĥĿ ê²¼
Ġê½ ĥ
í Ĥ¬
Ġë²Ī íĺ¸
ì µľ
ĠíĪ¬ ìŀĲ
ĠíĻĶ ìŀ¥
ĠìĦ¸ ëĮĢ
ĠìĿ¸íĦ° ë·°
ëĬ Ĳ
ĠìĿ´ ì¼Ģ
Ġê²½ ìŁģ
ìŀĲ ë¦¬
ê» ´
Ġíķł ë¨¸ëĭĪ
ĠìĦ¸ ëł¥
ê³ ±
Ġëĭ¹ ìŀ¥
ê³ ¨
Ġìŀĳ ìĹħ
ĠìłĢ ëłĩê²Į
Ġëł¤ ë©´
ë¬´ ë¦¬
¬ ´
Ġì³ Ĳ
Ġ1 0
íı Ń
Ġë°Ķëŀ įëĭĪëĭ¤
ìĿ´ ìłľ
Ġëĭ¤ ëħĢ
ìĿ´ ë²Ī
ë² ł
Ġìŀ ĥ
Ġìĸ´ ìļ°
í ļ¨
Ġê°Ģ ìĪĺ
Ġëª° ëŀĲ
Ġë°± ë§Į
Ġì¹ĺ ë£Į
Ġìŀĳ ëħĦ
ìĺ ¥
Ġë¿ Į
Ġíķ´ ìĦĿ
Ġë°Ľ ìķĦëĵ¤
Ġê³ ¼ë
ĠíĿ ¥
íĿ ł
ëĦ Ĳ
ĠíĻľ ìļ©
ëĵľ ìĭľ
Ġê¶Į ëł¥
Ġìĭ¤ ìŀ¥
Ġì£¼ ìłľ
ĠíĿ ĺ
Ġê³µ ê°Ħ
ĠìķĦíĮĮ íĬ¸
ĠìĿ´ ìĤ¬
ĠìĿ´ ëłĩ
ì İĦ
Ġë°Ŀ íĺĢ
ĠìŀĲ ëıĻ
Ġëį ķ
Ġì¹´ ëĵľ
Ġëĭ¤ ë§Į
Ġê¹ ľ
Ġë°© ë¬¸
Ġìķŀ ìĦľ
ĠêµŃ ëĭ¹
ĠìĿ´ëĿ¼ë ĵłê°Ģ
ĠìĿ¸ ë¬¼
Ġìĭľ íĹĺ
Ġë ¦
ĠìĨĶ ì§ģ
Ġìĭ¬ ê°ģ
Ġëı¼ ìķ¼
ĠìĹĲ ìĦł
ĠìĤ´ ìķĦ
Ġì²´ ìłľ
ĠìĨĮ ìľĦ
Ġìµľ ëĮĢ
ĠìĪĺ íķĻ
ëĭ ¥
Ġëĸł ëĤĺ
Ġê·¼ ê¹Į
Ġíķł ê¹ĮìļĶ
ĠìĬ¤ íĬ¸
ĠëĤĺìĻĢ ìĦľ
Ġìĺ¤ íĽĦ
ìķĦ ë²Ħì§Ģ
Ġë°ľ ìłĦ
ĠìĤ¬ ë¬´
ĠìķĦ íĶĦ
ĠìĤ¬ íķŃ
ë° ¥
Ġì¶ľ ìĭł
Ġìŀ Ĭ
Ġë¹Ħ ìĦľ
íı Ĳ
Ġìĸĺ ê¸¸
ì µ¸
Ġì£¼ë ¡ľ
¼ë Ĥ
ì ĩ
Ġëĵ± ìŀ¥
Ġë¹ł ìł¸
ë¥ ł
Ġê¸ į
ĠìķĪ íĥĢ
Ġí Ħ
Ġì§ §
Ġìĸ´ëĸ ¡
Ġì¡° ì§ģ
ëŀ Ļ
ìļ ķ
ĠìĿĮ ìĿĮ
¬ ìĺģ
Ġëĥ ī
Ġìķ½ ìĨį
Ġíĺ ľ
ëĤ ¸
ĠìĤ¼ ìĦ±
Ġê°Ħ ëĭ¨
ĠëĿ¼ë ĵłê°Ģ
Ġë¹Ħ êµĲ
íĺ ĳ
íĶ ½
ëĪ Ħ
Ġìłģ ê·¹
ëĿ¼ ê³ł
Ġê·¸ëŁ¬ë©´ ìĿĢ
ë¡ Ń
Ġíĳľ ìłķ
Ġë°ĺ ëĵľìĭľ
Ġ -
Ġìĸ´ì© Į
íħ ľ
Ġì°¨ ëŁī
ê² ģ
Ġëª» íķľ
ĠìķĦë¬´ ë¦¬
ĠìĿ´ íĺ¼
íħ Ķ
Ġíİ ¼
Ġê°Ģ ìłķ
Ġíķ© ëĭĪê¹Į
Ġìľ¼ ëĭĪ
ĠìĿ´ ìŀ¬
ĠëĤ ¸
ĠìĦł ìĸ¸
ĠëĨ Ķ
ĠìĺĪ ìĸ´
Ġì¦ ī
ìĬ ¬
ê³ ¤
Ġë¹ Ī
Ġê±° ì§ĵ
ĶĶ ìĺ¤
ĠíĮĲ ê²°
Ġë§ ĺ
ë¦ Ń
ìĿ´ íĦ°
Ġë§Ī ëł¨
Ġë Ŀ
Ġíķ´ ìĻ¸
ìĤ ¼
ĠìĪĺ ëĬ¥
Ġíŀĺ ëĵł
Ġìĺ µëĭĪëĭ¤
ĠíĴ Ī
Ġì´ ¬ìĺģ
ĠëĦĺìĸ´ ê°Ģ
ĠíĿ¬ ë§Ŀ
Ġì² Ļ
ĠëĿ¼ë ĶĶìĺ¤
ĠìĦ± ìŀ¥
ìĤ¬ ìĭ¤
Ġë¬´ ëĮĢ
Ġì§Ģ ìĤ¬
ĠìĿĦ ì§Ģ
Ġë°Ŀ íĺĶ
Ġìĸ´ë Ķ
Ġë§ŀ ì¶°
ĠìķĦ ìľł
ĠìĤ¬ ìĹ°
Ġë³´ ê³ł
Ġì¹ ¼
ĠìķĦ ëĥĲ
Ġì²Ń ìĨĮ
ìŀħ ëĭĪëĭ¤
Ġë ¡ł
ĠìĤ¬ ë§Ŀ
ìĹ Ķ
ĠëĨ ¨
Ġê² ª
ĠìĿ´ ìłĦ
ĠìĤ´ ì§Ŀ
Ġì£¼ íĥĿ
ĠëıĦ ëĮĢì²´
Ġê°Ģ ìĬ´
Ġìª ¼
Ġí Ĩ
ìĹ¬ ìĦľ
Ġê°Ī ëĵ±
ĠìĿ¼ ê³±
Ġíĸī ìľĦ
Ġë°ķ ìĤ¬
ë§ Ľ
Ġ k
ĠëıĻ ìĿĺ
Ġìľ¼ íĿł
ĠëĶ° ë¥´
Ġë°Ķê¿ Ķ
Ġê³ §
ëĦ ·
Ġê³ł ê¸°
Ġê³µ ëıĻ
Ġì¡ ¸
Ġë§Į ëĤ¬
ĠìŀĲ ê³ł
ëı Ī
Ġê »
ìĿ´ ìĸ´
ĠëıĻ ìĥĿ
ĠìĿĺ ìĭ¬
Ġê³ ¤
Ġë µ
Ġì½ ĺ
Ġìĸ´ë ķĮ
Ġê¸Ģ ìİĦ
ìĿĺ ìĽĲ
Ġë¹Ħ ìļ©
ĠëĮĢ ì±ħ
Ġê°Ģ ì¹ĺ
Ġíĺ¹ ìĿĢ
ĠëĤ Ļ
Ġì ¿
ĠëĦ¤ ìĸ´
ĠìĤ¬ ë¡Ģ
Ġ2 0
Ġì²Ń ëħĦ
ĠëĮĢí ļĮ
ĠìĿ´ ëŁ´
Ġ t
ĠëĬĲ ê»´
Ġë°Ķ ëĿ¼
Ġì¡° ìłķ
Ġì¶© ê²©
b s
ì ©
ì° į
Ġë¶Ī íİ¸
Ġê³µ ìĭĿ
ĠëıĻ ë¬¼
Ġê³µ ê°Ĳ
Ġì¡° ìĭ¬
ĠìĻĦ ìłĦ
Ġìĺ ¥
Ġê±´ëį° ìļĶ
ìĸ´ ì§Ħ
Ġìļ° ëł¤
Ġì¡° êµŃ
Ġìłķ ìĿĺ
Ġì§ Ĳ
ë§ Ļ
Ġì²ľ ë§Į
ĠìĺĪ ìĤ°
ìĭľ ì§Ģ
Ġê½ ¤
ĠìłĲ ìłĲ
Ġì§Ģ íĤ¤
Ġìĭ ±
ëĦĪ ì§Ģ
Ġë¶Ģ ìłķ
Ġë¶Ī ìķĪ
Ġì¤ĳ ìķĻ
ì¼ °
ĠìĽĲ ìĿ¸
ëģ Ħ
Ġìĥģ ê´Ģ
Ġí ĥĲ
ĠìĦ± ê²©
Ġê·¸ ìµ¸
¥ ´
Ġëĥ Ī
ĠìłĦ êµŃ
Ġë´ Ħ
ìĿ¸ íĬ¸
Ġë§¤ ìĿ¼
ìĻĢ ìĦľ
Ġíķł ê²ĮìļĶ
Ġìľ¼ë©´ ìĿĢ
ĠìĿ´ ëªħ
ĠìĽĲ ìŀ¥
ë© °
Ġë§ ¥
ĠìĦľìļ¸ ìĭľ
Ġíı¬ ê¸°
ëł Ģ
© ëĭĪê¹Į
Ġê³ł ìĦľ
ĠíĨł ë¡ł
ĠìĮ ĵ
ĠëĨĢ ëĿ¼
ĠìķĦ ìī
ìĸ´ ëĤľ
ë¹Ħ ìĬ¤
ëľ »
Ġíĺĳ ìĥģ
Ġë°Ķ ëĿ¼ë
ê±° ìļ´
ĠìĿ´ ìª½
íľ ´
ĠìĦł ë°°
ĠìĤ° ìĹħ
Ġëįĺ ëį°
Ġìķ ¡
Ġë ®¤
Ġê±´ ë¬¼
ì¢ Į
Ġë³¼ ê¹ĮìļĶ
Ġë§Ī ëĬĶ
Ġì» ¨
Ġê²¨ ìļ¸
Ġíķĺ ìĹ¬
ĠìĹ° íķ©
Ġì¢ħ íķ©
ìķ Ķ
Ġë¶Ģ ìĤ°
ĠìĿ¸ ìĥģ
ĠëĥĲ ê³ł
ë° Ľ
Ġë°Ķ ê¾¸
Ġê²Į ìŀĦ
ë¦¼ íĶ½
ì§Ģ ìĸ´
Ġìĺ¤ ëŀľ
ĠëĤ ³
ĠìĦ¸ ìĽĶ
Ġê·¸ ìª½
ĠìĹħ ì²´
ìĿ´ ê²Į
ĠìľĦ ê¸°
ĠëĮĢ ìĿĳ
Ġëł¤ ëĬĶ
ìķĦ ìĿ´
ĠìŀĦ ê¸Ī
ĠìĺĪ ìķ½
ëĤ ¼
Ġì¢ĭ ìķĦ
ĠìĿ´ ëķĮ
¼ë §Ĳ
Ġëĥ Ħ
Ġëĭ¨ ìĪľ
Ġê°Ģ ì§Ħ
Ġê·¸ë§Į íģ¼
ì§ĳ ëĭĪëĭ¤
ĩ ¨
ĠìĨĮ ìĨ¡
Ġíĸī ìłķ
Ġëģ ¼ë¦¬
ĠêµĲ íĨµ
Ġê±¸ ë¦¬
¼ë§Ĳ ë¡ľ
Ġì²Ń ì·¨
Ġë³´ ìŀħëĭĪëĭ¤
Ġë©Ķ ìĭľì§Ģ
ì ĵ
íĺ¹ ìĭľ
ìĿ´ íģ¬
Ġëķ Ĳ
Ġê°Ģ ë¥´
ëį ĺ
ĠëĤĺ ë¦Ħ
Ġê³ł ëł¤
Ġì»¤ íĶ¼
Ġêµ¬ ìĦ±
ëĤĺ ëĿ¼
Ġìĭľ ìĬ¤
ĠìłĦ ëĭ¬
ĠìĿ¸íĦ° ëĦ·
Ġìĥģ íĴĪ
Ġë§Ī ë¬´ë¦¬
íľ ĺ
ëį Ł
ĠíĹĮ ë²ķ
ĠíĻĶ ë©´
ĠëĤĺëĪ Ħ
ĠëĲ ©ëĭĪê¹Į
Ġë³´ íĹĺ
ĠíĪ¬ íĳľ
ĠëĤĺ ìģľ
Ġê´ ´
í ħĲ
ĠíĹĪ ë¦¬
Ġë º
ĠëĴ ·
Ġìĺ¬ ëł¤
ĠëĤ´ ë¦¬
Ġìļ° ì£¼
Ġëĭ¹ íķĺ
ĠìĹ¬ ìķ¼
ì¡° ê±´
Ġíĳ ¸
ĠìĬµ ëĭĪ
ĠìķĦ ëĤĺ
Ġíķ´ ëĿ¼
ĠìĹ¬ ìłĦíŀĪ
ë ¤
Ġëĵ¤ìĸ´ ê°Ķ
ì Ń
ìķĪ ëħķ
Ġìŀ¬ ìĤ°
ĠìķĦ ìļ°
ĠìķĪ ìłķ
Ġì´Ŀ ìĦł
ĠìŀĲ ëĬĶ
ĠìĬ¤ëŁ¬ ìļ´
ìĬ¤ íģ¬
ê³ł ê¸°
ĠìĻĦ ìĦ±
Ġìĭ¬ ì§Ģìĸ´
ĠìļĶ ì²Ń
Ġëĭ¤ íĸī
ĠìĹ¬ ëįŁ
Ġìĺ¬ ë¦¼íĶ½
Ġìłģ ìļ©
ĠíĻ Ī
ĠíĨµ ê³¼
ĠíĤ¤ ìĽĮ
Ġì ¥
Ġì´Ŀ ìŀ¥
Ġìłľ ëª©
ĠìĤ¬ íĥľ
ĠëģĿ ëĤĺ
Ġë¶Ħ ìķ¼
ê¹ Ŀ
ì³Ĳ ìĦľ
Ġìĭľ ìĽĲ
ħ Ģ
ĠëĤĺíĥĢ ëĤĺ
ĠìķĦ ë¦Ħ
Ġì½ ľ
Ġê´ĳ ê³ł
Ġë¹Ħ ë°Ģ
Ġìĭł ë¬¸
Ġì» ´
ĠìĪĺ ìĹħ
Ġë¥ ł
ë »
ì ¿
ëĮĢ íĳľ
ì´ Į
ìĭľ ëĭ¤
ìķĦ ì§Ģ
ĠíĺĦ ìĥģ
ĠíĨµ íķ©
ĠëĤ´ ëħĦ
Ġëª© ìłģ
ìĪĺ ë¡Ŀ
ĠíĤ¤ ìļ°
Ġëį ľ
ìĿ´ ëłĩê²Į
ë§Ī ëĬĶ
Ġëĭ¤ ë¦¬
ĠìĭľìĬ¤ íħľ
ìĽ ĥ
ĠìĤ¬ ëĿ¼
ĠíĽĪ ëł¨
Ġíĺķ íĥľ
ĠìĦ Ń
Ġì¡° ê±´
ĠìĿ¸ ìĭĿ
ë¨ ¹
ĠìĿĺ ì§Ģ
ìļ´ ìĦľ
Ġê³łëĵ± íķĻêµĲ
ë²Ħ ëĭĺ
Ģ ´
ì£ ½
íĬ ľ
ĠìĹħ ë¬´
ëŀ «
Ġê±°ì§ĵ ë§Ĳ
Ġê·¸ ì£ł
ê¹ Ķ
Ġìĭľì²Ń ìŀĲ
íĻ ī
Ġê°Ģ ë§Į
Ġìĭľ ìłĲ
ĠìķĦëĤĺ ìļ´ìĦľ
ìŀ Ķ
ĠìĦľ ë¹ĦìĬ¤
êµ¬ ëĤĺ
ĠìĦ¼ íĦ°
ĠìĹ° ìĺĪ
Ġë´Ĳ ëıĦ
Ġë²Ħ ìĬ¤
ĠëĤ ©
ĠìĬ Ī
Ġë¬¼ ê±´
Ġìµľ ìłĢ
Ġë¬´ ìĦľ
ĠìĿ´ëªħ ë°ķ
Ġê¹ Ķ
Ġíķł ì§Ģ
Ġì£¼ ìĿ¼
Ġë¶Ī ë²ķ
Ġì§ ļ
Ġë Ł
ĠëıĻ ëĦ¤
ĠìķĦ íĻī
ĠìĿĺ ìĭĿ
Ġìĭ¬ ë¦¬
Ġì²Ń ë¬¸
ĠëĦ Į
ĠëįĶ ìļ±
ĠëĮ ĵ
ë¨¸ ì§Ģ
ĠëĤĺ ê°Ī
ë¬´ ìĽĲ
ĠìĦ ¬
Ġëª¨ ìĭľ
ĠìĿ´ ë¥´
Ġê¸°ëĭ¤ ëł¤
Ġë¬´ ì¡°ê±´
Ġí Ĥ
ĠìĬ¤íĥĢ ìĿ¼
ìŀ ĺ
ëĦĪ ë¬´
ĠìłĢ ê±°
ìĿ´ ì§Ģ
ìł¸ ìĦľ
ìĪ ¨
Ġíŀ Ī
Ġì¶ķ êµ¬
ĠìĹĲ ëĭ¤
Ġìľł ë¦¬
Ġë¹ Ľ
Ġë§¤ ìļ°
ĠìķĦëĭĮ ëį°
Ġì§Ģì§Ģ ìľ¨
ë¹ Ī
ĠìĦ ŀ
ĠìĿ´ ë¥¸
Ġìľ¼ë ł¤
ĠëĲł ì§Ģ
ĠìķĮìķĦ ë³´
Ġë°Ķ ë¥¸
Ġì·¨ ìŀ¬
ĠìļĶ ìķĦ
ĠêµŃíļĮ ìĿĺìĽĲ
ë°ĺ ëıĦ
Ġíı¬ ìĿ¸íĬ¸
ĠìŀĲëıĻ ì°¨
ĠëĤĺ ìĦľ
ìĿ´ ìĬ¤
Ġë³ ¶
ĠìĿĺ ëıĦ
Ġëĭ¬ ë¦¬
Ġê³ł ë§Ļ
ĠìĪĺ ìĪł
Ġì§Ģ ëĤ´
ĠìĹ ¼
Ġì£¼ë ª©
ìĿ´ ê±°
ìĹĦ ë§Ī
ê·¸ ê²Į
ĠëıĦ ìłĦ
ĠìĹ¬ ìŃ
ĠëĪĪ ë¬¼
ìĸ´ ëĵ¤
ë ī´
ĠìķĦ ëıĦ
Ġíıī ìĸĳ
Ġëª© íĳľ
ĠëĪĦêµ° ê°Ģ
ìĿ´ ëŁ°
Ġì£¼ìĿ¸ ê³µ
Ġë³¼ ê²ĮìļĶ
ĠíĬ¹ ê²Ģ
Ġê·ľ ëª¨
Ġíıī ìĨĮ
Ġëĭ¤ë©´ ìĦľ
ĠëĦĪë¬´ ëĤĺ
Ġì°¨ ë¡Ģ
ĠëįĶ ë¶Ī
ĠìķĪ ë³´
Ġìķ ¨
Ġìĭ¤ ì§Ī
ĠíıŃ íĸī
Ġë²Ħ ëł¸
ìłķ ë§Ĳ
Ġê¸° ëĬ¥
Ġê³ł ìĥĿ
Ġìĭľ ìĦ¤
Ġëĵ¤ ìľ¼
ë ĩ¨
Ġëĵ± ë¡Ŀ
ĠëĤĺ ë¨¸ì§Ģ
ĠìĺĪ ìĪł
Ġë¡ Ń
Ġëħ¸ ë¬´
ĠëĤĺ ë¬´
ëĭ¤ ë¥¸
Ġêµ³ ìĿ´
ë¦¬ ìĬ¤
ĠêµŃìłķ ìĽĲ
Ġíķľ ë°ĺëıĦ
Ġê·¸ëĤ ł
ĠëĮĢíķĻ êµĲ
Ġê³µ ì²ľ
Ġì§ģ ìŀ¥
Ġì±Ļ ê²¨
Ġê¸° ì¡´
ĠìĥĿ ê¸´
ì² Ļ
Ġíĺģ ìĭł
Ġíķł ê¹Į
Ġê°ľ ëħĲ
ĠëıĻ ìĭľ
Ġê¹ľ ì§Ŀ
ĠëĤ ¼
Ġê³µ ìŀ¥
Ġìĺ ®
Ġê°ķ íĻĶ
Ġìĸ´ìĦľ ìļĶ
Ġëıħ ë¦½
Ġëĭ¬ ëł¤
ĠìĿ´ë¯¸ ì§Ģ
ìĿ¼ ëĭ¨
ĠíĨµ ìĿ¼
ĠìĨĮ ë¹Ħ
Ġëĭ´ ëĭ¹
Ġì¶ľ ë°ľ
Ġê³ł ê°Ŀ
Ġìŀ¬ ë£Į
ĠìĥĿ ëªħ
ĠìĨĮ ìĦ¤
ì» ¬
Ġë¹ł ì§Ģ
ĠëıĦ ì°©
ìķ ¼ë§Ĳë¡ľ
Ġìłķì¹ĺ ìĿ¸
ìĸ ¼
ĠëĿ¼ êµ¬
ĠìĿ¼ ì¢ħ
ê·¸ ëłĩê²Į
ĠìĤ¬ ìķĪ
ĠëĮĵ ê¸Ģ
Ġë¹ µ
Ġì£¼ë §Ĳ
Ġíľ ĺ
Ġìĸ´ë ¥¸
ĠìĨĮ ëĵĿ
ĠìĨĮ íĨµ
ê·¸ ëĥ¥
Ġê³Ħ ìĤ°
ìĤ¬ ìĿ¼
Ġë°© ê¸Ī
¨ ë¦¬
ĠíĮĲ ìĤ¬
ë§ ģ
ĠìĿĺ íķ´ìĦľ
Ġì« ĵ
ìŀ ł
Ġìľ¼ ìĭ¤
Ġë¡ľ ë¶ĢíĦ°
Ġì§ģ ìĹħ
Ġìŀ¥ ìķł
Ġì´Ī ëĵ±
ĠìħĶ ëıĦ
ĠëıĦ ë¡ľ
ĠìłĪ ì°¨
Ġê°ķ ëł¥
Ġìĸ´ëĸ ¨
ë¦¬ ìķĦ
Ġê²Ģ ìĥī
Ġìļ° ìĻĢ
ĠìĿ´ ê³³
Ġê°ķ ì¡°
Ġëį° ë¦¬
ĠìĤ¬ìĭ¤ ìĥģ
Ġë¹Ħ íĸī
ĠêµĲ ìĤ¬
ĠëĤĺ ê°Ķ
Ġt v
ë§ ¨
ëį ¸
Ġêµ ´
ë ļ
ĠìĨĮ ìĨį
Ġë§¤ ëł¥
Ġì§Ħ ìĭ¤
Ġê¹Ģ ì¹ĺ
ĠëĥĦ ìĥĪ
Ġìłľ ìķĪ
ĠìļĶ ìĥĪ
Ġìĺ¤ ë¥¸
Ġë¶Ģ ìŀ¥
Ġê¸° ë¦Ħ
ë¡ ¯
ĠìĨĶì§ģ íŀĪ
Ġìĭľ ëıĦ
Ġìĸ¸ ê¸ī
Ġìŀ¥ ìĨĮ
Ġì£¼ë ıĦ
Ġê·¸ë ħĢ
Ġìľł ì¹ĺ
ì¼ ĵ
ìķĦ ê°Ģ
ìĸ´ë Ĥ¬
Ġíıī ê·ł
ĠëıĮ ëł¤
ê¹ ¨
Ġê· ł
ëĿ¼ ìĿ´
Ġìĭľ ê°ģ
Ġìĺ¤ ìłĦ
Ġê°ľ ìĦł
ĠìĿ¼ ê¹ĮìļĶ
Ġëĸ ¼
ì¹ Ń
Ġìĸ´ì© Ķ
ë§ İ
Ġëħ¸ë¬´ íĺĦ
íķĻ ìĥĿ
ĠìĿ¼ ìľ¼
Ġìĺģ ìŀ¥
Ġìĥģ ìĥģ
ë¦° ëĭ¤
ĠëĭĪ ê¹Ĳ
Ġíķ ¸
ĠíĨµ íĻĶ
¤ ë²Ħ
Ġê¸´ ìŀ¥
Ġì į
ĠëĮĢ ìĤ¬
Ġë§Ī ìĿĦ
Ġê± ·
Ġëª¨ ìķĦ
Ġë³µ ì§Ģ
Ġë» Ķ
Ġì²Ńë¬¸ íļĮ
ĠëĤ´ ëĨĵ
Ġì§ĢëĤľ ë²Ī
Ġê°Ģ ìĭľ
Ġì§Ħ ìĪł
Ġê°Ģ ëģĶ
ĠìĨĮ ìŀ¥
Ġìłľ ìŀ¬
Ġê²° ë¡ł
Ġìĭľ íĤ¬
Ġì° Į
Ġì§Ħ ë³´
ĠìĿ´ ëıĻ
ĠëĶ° ëľ»
Ġíĥ ģ
Ġë¥ ĺ
Ġê³µ ìĤ¬
ĠëĮĢ ì¤ĳ
¼ëĤ ´
Ġë´Ĳ ìĦľ
ĠêµŃ ë°©
ë ĸ
ĠìĿĢ íĸī
íĿ ¥
Ġìµľ ìĨĮ
Ġìĭ¤ íĹĺ
Ġk bs
Ġë¯¸ ìĤ¬ìĿ¼
Ġíķ´ìķ¼ ì§Ģ
ĠìĥĪ ë²½
Ġê¹Ģ ìĺģ
Ġìĭł ë¢°
ĠìľĦ ì¹ĺ
ĠëĮĢ ë²ķ
ë§ ¹
Ġíķł ëł¤ê³ł
Ġì¢ħ ë¥ĺ
Ġê³ł ìĨĮ
Ġìĺ µ
Ġìĺģ êµŃ
ĠíĸĪ ìŀĸìķĦìļĶ
ìĹĲ ëıĦ
Ġì£¼ ìĿĺ
ĠëĮĢ ë³Ģ
ĠëĦ¤ëĦ¤ ëĦ¤
ĠìĪĺ ìĥģ
ì°¨ íĶ¼
Ġëĭ¹ ìĦł
ëıĻ ìķĪ
Ġì¥ Ĳ
Ġê·ľ ìłķ
Ġìĥģ ì²ĺ
Ġê±° ëŀĺ
Ġìĭ¤ íĮ¨
ĠìĹ° ìĬµ
ĠëĿ¼ ìĿ´
ĠìĿĺ ë£Į
Ġê³ł ìŀĲ
Ġìķ¼ êµ¬
ĠìĨį ëıĦ
ĠìĽĢì§ģ ìĿ´
Ġìķ ±
Ġìĭľ ì¼°
ĠìĭĿ ìĤ¬
Ġì§Ģ ë§ĪëĬĶ
ĠìĦ¤ ì¹ĺ
ëĿ¼ ìĿ¸
ĠìĽĲëĤ´ ëĮĢíĳľ
Ġë¶Ģ ëıĻ
Ġì²Ńì·¨ ìŀĲ
Ġê·¼ë ¬´
Ġìµľ ìĪľ
Ġìķ¨ ë²Ķ
ĠìĤ´ ìĿ¸
Ġë°ĺ ìĺģ
Ġìľ ¨
Ġìĭ¸ ìĽĢ
Ġì§ľ ë¦¬
Ġ 6
ëŀ ¬
ĠìĽĲ ì¹Ļ
Ġìĭ¤ ìĪĺ
ìĸ´ëĸ ¤
ĠìĬ¤íĬ¸ ëłĪìĬ¤
Ġëĭ¨ ìĸ´
íĨ ¡
ĠìĦľ ë¥ĺ
ëģ Į
ĠëŁ¬ ìĭľìķĦ
Ġë© ¤ë²Ħ
Ġê¸° íļį
ĠìĤ¬ ë²ķ
ì¼Ģ ìĿ´
Ġìħ ĭ
ĠìĹ¬ìŃ ¤
ĠìĿĳ ìĽĲ
Ġê³µ ë¬´ìĽĲ
ĠíĬ¹ ìłķ
ë¤ Ħ
Ġë°Ķ ìĿ´
Ġìĸ´ë¨¸ ëĭĺ
ĠìĤ´íİ´ ë³´
ìĸ´ë ¨¸ëĭĪ
Ġì§ĳ ìķĪ
ĠëĦ ĵ
Ġëĵ¤ ìĹ¬
ìłĢ ìĶ¨
ĠíĮĮ ìķħ
Ġìµľ ì´Ī
Ġê¸Ī ë°©
ĠìķĦëĭĲ ê¹Į
ĠëĺĲ íķľ
Ġëıħ ìĿ¼
ĠìļĶ ëŁ°
ĠíĮ ©
ìĹ ł
ë¹ Ľ
ĠíĮĲ ë§¤
ĠìķĦ ë²Ħëĭĺ
íĺ Ī
ĠëĮĢ ì¶ľ
Ġí ħ
ĠíĿĶ ëĵ¤
ĠíıŃ ëł¥
Ġì½ ©
Ġë°ĶëĿ¼ë ³´
ĠíĥĿ ìĭľ
ĠìĿ¼ ìŀĲë¦¬
Ġë¯¸ íĦ°
ëĶ ©
Ġëĳĺ ëŁ¬
Ġìłľ ê³µ
ĠíĬ Ģ
Ġëĵ¤ìĸ´ ê°Ħ
ĠìĭŃ ëĭĪëĭ¤
Ġíķĺ ëĬĺ
ĠëĮĢ ë¹Ħ
ĠíĶ¼ë ¶Ģ
Ġì§Ħ ìłķ
ĠíĦ ¸
Ġì į°
ĠìĹĦì²Ń ëĤľ
Ġìĸ´ ìļ¸
Ġê´Ģ íķľ
ĠìĤ¬ ìłĦ
Ġëŀ Ħ
Ġì¶Ķ ì§Ħ
ĠìłĦ ê¸°
ĠëĶĶ ìŀĲ
íĤ ¹
ĠíĻķ ë³´
Ġì·¨ ìĨĮ
ëł ¬
Ġë³´ ìĺĢ
¡ ëĭĪê¹Į
¾ ¼
Ġê±° ë¶Ģ
Ġìłķ ëĭµ
Ġë³¸ ê²©
ĠëĤł ìĶ¨
Ġìĸĳ ëħĲ
Ġì§Ģ êµ¬
Ġê³Ħ ê¸°
Ġë¬´ ê¸°
Ġê´Ģ ê´ĳ
ĠíķĺìĹ¬ íĬ¼
Ġëĵ¤ìĸ´ ìĺ¨
ĠìĽ ¬
Ġëį° ëł¤
ĠìĿ¸ ê¶Į
ĠíĥĦ íķµ
Ġê²Į ìļĶ
ë¦ ¿
Ġëĭ¤ ìķĦ
¾ Į
ĠìĹ´ ë¦¬
Ġê·¸ëŁ¼ ìĹĲëıĦ
Ġëª¨ ëį¸
ĠìĹĲ ëĦĪì§Ģ
Ġëĭ Ń
ĠëŃ ¡ëĭĪê¹Į
ì¦ Į
Ġëĭ¤ êµ¬
Ġê°ķ íķĺ
Ġê°Ģê¹Į ìĿ´
ĠìĪ «
Ġìłĳ ê·¼
ĠëĲľëĭ¤ ë©´
Ġ 7
Ġìŀ¥ ê¸°
ĠëĪĦ ëĤĺ
Ġê°Ħ ëĭ¤
Ġìłķ íķ´
ê°Ģ ëĿ½
ĠìłĲ ìĪĺ
Ġë¶Ī ë¦¬
ĠìĦ± ë¶Ħ
Ġìĭľ íĤ¨
Ġë³´ ëĥĪ
Ġê³µ ê³µ
Ġì§Ģ ìĭľ
íĻ į
Ġê²Ģ íĨł
ë¬´ ìĦ±
Ġê·¸ëłĩ ì§Ģë§Į
ëŁ¬ ìĬ¤
Ġí ĭ
Ġë¶ģ ë¯¸
ĠìĿ´ ìĿµ
Ġë¶ĢëıĻ ìĤ°
Ġìĺ¤ ë¥´
ì¤ Į
Ġìª¼ ê¸Ī
Ġê±¸ ìĸ´
Ġìĺ¤ íķ´
ëĶĶ ìĺ¤
ĠìŀĲ ê¸Ī
Ġë°Ķ ëĭ¤
Ġìı Ł
Ġê·¼ë ¡ľ
íķµ íĻĶ
Ġë³µ ìŀ¡
Ġìŀ¬ë¯¸ ìŀĪ
Ġë²Į ìĸ´ì§Ģ
Ġíĺ¸ íħĶ
íģ ´
ĠìĤ¬ ìłķ
Ġìĭ¸ ìļ°
ëĵł ì§Ģ
Ġë¹Ħ íķµíĻĶ
Ġìĥī ê¹Ķ
Ġë¹ł ë¥´
Ġê·¸ ìķ¼ë§Ĳë¡ľ
Ġì²Ń êµ¬
ĠìĭĿ ëĭ¹
Ġì£¼ ìļĶ
ĠìĪĺ ìŀħ
ĠíĻ Ģ
Ġë°Ŀ íŀĪ
Ġê¹Ģ ì¢ħ
Ġê³Ħ ìĭŃ
ĠìĹ ī
ĠìĿ´ë¥¸ ë°Ķ
Ġë¬ µ
Ġêµ¬ ë§¤
ëª ¬
ëĳ ĺ
Ġë¯¸ ìĦ¸
Ġì§Ģ íķĺ
Ġìłľ ìĭľ
Ġë¹Ħ ë¡¯
Ġëĭ¤ìĭľ íĶ¼
Ġë¸Ķ ëŀĻ
ëĳ ¥
ĠëĤ «
ĠìķĦìĿ´ ê³ł
ĠëŃĶ ì§Ģ
Ġë© Ī
ĠìĺĪ ë°©
Ġê¸į ìłķ
Ġíİ¸ íķĺ
Ġì¶ ¤
ĠíĻį ë³´
ĠëĶ ´
Ġë©° ì¹ł
Ġìľ¼ë¡ľ ìį¨
ĠìĪ« ìŀĲ
ê´ ´
Ġë³´ ìŀ¥
Ġì°¸ ìĦĿ
Ġëĸ ¡
Ġíĺ¸ ëĤ¨
Ġëĵ¤ìĸ´ ìĻĶ
ĠëĿ Ħ
ĠíĻĶ ìłľ
Ġê³ł íĨµ
ĠìĿ¸ íķ´ìĦľ
ìĹĲ ìĬ¤
ĠëĮĢ ëĭµ
ĠìĦ¸ ê¸Ī
Ġê¸° ëħĲ
Ġë¬¼ ì§Ī
ĠìĿ¼ ìĥģ
ĠìĹ° ê¸Ī
ìĽ ħ
ë¶Ģ ëª¨
ëĭ Ĳ
ìĭľ ê°Ħ
ì¢ ĭ
ë°Ķ ë¡ľ
ëĭ¤ ëĭĪ
Ġë¬¼ë Ł¬
Ġë§Ī ìĦ¸ìļĶ
Ġë ±
Ġíľ´ ëĮĢ
ìķ ŀ
ì´ ī
Ġê³ł ë§Ī
ì§Ģ ëĤľ
ìĭ ±
ĠìĬ¤ íı¬
Ġê·¼ ê±°
ĠëĬĶ êµ¬ëĤĺ
ĠìĤ¬ ê¸°
ĠíĻķ ëĮĢ
Ġíıī ìĥĿ
ĠìĤ¬ ìĺµëĭĪëĭ¤
Ġìĭľ ìĦł
Ġê°Ģê¹Į ìļ´
Ġëĭµ ë³Ģ
ĠëĤĺ ê°Ħ
ĠíĺĦ ëĮĢ
Ġíĥľ ëıĦ
ĠëĬĶ ëĭ¤ê³ł
ĠìķĦ ìłĢìĶ¨
ìĸ´ ëıĦ
Ġìĺģ ìĹŃ
ĠìķĦë¬´ ê²ĥ
ìĬ¤ íĦ°
Ġ 0
Ġêµ° ëĮĢ
Ġì½Ķ ëĦĪ
ĠìŀĲ ëħĢ
ĠìĥĿ ìĤ°
ĠìĬ¤ ë¬¼
Ġë³´ ìĿ¸
ë§Ī ëĶĶ
ĠìķĦ ëŀĺ
ĠìŀĲ ëĦ¤
ĠìĨĮ ê¸Ī
Ġê°Ģ ìĤ¬
ê±° ëĤĺ
ĠìĿ´ ê¸°
Ġë³ ¼ë
Ġìĸ´ ì°¨íĶ¼
Ġìľł ëŁ½
ĠìłĢ ê²Į
ê º
Ġëįĺ ì§Ģ
ìĸ´ëĸ »
Ġëħ¼ë ¦¬
ĵ ¨
ĠíĻķìĭ¤ íŀĪ
Ġì°¾ìķĦ ê°Ģ
ĠíĶĦ ëŀĳ
ĠìŀĲ ê²©
Ġê±¸ ê¹ĮìļĶ
Ġëª¨ ë¥¸
ìĹ ĺ
Ġë§Į ëĤľ
Ġë³¸ ëĭ¤
Ġì¤ įëĭĪëĭ¤
Ġë§Ī ë§Ī
Ġê¹Ģ ë¬´ìĦ±
ĠìĻĦ ë²½
ĠìĿ´ ëģĮ
Ġê³ł ì¶Ķ
Ġì¡° ìļ©
Ġê°Ģ ìĿĦ
Ġë¯¼ ìłķ
Ġì¶ľ ë§Ī
ĠíĶ¼ë ĶĶ
ĠëıĮìķĦ ìĺ¤
ĠìķĦìī ¬
Ġí ļ
ë¦ ħëĭĪëĭ¤
ĠëĿ¼ ìĿ¸
ĠìĹ° ìķł
ĠíĽ Į
Ġíķľëį° ìļĶ
ì²ľ íŀĪ
Ġëĭ¹ íĸĪ
Ġìľł ìĬ¹
Ġë³Ģ ê²½
ĠìĹ¬ ë¶Ģ
Ġë°° ëĭ¬
Ġëĵ¤ ìľ¼ë©´
ĠìĥĿ ê²¨
Ġê·¸ëŀĺ ìķ¼
Ġì·¨ ì§Ģ
Ġë©Ķ ìĿ¼
ëĬĲ ë¦¬
Ġíķł ìķĦë²Ħì§Ģ
Ġëħ¸ ìĿ¸
ìĿĺ ìŀĲ
Ġìº ł
Ġìłķë§Ĳ ë¡ľ
Ġë°ĺ ë³µ
Ġì§Ģ ìĨį
ĠìłĦ ë§Ŀ
Ġêº ¼ëĤ´
ëŀľ ëĵľ
ĠìĿ´ë£¨ ìĸ´ì§Ģ
ĠëĭĪ ëĭ¤
Ġê·¸ëł ¤
Ġëķ ľ
ĠìķĪíĥĢ ê¹Į
ĠëĨĴ ìĿ´
Ġì²´ íģ¬
Ġê²Ģ ì¦Ŀ
ĠìŀĲ ëŀĳ
Ġë¬ ĺ
ĠëıĦ ë§Ŀ
Ġê° Ĵ
Ġë¬´ ë¦¬
Ġê°ķ ìłľ
ĠìĹ°ìĺĪ ìĿ¸
Ġ a
Ġíĺķ ìĤ¬
ĠìĿ¼ ì°į
Ġìµľ ì¢ħ
ê·¸ ê±°
Ĥ ĺ
Ġë²ķ ë¥ł
Ġì£¼ë ¶Ģ
Ġê¸Ī ìķ¡
ë£ ¡
Ġì§ĳ ëĭ¨
Ġë²ķ ìķĪ
Ġìĺ¤ëŀľ ë§Į
ìĽĮ ìļĶ
Ġìĸĺ ê¸´
Ġë¬¼ë ¦¬
ĠìŀĲ ë§Ī
Ġìŀ¥ ëĤľ
Ġë²Ķ íĸī
Ġë²Ħ ë¦°
Ġìŀĳ ìĦ±
Ġì¡° ì°¨
ëĶ ±
ëģ Ĺ
Ġê°ľ ìłķ
Ġì§ĢëĤľ íķ´
Ġìĸ¼ë ¥¸
ĠìĽĲ íķĺ
ëĭ¤ ìĿĮ
ĠìĦł ê³ł
Ġë¹ ħ
Ġì§Ħ ëĭ¨
ĠëĦ Ĳ
ëĭ¹ ìĭł
ĠìĦ¤ ëĵĿ
ĠìŀĲë§Ī ìŀĲ
Ġë§Ī ëĬĺ
íĿ ¡
Ġë¹Ħíĸī ê¸°
Ġëĵ¤ ëł¤
Ġê¹Ģ ê²½
Ġ 8
ë¦Ń íĦ°
Ġê°ľ ìŀħ
ĠíĬ¹ ìĪĺ
Ġëĭ µëĭĪëĭ¤
ĠìłĦ íĨµ
ìľ µ
Ġ %
ĠìĪĺ ëıĦ
ëĭ Į
Ġíķľ ë§ĪëĶĶ
Ġê¸° ìĨĮ
ĠìłĦ ê³µ
ĠìľĦ ë°ĺ
Ġìľ¼ë ©°
ĠìĬ¤íı¬ ì¸ł
Ġì¢ĭìķĦ íķĺ
Ġê³ł ìļ©
ë» Ĳ
ĠëĲĲ ìĹĪ
ĠìłĦ ë°ĺ
ì¤Į ë§Ī
Ġë§Ī ìĿ´
Ġëĵ¤ìĸ´ ê°Ī
ĠìķĦ íĶĪ
ĠëĴ¤ ì§ĳ
Ġì ĮĢ
ĠìĺĪ ìģĺ
ĠìĿĺ ë¬´
Ġë¹ ļ
ĠìŀĲìĦ¸ íŀĪ
Ġë®¤ ì§Ģ
ĠëĮĢ ë¶ģ
Ġìŀ¥ êµ°
ĠíĶĦëŀĳ ìĬ¤
ëĨ Ī
ĠìŀĦ ëĮĢ
Ġìĸµ ìļ¸
Ġëĭ ®
ê°Ģ ë£¨
ĠìºĲ ë¦ŃíĦ°
ĠìĽĥ ìĿĮ
ĠíĤ ¹
ìĦ °
Ġìķķ ë°ķ
ìłĢ íŀĪ
ĠìŀĦ ëªħ
ĠíĥĢ ìĿ´
ĠìĹ ĳ
Ġë³¸ ë¶Ģ
ëĭ Ŀ
ìĸ´ ì¡Į
ĠìķĦë¦Ħ ëĭ¤
ĠíĻĶìŀ¥ ìĭ¤
Ġê´ĳ ì£¼
Ġê°ķ íķľ
Ġë³¼ ê¹Į
Ġê·¼ ì²ĺ
Ġìķ ¤
Ġìĸ´ë¦° ìĿ´
ĠíĮĢ ìŀ¥
Ġìĥ ĺ
Ġìľ¼ë¡ľ ë¶ĢíĦ°
Ġì§Ī íĻĺ
ë ķ
ëł Į
Ġìķŀ ëĳĲ
Ġë¯¼ ê°Ħ
ìķĦ ë¬´
Ġíķľ íİ¸
ĠíĿ ¡
Ġëĭµ ëĭµ
êµ° ìļĶ
Ġê³µ íķŃ
Ġê°Ĳ ëıĻ
Ġíĺģ ëªħ
Ġê·¼ ìľ¡
ĠëĶĶìŀĲ ìĿ¸
Ġê¼ ´
Ġìĭ¤ ëł¥
ëł ´
ĠìµľëĮĢ íķľ
ĠìĹĪ ìŀĸ
ì§Ħ ì§ľ
Ġëĳ Ķ
Ġìľłì¹ĺ ìĽĲ
Ġë¹Ħ íķ´ìĦľ
ĠíĿĶ íŀĪ
ģ ëĭĪëĭ¤
Ġìĸ´ëĸ¨ ê¹Į
Ġë§Į ëĤł
Ġìľ¼ ìħĶ
ĠëĬĶ ëĭ¤ëĬĶ
íĿ Ķ
ìĸ ¼ë
ĠìĹ¬ ë³´
ëĿ¼ë ¦¬
Ġëį ®
ĠíıĲ íķĺ
Ġì°¨ ì§Ģ
ë¬ ¼ë
ì» ¨
Ġëµ Ļ
ĠìĹĦì²Ń ëĤĺ
Ġë¶Ħ ëħ¸
Ġíķ¸ ëĵľ
Ġì¶Ķ ìĸµ
Ġì´ ī
Ġíķ´ ëªħ
ĠêµŃ ìĸ´
ĠëĪĪ ì¹ĺ
ê ¶
ĠìĿ´ ìĸ´ì§Ģ
Ġê¸Ī ì§Ģ
Ġë¬´ ìĭľ
Ġí Ĥ¬
Ġìĭ¬ ìĤ¬
Ġë§ º
ĠìķĦë¬´ íĬ¼
ĠìĤ¬ ìĽĶ
Ġê²½ ìĺģ
Ġë§Ī ë¦¬
Ġì¹´ íİĺ
Ġë¹Ħ ìľ¨
Ġìĭľ íĸī
Ġì¹ Ń
Ġëĭ¤ ìĿ´ìĸ´
ë² ¨
Ġíİ¼ ì³Ĳ
ĠìĿĺ ë¬¸
ĠìľĦ íĺĳ
ë©Ķ ëĿ¼
Ġê¶Į íķľ
ĠëıĻ ìķĦ
Ġë°° ê²½
Ġëĺĳê°Ļ ìĿ´
Ġìĸ´ ëł¸
Ġê² ¸
ì§ Ĳ
Ġê°ĳ ëĭĪëĭ¤
Ġëª© ìĪ¨
ĠìĹĲ íĶĦ
ë· Ķ
ĠìĹĪ ìĹĪ
í ĵ¨
ìĭ ¼
ĠìĿ¸ ëıĦ
ĠêµĲ ì²´
Ġì¿ ł
Ġê¸Ī ìľµ
ĠëĶ° ì§Ģ
ĠìĬ¹ ë¦¬
ĠìłĢ ëłĩ
ĠíĬ¹ë³Ħ íŀĪ
Ġë²ķ ë¬´
Ġê°Ģ ê²Į
ĠìĿĺ ìŀ¥
ĠìľłìĬ¹ ë¯¼
Ġìľł ìĽĶ
ì§Ģ ìĽĲ
ĠíļĮ ê²¬
ĠìĦ± ê³¼
Ġìłľ ì¶ľ
Ġë¬¼ ìĸ´
Ġì§ĢëĤĺ ê°Ģ
Ġë¿Į ë¦¬
Ġ m
ì² ©
ìĤ¬ ëŀĮ
Ġê° Ŀ
Ġë©Ķ ëī´
ĠëĮĢë²ķ ìĽĲ
Ġìĭł ê¸°
íĵ¨ íĦ°
ĠìĹ¬ ìĤ¬
ĠíħĲëį° ìļĶ
Ġëĵ¤ìĸ´ ìĻĢ
ĠìłĲ ìĭ¬
ĠìĬ¤ íĨł
Ġê³µ ìłķ
Ġì¡¸ ìĹħ
Ġì§ĳ íĸī
ĠëĤĺ ìĺµëĭĪëĭ¤
ê»ĺ ìļĶ
íĴ Ģ
ĠìĨĲ íķ´
Ġì²ŃìĨĮ ëħĦ
Ġíĺ ¼ë
ĠìķĪ ëĤ´
Ġíĺĳ ëł¥
í Ī
íĦ ¸
Ġìłľ íķľ
Ġë°° ì¹ĺ
Ġíĺĳ ìĿĺ
ê ½
Ġë°ķ ìĪĺ
Ġì¦Ŀ ìĥģ
Ġë¶Ģ ëĮĢ
Ġê± Ķ
Ġìĺģ ìĸĳ
Ġê³µ ê¸°
ĠìĻĢ ìĿ´
ĠìĹ° ëĮĢ
ĠìĤ¼ ìĽĶ
ĠìĭĿ íĴĪ
Ġê¹Ģ ìĦ±
ĠìķĦëĭĮ ê°ĢìļĶ
Ġì¶Ķ ìłķ
Ġê³¼ë ª©
Ġê¸° ê³Ħ
Ġíķ© ê²©
Ġê¹¨ ëģĹ
ìĹ ½
Ġìŀĳ ìļ©
Ġë§Ī ì£¼
ëª °
ë¡ľ ëĤĺ
Ġìĭľ ìĤ¬
ĠìłķíĻķ íŀĪ
Ġìľł ìĹĶ
ĠíķŃ ê³µ
Ġíİ¸ ì§Ģ
Ġìłģ ìłĪ
ìĺ¤ ë¥´
Ġìķ¼ ê¶Į
Ġê¼ ¼
ìĩ Ħ
Ġë´ī ìĤ¬
Ġìłķ ì²´
ĠíĹ ¬
Ġëĵ¤ ë¦¬
ĠëıĦ ìŀħ
Ġì¦Ŀ ê°Ģ
Ġë¡ľ ìļ´
Ġ3 0
ĠìļĶ ìĨĮ
ĠìĤ¬ íĩ´
ë´Ĳ ìķ¼
ĠíĻ© êµĲ
Ġëªħ íĻķ
Ġì Łģ
¼ Ī
Ġë¹Ħ ëĤľ
ĠìĿ´ìĸ´ ìĦľ
ëĭĪ ê¹Ĳ
Ġê°Ģ ìŀħ
Ġë§¨ ëĤł
Ġì¤ĺ ìļĶ
ĠíļĮ ë³µ
Ġì£¼ ì°¨
Ġìĸ´ìķ¼ ì§Ģ
ĠëĤ´ ì§Ģ
ì¢ Ģ
Ġê´Ģê³Ħ ìŀĲ
Ġì§Ģì¼ľ ë³´
Ġë¹Ħ ë¦¬
Ġëª¨ ìŀĲ
Ġê°Ģ ëĵĿ
ĠìĪĺ ìĭľ
Ġìĺ¤ ìĽĶ
Ġë¹ł ë¥¸
ì¼Ģ ìĿ¸
ë Ĵ
ê° Ĵ
Ġê°Ģ ë°©
íļĮ ìŀ¥
Ġëĭ¤ìĿ´ìĸ´ íĬ¸
Ġì·¨ ìĹħ
ìĹ° íŀĪ
ĠìłĦ ìŀĲ
Ġë¬´ ëł¤
Ġëį° ë·Ķ
Ġê·ľ ìłľ
ĠìĺĪ ì¸¡
Ġì»´ íĵ¨íĦ°
Ġì¶ľ ê·¼
ì ¾Į
ĠìłĦ íĻĺ
Ġê³µ ê¸ī
Ġê²° ìłľ
ĠíĨµ ê³Ħ
Ġìĸ¸ ìĸ´
Ġìµľ ìĦł
Ġê´Ģ ê°Ŀ
Ġëĭ «
Ġê°ķ ìķĦì§Ģ
Ġìłľ ê±°
Ġìŀħ ìĭľ
Ġë§ŀ ì¶Ķ
ĠëĬĺ ìĸ´ëĤĺ
Ġìı ĺ
Ġë©´ ìłĳ
Ġê³µ ìĽĲ
Ġìĺ ³
Ġìłģ ìĸ´ëıĦ
ì§Ħ ëĭ¤
ë¶ Ļ
Ġë¯¸ ì¹ĺ
Ġìħ¨ ìŀĸìķĦìļĶ
ĠíĿ ī
ĠíĻķ ìłķ
ìĸ´ ìĦľ
ĠìĨĮ íĻĶ
íĮ Ķ
ê·¸ ëķĮ
ĠíĺĪ ê´Ģ
ëģĦ ëŁ¬
ĠíĻ©êµĲ ìķĪ
Ġë©° ëĬĲë¦¬
Ġë² ½
ëŀĺ ìļĶ
ĠëĮĢ ëª©
ĠëĦ¤ ìĿ´
ĠìĹ° ìŀ¥
ìĹĲ ìĿ´
Ġì²ľ ì²ľíŀĪ
ĠìĶ »
ĠëĤĺ ìģĺ
ë¦¬ ì¹´
íģ Ĳ
Ġë¦¬ ëįĶ
ëĭ¤ ë³´
ĠëĮĢ êµ¬
Ġìľ¼ë Ł¬
ĠêµŃ ë¬´
ë§Ī íĬ¸
ĠíĿ ĳ
ë Į
Ġê°ľ íĹĮ
Ġì°¸ ê³ł
Ġë© ĺ
Ġëı¼ ì§Ģ
ë¦ ĩ
ĠìĦ¸ ê¸°
½ ëĭĪëĭ¤
ìĿ´ ëĵľ
ĠìĦł ë³´
Ġìĭ¬ íķĺ
ĠìĨĮ ë¬¸
ìĸ´ ëĤł
Ġë°ĽìķĦëĵ¤ ìĿ´
ëł¤ ë©´
Ġíıī ë¡ł
ĠëĤľ ë¦¬
Ġë©ĭ ìŀĪ
ìļĶ ì¦ĺ
Ġì§ĳ ê¶Į
Ġì¹´ ë©ĶëĿ¼
ĠëĮĢë³Ģ ìĿ¸
Ġì§Ģ ê¸ī
ì º
ĠíĨµ ìĭł
Ġìŀ ĩ
ë¥ Ń
Ġê³µ ìľł
Ġê´Ģ ìłĲ
íķĺ ëĤĺ
Ġë³¸ ëĭ¤ë©´
íĥĢ ë¯¼
Ġì² ¨
ĠëĪ Į
Ġê°ľ ìĦ±
ĠíĬ¹ ì§ķ
ĠìĻ¸ ë¶Ģ
ĠíĹĪë¦¬ ì¼ĢìĿ¸
Ŀ¼ ê³ł
Ġë©Ģ ë¦¬
ê±° ê¸°
Ġëħ Ģ
ê°ĳ ëĭĪëĭ¤
ĠëĥĲë©´ ìĿĢ
ë¬´ ìĬ¨
Ġíķľ ì§Ģ
Ġìĭľ ìĿ¸
ĠëĿ¼ë ©°
Ġê¶Į ë¦¬
Ġë¬´ ë¦
ëª¨ ëĭĺ
ìĽ ¨
£ ¨
ĠëĤł ì§ľ
ë ¯
ĠìĹĨ ìķł
ĠëĤ Ń
ĠìĺĪ ëĬ¥
Ġê³ł êµ¬
Ġë³´ ëĤ¸
Ġê°Ģ ì§ľ
íŀ Ĳ
Ġë¯¼ì£¼ ì£¼ìĿĺ
Ġ s
ê·¸ ê²ĥ
Ġëģ Ħ
Ġê°Ģë§Į íŀĪ
ĠìĦľ ë¥¸
ĠìķĮëł¤ ìł¸
Ġëľ¨ ê±°ìļ´
ĠëģĿ ëĤ´
ĠìķĦ ë¥´
Ġê±´ ìĦ¤
Ġê°ģ ìŀĲ
íĬ¹ íŀĪ
ëģ Ī
ĠìķĦ ì¤Įë§Ī
Ġëĭ¤ ëĭĪê¹Į
Ġìĭ¬ ìŀ¥
ìķĦ ì§ģ
Ġìĥģ ìĬ¹
Ġìĭ ¹
Ġìķķ ìĪĺ
ĠíĽĮ ë¥Ń
ĠìĿ´ íķĺ
ì½ ©
¼ë ²
ĠëĵľëŁ¬ ëĤĺ
ĠëĮĢ ë¦¬
ĠìļĶ ê¸Ī
Ġëĭ¤ê³ł ìļĶ
ì½ ¤
Ġì£½ ìĿĮ
ìł¸ ìķ¼
ë§ ¥
Ġì¹ĺ ë§¤
ìĬ¤ íĥĢ
ĠìĦ± íıŃ
Ġì¤ĺ ìĦľ
Ġìĥģ ì§ķ
Ġëķ ¡
Ġëĭ¹ íķľ
íħĲ ì¸ł
ìĤ¬ ìŀĲ
ĠìĮ į
ë² ¤
ĠêµŃ ë¬¼
ĠìĦ¸ ìļ°
ĠíĤ¤ìĽĮ ëĵľ
Ġê³Ħ ìĦ¸ìļĶ
Ġê°ķ ëĤ¨
Ġëį° ìĿ´íĦ°
Ġì§ķ ìĹŃ
ìĸ´ëĸ» ê²Į
ìłĢ ê¸°
ê» ı
Ġìĸĳ íĮĮ
Ġëĵľë¦´ ê¹ĮìļĶ
Ġë¹Ħ íĥĢë¯¼
ĠìŀĲ ê·¹
Ġëĵľ ëĿ¼
ĠìĤ¬ìĿ´ íĬ¸
Ġ 9
ĠìļĶ ë²Ī
Ġë¬´ ë£Į
ë¹ Ļ
ëĨ ¨
Ġë¹Ħ ìĶ¨
Ġê³Ħ ìħ¨
Ġíķ «
ĠìĿ¼ë¶Ģ ëŁ¬
Ġë°ľ ìĤ¬
Ġë§ ģ
Ġì¤Ħ ìĿ´
Ġê±° ëĿ¼
íĬľ ë¸Į
Ġì°¾ìķĦ ë³´
Ġí Ģ´
ĠìĽĶ ìļĶìĿ¼
Ġê³ł ë°ľ
Ġìĸ´ëķĮ ìļĶ
ê·¸ëŀĺ ëıĦ
Ġìĺ¤ ëŀ«
Ġëĭ¨ ìĿ¼
ĠìĹ¬ ìľł
ĠìĿ´ ëŀ¬
Ġì°¨ ë³Ħ
ìĺģ ìĥģ
Ġêµ¬ ìĽĶ
Ġê¹Ģ ëĮĢ
ë¨¼ ì§Ģ
ĠìĺĪìĺĪ ìĺĪ
ĠëĳĲ ëł¤
ìĵ °
Ġê¸¸ ëŀĺ
Ġëħ¸ëıĻ ìŀĲ
į ĺ
Ġìķ µ
Ġìĥģ ìĭĿ
Ġ 00
ĠìķĦ ê¸°
Ġìłľ ë°ľ
Ġê³µ ìķ½
ĠìĪĺ ìłķ
ê°Ģ ì¡±
ĠíķĻ ê³¼
íİĺ ìĿ´ì§Ģ
ĠìĿ´ ë¡ł
Ġì±Ħ ìĨĮ
ĠëĮ Ħ
ëł ģ
âĢ ĺ
ĠëĤ¨ ê²¨
Ġíķľ ëĳĲ
ĠìĹ° ê´Ģ
Ġë¶Ī ë§Į
ĠìķĦë§Ī ëıĦ
Ġë¬¸ ê±´
Ġëª¨ ìħ¨
ĠìĦł ìłķ
ĠëĮĢëĭ¨ íŀĪ
íĭ ±
ê¼ Ī
Ġìľł ìĿ¼
ĠìµľìĨĮ íķľ
Ġì°¬ ìĦ±
ë¡ ±
ĠëĿ¼ ëĭĪ
ëĤ ©
ĠìĿ¸ ì²ľ
íķĺ ì§Ģë§Į
Ġêµ¬ íķĺ
Ġìĸ´ ë§Ī
Ġê°ķ ìĿĺ
Ġì¦Ĳ ê¸°
Ġê°Ģ íķ´
Ġì§Ħ ìĺģ
Ġê³ł ìĸĳ
Ġë°ķ ìłķ
Ġì¤ĳ ëĭ¨
Ġë²Ħ ëł¤
Ġìŀ¥ ìĤ¬
Ġë°° ìĨ¡
Ġë°ĺ ìĦ±
Ġë¬´ë¦ İ
Ġì¶ķ íķĺ
Ġìĺ¤ëŀ« ëıĻìķĪ
Ġëĭ¹ êµŃ
Ġì§Ģ ìĭĿ
Ġë¯ Ħ
Ġë¹Ħ ìĭ¸
ĠíķĻ ìĽĲ
ĠíĿĺ ëŁ¬
Ġê° ļ
Ġê°Ģìł¸ ê°Ģ
ĠìĿ´ ëĶ°
Ġìĸ´ íĹĪ
ĠëĮĢ ìŀ¥
ĠìĿ´ íĭĢ
Ġëĭ ¦
Ġë§ ¹
Ġëįķ ë¶Ħ
Ġë§Ī ëĶĶ
Ġíıīë¡ł ê°Ģ
Ġë¯¸ìĦ¸ ë¨¼ì§Ģ
Ġìĩ¼ íķĳ
Ġìĸ´ëł¤ ìĽĢ
ĠìĪĺ ìĺģ
Ġìĺ¬ëĿ¼ ìĺ¤
ì£¼ë ıĦ
Ġë²Ī ìĹŃ
ĠìĨĮ ìľł
Ġì¤Ģ ëĭ¤
ì¤ ĺ
Ġë³´ ìĥģ
ĠëĤĺìĻĢ ìļĶ
ĠìĥĿ ìĿ¼
ĠìĨĮ ìĬ¤
ĳ ¥
ĠìĹ ¼ë
Ġìľł íĬľë¸Į
ĠíķĻ ìĬµ
Ġíķľ ìª½
Ġê³ł ìľĦ
Ġìĺ¬ ëŀĲ
Ġë§Į ì¡±
ĠìłĦ ìĭľ
Ġëĸ¨ìĸ´ ìł¸
ĠìĿ´ ìłķ
ĠíĿĲ ë¦Ħ
Ġê±´ ê°Ģ
Ġíķ¸ëĵľ íı°
Ġìĸ´ë ¥´
í ĳ
Ġê¹Ģìłķ ìĿ¼
¼ ìĨĲ
Ġë°Ķ ëĭ¥
ĠìĭĿ êµ¬
ĠìĹ° ì£¼
Ġì´Ī ë°ĺ
Ġëª¨ ìŀĦ
Ġíķ© ë¦¬
Ġì¡° ìŀĳ
Ġë¯¼ ìĭ¬
Ġì´Ī ê¸°
Ġìĭł ë¶Ħ
ĠíķĻ ê¸°
ĠìĪľ ìĦľ
Ġìĭľ ì¦Į
Ġìĺ¤ ìĿ´
ì Į
Ġì§ Ŀ
ĠêµĲê³¼ ìĦľ
Ġíľ´ ê°Ģ
ĠìĬ¤ ë§ĪíĬ¸
ĠìķĦ ê°Ģ
ĠëıĮ ë¦¬
Ġê´ľ íŀĪ
ĠëĩĮ ë¬¼
Ġíı ¼
ĠëĮĢ ê¸°
Ġë¬¸ íķĻ
ĠìĪĺ ì¹ĺ
Ġì§Ħ ìĭ¬
ĠëĤ´ëł¤ ê°Ģ
Ġìĭľ ìľĦ
íĻ Ģ
ìĨ Ķ
Ġê°Ħ ìŀ¥
ĠìĥĿ ê¸¸
ĠìĺĪ ê³ł
Ġì§ĳ íļĮ
Ġìĺ¤ ë§Į
Ġìķĺ ìĹĪ
Ġë®¤ì§Ģ ì»¬
Ġê·¸ëĤ ĺ
Ġë¶Ī ê³¼
Ġê¸Ī ìļĶìĿ¼
ë©Ķ ìĿ¼
Ġê³¼ ìĿ¼
ë Ĳ
ĠìĤ¬ ìľł
Ġë¹Ħ ëĮĢ
ĠíĥĪ ëĭ¹
Ġë¯¼ ì¡±
ĠìĿ¸ êµ¬
Ġìŀ¬ ë²Į
Ġëĭ¤ ë£¨
ĠìĦ¤ íĥķ
Ġê·¼ë ³¸
ĠíķĻ ë¶Ģëª¨
ĠìĥĪ ë¡Ń
ìľ¼ ëĭĪ
Ġê³¼ ìŀ¥
ë¬ µ
Ġë° ı
Ġìľ¼ë ¡ł
ëĵł ê°Ģ
ĠìĪĺ íĸī
ĠìķĦìĿ´ ëĶĶìĸ´
Ġìĸ´ë Ŀ¼
ĵ ľ
ĠìĤ Ń
ĠëĤ´ ìĭł
Ġë²ķ ìłķ
Ġëªħ ìĺĪ
Ġë°© ìķĪ
ĠíĬ¹ ìĿ´
Ġê°Ģ êµ¬
Ġíİ¸ ìķĪ
Ġíı ´
ĠìķĮ ë¦¬
Ġë¶Ģ ëĵľ
Ġíķľ ë¯¸
Ġì°¨ ëĿ¼ë¦¬
Ġìľł íĸī
Ġë°ĺ ë°ľ
Ġìľ¼ëł¤ ê³ł
Ġíķ ĳ
Ġëĵľëł¤ ìļĶ
Ġëª°ëĿ¼ ìļĶ
Ġëª¨ ìĹ¬
Ġì¦Ŀ ìĸ¸
ĠíĮ Ŀ
Ġê¾¸ ì¤Ģ
Ġê¹Ģ íĥľ
ĠìłĢ ì§Ģ
Ġëĭ¤ ë©°
Ġì²ł íķĻ
Ġëĭ¤ ëĦ¤
Ġì²´ ìľ¡
Ġì²´ ê³Ħ
Ġìĸ´ë¥´ ìĭł
ĠìĶ¨ ìĶ¨
ĠìķĪíĥĢ ê¹Ŀ
ĠíĸĪ ìĸ´ìļĶ
Ġìĺ¬ ëł¸
ìĸ´ ë²Ħ
ì½ ĺ
Ġë²Ķ ìĿ¸
ëĤĺ ë¦¬
Ġê²½ ìĦł
ĠíĪ¬ ìŁģ
ë° ¤
íĬ¸ ëĤ¨
ìĿ¼ë ³´
Ġìļ© ìĦľ
į ¼ë
Ġíķł ìĿ¸
Ġê³µ íı¬
Ġìŀ¬ ëĭ¨
ëĬĶ ëį°
Ġëļ ľ
ì© į
ĠìĽĶ ëĵľ
Ġxx x
Ġê¸° ì´Ī
Ġëĸ¨ìĸ´ ì¡Į
ĠìŀĲ ì¹ĺ
Ġê³ł íĸ¥
ĠíĻĪ íİĺìĿ´ì§Ģ
Ġë¦¬ ìĬ¤íĬ¸
ħ Ħ
ĠìĨĮ ì¤ĳ
ĠìĪĺ ì¶ľ
ĠìĤ¬ë¬´ ìĭ¤
Ġìĥ ¤
ëĵ ¬
Ġíĺķ ìĦ±
Ġë§Į ëĤ¨
ĠëĦĪ íĿ¬
Ġë¯¼ ìĥĿ
Ġíĺķ ìĭĿ
Ġêµ¬ ë§Į
Ġì¢ħ êµĲ
ĠëĮĢ ê²°
Ġíģ° ìĿ¼
Ġë ¼Ī
Ġìķł ê¸°
Ġìļ© ìĸ´
Ġìĥ µ
Ġê°ģ ì¢ħ
Ġëĭ ¿
ì¤Ģ íĳľ
Ġê³ĦìĭŃ ëĭĪëĭ¤
¨ ¹
ĠìĥģëĮĢ ë°©
Ġëĵľ ìħĶ
ĠìĿ¸ ê³µ
ĠíıĲ ì§Ģ
Ġëķ Ģ
Ġë¹ĦìĦľ ê´Ģ
ĠìĤ° ì±ħ
Ġëŀĺ ìļĶ
íķ ©ëĭĪëĭ¤
Ġê±¸ ëł¤
ĠíĢ´ ì¦Ī
Ġëĭ¹ íĻ©
ĠíĤ¬ ë¡ľ
Ġì·¨ íķĺ
Ġê¸° êµ¬
ìĿ´ ìĽĶ
ĠëĮĢ ìķĪ
ë° į
ĠìķĦëĭĪ ìļĶ
Ġê±´ ì¶ķ
ĠìłĲ ê²Ģ
ìĭŃ ëĭĪê¹Į
ĠìĨĮ ìŀ¬
ĠìĿ´ ë¦¬
Ġìļ° ë¦°
ĠìĿ´ìŀ¬ ëªħ
ĠíĶ¼ ê³¤
Ġëĭ¤ë©´ìĦľ ìļĶ
ĠëĲł ê¹Į
Ġì¤ĳ íķĻêµĲ
ìĸ´ ì§Ī
íķľ íİ¸
Ġìĵ° ëŁ¬
Ġìĭľì¼ľ ìĦľ
Ġíĺĳ ë°ķ
Ġìĸ´ ë¦´
ë¹ ¨ë¦¬
Ġíĺ¸ íĿ¡
Ġíĥľ ìĸĳ
Ġê°ľ ê·¸
ĠìĦ± íĸ¥
Ġê¼ ½
Ġë° Ł
Ġê¸° ìļ´
Ġë¹Ħ ë¡Ģ
ĠìĤ¬ ëĵľ
ĠíĥĢ ìŀĦ
Ġì§ĢëĤľ ì£¼
ĠëĬĲ ê¼Ī
Ġì´Ī ëĮĢ
ëĪ Ī
Ġì¡° ìłĪ
ĠìĤ´ ëł¤
Ġëļ «
Ġíķľ ì°¸
Ġë³´ ê´Ģ
ĠíĻľ ìĦ±
Ġë¬ ¶
Ġìłľ ì£¼ëıĦ
ìĸ´ ë§Ī
Ġëĭ¨ ì§Ģ
Ġê±¸ ë¦´
ĠëŃ ī
Ġëĵ¤ ìĿ´
ìłľ ìĿ´
ĠìĿ¼ ìĽĶ
ëĳ ĳ
Ġëĵ¤ìĸ´ ìĻĢìĦľ
Ġì¢ ģ
Ġê ¾¼
ĠìķĦ ëıĻ
ĠìķĦ ìķĦ
Ġ20 1
ì½ ľ
Ġë²ķë¬´ ë¶Ģ
Ġìĸ´ëł¤ ìļ¸
Ġê°Ģ ë¦¬
ĠìĹĳ ìĬ¤
ĠìĿ´ ìĽĶ
ì¡° ê¸Ī
ĠìĨĮë¹Ħ ìŀĲ
ĠìłĢ ìª½
Ġì´ Ľ
Ġêµ¬ ìŀħ
Ġë¯ ¼ë
Ġêµ¬ ë¶Ħ
ĠíĻį ì¤Ģíĳľ
ì¹´ ìĺ¤
ĠíĽĦ ë°°
ĠëģĮ ìĸ´
Ġì§ĢëıĦ ìŀĲ
ĠìĿ´ ìĬ¹
Ġì¡ ±
Ġê²Į ëģĶ
ĠìĪľ ìľĦ
Ġë²ł íĬ¸ëĤ¨
Ġíĥ ĳ
Ġì½Ķ ë¡ľëĤĺ
Ġëĸ¨ìĸ´ ì§Ħ
Ġìĥ Ģ
Ġì§Ģ ìłĲ
Ġê» į
ĠëĿ¼ êµ¬ìļĶ
ĠìĿĺ ë¢°
Ġ1 00
ëħ Ķ
ĠìļĶ ìĿ¸
ĠìĿ¸ ìĽĲ
Ġë¡ľ ìį¨
ĠëıĦ ë°ľ
Ġëĭ¤ êµ¬ìļĶ
ëłĪ ê¸°
Ġê°Ģ ì¡Į
Ġê¿ Ģ
Ġêµ° ëį°
ĠëĮĢ ìłĦ
ëĿ¼ ìĬ¤
Ġê³¨ ëĿ¼
Ġì£¼ ìĭĿ
ëŀ Ħ
ĠìĬ¤ ì¼Ģ
Ġë°© íķ´
ë¨¸ ë¦¬
ĠëĬĲ ëĿ¼
Ġì£¼ë ħĦ
Ġìłķ ìĭľ
ĠìķĦë¦Ħëĭ¤ ìļ´
ë© ¸
Ġìłķ íĻ©
Ġê² ī
Ġëĭ´ ë°°
Ġì§Ģ ìłķ
ìĸ´ ëĶĶ
Ġìĸ´ìļ¸ ë¦¬
ìķ ī
Ġê³µ ëĭ¨
Ġì²´ íĹĺ
Ġì´Ľ ë¶Ī
Ġêµ° ìĿ¸
ĠìĿ¸ ìĹ°
ĠíĶ¼ íķĺ
ĠìĭŃ ìĿ´ìĽĶ
Ġë´Ĳ ëĿ¼
ĠìĹ´ ë¦°
Ġêµ¬ ê²½
ë¡ ¤
ĠëĽ° ìĸ´
ìķĦ ì£¼
Ġë¶Ļ ìĿ´
Ġê°ģ ê°ģ
ê¼ ¬
Ġíķľ ê³Ħ
ĠíĶ¼ ìĿĺìŀĲ
Ġ x
ìł Ŀ
Ġìłģ ëĭ¹
ĠêµŃ ìŀ¥
Ġë°° ìĥģ
ë°Ķ ìĿ´íĬ¸
ĠìĨĮ ëħĢ
ĠìķĦëĭĪ ìķ¼
ìĻľ ëĥĲ
Ġìĸ´ëĶ ¨
ëĭ¤ ë¦¬
ĠìĤ¬ ìĥģ
ĠëıĻ ìĽĲ
ĠíĨ ¤
Ġê²½ê¸° ëıĦ
Ġìłľ ë³´
ĠìķĪíĥĢê¹Į ìļ´
Ġìļ© ê¸°
ĠíĺĦ ì§Ģ
Ġëĸł ìĺ¤ë¥´
ĠìĦ¸ ìĽĮ
ĠíĮĮ ìĿ´
ĠìĨĮ ë°©
Ġë© ¸
Ġìį¨ ìķ¼
Ġê³łìĸĳ ìĿ´
Ġê¸° ë°ĺ
í Ģ´
¥ ĺ
© ìĿ´
ĠìĽĶ ê¸ī
Ġê²°íĺ¼ ìĭĿ
Ġë°Ķ ìģĺ
ĠìĿ¼ ê°ģ
Ġì¤Ħ ìĸ´ëĵ¤
ëĺ ĳ
Ġíİ¸ ìĿĺ
Ġë§Ī ìķ½
Ġíģ¬ ê¸°
Ġì£¼ ìĨĮ
ê·¸ ê±´
Ġíĥ ķ
Ġë¯¸ êµ°
Ġë°ĺ ë©´
ĠëģĿ ëĤľ
ê¹ ¥
Ġìŀ¬ ìłķ
ĠíĨµ ìłľ
Ġì²´ íı¬
ĠìŀĲ ìłĦ
Ġìľł ë³ĳ
êµ° ëĭ¤
Ġëĭ¹ ìĤ¬ìŀĲ
íĭ ´
Ġíıī ì°½
Ġìŀĳ ìłĦ
Ġê¸į ê¹Į
Ġíķĺ ìĿ´
ìłĿ íĬ¸
Ġíķ´ìķ¼ ì£ł
ê·¸ ëĭĪê¹Į
Ġì£½ ìĿ´
Ġëĸł ìĺ¬
Ġëº ı
Ġë² ¤
Ġë¶Ī ëłĢ
ĠíĽ Ķ
Ġìłľ ì£¼
Ġì±Ļ ê¸°
ê´ ľ
Ġê·¹ ë³µ
Ġìĭľ ìĭł
Ġê³µ ì§ģ
ĠíĿ¬ ìĥĿ
Ġê·¸ë¦ ĩ
Ġëĵľëł¤ ìķ¼
ĠíıŃ ë°ľ
Ġëĵľ ëĶĶìĸ´
Ġìĸ´ë§Ī ìĸ´ë§Ī
Ġìħ Ģ
ĠìĽ ¨
ĠìłĦ ëĭ¹
ĠíĶĮ ëŁ¬ìĬ¤
Ġìĺ¤ë¥¸ ìª½
ĠíĶĦë¡ľ ìłĿíĬ¸
ëĳ Ķ
ĠìĿ¼ ê¹Į
ĠìłĦ íĸĪ
Ġëĭ¨ìĪľ íŀĪ
ĠíĺĦ ê¸Ī
Ġ n
Ġíļ ¡
êµ°ëĭ¤ ëĤĺ
Ġìĵ° ëłĪê¸°
ìĦľ íĬ¸
Ġë² ¨
Ġìĸ´ ê¹¨
Ġì» ¸
Ġìī¬ ìļ´
ìĸ´ ìłľ
Ġê³¼ ìłľ
ĠìĨĲ ëĭĺ
Ġìŀ¥ ìłĲ
Ġë¥ ´
ĠìĻ ¼
ĠìĪĺ ìĪĺ
Ġì¶ ĺ
ĠëĿ¼ë©´ ìĦľ
ĠìĿ´ ëŀĢ
Ġë²Ķ ìľĦ
Ġìķ¼ ì§Ģ
Ġë°Ķ ê¹¥
ĠìĪĺ ìļ©
Ġìŀ¬íĮĲ ë¶Ģ
ĠìķĦ ë²ł
Ġëħ¼ë ¬¸
ì į
Ġë²ł ìĿ´
ĠíĻĶ ìŀ¬
ĠëĿ¼ ëĭĪê¹Į
ĠëĨĢ ëŀĲ
Ġíľ´ëĮĢ íı°
ì¿ ł
Ġë¬´ ìĦŃ
ĠìĦľ ë¯¼
Ġì¹Ń ì°¬
ĠìĿ¼ ìĸ´ëĤ¬
Ġëħ¸ ì¶ľ
Ġìĺ¨ ëıĦ
ĠìłĪ ë°ĺ
Ġìļķ ìĭ¬
Ġêµ¬ ëıĦ
Ġìĸĳ ìª½
ĠíĦ° ì§Ģ
Ġì¢ħ ìĿ´
ĠìķĦëĭĪë©´ ìĿĢ
Ġìŀ¥ ì¹ĺ
Ġë§ŀì¶° ìĦľ
Ġìĭ¤ ë§Ŀ
ĠëĤ´ ëł¸
ĠìķĦë¥´ ë°ĶìĿ´íĬ¸
ĠëĬĲëĤ Ħ
ĠíĶĦ ëłĪ
ĠìĪĺ ë§İ
Ġì§Ģ íľĺ
ĠìŀĲ ë¶Ħ
ĠíķĻ ìŀĲ
Ġê°Ĳ ìŀĲ
Ġê¹Į ì§Ħ
Ġìĭľ ìĽĶ
ķ ł
° ©
Ġê±¸ ëł¸
ĠìĻ¸êµŃ ìĿ¸
ĠìĬµ ê´Ģ
Ġìĥĺ íĶĮ
ìĦł ìĥĿ
Ġì¶ķ ìłľ
ĠìĪĺ ê³ł
ê½ ĥ
Ġê³ ģ
Ġì¹ł ìĽĶ
Ġ1 2
ĠìĦł ë°ľ
Ġ1 1
Ġìĸ´ëł¤ ìĽĮ
ĠëĶ° ë¥¸
Ġë²Ĺ ìĸ´ëĤĺ
Ġíĺľ íĥĿ
Ġëĭ¤ ìļ´
ê¸° ë¦Ħ
Ġì¶ľ ìĦĿ
Ġë¹Ħ ìĥģ
Ġì¶© ëıĮ
ĠìķĦ ìĭľìķĦ
ĠìĹ° ì¶ľ
ĠëĮĢ íĺķ
ĠìĦ± ìĿ¸
ĠìĬ¤ íĬľ
Ġê°ľ ë´ī
Ġìĸ´ë ķł
ê·¸ ë§Į
Ġëģ Ī
Ġì¼ ľ
Ġìŀħ ì¦Ŀ
Ġë¹¨ ê°Ħ
Ġë¸Į ëŀľëĵľ
ĠìĶ ¹
Ġë¯¸ ìĪł
Ġì¹´ ì¹´ìĺ¤
ë© į
Ġëª ½
Ġì¹ ¼ë
Ġëª° ëŀĺ
Ġê·ł íĺķ
Ġìĺ¨ ëĿ¼ìĿ¸
Ġì Ł
Ġìļ° ìļ¸
ĠíĽĦ íļĮ
Ġë³Ģ íķĺ
ĠìķĦìĿ´ ëıĮ
ĠíĬ¹ ì§ĳ
ĠìĹ°êµ¬ ìĨĮ
ĠìĤ´ íķ´
Ġê°Ģ ì§Ī
ê² Ĳ
ĠìĨĮ íĻĺ
Ġë¶Ħ ë¦¬
ĠìĹ° ìĦ¤
Ġê¹Ģ ìĿ¼
Ġíĺ¼ë ŀĢ
ìļ° ìĬ¤
Ġëĥ īìŀ¥
Ġë¶Ģ íļĮìŀ¥
ĠìĿ¼ ìĸµ
Ġë§Ī ìłĢ
ë¥ Ļ
Ġëª¨ ìĿĺ
Ġëĭ¹ ìĽĲ
Ġìĺģ ìĹħ
Ġì« Ļ
ĠíĹĪ ëĿ½
Ġìłľ ìĻ¸
Ġì¦Ŀ ëªħ
ĠìĿ´ ë¤Ħ
ĠìĪĺ ëĭ¨
ĠìĿµ ìĪĻ
Ġê¸° íĥĢ
ĠëıĦ ìĦľ
ë¦¬ìĬ¤ ë§Ī
ĠëĤĺíĥĢ ëĤ¬
ëĶ ª
ëŁ Ń
ĠíĮĶ ìĽĶ
ĠíħĮ ìĬ¤íĬ¸
Ġê±´ ëĦĪ
Ġ c
ìĿ´ ê±´
Ġë¶Ģ ìľĦ
ĠíħĮ ìĿ´
ĠìķĦë¬´ ëŁ°
Ġë³´ìĿ¸ ëĭ¤
Ġì²ł ìłĢ
Ġíĺķ ìłľ
ìĿ¼ ìĽĶ
ĠëĮĢ ì¶©
Ġê·¸ëŁ° ì§Ģ
ĠìĦ¸ íĬ¸
ëĤ´ ìĿ¼
ëĿ¼ë ©´
ìķĦ ëĤ´
Ġíĥ ĵ
Ġíĸ ĩ
Ġì§Ģ ëĤ¬
ĠìŀĲ ìľ¨
Ġìľł ê¸°
ê¼ ¼
ĠìĿ¸ ìŀ¬
ĠìłĦ ìłľ
Ġëª¨ ì§ĳ
Ġëı ķ
Ġë§¥ ì£¼
Ġìľłë³ĳ ìĸ¸
Ġë° ´
Ġì¶Ķ ìłģ
Ġë¬´ ëĦĪ
Ġíķľ ê°ĢìļĶ
ĠìŀĲìłĦ ê±°
Ġëĭ¬ ëŁ¬
ĠêµŃë°© ë¶Ģ
ĠìĿĮ ë£Į
ê¶Į ìŀĲ
Ġê¹Ĭ ìĿ´
íĶ Ķ
Ġë³´ê³ł ìĦľ
Ġìļ°ë¦¬ ëĤĺëĿ¼
Ġì¤ĳ ëıĦ
Ġëħ¸ ì¡°
Ġê¹ĢëĮĢ ì¤ĳ
ĠìĬ¤ íİĺ
ëª ĩ
Ġë¶Ļ ìĹ¬
ĠëıĻ ê¸°
ìĤ Ń
ĠìĦł ì§Ħ
ĠìĦľ ë°©
Ġëĭ¤ëĬĶ ëį°ìļĶ
Ġê°ķ ê²½
Ġê³µ íķĻ
ĠëĮĢ ì²ĺ
ĠìĺĪ ë¹Ħ
Ġë¶Ģ ëĶª
ĠìĬ¤íĨł ë¦¬
Ġê³ °
Ġìĭľ ì§ĳ
Ġë§Ī ì¹¨
Ġì¤Ħ ê²Į
Ġë³´ ìĻĦ
Ġìłĳ ì´ī
Ġì°¨ ëł¤
ëĤĺ ë¬´
ĠìĿ¼ ìĸ´ëĤľ
ĠìķĦ ëĿ¼
ĠìĨĮ ëħĦ
Ġì¦ Ī
ëĭ¤ ìĭľ
ĠìĻ ł
ĠëıĻ ë§¹
Ġë¹Ħ ë²ķ
ëĭĪ ìĬ¤
ĠìĿĮ ì£¼
ĠìĿ´ ìłł
ĠìĤ´ ë¦¬
Ġìĭł ê°ĢìļĶ
Ġë°ķ ì§ĢìĽĲ
Ġë¹ł ì¡Į
ĠìĭŃ ìĿ¼ìĽĶ
ĠêµŃ ë©´
Ġê¹Ģ íĺĦ
Ġê³ ±
Ġë¶Ī ê°Ģ
Ġê°Ħ íĺ¸
Ġëıħ ìĦľ
ĠìĤ Ĳ
Ġìħ Ī
Ġê·¸ë ¥´
ëŀ į
Ġëĵ± ëĵ±
ìĵ ¸
ĠìķĦìī ½
ĠìĹ¬ ì§Ģ
ìļ° ìĦł
ĠëıĻ ìĺģìĥģ
Ġë°± ìĦ±
Ġíķ´ ì¡Į
Ġê ¶
Ġì¶Ķ ìĦĿ
ĠíĻĶ ëł¤
ê·ľ ì§ģ
Ġìŀħ íķĻ
Ġìĭ¬ íĮĲ
ĠìłķìĿĺ ëĭ¹
ĠëŁ °
ĠëĤĺ ìĦ°
ì¹ «
Ġë¶Ģ ìŀĲ
Ġíİ ´
Ġë°© ì§Ģ
ìĿ´ ìħĺ
Ġë°° ìĽĮ
ĠìĤ´ìķĦ ê°Ģ
Ġê°ľ íİ¸
ĠíĻĶìŀ¥ íĴĪ
Ġê³Ħ ìĭ¤
ĠíĨł ìļĶìĿ¼
ĠëĤ ¯
ë²¤ íĬ¸
ĠìĻ¼ ìª½
a m
Ġê¸° ìļ¸
ê± Ģ
Ġì§ĢëıĦ ë¶Ģ
Ġì§Ħ ë¡ľ
Ġìĺ® ê²¨
Ġë¬´ ì£Ħ
íĿ Ĳ
Ġê°Ģ ë£¨
Ġì½Ķ ìĬ¤
ì» µ
Ġì½ĺ ìĦľíĬ¸
Ġë³´ ê±´
ĠíħĮ ëŁ¬
Ġíķ´ ìĨĮ
Ġì§ģ ìłĦ
Ġíı¬ ìŀ¥
ĠëĿ¼ê³ł ìļĶ
Ġìĸĳ ë°ĺ
Ġìľ¼ ìĿĮ
ĠíĺĪ ìķķ
Ġìĭ¤ ê¹ĮìļĶ
Ġìŀĳ ê³¡
ĠëĬĶ êµ°ìļĶ
Ġëģĵ ìĹ¬
ĠíĽ ¼ìĨĲ
Ġíĩ´ ê·¼
Ġì¹ĺ íĤ¨
ĠëĮĢ ë°ķ
Ġëĭ¬ëĿ¼ ì§Ģ
ĠëıĻ ë£Į
Ġë¦ °
ĠìłĪ ëĮĢë¡ľ
Ġê³¨ íĶĦ
ë ¿
ĠìĹĲìĦľ ë¶ĢíĦ°
Ġë¹Į ëł¤
ê² ł
ĠìĦ¤ ë§Ī
Ġê³ł ê°ľ
ĠëķĮ ë¦¬
ĠëĶ° ìł¸
ë¯¸ íĦ°
Ġë¬¸ìłľ ìłĲ
Ġìŀĺ ëĿ¼
Ġëĳĺ ì§¸
ĠìŀĲ ëĿ¼
ëıĻ ìĥĿ
Ġê¹ İ
Ġìľ¼ëĭĪê¹Į ìļĶ
Ġë°ķ ìĽĲ
Ġì§Ħ ìĥģ
Ġê²½ ê³Ħ
Ġë°© ìĸ´
ĠíĿ¥ ë¯¸
Ġë²Į ìĸ´ì§Ħ
Ġì» µ
ĠíıĲ ê¸°
Ġë¶Ģ ëŁ¬
Ġìĭł ëĭ¤ê³ł
Ġë¨¼ ì§Ģ
Ġìłľìŀĳ ì§Ħ
ĠìĿ´ëŀĺ ìĦľ
ĠëĨĢ ìĿ´
ëķ ħ
Ġë¹ ¼ë
Ġëĭ¨ ëıħ
ĠëĤĺìĺ¨ ëĭ¤
Ġë§¤ ì²´
Ġë§¤ ìŀ¥
ĠíĶĦ ë¦¬
Ġìĸ¸ ìłł
ê³ł ê°Ŀ
Ġëªħ ë¶Ħ
Ġê¹Ģì¢ħ ìĿ¸
ĠìľĦ ì£¼
Ġë¹ł ì§Ħ
ĠíĥĦ ìĥĿ
Ġíķ´ ì§Ħ
ìłĦ ìŀĲ
Ġë¶Ģíĥģ ëĵľ
Ġë¬´ìĦľ ìļ´
Ġê²½ê¸° ìŀ¥
Ġìļ´ ëªħ
ĠíĿ ł
ĠìŀĲ ì¡´
Ġíĺ Ģ
ĠìĦ¤ ìłķ
ĠìĪĺ ìĿµ
Ġê°Ŀ ê´Ģ
ê³ł ìĤ¬
Ġê³µ ì£¼
ĠìĿ´ ë¥¼
Ġë³¸ ì§Ī
ĠìłĦ ìĦ¸
ĠëĲľ ìŀ¥
Ġìĸ´ì©Į ë©´
Ġìĭ¬ ìłķ
Ġíĺĳ ìłķ
Ġì ©
ĠìĹĺ ë¦¬
Ġê¹ĢìĿ¼ ìĦ±
Ġëªħ ìłĪ
ë ±
Ġë©´ ìĹŃ
Ġëª» íķł
Ġíĥľ ìĸ´ëĤĺ
Ġê³Ħ ìĹ´
ĠìŀĦ ê¸°
Ĩ ĵ
Ġëĭ´ ê²¨
Ġëĵ Ŀ
ĠìĹ¬ ê¶Į
ëĸ ¡
Ġë°ķìłķ íĿ¬
Ġê°ķ ìĽĲ
Ġëª¨ ìľ¼
Ġìļ° ìĪĺ
ĠëĬ Ļ
ĠìľĦ ë¡ľ
ëĮĢ ìļĶ
Ġì¼ĢìĿ´ ìĬ¤
ĠìĺĪ ìģľ
Ġìľ¼ë Ĥĺ
ĠìŀĲ ìĤ´
ĠëłĪ ìĿ´
ìĩ ¼
ĠìĿ´ ë²¤íĬ¸
Ġë°ĺ ê°ĳ
Ġíĳľ ìĭľ
Ġëĭ¬ ê±Ģ
ĠìļĶ ìĺ¤
ĠíĺĪ ìķ¡
Ġíĸī ë³´
Ġìĸĳ ë³´
ĠëĤ ©ëĭĪëĭ¤
Ġëĵł ê°Ģ
Ġì§Ģíķĺ ì²ł
ĠíĬ¸ ëŀĻ
Ġê·¸ëĤĺ ë§Ī
Ġê¾¸ì¤Ģ íŀĪ
Ġë¶ ķ
Ġìľ¼ë £¨
ĠíĮ ½
Ġë²Į ìĸ´ì¡Į
Ġëľ ¯
Ġìŀ¥ ë¥´
Ġê·¹ ìŀ¥
ìĺ ·
ĠêµĲ íĻĺ
Ġë¹ Ļ
ĠíĿ °
Ġê·¸ë¦ °
ĠìĥĿê°ģ ëĤĺ
Ġëĭ¤ ìĿ´
Ġê° ±
ë¡ľ ìļ´
Ġê°Ģë¥´ ì³Ĳ
ëĦ £
ĠëıĻìķĦ ë¦¬
ĠìĿĺ ìĻ¸
ĠìļĶ ê²Į
ĠëŃĺ ê¹ĮìļĶ
Ġê°Ĳ ê¸°
Ġì£¼ ìŀĲ
Ġë§Į íĻĶ
Ġë¯¸ ìĨĮ
ĠìĿ´ íĥĪ
ĠëĤ´ ìĦ¸
Ġê¸ī íķĺ
Ġ1 9
Ġë¹Ħ ìĭ¼
Ġì½ĺ íħĲì¸ł
ĠìŀĲ ìĽĲ
Ġëĭ¤ëħĢ ìĺ¤
Ġê¸ĢìİĦ ìļĶ
ĠìĽĢì§ģ ìŀĦ
Ġìļ° ìľł
ê¸ ĭ
Ġëĭ¤ ë¥¼
ìĸ¸ ëĭĪ
Ġëī´ ìļķ
Ġê·¸ëŁ° ê°Ģ
Ġë³´ ìķĪ
ĠìĹŃ ëŁī
ĠìĿ´ ë§Į
Ġìĭľ ë¦¬
Ġê³µ íĨµ
Ġíķľ ê°Ģ
Ġë°° ëł¤
ĠíĨł íģ¬
Ġìļ´ìłĦ ìŀĲ
ĠëıĦ ìłĢíŀĪ
ëļ ±
Ġ b
Ġëĥīìŀ¥ ê³ł
Ġê·¸ ìłĢ
ĠìļĶ ê¸°
ìķ Ĺ
Ġê»į ì§Ī
íĹ ¤
Ġì»¤ ì§Ģ
Ġëħ¼ ìĪł
ĠìĿ´ìŀ¬ ìļ©
ê´ Ħ
íĿ ĺ
Ġë°ĺ ì°¬
ĠìĿĢ ì§Ģ
ì² ¨
ĠëĤ¨ ê¸°
Ġë§¤ ì¶ľ
ĠìĿĺ íļĮ
Ġê¹Ģ ê¸°
Ġì» ¬
Ġíķľ íħĲ
Ġíĺĳ ì¡°
Ġê·Ģ ìĹ¬
Ġìłķ ìĦľ
ë°Ķ ìĿ´
Ġê¶ģê¸Ī ì¦Ŀ
Ġìł¸ ìķ¼
Ġë°Ķ íĢ´
ĠìĦ¸ íı¬
Ġê·¹ ëĭ¨
ĠíļĮ ìĽĲ
ĠìĦ¤ ê³Ħ
Ġë©ĭ ì§Ħ
ìľ¼ë ¡ľ
ëª ¸
Ġë³´ ìĿ¼
ìĤ¬ ìŀ¥
ĠìĿ´ ìĺģ
Ġìľł ë£Į
ĠìĺĪ ë§¤
Ġë°ĺ ê¸°
ĠëĪĮ ëŁ¬
Ġíĭ Ī
Ġëª¨ ë¥¼
Ġì§ĳ ëĭĪëĭ¤
ĠëĶĶ ìłľìĿ´
Ġê²Į ëĭ¤ê°Ģ
ĠìķĦê°Ģ ìĶ¨
ĠìĬ¤íĬľ ëĶĶìĺ¤
ĠìĥĪ ìļ°
ĠìŀĦ ìĭľ
Ġëĭ¤ ëħĶ
ì´Ŀ ë¦¬
Ġê°Ķ ìĹĪ
Ġê·¸ê±¸ ë¡ľ
Ġëħ¹ ìĿĮ
Ġê´´ ë¡Ń
ĠëĤ¨ ëħĢ
ĠëĮ ģ
ĠìĬ¤ë§ĪíĬ¸ íı°
Ġíĭ° ì¼ĵ
Ġê°Ģíķ´ ìŀĲ
Ġìĭł ëį°
ĠìłĦ ë©´
Ġìĭľ ìĸ´ë¨¸ëĭĪ
Ġìĭł íĺ¸
ĠìĹŃ ëĮĢ
Ġê·¼ë¡ľ ìŀĲ
ĠíĻķ ìĤ°
Ġê³¤ ëŀĢ
Ġëĭ¨ ìľĦ
ĠìŀĲ ë³¸
Ġëĭ¹ ëĩ¨
ìĺģ íĻĶ
Ġíİ¸ ì§ĳ
ëľ ¨
Ġëĭ¤ ëĭĲ
ĠìĻĦ íĻĶ
Ġë°Ķ ë³´
Ġê¹Ģ ì§Ģ
Ġì°¸ ê°Ģ
Ġëŀ ©
Ġëį ©
Ġíİ ľ
ë¸Į ìĿ´
Ġìł¸ ìĦľ
Ġë§Ī ìĬ¤íģ¬
Ġê³³ ê³³
ĠëįĶ êµ°ëĭ¤ëĤĺ
ĠíĽĦ ë°ĺ
ĠíĬ¹ ìĦ±
ë¬¸ íķĻ
ĠëĤ¨ íķľ
Ġë®¤ ì§ģ
ê°Ħ ëĭ¤
ĠìĹ° ê·¹
ĠìķĮëł¤ ì§Ħ
ĠëĤ´ ëĤ´
ĠíĮĮ ìĿ¼
ĠìĻĢ ì¤ĳ
Ġê³Ħ ì¢Į
ë² ¼
Ġì²« ì§¸
Ġëĭ¤ ìĬ¤
ĠíķľêµŃ ìĿ¸
ë°° ìļ°
êµĲ ìľ¡
ĠìŀĦ ìĭł
ĠëĵľëŁ¬ ëĤ´
Ġê²° ìĭ¬
Ġë°± ìĸµ
ĠëĪĪ ë¹Ľ
Ġê²½ ëł¥
ĠëĦ ·
ĠìĿĺ íķĻ
ĠìĿ´ ëĤ´
Ġì¸¡ ê·¼
Ġë²Į ìĿ´
Ġê±° ë¡ł
ĠíĻ© ëĭ¹
Ġíķľ ìŀĶ
Ġë°ķìĽĲ ìĪľ
ìħ ī
ë³´ ëĤ´
Ġê¸° ë¶Ģ
ĠìĪĺ ìļĶìĿ¼
Ġê²½ ê³ł
Ġê½ ī
Ġë¯¸ ëĶĶìĸ´
Ġë°° ìłľ
Ġì²Ń ìĤ°
Ġìĺ¬ ë¦°
Ġê¸´ ê¸ī
íķľ êµŃ
ìĿĢ ìĿ´
Ġì¦Ŀ ìĿ¸
ĠìĪĺ ë¦¬
Ġëļ Ŀ
Ġë°ľ íľĺ
ĠìĹ´ ìłķ
Ġëª¨ ìĹ¬ìĦľ
Ġëĵľ ìĭ¤
Ġì²ľ ìĸµ
Ġìĭł ëĭ¤ë©´
Ġê³ł ìłķ
ĠìłĦ íĪ¬
Ġê²½ íĸ¥
ĠìĦľ ë¶ĢíĦ°
Ġìŀħ ë²ķ
Ġë§Ī íĬ¸
Ġëĭ¨ ë°±
Ġì§ ł
ĠìĦŃ ì·¨
ê² ¹
Ġëįĺ ëį°ìļĶ
ê¼ Ń
Ġë¬¸ íĿ¬
Ġê¼¼ ê¼¼
ĠìĥĪ ëģ¼
ĠíĿĶ ìłģ
ĠìľĦ ìķĪ
Ġìį¨ ìĦľ
Ġìĥģê´Ģ ìĹĨ
ĠìĿ´ ìģĺ
ĠìķĦ ìĦ¸ìļĶ
ĠìłĦ ìĽĲ
ĠìĬ¤ íħĮ
ĠìĹĲ ìĸ´
ì£Ħ ìĨ¡
ĠìĦ¸ íĥģ
Ġìķµ ì»¤
Ġì¤ĳ ìĨĮ
Ġê°Ĳ ìĦ±
ĠìĿ´ ìĽĥ
ê¶ Ĳ
ĠìĿ¼ ìļĶìĿ¼
Ġë§Ī ìĿ´íģ¬
ĠëĪĦ ìĽĮ
ĠìŁ ¤
Ġë¶Ģ ìĥģ
ĠëıĻ ìĿ¼
Ġë§¤ ëĭĪ
ĠìĿ¼ìľ¼ íĤ¤
ë¶Ģ ë¡ľ
Ġì£¼ ìĦ¸ìļĶ
ĠìĦľìļ¸ ëĮĢ
am e
Ġë³´ ëĤ¼
Ġìľł ìĤ°
Ġëĳ ¬
Ġë¸Į ë¦¬
Ġë³´ ë³µ
ĠìĺģíĻĶ ìłľ
Ġë§Ī ëĭ¹
ë³ ¶
ĠíĽĦ ìĽĲ
Ġë©Ķ ë¥´
ëĵ Ń
ĠíĮĲ ë¬¸
ĠìĪĺ ìĭŃ
Ġìķ ¼ë
ĠìĬ¤ ë¬´
ëª ½
Ġì§ ¤
Ġëªħ ëł¹
Ġì£¼ë ¬´
ĠìĿ¸ íķ´
ĠìŁģ ìłĲ
Ġëĭ¹ ëĭ¹
Ġë¦¬ëįĶ ìĭŃ
Ġë¬¸ ìĿĺ
Ġìĺ¤ ë¥ĺ
ĠìĭĿ ì´Ī
Ġìĭ¤ ë¬´
Ġíķĺ ìĸ
ëĵľ ëĿ¼ë§Ī
Ġë³´ ì¦Ŀ
Ġìĭł ëĭ¤
Ġí ļį
ĠëĥĲ ëĬĶ
Ġê±¸ ë¦°
Ġì¹¨ ëĮĢ
ĠìĹ° ìĨį
ĠêµĲ ë¥ĺ
Ġìłĳ ìĪĺ
Ġë§ŀ ìĿ´
ĠíĥĢ ê²©
Ġìį ©
ĠìĪĺ ìĥī
ĠìłĢ ë²Ī
ĠíĿĺ ë¦¬
ìĹ¬ ìķ¼
Ġë¶Ģ ìĦľ
ë© ĺ
ĠìļĶ ê±´
Ġì¡° ì¹´
ĠíĻĶ íķĻ
ĠìĤ¬ëĿ¼ ì§Ģ
Ġìĺ¨ ëĭ¤
ĠìĶ ¬
ĠëĨį ëĭ¨
Ġìĺ¤ ìĿ¼
Ġë§¤ ìļ´
Ġê°Ĳ ìĭľ
Ġì»¤ íĶĮ
ĠìļĶ ìłľ
ĠìĹ° ê³Ħ
ĠìķĦ ëĩ¨
ë¹ µ
Ġê³ł ë°±
Ġê´Ģ íķ´ìĦľ
Ġíŀĺ ëĵľ
ĠìĪĺ ë¶Ħ
ëĦ Į
ĠìĨĲ ê°ĢëĿ½
Ġìłķ íķĺ
Ġëĭ¨ë°± ì§Ī
íĦ° ë¦¬
Ġì±Ħ ìļ©
Ġì³ ¤
ìĮ į
ĠëĿ¼ìĿ´ ë¸Į
ĠìĿ¼ ìłľ
Ġì¡´ ì¤ĳ
ĠìĹ¬ ìĦľ
ĠëĮĢ ê°ľ
Ġìłķ ìĭĿ
Ġìľ¤ ë¦¬
Ġì¢ħ ìĿ¼
Ġ1 5
Ġíİ Ģ
Ġìĺ¤ íĶĪ
Ġìĸ´ëĶ ľ
ĠíĿĲ ë¥´
Ġ p
íķĺ íķĺ
Ġëĭ ¥
Ġì§Ģ ìĿ¸
Ġíĺ¸ ìĨĮ
ĠíĻķ ë¥ł
Ġëıħ ìŀĲ
ĠìķĮëł¤ ì¡Į
Ġì§Ģ ëĮĢ
ĠìĿ´ ëħĲ
ĠìĿ¼ë° ©
ëĭ ·
Ġë°° ìĭł
ĠëŀĦ ê¹Į
ëŀĳ ìĿ´
ĠìķĪ ìĭ¬
Ġë°ĶëĢ Ĳ
ëł ī
Ġìĭ¤ ìĭľê°Ħ
ĠëĤĺ ê²½
Ġì¡° íķ©
Ġë¬´ ìĤ¬
ëĤĺ ë¬¼
ĠíĮ¨ ìħĺ
Ġì±Ħ ëĦĲ
ìĸ´ ìł¸
Ġë³ĳ ìļ°
Ġëĭ¹ ëĤ´
ĠìĻĦ ë£Į
Ġê·¸ ì¹ĺ
Ġíĺ¸ ë¥´
Ġê½ Ĥ
ĠíĴį ê²½
íĺĢ ìĦľ
ĠìĹ ĩ
Ġëĭ¤ ìĪĺ
ĠìĿ´ ì¢ħ
ĠíĬ ¼
ĠëıĮìķĦ ìĻĶ
ìī ¬
ëŀĢ íŀĪ
Ġìľł íĨµ
Ġì§Ģ ë°°
Ġëĭ¤ë©´ ìĿĢ
Ġíķĺ ëĿ½
Ġìĭł ë°ľ
Ġê³Ħ ìłĪ
êº ¼
Ġìĸ´ëĸł ìĦ¸ìļĶ
Ġëħ¼ ìŁģ
ìļ´ ëĵľ
ĠìĿ´ ê²¨
Ġì£¼ ìľĦ
ĠìłĢ ëł´
Ġì¡° ìĦ±
ëĦ ĺ
ĠìĤ¬ ëł¹
Ġë¶Ģ ìĹ¬
Ġ /
ĠëĮĢ ê°Ģ
ĠìĤ¬ ìĿ¸
ê¹ ĥ
íķ Ģ
ĠëĦĺ ì¹ĺ
ĠìĤ¬ìĿ´ ì¦Ī
Ġì¡° ìĸ¸
ëģĦ ëŁ½
Ġë°© íĥĦ
Ġìĵ° ë¦¬
Ġíħ Ķ
Ġíķ¨ ë¶Ģë¡ľ
ë¬ ĺ
Ġì ĳ¥
Ġìĭ¤ ìĭľ
Ġê³ł ë¥´
Ġëĺĳ ëĺĳ
Ġìľ¤ ìĦĿ
ì¶ ¤
Ġíĺ¸ë¥´ ëª¬
ĠìĤ¬ ë¡ľ
ëĤ ©ëĭĪëĭ¤
Ġìĥģ ìŀĦ
Ġìĭ¤ ì¢ħ
Ġê¹Ģ ëıĻ
Ġëª© ìļĶìĿ¼
ĠëĪĪ ê¸¸
ëĴ ¤
Ġì£¼ ìĦ¸
ëĵľ ë¦¬
Ġë²Į ê¸Ī
Ġëĭ¤íĸī íŀĪ
ĠíĮĲë¬¸ ìłĲ
ë¶Ģ ìĿ¸
Ġë¶Ģ ì²ĺ
Ġì§Ħ ì§Ģ
ĠìķĦëĭĮ ì§Ģ
Ġì¡°ìļ© íŀĪ
Ġì° ľ
Ġê´Ģ ëŀĮ
ë´ ĩ
Ġë³´ìĹ¬ ìļĶ
ĠìĻł ì§Ģ
Ġìłľ ì¡°
ĠìĿ´ ë©ĶìĿ¼
Ġë© į
ĠìĤ¬ë¡ľ ìŀ¡
ĠìłĢ ìŀĲ
ĠíĹĪ ìļ©
Ġë³µ ê·Ģ
Ġê¹Ķ ëģĶ
Ġê³łêµ¬ ëł¤
Ġë³ĳ ìĤ¬
Ġì§ĢìĹŃ êµ¬
Ġëı ĭ
íĻķ ìĿ¸
Ġì´ Į
Ġë¶Ļ ìŀ¡
Ġë°ĺ ëł¤
ë¯¸ ìķĪ
ê¹ ģëĭĪëĭ¤
Ġìĺ¤ ë¦¬
ìĽĮ íķĺ
Ġì§Ģ ìĥģ
Ġë³´ ì¢Į
Ġìį ¬
Ġì§Ħ ì¶ľ
Ġëıħ íĬ¹
Ġìŀħ ë§Ľ
ĠìĦ±íıŃ íĸī
ĠìķĦìĿ´ ëĶĶ
Ġëĵ¤ìľ¼ë©´ ìĦľ
ĠëĤĺ ìķĦê°Ģ
Ġëĵ¤ìĸ´ ìĦľ
Ġê±° ëĮĢ
Ġìĸ´ë ĳĲ
ê±° ì§Ģ
Ġëł¤ êµ¬ìļĶ
Ġê¸Ģ ë¡ľ
ë¶Ģ ì§Ģ
ĠëĨį ëĭ´
ë¦ ī
ĠëįĶ ëŁ¬
Ġìŀĳ ëıĻ
Ġ5 0
ĠíĿ¡ ìĪĺ
ìŀł ìĭľ
Ġê³µ íĻĶ
ĠìĿ¸ ëł¥
Ġìĸ´ëĶ ĺ
Ġì¹´ì¹´ìĺ¤ íĨ¡
Ġë©Ķ ìĿ´
Ġì¹ ¸
Ġíĺĳ íļĮ
ĠëĤ´ëł¤ ìĺ¤
Ġê²½ìŁģ ëł¥
ìĺĪ ìĺĪ
Ġíİ¸ìĿĺ ìłĲ
ĠëĳĲ ë¶Ģ
Ġì¶ľ ìŀħ
Ġë°Ķ íĥķ
Ġë°Ķ ë¥´
ĠìķĦìĿ´ êµ¬
ĠìĿĺ íķľ
Ġì¹ĺ ìĹ´
Ġíİĺ ìĿ´ìĬ¤
Ġê²½ íĺ¸
ĠìĻĢ ìĿ¸
ĠíĶ¼ ìķĦ
ìĿ´ ëķĮ
ê°Ļ ìĿ´
Ġë§Į ë§Į
Ġê°Ģ ìĬ¤
Ġì¸¡ ìłķ
Ġë°ĶëŀĮ ì§ģ
Ġëª» íķ´
Ġì¦Ĳ ê²ģ
ê´ľ ì°®
Ġì§Ģ ì§Ħ
ì¡ ¸
Ġìľł ê¶ĮìŀĲ
ìĹ¬ ëŁ¬
ĠìĿ¸ ìĪĺ
Ġìŀ ī
ĠìĹ´ ëł¸
Ġìľł íķĻ
ĠëıĦìĦľ ê´Ģ
Ġìŀħ ìĽĲ
ëĬ ¦
ìĹĲ íĶĦ
Ġë§¤ ëĭ¬
ĠëĿ¼ ê¸°
ĠíĪ¬ ëªħ
ĠìĨį ìĥģ
Ġìľł ìĤ¬
ê ¾¼
Ġë§ī ìĥģ
Ġíģ´ ëŁ½
Ġë²Ħ ë¦´
Ġìĭľì¼ľ ìķ¼
ĠìĽĶëĵľ ì»µ
ĠíĥĲ êµ¬
Ġê³ł ìĤ¬
Ġì°¨ ê´Ģ
Ġì° °
ĠêµĲìľ¡ ê°Ĳ
Ġì¤ĳ ëĮĢ
Ġê°Ĳ ìĹ¼
Ġìĺģ êµ¬
Ġë°Ŀ íŀĮ
Ġë§¡ ê¸°
Ġëĵľ ë£¨
Ġë© ľ
ìĪ Ń
Ġìĭ¬ íķľ
ĠìĹ°êµ¬ ìĽĲ
ë² ħ
ĠíĻ© ìłľ
Ġê°Ģ ê¹Ŀ
Ġëį° ìļĶ
ĠíĨµ ì¦Ŀ
Ġë°´ ëĵľ
Ġëģ Ķ
Ġëª© ê²©
ìķĦ ë¹ł
ìĺ¤ ë¹ł
Ġìĭł ì²´
Ġíĸ¥ íķ´ìĦľ
ĠìłĦ ëł¥
Ġê±¸ ìĿĮ
Ġì²ĺ ë¶Ħ
ĠíĮĮ íĬ¸
Ġë§Ī íĿĶ
ĠìĿ¸ ê·¼
Ġíģ´ ëŀĺ
Ġì¶ľ ìĤ°
ĠìĿ´ìĤ¬ ìŀ¥
ëĶĶ ìħĺ
ĠëĮĢ ê¶Į
ĠíĻķ ìŀ¥
Ġê·¸ëŁ¼ ìļĶ
Ġì¤ĳ ê³Ħ
ë¨¼ ìłĢ
Ġê±° ìłĪ
Ġìķł ìłķ
Ġíĳ ¹
Ġ~ !
Ġìľ¼ë Ŀ¼ê³ł
ìĿ´ ëĤł
Ġë°ķ ìĬ¤
ëĨ Ģ
ĠìĪ¨ ê²¨
ĠëĮĢíķ´ ìĦł
ìĥĿ ê°ģ
ĠëĶ°ëĿ¼ ê°Ģ
ĠíĹ ·
ĠëģĬ ìŀĦ
ī ĺ
Ġë¦¬ ê·¸
Ġë¬´ ìĹŃ
Ġëª¨ ìħĶ
Ġìĭľë¦¬ ì¦Ī
ĠíĪ¬ ìŀħ
ĠíĶĮ ëłĪìĿ´
Ġê² ¹
Ġìĭľ ê³¨
ĠìĿ´ ëª¨
ĠâĢĻ ,
Ġê¹Ģ ìļ©
Ġíŀ Ĳ
Ġê³ł ëŁ°
ĠëĤĺìĻĢ ìķ¼
Ġìı ł
Ġì°© ê°ģ
Ġì¤ĳ ëıħ
ë³ į
Ġë¬´ ê²Į
ë¦¬ ìĸ´
Ġê·¸ ê³³
Ġê°Ģ íĥľ
ĠëĨĵ ì¹ĺ
Ġëł Į
ìĸ´ ëĦ£
Ġëį° ìĿ´íĬ¸
íĨ ¤
Ġë§Ī ìħĶ
ĠìĦ¬ ìľł
ĠìĹ¬ ìĿĺ
Ġë½ Ģ
Ġë°° ìĽł
ĠëıĦ ëįķ
ĠìĥĿ ì¡´
Ġìĭł ìļ©
Ġê³ł ê¸ī
Ġê¸° ê°ģ
Ġë¹Ħ ëĶĶìĺ¤
ĠìĹ° ë§Ĳ
ë£ ¬
Ġë³Ģ ìĪĺ
Ġì¦Ĳ ê±°
ĠëĥĲ êµ¬
ĠëĬĲëĤ Ģ
Ġìļ° ìĬ¹
ĠìĬ¹ ë¶Ģ
ëĵ¤ ìĸ´
Ġì°¨ ëĭ¨
Ġíıī ëĵ±
Ġëĵľ ìħ¨
ë°Ķ ëĭ¥
Ġë§¤ ëħĦ
Ġë³Ħ ëıĦ
Ġë³´ ìľł
ĠíĨµ íķĺ
Ġìłľ ìĿ´
ê·¸ëŁ¬ ëĤĺ
Ġíĸ¥ íķ´
Ġëĭ¤ ìĨĮ
Ġë§Į ìĿ¼
Ġë¸Į ìĿ´
ĠìĿ¼ ìĸ´ëĤł
Ġê³ł ë¬¸
ĠíĻľ ìķ½
Ġë¯¸ ì¹ľ
Ġëıħ ìŀ¬
ĠìĹ¼ ì¦Ŀ
Ġê´Ģ ì¸¡
Ġì²Ń ìĽĲ
ĠëħĢ ìĦĿ
ĠëĤĺê²½ ìĽĲ
ĠìĹ° ëł¹
Ġë°Ķê¿ Ģ
Ġëĭ¨ ìĨį
ĠìĮ ¤
Ġì° ¢
ĠìĦ¸ ì¢ħ
ĠëıĻ ìŀĳ
Ġë¹Ľ ëĤĺ
Ġê·¸ëŀ¬ ìĹĪ
Ġë°© íķĻ
Ġì°½ ìĹħ
íĳ ¸
ĠìĪľ ìĪĺ
ìĥĿ íĻľ
ĠìĬ¤ëŁ¬ ìĽĮ
ĠìĽ¬ ë§Į
Ġí Ģ
ĠêµĲìľ¡ ë¶Ģ
ìķĦ ê¹Į
Ġê³ł ìĨį
Ġíĥ ±
Ġì£¼ë °©
ĠíĹĪ ê°Ģ
Ġì§Ģ ìŀĲ
ì¡° ìĺģ
Ġë¶Ģ ë¥¸
ê¸° ìĹħ
ĠëįĶ ë¸Ķ
Ġë¹Ħ íķĺ
ĠìĪĺ ë¡Ŀ
Ġë¶Ģ ë¦¬
Ġë¬¸ ìĦľ
ĠíĹ Ľ
ĠëĤĺ ìĦł
ĠëĬĺ ë¦¬
Ġë©Ķë¥´ ìĬ¤
ĠìĻĢ ìļĶ
ĠíıŃ íĥĦ
Ġë ·
íĻĶ ìłĲ
ëĵ ¯
Ġê°Ĳ ìĺ¥
Ļ ëĭĪëĭ¤
Ġì¡° íķŃ
Ġëĵľ ìĦ¸ìļĶ
Ġëį §
Ġìķł ë§¤
Ġë¦¬ íı¬
Ġì¶Ķ ì¸¡
Ġë¯¸ íĮħ
Ġë°ĺ ê°Ģ
Ġìĭ¤ ì²ľ
Ġì§ķ ê³Ħ
Ġë§ ĳ
Ġê¹Ģ ì§Ħ
Ġëĭ¤ê°Ģ ìĺ¤
ĠíĴĢ ë¦¬
ĠëĪĦ ë¥´
ëĤĺ ê°Ģ
ĠíĥĿ ë°°
Ġëª¨ ìĿ´
Ġíı¬ ì°©
ê·¸ ëŁ´
Ġê²¨ ìļ°
Ġìĭ¤ ëŀĺìļĶ
ł¤ ê³ł
Ġìŀ¡ íŀĪ
Ġë¡ľ ë´ĩ
Ġëĵ¤ìĸ´ìĺ¨ ëĭ¤
Ġìłķ ì§Ģ
ìĨĮ ëħĦ
ìĬµ ëĭĪê¹Į
ĠìĿ¸ ë¯¼
ìĸ´ë ¨¸
Ġìľ¡ ìķĦ
Ġê°Ģ ë³į
ĠëĤĺìĻĶ ìĹĪ
Ġíĺ¼ ìĿ¸
Ġëª° ëĿ¼ëıĦ
ĠìĤ¬ ë©´
Ġíķ´ ìĤ°
ìķĦ ë§Ī
Ġì¤Ģ ëĭ¤ê³ł
Ġìĺģ ìĽĲ
ĠëĿ¼ë įĺ
Ġìķł ì´Ī
ë ½
ĠëıĮ íĮĮ
Ġì·¨ ìŀĦ
ë´ ¤
ĠìĿ´ ìĦ±
ĠíĹĪ ìľĦ
Ġë°ĺê¸° ë¬¸
ìĪĺ ìĥī
Ġì¡´ ê²½
Ġë¶ ĵ
ĠìĭĿ ë¬¼
ĠìĤ´ ë¦¼
Ġíıī ë²Ķ
ĠëĤ´ ë¦°
Ġìļ ±
íĨ ±
ĠìĦł íĺ¸
ì «
Ġì¶ľ íĮĲ
Ġìľ¤ìĦĿ ìĹ´
ĠíĮĮ íĭ°
ĠíĹ Ĳ
ëĳ¥ ìĿ´
ĠìĿ¸ íķľ
ĠìĿ´ ìŀĲ
Ġì§ĢëĤĺ ì¹ĺ
Ġë²Ħ íĭ°
ĠìĺĪ ìłĢ
Ġëĭ¤ëĬĶ ëį°
ĠíĮ¨ ìĬ¤íĬ¸
Ġë³µ ìĪĺ
Ġìŀĸ ìĬµëĭĪê¹Į
ĠëĦĺ ê²¨
íŀ ĺ
Ġìľł ë°ľ
Ġëĵ¤ìĸ´ ìĺ¬
Ġê°Ģë¥´ ì¹ĺ
ëł¤ ìļĶ
Ġìķ Ļ
ĠìĪ ²
Ġìŀ¥ ë¹Ħ
ĠìĻ¸ ëª¨
ĠìĻĶ ìĹĪ
Ġìķ¡ ìħĺ
ĠìĿ¸ ìŀĲ
ĠìķĦìĦľ ìļĶ
Ġí Ī
Ġìĺ¬ëĿ¼ ê°Ķ
ħ ìĭľëĭ¤
Ġë¡ľ ë§¨
Ġê´Ģ ìĹ¬
ĠíĹ· ê°Ī
ëį ¤
Ġê°Ģìł¸ ëĭ¤
Ġìĥ Į
Ġìł ĸ
Ġì£¼ ìĤ¬
ĠëĤĺ ë¹ł
íģ °
Ġì¢ħ ìłĦ
ĠêµĲ íļĮ
ë¹ ¡
Ġë¸Į ëĿ¼
ëĺĲ íķľ
ĠìĿ´ë¥´ ì¼Ģ
ĠìĿĺ ìŀĲ
ĠíĸĪ ìŀĸìķĦ
Ġìłķ ë¬´
Ġê²¬ ìłľ
ë ®¤
ĠìľĦ ìŀ¥
ĠìķķìĪĺ ìĪĺìĥī
ì ·
Ġë²Ħ ìĦ¯
ĠíĨł ë§Ī
Ġìĸ´ ë¦¬
Ġìĸ¸ìłł ê°Ģ
Ġë¶Ģ ìŀĳ
Ġê·¸ë¦¬ êµ¬
Ġê³¼íķĻ ìŀĲ
Ī ìĹĲ
Ġíķľëĭ¤ ëĵłì§Ģ
íĺĦ ìŀ¬
Ġì§Ģì§Ģ ì¸µ
ĠíıŃ ë¡ľ
ĠíĺĦ ì§ģ
Ġìķ ĵ
Ġì±ħìŀĦ ì§Ģ
ĠëıĮìķĦ ëĭ¤ëĭĪ
êº ¼ë²
êº¼ë² ĪìĹĲ
Ġíĸ Ħ
Ġíĸ¥ íķľ
Ġì§ģ íĽĦ
Ġê°Ģ ë¡ľ
ĠëĦĺ ê¸°
ìĸ¸ ìłľ
ĠìĺĪ ìĿĺ
Ġë³Ģ ìĭł
Ġë¸Įë¦¬ íķĳ
ĠëĮĢë²ķìĽĲ ìŀ¥
Ġíĥ Ķ
ĠìĿ´ ëĮĢë¡ľ
ìĸ¼ë §Ī
Ġê¸Ģë¡ľ ë²Į
Ġìĸĳ ìĭ¬
ĠìĬĪ íį¼
Ġë¶Ģ íĴĪ
Ġê²½ ë¹Ħ
ĠíķĺëĤĺ íķĺëĤĺ
Ġê°ľ ìµľ
ĠëĮĦ ìĬ¤
Ġë©Ī ì¶Ķ
ĠíĥĢìĿ´ íĭĢ
Ġì£¼ ì²´
ëł¤ ìķ¼
ĠìĪĺ ìļĶ
Ġë©´ íĹĪ
Ġíģ Ĳ
ĠíĨ ¡
ĠìłĦ ì§ģ
Ġê³Ħìķ½ ìĦľ
Ġêµ ½
ìĻľëĥĲ íķĺë©´
Ġê¸Ī ë¦¬
Ġìľ¼ìħ¨ ìĸ´ìļĶ
íķ´ ìķ¼
Ġë¡ ¯
Ġì§Ī ë³ĳ
ëļ Ŀ
ĠìĹ¬ íĥľ
ĠìĹ° ìĦ¸
ĠìĽĲ ìŀĲ
Ġì¦Ĳ ê±°ìļ´
ĠìĿ´ ìĬ¤
ĠíĶĦëłĪ ìŀĦ
Ġìĺģíĸ¥ ëł¥
Ġìĺ¤ ì¼ĢìĿ´
ĠìĹ¬ ê¸´
ëį ©ìĿ´
Ġì±Ħ ìĽĮ
Ġì¹ľ ìłĪ
Ġë¹ Ĺ
ĠëĵľëĿ¼ êµ¬ìļĶ
Ġêµ¬ ë©į
Ġë³´ìĹ¬ ì§ĳëĭĪëĭ¤
Ġë§ĪìĿĮ ëĮĢë¡ľ
ĠìĿ¼ë°ĺ ìĿ¸
Ġê°ĸ ì¶Ķ
ì¶ §
Ġê³¼ë ıĦ
Ġìĸ¼ ìĿĮ
ĠìŀĲì¡´ ìĭ¬
ë§İ ìĿ´
Ġíķĺ ëıĦ
ĠìĦľ ìļĶ
ĠìĿ´ íĥľ
Ġë²ķ ìĿ¸
ĠëıĮìķĦ ë³´
Ġíķ© ìĭľëĭ¤
ĠìĺĪ ìŀĲ
ĠíħĮìĿ´ ë¸Ķ
Ġê³ ½
ì´Ŀ ìŀ¥
ĠìĿĳ ëĭµ
Ġë³¶ ìĿĮ
Ġìłķ ìĦ±
ĠìĪľ íĻĺ
Ġê¹Ģê²½ ìĪĺ
Ġë¯¼ ê°Ĳ
Ġíķľ êº¼ë²ĪìĹĲ
ĠìĨĮ ìĪĺ
Ġìłķ êµŃ
Ġëĭ¹ ë¶Ħ
ĠìĨĮ ì£¼
ĠíĦ ±
Ġê²Į ìĭľ
Ġë§ī ëĤ´
Ġìĭł ì¤ĳ
ĠìĿ¸ ë¥ĺ
Ġê´Ģ ìłĪ
Ġë¬¸ ìŀ¥
Ġì½ľ ëĿ¼
ìĿ´ ê²ĥ
Ġì§Ħ íķĻ
ĠíļĮ ê³Ħ
Ġë³Ģíĺ¸ ìĿ¸
Ġìĺ ¹
Ġëĺ ¥
Ĳ ģ
ĠìķĦ íľ´
ĠëĮĢ ëŀµ
ĠíĻĶ ìļĶìĿ¼
Ġìłģ íıĲ
ìĺģ ìĹħ
ìļ´ ëıĻ
Ġë°ķ ìĺģ
Ġì°¨ ë¦¬
ëĨ į
Ġìĥģ íķĺ
Ġë°° ê³ł
Ġê³ł ëª¨
Ġíķĺ êµ¬
ĠëĮĢíķĻ ìĥĿ
ĠìĦł ìłĦ
ìĿ¼ êµ¬
ĠìĤ¬ ì°°
Ġê·ľ ëªħ
ĠëĨį êµ¬
ĠíĨµ ìĥģ
ëĦĪ ìĬ¤
ĠìĦľ ìļ´
Ġê° ĵ
Ġìłķ ë¹Ħ
Ġìłģ íķ©
Ġëł¤ê³ł ìļĶ
ìĿĦ ê¹Į
Ġìŀ¥ ìĦ±
ĠìŀĲ ìĤ°
ĠìĿĳ ê¸ī
Ġì§ľ ì¦Ŀ
ìĸ´ ë¦¬
ĠìĹĶ ì§Ħ
ĠìĨĮ ê°Ĳ
ĠìłĢ ëŁ¬
ĠìĹ° ìĿ¸
ĠìĽ ¹
Ġëĭ¹ ìĿ¼
¦ Ħ
ìĿ¼ë ¶Ģ
ĠìĿĺ íķĺ
ì ĮĢ
ĠìĤ¬ ìľĦ
Ġì°¨ ìŀ¥
ëŀĢ ëĭ¤
Ġê³Ħ ëŀĢ
Ġìľł íĺķ
Ġì§Ģì¼ľ ë´Ĳìķ¼
Ġì» ·
ëĳ ¬
Ġê²½ì°° ìĦľ
Ġìĭł ë¶Ģ
ìĸ ĺ
Ġë¬¼ëŁ¬ ëĤĺ
íĮĮ ìĿ´
Ġë¯¸ ì³¤
Ġìĸ¸ë¡ł ìĤ¬
ĠìłĦ ëĳĲ
Ġêµ¬ ìĹŃ
Ġìľł ì£Ħ
Ġë§¤ ì£¼
Ġë¬´ ìŀ¥
ĠìĿ´ê±¸ ë¡ľ
Ġíķ´ ì§Ī
Ġê³¨ ëª©
ëĭĪ ìķĦ
ĠìĻĢ ìķ¼
Ġìĺ¤ íĶĦ
Ġì§Ħ íĻĶ
Ġê¸° ì§Ģ
ĠëģĬìŀĦ ìĹĨìĿ´
Ġìłģ ìĿĳ
Ġë¬´ ì§Ģ
Ġë¶Ħ ìĹ´
Ġìľł ëıĦ
íİĺ ìĿ´
Ġëĭ¤ ë¦ħëĭĪëĭ¤
Ġëł ¥
Ġëĭ´ ê¸´
ĠìŀĲ ìłľ
ĠìĿ¼ ì§Ģ
Ġê°Ħ ëĭ¤ê³ł
ĠëģĶ ì°į
ĠíĻķ ìĭł
Ġíİ¼ ì¹ĺ
ĠëĪĦêµ° ì§Ģ
ëĤĺë¦¬ ìĺ¤
ĠìĨĮ ìĿ´
ì¿ ¨
¸ Ĳ
ĠìķĦëĭĲ ê¹ĮìļĶ
ĠëĦĪë¬´ ëĦĪë¬´
Ġê°Ģìł¸ ìĺ¤
ĠëıĦ êµ¬
Ġìłķ ê¸°
ĠìķĦ ìĽĥ
Ġn ame
Ġì°¾ìķĦ ìĺ¤
Ġëģĵ ìĿ´
Ġê°Ī ëĿ¼
Ġíķľ ë³µ
ĠëŁ¬ ë¸Į
Ġì£¼ì°¨ ìŀ¥
Ġëĭ¤ íģĲ
ĠëĮĢ íķĺ
ĠìĪĺìĪĺ ë£Į
Ġë°± íĻĶìłĲ
ĠíĻĺ ìĺģ
Ġê°Ī ê¹Į
Ġíĭ° ë¸ĮìĿ´
Ġê´ĳ ìŀ¥
ĠíĺĦ ìķĪ
Ġë§ī ë§Ĳ
Ġ d
ê° ĸ
Ġì°¸ ìĤ¬
ĠìĺĪ ë»Ĳ
ĠìĪĺ ëĭ¹
íĶĦ íĬ¸
2 0
ë¡ľ ê·¸
Ġíĩ´ ì§ģ
ĠìĹ¬ ìĿ¸
Ġëĭ¬ëĿ¼ ìļĶ
Ġìł ¤
Ġëįĺ ê°Ģ
ĠìŀĲ ìķĦ
Ġê°Ĳ ìĨĮ
íĶ¼ ìĬ¤
Ġìĸ ¹
ë©Ķ ëĭ¬
Ġíķ©ëĭĪëĭ¤ ë§Į
Ġê²° ì½Ķ
ĠëĨĢëĿ¼ ìļ´
Ġëª¨ìĿĺ ê³łìĤ¬
ìĤ¬ ëŀĳ
Ġë°° ìļ´
ĠëĤĺíĥĢ ëĤľ
Ġëĵ¤ìĹ¬ ëĭ¤
Ġê¹Ģ ë¶Ģ
Ġì¦Ĳ ê²¨
ĠëĿ ł
ĠìĤ¬ë²ķ ë¶Ģ
ĠêµŃ ë¦½
Ġê°ķ ëıĦ
Ġë¹Ħ ì¤ĳ
Ġíĸ¥ íĽĦ
ĠìĿ¼ë ³´
Ġëħ¸ ìĦł
ĠìĿ¼ ê´Ģ
ê¾¸ ë¡ľ
Ġìĭ¤ íĸī
Ġê¹Ģ íķľ
ĠíĨµ ìŀ¥
Ġë¯¸ ëĭĪ
Ġë°ľ ëĭ¬
Ġìĸµ ì§Ģ
ĠíĶ¼ìķĦ ëħ¸
Ġê°ķ ìļĶ
ĠìĤ¬ ê·Ģ
Ġë°Ģ ìĸ´
ĠìĥĪ íķ´
Ġìĭľ ê³Ħ
ë¦¬ìĬ¤ë§Ī ìĬ¤
Ġì§Ģì§Ģ ìŀĲ
Ġì°¨ íĬ¸
Ġì¹ľ ìłķ
ì²ĺ ìĿĮ
Ġê·¸ë§Į ëĳĲ
Ġë¡¯ ëį°
ĠìĺĪ ë¯¼
Ġê²½ ëĤ¨
ĠëĤ¨ ìª½
Ġë§¤ëĭĪ ìłĢ
ëĦ¤ ëĦ¤
Ġë£ ¸
ĠíķĦ ìĪĺ
Ġë¡ ¤
ĠíĭĢ ë¦¬
Ġíķł ëł¤ë©´
Ġê±° ì¹ĺ
Ġìĭľ ëĤĺë¦¬ìĺ¤
Ġìĺ¤ ë°Ķ
ĠíĻĺ ë¶Ī
Ġì§Ħì§ľ ë¡ľ
Ġëĳ ¥
Ġêº ¾
ìĬ¤ ì½Ķ
Ġì§ĢìŀĲ ì²´
Ġìĭł ìĦł
Ġê¹Ģ íĺľ
Ġì¹ĺ ë¥´
Ġëª°ëĿ¼ ìĦľ
Ġìĭľ ì§Ħ
Ġì²ł ìĪĺ
Ġë¹Ħ ë°ķ
Ġìºł íĶĦ
ĠìĥĿ ìĦł
Ġê³µ ë°©
Ġë¦ ½
ĠìłĢ íķŃ
Ġì§Ģ ìĪĺ
Ġê¸° ìĹ¬
Ġë°° ì¶ľ
ìĺ¨ ëĭ¤
ĠìķĦìī¬ ìļ´
ë ĩĮ
Ġê±° ëĵŃ
ìĬ¤ íĨł
ìŀ ī
ĠìĨĮ ì§Ģ
Ġì° Ķ
ëģ Ŀ
Ġì¢Į ìĦĿ
ĠëĬĶ ëĭ¤ë©´
ĠìĤ´íİ´ ë³¼
ĠëŁ ī
Ġì§Ħ ë£Į
Ġìľł ì¶ľ
ì© ¡
ĠíĮ į
ìŀ İ
êµŃ ë¯¼
ì°Į ê°ľ
ĠìłĢ ì§Ī
ëĶ ¸
Ġë¶Ģ ìłģ
Ġìĭ¬ íķ´
Ġìŀ¥ ìķħ
ĠíĬ¹ ìľĦ
ìķĦë¬´ ëŀĺëıĦ
Ġê³ł ì³Ĳ
ĠêµŃ ìĪĺ
ĠìĿ´ë£¨ ìĸ´ì§Ħ
Ġì¡° íĺĦ
íĻĶ ë¬¸
Ġê°Ħíĺ¸ ìĤ¬
ĠìŀĲ ìĺģìĹħ
ĠëĬĲ ëĿ¼ê³ł
ĠìĤ¬ ìŀĲ
Ġìĺģ ê°Ĳ
ëĳĺ ëŁ¬
ëŀĢ ëĵľ
ì§ķ ìĸ´
ĠëĴ Ģ
Ġë¶Ģ ë¥¼
Ġëª¨ìķĦ ìĦľ
Ġìłķ ìľł
ĠëĶĶ ì§Ģ
Ġìłķ ìĦ¸
ë§Ī ìĿĮ
ĠìĿ´ ëĤł
Ġê³µ ìĨĮ
Ġì¹ĺ ì¦Ī
ìĿ¼ë Ł¬
ìĿ´ ëŁ¬
Ġëª° ëł¤
Ġì¶Ķ êµ¬
Ġìĺ® ê¸°
Ġê¹Ģ ìĪĺ
Ġìĵ° ìĿ´
Ġëħ¸ ë¦ĩ
Ġê¸Ģ ìŀĲ
Ġì§Ģ íĺľ
ë ¸Ĳ
Ġë¬´ ëĦĪì§Ģ
Ġì²Ń ì¶ĺ
Ġì¼ĢìĿ´ íģ¬
ĠìĿ´ ìĪĺ
Ġìľ µ
ĠìłĢ íķĺ
ĠíĮĮ ê´´
§ Ŀ
Ġê°ķ ìĹ°
ĠìłĬ ìĿĢìĿ´
ĠìĬ¤ íĥ
ì¶§ ê°Ģë£¨
Ġì²ł ëıĦ
Ġê¸°ëĮĢ ê°Ĳ
ë£ °
Ġëŀ ľ
Ġë¶Ģìŀĳ ìļ©
Ġë¶Ģ íĮ¨
Ġë°Ķ ë¹ł
ĠëĶ ľ
ĠëĤ© ëĵĿ
Ġì§ĢëĤľ ëĭ¬
Ġê²ł ì£ł
Ġì¡° íļĮ
ĠìĦľ ìĸĳ
Ġë¨¹ ìĿ´
ĠìĻĢìĿ´ íĶĦ
ĠìĦł ìĤ¬
Ġìħ °
Ġê°Ĳ ê°ģ
ĠìłĦëĳĲ íĻĺ
Ġê³łë§Ī ìĽĮ
Ġíļ¨ ìľ¨
Ġê¸°ìĸµ ëĤĺ
Ġìľ Ĺ
ĠìĽĥ ê¸°
ë³¶ ìĿ´
Ġìĸ´ ìĿ´
Ġë³´ ëĭ¨
Ġê¼¬ ë¦¬
ĠíĴį ë¶Ģ
í į¼ë
Ġë Ŀ½
Ġë°Ķ ìģľ
ĠëĵľëŁ¬ ëĤ¬
Ġíķ´ ìĦ¤
Ġê±´ ì¡°
Ġëªħ ëĭ¨
ìĩ ł
Ġìķħ ê¸°
Ġê±° ì£¼
Ġìĸ´ëł¤ ìĽł
Ġê±° ê¾¸ë¡ľ
Ġëľ¨ ê±°
Ġì£¼ ìĦĿ
Ġìķķ ëł¥
ĠìĪĺ ìĬµ
ëŁ¬ ìļ´
ëį ľ
Ġë¬´ ìĸ¸
Ġìŀ¬ ëĤľ
Ġê²Ģ ê±°
ĠëĭĪê¹Į ëĬĶ
Ġíķľ ì°½
Ġë°ĺ ìłĦ
ë§Ĳ ìĶĢ
ë¦¬ ìĬ¤íĬ¸
Ġê°Ģ ëĤľ
Ġíģ¬ ë¦¬ìĬ¤ë§ĪìĬ¤
íķĺ ë£¨
ĠìĻľ ê³¡
ë¬¼ë ¡ł
Ġíĥľ ê·¹
Ġê²Ģìĥī ìĸ´
Ġëį ¥
ĠìĥĿ ê°ķ
ĠíĿĶëĵ¤ ë¦¬
ĠìĹ¬ë³´ ìĦ¸ìļĶ
Ġë°ľ ìĿĮ
ë¬¼ ê´Ģ
íĺľ ìĽĲ
ĠíĹ ĺ
Ġë± ĥ
ĠìķĦ ìĭľ
ìĤ¬ ê³ł
ĠìļĶ ìĽĲ
Ġìĸ´ ìľł
ĠíĨłë§Ī íĨł
Ġë¯¸ ì¹ł
Ġë°Ķê¿ ¨
íļĮ ìĤ¬
íĭ° ë¸Į
ì· Ħ
ĠìĬ¤ ëĭĺ
ĠëĤľ ëĭ¤
ĠëģĮ ëł¤
ìĸ´ ì©
Ġëħ¹ íĻĶ
Ġëĵ¤ìĹ¬ ëĭ¤ë³´
Ġë§ī íŀĪ
ìħ ľ
Ġì£¼ ê±°
Ġìľł íķ´
Ġë°Ķ ì§Ģ
Ġìĭł íĺ¼
ĠíķĻ ëĮĢ
Ġì²ľ ìŀ¬
ĠìĿ´ ëĿ¼ëıĦ
Ġë¶Ħ ìŁģ
Ġê³ł ìŀ¥
Ġë°¥ ìĥģ
Ġë¶ ī
Ġë¶Ģ ëĭ¹
Ġìľł ê°Ģì¡±
Ġìŀ¥ ìĪĺ
³ ĳ
ĠëıĦ ëĳĳ
Ġë§Ľ ì§ĳ
ĠíĬ¸ ë¡ľ
Ġê°Ĳ íŀĪ
Ġë§Ī ëķħ
ĠëĤł ìķĦ
ĠìĻľëĥĲíķĺë©´ ìĿĢ
Ġìĭľ ëĤ´
Ġì¡° ê°ģ
íķľ ëĭ¤
Ġìĭľì§Ħ íķĳ
Ġë³´ ë¦¬
ĠìĿ¸ ì¦Ŀ
Ġìħ ĺ
Ġë¶Ģíĥģëĵľ ë¦½ëĭĪëĭ¤
Ġì²Ń ìŀ¥
Ġìĸ ĩ
Ġìĭł ëıĻ
Ġì§ĳ ìĸ´ëĦ£
Ġì§Ĳ ìŀĳ
Ġì·¨ ë¯¸
ìĸ´ ì
Ġíķľ ëĭ¨
Ġìĥģ ìľĦ
Ġë¶Ħ ìĸĳ
ĠëĤ´ ëĨ¨
Ġë²ķ ì¡°
ĠìĿ´ ìĻ¸
Ġê¸° ëıĦ
ĠëĤ´ ê°ģ
íĿ¬ ìłķ
Ġë°ĺ ë°ķ
Ġë§Ĳ ë¦¬
ĠìĪĻ ìĨĮ
Ġì£¼ ê¸°
ìĦ¸ íĽĪ
Ġíİĺ ìĿ´ì§Ģ
Ġë§¡ ê²¨
ĠëĲĺ ëıĮ
Ġëĵľë¦´ ê»ĺìļĶ
Ġìł¸ ìļĶ
ĠìķĦ ëģ¼
ĠìļĶ ìĸĳ
Ġëª¨ë¥¸ ëĭ¤
ìĭŃ ìĭľìĺ¤
Ġë³Ħ ëªħ
ĠìĨĮ ìĭł
ìĨĮëħĦ ëĭ¨
Ġëįĺ ìł¸
Ġì°½ ì¡°
ĠìĹħ ê³Ħ
ĠìļĶ ê·¸
Ġì¶ľ ìŀ¥
ĠìĤ¬ ëª¨ëĭĺ
Ġë§¥ ëĿ½
² Ħ
Ġ' ,
Ġëħ¸ íĽĦ
ĠíĻį ì½©
Ġìĺģ ê´ĳ
Ġì¡°ìĦł ìĿ¼ë³´
ĠìłĦ ê°ľ
ĠíħĶ ëłĪ
íĮ ½
Ġê³µëıĻ ì²´
ĠìłĢ ê±¸
Ġê´Ģ ì°°
ĠìĹ¬ìĿĺ ëıĦ
Ġê³ł ìľł
ĠíĮĮ ë¦¬
ĠâĢ ¦
Ġê°Ģ ìĿ´ëĵľ
Ġê°Ħ ë¶Ģ
Ġì²´ ëł¥
Ġì¹´ íĨ¡
Ġê°ķìĽĲ ëıĦ
ĠíĥĪ ì¶ľ
Ġìĸĺê¸´ ëį°
ĠìĽĶ ìĦ¸
Ġìĭł ëŀĳ
ĠëĶĶì§Ģ íĦ¸
ĠìĿ´ ì¤Ģ
Ġìĸ¸ìłľ ëĤĺ
Ġêµ ¶
Ġê¸° ìŀ¬
Ġì°¨ ê¸°
ë°Ķ ìĿ¼
ì¼ĢìĿ´ ìħĺ
ĠìłĢ ê²ĥ
Ġë¶Ī ìĮį
Ġë¨¸ ë¦¿
ĠíĻľ ë°ľ
Ġêµ¬ ìĽĮ
Ġëĭ¤ ëįĺ
Ġì£¼ë ¨¹
íĪ ¼
Ġë¶Ħ ë¥ĺ
ìķ ĺ
ĠìĿ¸ íĺķ
Ġìłķ ìŀĳ
ĠëĤ´ ì£¼
Ġì·¨ íĸ¥
Ġê·¸ëŀ ¨
° ĺ
ĠìĬ¤ íİ
Ġìļ° ìĹ°íŀĪ
Ġê·Ģ ìĹ½
ĠíĹ¤ ìĸ´ì§Ģ
ê·¸ ê±¸
Ġìĺ¤ ì§ķìĸ´
ĠíĻĶ ìĦ±
Ġëªħ ë°±
ĠëĤ´ëł¤ ëĨĵ
ĠíĮ ģ
ĠìĥĿê²¨ ìĦľ
Ġ o
Ġê·¸ëŁ¬ ëĭĪê¹Ĳ
ĠìķĦìķ¼ ì§Ģ
ĠìľĦìķĪ ë¶Ģ
Ġíķ´ ê³ł
ĠëĶ± íŀĪ
Ġê³ĦìĭŃ ëĭĪê¹Į
ĠëıĮìķĦ ìĺ¨
Ġê³ł ëł¹
ĠìĺĪ ìĿĮ
ĠìļĶ ê³ł
Ġê³µ ìŀĳ
ĠìĽĲ ìłĦ
Ġë¶Ī íĸī
ĠìĹ° íľ´
Ġê´Ģê´ĳ ê°Ŀ
ì Ńī
Ġë¶Ģëĵľ ëŁ½
ĠíŀĪ íĬ¸
Ġìķ½ íķĺ
Ġë°ķ ë¬¼ê´Ģ
Ġìĭł ìĨį
ĠìĤ¼ ì´Į
ĠíĶ¼ ìŀĲ
Ġìŀ¡ íĺĢ
ìĸ´ë ľ
ê³ ¼ë
ìł ĵ
Ġìĥ Ĳ
Ġëĭ¤ ë¦Ħ
Ġì§Ģ ëĥĪ
ĠìĹ´ ì°¨
Ġê°Ģ ëŁī
Ġì¹¨ íķ´
ĠìĽ ħ
Ġëĭ¬ ëŀĺ
Ġì£¼ ê°Ħ
ĠìĦ± íķ¨
Ġê²° ëĭ¨
Ġìķħ íĻĶ
ĠìĽ¬ ìĿ¼
Ġê· ¤
ĠìĿĺ ìĥģ
Ġëĸ¡ ë³¶ìĿ´
Ġë°ĺ ì§Ģ
íķĻ ê·ľ
ĠíĨ ±
Ġêµ¬ ì¶ķ
Ġë°Ģ ë¦¬
ê²ł ëĭ¤
ĠìĹĲìĸ´ ì»¨
Ġì´Ī ì²Ń
Ġë¬´ ëł¥
Ġìĩ ł
ĠëĮĢ íĸī
Ġê³Ħ ëĭ¨
ìķĦ ë¦¬
Ġëĭ¤ ì¹ĺ
Ġë²Ħ ìłĦ
Ġ2 00
ë¥ ľ
Ġë¡ Ŀ
Ġë°Ķ ê¾¼
Ġëĭ¨ ëĭ¨
ĠëĮĢ ìłĳ
ĠìļĶ ê±¸
Ġì¡° ê¸°
Ġë¿Į ëł¤
Ġê±¸ìĸ´ ê°Ģ
ĠìĪĺ ë°±
Ġê°Ģ ëł¤
Ġì°¸ ê¸°ë¦Ħ
Ġêµ¬ ëĳĲ
íĶ ¼ë
Ġì°© íķľ
ĠìĨĮ ìĽĲ
ĠêµĲ ìĸĳ
ì° ¾
Ġìŀĥ ìĸ´ë²Ħ
Ġì±ħ ìĥģ
Ġëľ ¬
íĭ° ì¦Į
Ġì¡° ëªħ
Ġìľ¡ ìĪĺ
Ġëľ¨ ê²ģ
ĠíķĻ ëł¥
Ġì±Ħ íĥĿ
Ġì§Ģ ëªħ
Ġìĭł ëĤĺ
Ġíĳ ¼
Ġê¸ī ìĹ¬
ĠìĿĢ ê°Ģ
ìĿ¸ ìłľ
Ġì¤Ħ ìĸ´
Ġê¸° ìłģ
Ġëĸł ëĤľ
Ġì¶ľ ë²Ķ
ĠëĦ ī
Ġìĥģ ê°Ģ
ĠìĹ İ
ê± ±ìłķ
ĠíĮ¨ íĦ´
Ġì§Ī ìĦľ
ĠìĦŃ ìĦŃ
Ġë°ľ ëªħ
Ġê¶Į ìľĦ
Ġíķľ ê¸Ģ
Ġíıī ìĥģ
Ġìķķ ëıĦ
Ġëĭ´ëĭ¹ ìŀĲ
Ġìĭ¤ ëĤ´
ëħ ¼
ê» ĳ
Ġê°ķ ìłĲ
ķ ëĭĪëĭ¤
Ġì«ĵ ê²¨
ĠìĿ´ ìĿ´
ë¬¸ íĿ¬
Ġìŀ¥ ìĿ¸
Ġëį° ìĿ´
Ġê°Ĳ ëĭ¹
Ġê¸Ī ê°ķ
Ġíŀ Ļ
ł ¥
Ġíķ Ģ
ì¼Ģ íĮħ
Ġê³ł ê±°
ëĮĢ íķľ
Ġê°ľ ë°©
Ġìķł ëĭĪ
Ġê·¸ëŀ Į
Ł ī
Ġìķ½ íķľ
ĠëĨĶ ëĳĲ
ĠìĪĺ ì²ĺ
Ġë³´ìĹ¬ ì¤Ģ
ëľ ©
ĠëĳĺëŁ¬ ë³´
ĠíıĲ ìĩĦ
Ġì¡° ìľ¨
ë§Į ê°Ħ
Ġë· °
Ġë¹Ħ ìľł
ĠìĿĢ íĩ´
ê³Ħ ìĨį
Ġë°± ìĭł
ĠìĹ¬ê¸° ìłĢê¸°
ĠíĮĮ ëŀĢ
ĠìĨĲ íķĻê·ľ
Ġì½Ķ ëĵľ
ĠìĿ´ ì¤ĳ
ĠëĶ± ëĶ±
ĠíķŃ ìĿĺ
ëĭ ī
Ġì§Ħ ìŀħ
ëĿ¼ë ĬĶ
ĠìĿ¼ ì¹ĺ
ì¤Ģ íĺ¸
Ġíĸ¥ ìĥģ
ĠëĦ¤ ìŀĲ
Ġìĸĳ ìĭĿ
Ġíģ´ëŀĺ ìĭĿ
ĠìĿ´ ê¸¸
Ġìĭ¬ ìĥģ
ĠíĮ¨ ëĦĲ
Ġë¹Ħ ìłķ
Ġìĭ¤ ìĹħ
Ġì¹ľ íķľ
ìľ¼ë ©°
Ġê³µì§ģ ìŀĲ
Ġëª© ìĤ¬
Ġìĩ Ħ
Ġì§Ģ ìĹ°
ĠíĨµ ë³´
Ġíı¼ íİĺìĿ´
Ġìĺ¤ ê°Ģ
Ġê·¸ ëĭĪê¹Ĳ
ìĿ¸ ëĵľ
Ġë¶ĪëŁ¬ ìĦľ
ëŀ Ń
Ġëł ¹
ĠìĦ¤ ë¦½
Ġë¶Ģ ì±Ħ
Ġìŀ¬ ìĪĺ
Ġë¶Ģ ì´Ŀë¦¬
í ĮĢ
Ġìĺ¬ëĿ¼ ê°Ī
ë°© ìĨ¡
ĠíĬ¸ ìľĦ
Ġë¬´ìĸ¸ ê°Ģ
Ġì¶ľ ëıĻ
Ġìĭ¤ ì²´
ĠíĬ¸ ëłĮ
ì§Ģ ìĤ¬
ĠìĿ¼ ìĿ¼
ìĦ¸ ì§Ģ
ĠëĦ¤ íĭ°ì¦Į
Ġìľł ëł¥
Ġê·ľ ì¹Ļ
Ġêµ¬ ì²Ń
ĠìķĦ ìĭ¤
ĠìĿ¸ ìļ©
Ġìĺµ ëĭĪê¹Į
Ġê°Ħ ìĭĿ
Ġë£ °
Ġëªħ íĴĪ
Ġë°Ķê¿Ķ ìķ¼
ĠìĹĲ ê²Ĳ
Ġëĭ¬ëĿ¼ ì¡Į
ī ģ
Ġê³µ ìĿ¸
Ġìķ¡ ìĪĺ
ĠíĭĢ ë¦¼
Ġê³ł ì¹ĺ
Ġë°ĽìķĦëĵ¤ ìĿ¼
Ġì¶Ķ ê²½
Ġë²ł ìĬ¤íĬ¸
ĠíĿī ê¸°
ĠíİĢ ëĵľ
Ĳģ ëĭ¹
Ġê¸°ëĭ¤ ëł¸
Ġëĭ¹ë¶Ħ ê°Ħ
íķł ë¨¸ëĭĪ
Ġìĭł ìĥģ
Ġíĳľ ì¤Ģ
ëĵ¤ ìĿ´
Ġë©¸ ì¹ĺ
ĠìĪĺ ë¹Ħ
ĠëĵľëŁ¬ ëĤľ
ê²° êµŃ
Ġê¹Ģ ë¯¼
Ġìŀ¥ ë¡Ģ
Ġê¸° ì°¨
ĠìĿĦ ê²ĮìļĶ
ìĸ´ì ¨Į
ĠìĤ¬ë¬´ ì´Ŀìŀ¥
Ġê³łì¶Ķ ìŀ¥
Ġíķĺìĸ Ģ
ĠíĴĪ ê²©
Ġëħ¸ ë¦¬
Ġê³ł ìłĦ
ìĸ´ ëĬĲ
Ġì¢Į ìļ°
ĠëĤ¨ ìļ©
Ġë°° ì¶Ķ
ĠìĿĢ íķĺ
Ġì¤ĳ ë°ĺ
Ġíı °
Ġíĥľê·¹ ê¸°
Ġê´ĳ íĻĶë¬¸
ĠíĪ Ń
ĠìĿĦ ëŀĺ
ĠìłĦ íĮĮ
ĠìĿ´ ìļĶ
Ġíķł ëł¤
Ġëĭ¤ëħĢ ìĻĶ
Ġì¤ĳìĨĮ ê¸°ìĹħ
ĠìĥĿ ë¬¼
Ġíĺ¸ ì£¼
ĠìĦłê±° ë²ķ
Ġì»¨ ìħī
Ġìľ¼ ìĭŃëĭĪê¹Į
Ġì²ł ìłĢíŀĪ
Ġí į¼ë
ë©Ķ ìĿ´ìħĺ
Ġìĸ´ ì§¸
Ġê¹Ģìĺģ ì²ł
Ġë¶ķ ê´´
ĠìĿĮ ìĦ±
Ġê°ķ ìĤ¬
ë§Ī ë§Ī
ĠëĤĺ ìķĦ
ĠìĤŃ ìłľ
ì£¼ë ¨¸ëĭĪ
ĠìĹĦ ê²©
Ġìĸĳ ìĬ¹
Ġê¹Ģ ë³ĳ
Ġë¶Ģ ëģĦëŁ¬
ìĹ¬ íĸī
Ġì·¨ ê¸ī
Ġëª¨ ë°ĶìĿ¼
Ġíķľ ê°ķ
ĠíĮĮ ê²¬
k bs
Ġë¨¸ë¦¿ ìĨį
Ġê³µ ëª¨
ĠìķĦëĭ ĺ
Ġëĥī ë©´
Ġíķĺ ìļ°ìĬ¤
Ġìĸ´ ì§Ģ
íĮ ¡
Ġëĭ¨ ê¸°
Ġíķľ ëķĮ
Ġê°ģ ìĺ¤
ìº Ĳ
Ġíķĺ íķĦ
Ġì¶Ķ ìĦ¸
ĠíĶĮ ëŀ«
ĠìĻ¸êµĲ ë¶Ģ
Ġë°ľ ëĿ¼
ĠìĤ¬ ëĤ´
ĠëķĮ ëł¤
ìĹ¬ ìłķ
ĠíĪ¬ ê¸°
ĠìĦ ¹
Ġìĸ´ì© Ĳ
Ġê³µ ìĤ°
Ġê³łêµ¬ ë§Ī
ĠìĿ´ ë¶Ī
Ġë°© ìĤ¬
ĠìĬ¤ ìľĦ
ĠâĢ ľ
Ġìļ´ íĸī
Ġì¶© ìĦ±
ë Ŀ
ĠìĨĮ ìļ©
Ġë°ĶìĿ´ ëŁ¬ìĬ¤
ê²¹ ìĤ´
Ġê¸ī íŀĪ
Ġíķľëĭ¤ë©´ ìĿĢ
Ġêµ ¿
ĠìĿ´íķ´ ì°¬
Ġê¿Ī ê¾¸
ì£¼ë ¯¼
ĠíİĺìĿ´ìĬ¤ ë¶ģ
Ġê¹Ģ ìŀ¬
Ġìł ĵ
Ġìŀ¡ ìķĦ
ĠìĿ´ íĸī
Ġë°© ì¹ĺ
Ġìĸĳ ìĥģ
Ġê°Ģ ëĿ¼
Ġê±° ì³ĲìĦľ
Ġì¤Ģ ëĭ¤ëĬĶ
Ġíĺ¸ ê¸°
ĠìĿ´ëĿ¼ë įĺ
Ġëį ´
Ġë´¤ ìĹĪ
ĠìĦ¼ ì¹ĺ
Ġë³´ì¢Į ê´Ģ
Ġíľ ©
ĠëĤĺê°Ħ ëĭ¤
Ġëµ Ī
ĠìĬ¤ì¼Ģ ì¤Ħ
Ġêµ¬ íķ´
Ġëħ¸ ë²¨
Ġê» ´
Ġë§Ī ì¼ĢíĮħ
Ġê³Ħ íĮĮ
ĠíĭĢ ë¦°
Ġê°Ĳ ì°°
ĠíķĦ ë¦¬
Ġìĸĳ ìĦ±
ìļ´ ìłĦ
Ġê²© ì°¨
ê²ģ ëĭĪëĭ¤
Ġë©´ìĹŃ ëł¥
ìĿ¸ ì§Ģ
Ġë¹ĦëĮĢ ìľĦ
Ġê³ł ë¦¬
ĠìıŁ ìķĦ
Ġìĭ¤ íĺĦ
Ġê°ľ ë³Ħ
Ġê°Ī ìĪĺë¡Ŀ
Ġìĺģ ìŀħ
ìĹŃ ìĭľ
ĠíĶ¼ ê³ł
ë²Ķ ì£Ħ
Ġìŀ¬íĮĲ ìĨĮ
ĠíĶĦ ëĿ¼ìĿ´
Ġê·Ģ ì°®
ìķĦëĭĪ ìļĶ
Ġê±¸ ì³ĲìĦľ
Ġëŀ įëĭĪëĭ¤
ë° Ń
Ġê·¸ëŁ´ ê¹ĮìļĶ
ĠìĨĮ ìĿĮ
ĠìĦ±íıŃ ëł¥
ĠìķĦë¦Ħ ëĭµ
ĠíĺĦ ìĹŃ
Ġë¶Ģ ì¶Ķ
Ġì¢ħ ì¢ħ
ĠëŃĶ ëį°
ĠíķŃ ìĨĮ
Ġì¢ħ ëª©
Ġê¸° ìĹĲ
ĠìĪĺ ë©´
ĠìķĦ íĶĶ
ìĭ¤ íĹĺ
ìĬ¤ íĮħ
ĠìĤ° ìĨĮ
Ġê³ł ìĭľ
Ġì§ģ ë¬´
Ġëıħ ëıĦ
ĠìĽĲ ë¦¬
Ġ l
ìĹ ī
ĠìĤ¬ ë¦½
Ġì¤ĳ ëł¥
Ġì§ĳ ê°Ĵ
ĠêµŃ íĨł
Ġìĺģ ìĽħ
ëĶ° ëĿ¼
ëĤĺ ì¤ĳ
Ġìĸĳ ìľ¡
ìģ ¨
ĠëıĦ ë°ķ
Ġë¶ģ ì¸¡
ĠëłĪ ëĵľ
ĠíĹ¬ ìĬ¤
ĠëĮĢì²´ ë¡ľ
Ġìº Ķ
ĠìĤ´ìķĦ ëĤ¨
ĠìĿ´ ë¡Ģ
Ġì§Ħ ëĭ¤
Ġë§¤ íĬ¸
Ġê¸° ë¬´
ĠìĦ± ìĭ¤
íħĮ ë©´
ĠìĨ ľ
íĤ¤ ì§Ģ
Ġë´ ħìĭľëĭ¤
Ġë¬´ íķľ
Ġìĥģ ìĨį
Ġìĥģ ìĿĺ
ìĺ µ
ĠìŀĬ ìĸ´ë²Ħ
Ġê³Ħ ì¸µ
Ġì²Ń íĥģ
êµŃ ìĪĺ
ĠìĦł ì¶ľ
Ġëĵł ëĵł
Ġê¹Į ìļĶ
ëħĦ ê¸°
Ġíĳľ ëªħ
Ġë©Ķ ëª¨
ĠíĻ© ê¸Ī
ĠëĤ ļ
Ġìľł ëıħ
ĠìĿ´ ìĦĿ
ĠìĦ¸ ìŀħ
Ġê³ł ì§ĳ
Ġëĸł ëĤ¬
ĠìĿ´ ëĨĪ
Ġë¡ľ ë¹Ħ
ĠëĤ´ ê²Į
ĠëŃĶ ê°ĢìļĶ
ĠìĨĮ ìĦľ
ĠëĮĢ ë¦½
Ġê¹Ģ êµ¬
ĠëĪĦ êµ´
Ġìĭ¤ ìĿĢ
Ġì§Ħ ìłĦ
ĠíĥĢìĿ´ ë°į
Ġëĭ¤ ë¤Ħ
Ġìĸĳ ìŀĲ
Ġëĭ¤ ì§Ħ
ĠíĬ¹ íĺľ
ĠìĮĵ ìĿ´
íĬ¸ ë¦¬
ĠìķĪ ìª½
Ġì« Ħ
ĠìĪĺ ìĽĲ
ìŀĲ ëĦ¤
ĠìĪ¨ ê¸°
Ġê°Ĳ ìķĪ
ĠìĿĮ ìĽĲ
ĠíĿ Ļ
ìĿ´ ë¯¸
Ġë¶Ī ìĭł
Ġìĭł ì§Ģ
ê²½ íĻĺ
ĠìĹĲ íĶ¼
Ġëª¨ ë¦ħëĭĪëĭ¤
Ġëįĺ ê°ĢìļĶ
Ġê¹Ģ ìĥģ
ê²° íĺ¼
Ġê¶ ¤
ĠìķĪ íĿ¬ìłķ
ìŀł ê¹Ĳ
ì§Ģ ëĬ¥
ìĿ´ ëĦĪ
Ġë¯¸ ë§Į
Ġìĸ´ìķ¼ ì£ł
Ġëĭ¤ ê±°ëĤĺ
ĠêµĲìľ¡ ì²Ń
Ġìŀħ ìĸĳ
Ġëĵ Ģ
Ġë¯¸ ìĬ¤
ĠëĽ° ìĸ´ëĤľ
Ġë¹Ħ ìłĦ
Ġë°°ìļ° ìŀĲ
ë± ħ
ĠìļĶ ê²ĥ
Ġêµ° ë¶Ģ
ĠìĪĺ íĹĺ
Ġì¤ĳ ë¦½
íı ¼
ĠëĤ© ì¹ĺ
ê·¸ëŀ ¬
ëĪĦ êµ¬
Ġëª «
Ġë¬¼ë ł¤
Ġíķµ ìĭ¤íĹĺ
ëĨ Ķ
ëĤĺ ëĭ¤
ìĭ¤ ìłľ
ìĨĮ ëĵľ
Ġë°ľ ëª©
Ġëĸ¨ìĸ´ ì§Ī
Ġë§¤ ë²Ī
Ġì´Ī ìłĲ
Ġê³ł ëĬĶ
Ġë§Ī ìĭ¤
ĠìĿĮìĿĮ ìĿĮ
ĠëįĶìļ± ëįĶ
Ġë´ī íĪ¬
ê±¸ ìĿ´
Ġìĺ¨ ê°ĸ
Ġíļ¡ ëł¹
Ġì£¼ ê³ł
ĠìĬ¤íİĺ ìĿ¸
Ġë¹ ¡
Ġë¶Ħ ê³¼
íĮ ¬
ëŃ ĩ
Ġìĺ¬ ë¦´
Ġìĺ¬ëĿ¼ ìĻĶ
Ġë°©íĥĦ ìĨĮëħĦëĭ¨
íķ´ ìļĶ
ë§Ī ì§Ģë§ī
ìĿ¸ ëĭ¤
ĠëĿ¼ ìĬ¤
Ġì£¼ íķľ
Ġì Ń
ĠëĨĵ ìĹ¬
ĠíĻĶ íķ´
Ġë¶Ģ ë¬¸
Ġê°Ī ìķĦ
ìŀ¥ êµ°
ĠëĮĢíķĻ ìĽĲ
Ġìĥī ìĥģ
Ġìĸ´ ìĥī
Ġëĵ¤ìľ¼ ìĭľ
Ġìĭł ìĿ¸
Ġë¦¬íı¬ íĦ°
Ġê²Įìĭľ íĮĲ
Ġë¶ģ ìª½
ĠìĮ Ī
ĠëĤ´ ìĹŃ
Ġì°¸ ëª¨
ë°ĺ ê¸°
ìĸ¼ë ¥¸
Ġì§Ģ ê°ĳ
ëĤĺ ìĿ´
ĠíĤ¬ë¡ľ ë¯¸íĦ°
Ġê³ł ì§Ģ
Ġë¹Ħìłķ ê·ľì§ģ
Ġìµľ ìĿ¼êµ¬
ĠìĤ ½
Ġì µ¸
Ġì£¼ë ¦Ħ
Ġíķ´ ì²´
Ġë¶Ģ ì§Ģ
ĠëĤ´ ìŀ¥
Ġìľł ìłĦìŀĲ
ĠëĤł ëĿ¼
ĠëįĶ êµ°ìļĶ
ìĸ´ì¨Į ëĵł
ĠìĦ °
ĠëĤľ ë¯¼
Ġíķł ëŀĺ
Ġì¶ķ ìĨĮ
Ġì§Ģì¼ľ ìķ¼
Ġëį§ ë¶Ļ
ĠìĦ± ëªħ
ĠìĪ Ń
ĠíĮĮ ìĽĮ
ĠìĺĪ ìĻ¸
Ġê²ł ëĭ¤
ëŁ¬ ëĵľ
ĠìĤ¼ ê²¹ìĤ´
Ġì¢ħ ë¶ģ
Ġë©Ģ ì©¡
ëĵ £
Ġì¹ľ íķĺ
ĠíĶ¼ë ¡ľ
ì¶Ķ íĸī
íĭ ¸
ĠìķĦìī¬ ìĽĢ
ĠíĿ¥ ë¶Ħ
ĠìķĦíĶĦ ë¦¬ì¹´
Ġìļ°ìļ¸ ì¦Ŀ
ëĮĢ ë¬¸
Ġíĸī íĥľ
ĠìĿ´íĥĪ ë¦¬ìķĦ
ĠëıĦ ìļ°
ĠìĬ¤ íĤ¤
ĠìĿ¼ ê¸°
ĠìĿ¼ìĿ¼ ìĿ´
ĠìłĢ ê±´
ì»¨ ëĮĢ
Ġì§Ģ ë¥´
Ġë³´ ì¡°
Ġì£¼ê³ł ë°Ľ
ĠìĨĮ ìļĶ
ĠìĿ´ ìĪľ
Ġê³ł ìĬ¤
Ġëħ¸ ëŀĢ
Ġì½Ķ ì¹ĺ
Ġì°½ ìĿĺ
Ġì³Ĳ ëĭ¤ë³´
ĠìħĶìķ¼ ì£ł
ĠêµĲ ëıĦ
Ġê¹Ģ íķĻ
ĠëĮĢ ìĦ¸
ĠìŀĲ êµ¬
ĠìĨĲ íĺľìĽĲ
Ġê ¾
ëŃ Ķ
Ġìŀ¬ ëĬ¥
ĠìĿ¸ê³µ ì§ĢëĬ¥
Ġìĭľ ê¸ī
Ġë¹Ħ íĬ¸
ĠíĮ Ł
ĠëĦĺìĸ´ ê°Ī
ì¹ ¼
ĠêµĲ ìĭ¤
Ġë°° ìļ¸
Ġëļľ ê»ĳ
Ġìĥģ íĺ¸
Ġê²Į ìĬ¤íĬ¸
ĠìĪĺ ìĨĮ
ĠìĦ± ì¶Ķíĸī
ĠìĿ´ ìĸµ
ĠìĪĺ ë°ķ
ĠìłĦ ëĤł
Ġëªħ ìĿĺ
ĠìĿ´ ì§Ģ
Ġìł ł
ĠìĨĲ ìĥģ
Ġì£¼ë ¥ĺ
ëĴ Ģ
ìĽĲ ëŀĺ
ë²Ħ ìĦ¯
Ġë°ĶëĢ Ķ
ĠìłĢì§Ģ ë¥¸
Ġìłģëĭ¹ íŀĪ
ĠíķĻ ìĹħ
Ġìµľ ìķħ
ĠìĺĢ ìĹĪ
Ġì±Ħ ìļ°
Ġê¸ī íķľ
Ġê·¸ëŁ ½ëĭĪëĭ¤
Ġê³ł ìĪĺ
ĠìŀĲ ë¥´
ìłĦ íĻĶ
ĠìĹĲíĶ¼ ìĨĮëĵľ
Ġë¹Ħ ìĹĲìĬ¤
ĠìĤ´ íĶ¼
Ġ00 0
Ġê¸ ģ
Ġìŀħ êµ¬
Ġíķ´ ìłľ
Ġì² ©
Ġëĭ¹ ê·¼
Ġíĥľ íĴį
ĠìĨĮ ê³łê¸°
ĠìĦľ íķ´
Ġë©ĭ ì§Ģ
Ġë©Ī ì¶°
ĠìĿ´ ì¹ĺ
Ġì¡° ë¦¬
ĠëĮĢí Į
Ġëħ¸ íĬ¸
Ġì¤ĳ ìŀ¬
ĠëĮĢ ë³¸
Ġë¬¼ íĴĪ
Ġ i
Ġëł¤ êµ¬
ĠíĬ¸ìľĦ íĦ°
ĠìĪĺ ëŁī
ĠìłĦ ìļ©
Ġì«ĵ ìķĦ
Ġëĭ¹ íķł
Ġë§ŀ ìĦľ
Ġì»´ ë°±
ĠíĮ¨ íĤ¤ì§Ģ
ĠëĨį ìĤ¬
ë²ł ìĿ´íĦ°
ĠìĬ¤ ì¹´
ëĦ ī
ë´Ĳ ëıĦ
Ġê¹ĢìĦ± íĥľ
Ġê°Ģ ë²¼
Ġìĺ¤ íĨł
ìŀ¥ ë©´
ĠìłĦ ëĤ¨
Ġìĺģ ìĪĺ
ĠíĮ¨ ëŁ¬
ìµľ ê·¼
Ġì²ĺ ë°©
Ġíŀ Į
Ġìŀħ ì£¼
ëłĪìĬ¤ íħĮ
Ġë¬´ìĦľ ìĽĮ
ë¹ Ķ
ëĮ ģ
Ġìłķ ìĪĺ
Ġìľł ëĭĪ
Ġìĭľ ìĭľ
ĠìĦłì§Ħ êµŃ
ĠìĪĻ ìłľ
ĠìķĦìĿ´ ìĬ¤
ĠìĿ´ë¥¼ íħĮë©´
Ġë³ĳ ìĹŃ
Ġë¬´ ìĥģ
Ġê° ĩ
ëłĪìĬ¤íħĮ ë¡¤
Ġë°ľ ë¶Ģ
Ġê°ķ íĺ¸
Ġêµ¬ ìĽĲ
Ġê³µ ìĦ¸
ĠìłĢ ë¶Ħ
Ġë¬¸ ìłł
ĠìĿ´ ìĤ°
Ġê°Ģ ìĥģ
ĠìĿ¸ ìĦ±
ë¯¸ êµŃ
Ġëĭ¤ ìĺĪ
Ġìĥģ íķ´
Ġê°Ĳ ìĪĺ
Ġê³ł ì¶§ê°Ģë£¨
ĠëĦ ¥
Ġê±° ì³Ĳ
ĠíĨµ ìĿ¼ë¶Ģ
Ġì¤ĳ ëħĦ
Ġê°Ī ë¹Ħ
Ġë©Ķ ìĿ¸
Ġì§Ģ ìľĦ
ĠëķĮ ë¡ľ
Ġê¹Ģ ìĹ¬ìłķ
Ġì½ľ ëłĪìĬ¤íħĮë¡¤
ĠëĦ¤ íĬ¸
ĠìĤ¬ëĿ¼ ì¡Į
¬ ¼
Ġê²° ìĿĺ
Ġì·¨ ìķ½
ë¤ ĺ
ĠëıĻ ë°ĺ
ëĿ¼ ì§Ģ
ĠëĨĢ ëŀ¬
ê³ §
Ġê³Ħ ìħĶ
ĠíĥĢ íĺĳ
Ġìŀ¬ ê°ľ
ì ¯
ĠíĬ¹ ìĤ¬
Ġëĭ¤ê°Ģ ê°Ģ
Ġê²° íķ©
ĠìĹ¼ë ĳĲ
1 0
Ġëĭ¤ ìŀĲ
ĠíĹ¤ ìĸ´
Ġêµ µ
ĠíĪ¬ ìĸ´
ìħ Ģ
Ġíĥľ ìĸ´ëĤľ
Ġì¹ĺ ìļ°
ĠëĮĢ ìļ°
íĻĶ ë¬¼
Ġìķł êµŃ
ĠíĬ¸ëłĮ ëĵľ
Ġë¶Ģ ê°ģ
Ġê¸° ìĥģ
ĠìĦ± ì§Ī
Ġê²½ ë¶ģ
Ġíķ ı
Ġì¡° ë§Įê°Ħ
ĠíĺĦ íĸī
ê°Ĳ ìĤ¬
ĠìĬ¹ ê°Ŀ
Ġì¶© ì²Ń
ĠìĬ¤íĬ¸ ëłĪ
Ġê³¼ ìĭ¤
Ġìļ° ìĹ°
Ġê¸¸ ìĿ´
ĠìĻľëĥĲë©´ ìĿĢ
ĠíĬ ľ
ĠëįĶë¸Ķ ìľł
ĠìķłëĭĪ ë©ĶìĿ´ìħĺ
Ġìłĳ ìĭľ
ĠìŀĦ ì¢ħ
íħĮ ìĿ¼
ĠíĨµ íķľ
ĠìĦ¸ìŀħ ìŀĲ
ìĸ´ ëĤ´
ĠìĹ´ ëł¤
Ġì¶© ìĭ¤
ĠìºĲ ìĬ¤íĮħ
ĠìĦ¸ ê·ł
ĠìĿĦ ëł¤ê³ł
Ġìķł íĶĮ
Ġìŀ¬ íĿ¬
ë°Ķ ëŀĮ
ëĲ ĺ
ìĽĲ ìŀ¥
Ġíģ¬ ë¦¼
ĠëĮĢ ê°Ĳ
Ġë¹Ħ ëĭĲ
Ġíĺ¸ ë°ķ
Ġê»ĺ ìĦł
Ġë© ķ
Ġì²ľ ìĹ°
ĠìĹ ¿
Ġìµľ ì§Ħ
ĠíĮ¨ ë°°
íı¬ ë¥´
Ġê³ł ëıĦ
íĿ ĳ
Ġëĭ´ ë³´
Ġê°ľê·¸ ë§¨
Ġê°ĸ ì¶°
Ġìĭł ê³¡
ì¤Ģ ìĺģ
Ġìŀ ¤
Ġëĭ¨ ìŀ¥
Ġëĵ¤ìĸ´ ìķ¼
Ġë¸Į ë¡ľ
Ġê³¼ ê°Ĳ
Ġì°½ ë¬¸
Ġê°Ģìł¸ ìĻĶ
Ġë¬¼ë¦¬ íķĻ
ª ¨
ĠìĿ´ìĬ¹ ë§Į
Ġê² Ħ
Ġíķĳ ê³Ħ
ĠìĿĮ ëª¨
Ġìĭ¤ ì§Ģ
Ġê°Ħ ëĭ´
Ġì´Ŀ íļĮ
Ġë³´ì¦Ŀ ê¸Ī
Ġëª° ìķĦ
ĠìĨĮê°ľ ìĦľ
Ġìĭľ ëģĦëŁ¬
Ġì¤Ħ ìĹ¬
Ġìĺ¤ ìĹ¼
Ġë§Ī ìħ¨
ĠìĬ¤ ìĬ¹
ĠìĹĺ ìĹĺ
ĠíĻ© íĥľ
ëĵ ŃëĭĪëĭ¤
ë¯¸ ëĶĶ
ĠìĺĪ ì»¨ëĮĢ
ĠíĬ¸ ëŁŃ
Ġìłķ ëıĪ
ĠìĹ°ëĿ½ ì²ĺ
Ġê±° ìļ¸
ë¬´ ê¸°
Ġëĵ¤ìĸ´ ê°ĳëĭĪëĭ¤
ë°Ķ ì§Ģ
Ġìı Ļ
¦ °
Ġê·Ģ íķľ
ĠíĿ¥ íĸī
Ġ f
Ġê°ľìłķ ìķĪ
Ġì§Ģ íĸ¥
ĠíĺĲ ìĺ¤
ĠìĬ¤íħĮ ìĿ´íģ¬
Ġìĸ´ëĸ¤ ì§Ģ
ĠíĬ¸ ëłĪìĿ´
ĠìĤ¬ìĹħ ìŀĲ
ëľ ¨ë¦¬
ĠëıĦ ì£¼
ĠìĻ¸ ì¶ľ
Ġë¡ľë§¨ ìĬ¤
Ġíıīìĥģ ìĭľ
ĠìķĦìĿ´ íħľ
ĠëĦ¤ìĿ´ ë²Ħ
ë³´ ìĿ´
ĠëįĶ ëįĶ
Ġì·¨ ì§ģ
Ġê°± ëħĦê¸°
ìĺµ ëĭĪê¹Į
ĠíĮĮ ìŀ¥
ëĭ¤ë©´ ìĿĢ
ĠìĨĶ ë¡ľ
Ġìļ© ìĿĺìŀĲ
ĠìŀĲë©´ ìĿĢ
ìĭ± íĦ´
ĠìłĦ ìĦ¤
ĠëĮĢí ı
Ġíĥľ ìŀĲ
ĠìĨĲ ì§Ī
Ġìŀł ìŀ¬
ìł ¤
Ġìłķ ë©´
ĠêµĲ ìĦŃ
Ġì²Ń ì£¼
Ġë¯¼ êµŃ
Ġë°ľ íļ¨
Ġìĥģ ìĿ¸
ĠìłĦ ë³µ
Ġëĵ± ìĤ°
Ġìĥģ ìŀĲ
Ġê°Ħ ì²©
Ġë³Ģ ëªħ
ĠìĮĵ ìĹ¬
ĠíĬ¸ë¡ľ íĬ¸
ĠìŀĲ ì¹«
ĠìºĲ ëĤĺëĭ¤
ìĦľ ìļ¸
ĠìĻķ ìŀĲ
Ġë» ¥
ĠíĻĢ ë¡ľ
ëł Ľ
ëĪĦ ê°Ģ
ì² «
ĠëıĻ ìĦľ
ĠëĳĲëł¤ ìĽĢ
ĠìĿ¸ íķĺ
Ġìłľ ìłķ
Ġ4 0
ĠíĮ¨ ìĬ¤
ĠìĹ ®
Ġë¹Ħ ëĭ¨
Ġëĭ¨ ë§Ľ
ĠìĦŃ ìĻ¸
ĠìĦľ ëªħ
Ġëĭ¨ ìĭĿ
ĠíĶĮ ëĿ¼ìĬ¤
ĠìĿ¸ìłķ ë°Ľ
ĠìĨĮìĿ´ ëĭ¤
ê¹Ģ ì¹ĺ
Ġê² Ł
ĠìĿ¼ ìĭľ
ìł¸ ìļĶ
ë®¤ ëĭĪ
Ġë°ľ ìĿĺ
ĠíĮĮ ìĬ¤íĥĢ
Ġë§Ŀ ìĽĲ
Ġë³´ ìĦĿ
Ġìĸ ½
íı ´
ĠëłĪ ëª¬
Ġìĭ ¼
Ġìłķ ìĽĲ
Ġì£¼ ìĹ°
Ġë± ħ
ĠìĸĳìĬ¹ íĥľ
Ġìłķ ê²½
Ġìŀĳ ìĤ¬
Ġì°½ ì¶ľ
ëłĪìĿ´ íģ¬
ĠìĿĺ ì¡´
Ġê°Ħ ëĭ¤ëĬĶ
Ġëĭ¬ëĿ¼ ì§Ħ
ĠìĹ¼ë ł¤
Ġë īĺ
ĠëıĦ ìĭ¬
Ġëĭ¨ ìłĲ
Ġë³´ íİ¸
ê°Ģ íı¬ë¥´
ê·¸ëŀĺ ìļĶ
Ġë¹¼ ìķĹ
Ġíķ´ ë°©
Ġë¯¸ ë£¨
Ġíĺķ íİ¸
ĠìĸĳëħĲ ìŀ¥
Ġê³ł ë¬´
Ġê¸Ī ë©Ķëĭ¬
Ġë©Ķ ìĦ¸ì§Ģ
Ġì»¤ ë®¤ëĭĪ
Ġíĺ¹ìĭľ ëĤĺ
Ġë» Ĺ
Ġìłķ ê·ľ
Ġë¯¼ ìĽĲ
Ġì¶ ¥
Ġë¬¼ë Łī
Ġíĥľ ê¶Į
Ġë¦ ¼
Ġìľ¼ìħĶ ëıĦ
ĠìĹ¬ ê±´
Ġìĥģ ìĺģ
Ġê¿ ĩ
ĠìĿ´ ë³Ħ
ì§ ±
Ġìĺ¬ëĿ¼ ìĻĢ
Ġëį ¸
Ġê¹ ĥ
ëĵľ ë¦´
Ġë§Ī ëĿ¼
Ġëĭ¬ëĿ¼ ì§Ī
Ġìĭľ ëĭ¬
Ġìķ¼ ì£ł
Ġì°¾ìķĦ ëĤ´
Ġëĥī ëıĻ
ĠìĥĿ ìĥĿ
ĠëĤĺëĪ ´
Ġë´Ĳìķ¼ ì§Ģ
Ġìī ´
Ġì ¾Į
Ġì Ĳ
Ġìĸµ ìłľ
ĠìŀĲ ë°ľ
ĠìĨĮ íĶĦíĬ¸
Ġíĺķ ìĪĺ
Ġì¦Ĳ ê¸¸
ìº Ķ
ĠìĪĺ ì§ĳ
Ġê¹Ģ ë°¥
ĠìĹĲ ë¯¸
ìĹ¬ëŁ¬ ë¶Ħ
ĠìĿ´ ìģľ
ìŀĲ ë£Į
ìłĢ ê»ĺ
ĠëĤĺëĪł ìĦľ
Ġì§Ģ íĤ¬
ìĭ ¹
ĠëĤ´ ë¦´
Ġìłĳ ìĨį
ĠìĿ´ ìĻĦ
ë° ĸ
ĠìĹ° ìĥģ
ë¶ģ ìŀĲ
Ġê°Ħëĭ¨ íŀĪ
ĠìĦľ ìłĲ
Ġìļ¸ ë¦¬
Ġëĵ¤ìľ¼ ëĭĪê¹Į
ëł ·
Ġì½Ķ ë¯¸ëĶĶ
ĠêµĲíĨµ ìĤ¬ê³ł
ê³ł ë¦¬
ĠìłĦ ê²©
ĠìĦł ìŀĦ
Ġê¸ī ê²©
Ġì§Ħ ìļ°
Ġëª ¬
Ġë¬¸ êµ¬
ĠìĿ¸ íĦ´
Ġê·Ģ êµŃ
ëį ´
Ġë³´ ì¡´
Ġìĺ¬ ë°Ķ
ĠëĴ¤ ëĬ¦
Ġì°½ ëĭ¹
ĠìķĦ ë¦¬
ĠìķĦ ìŀ¬
ĠëĶĶ ìĹĶ
Ġê³µ ë²Ķ
Ġëĭ¨ íĺ¸
Ġìķ½ ìŀĲ
Ġë¹¼ë Ĩĵ
ĠìĿ´ ê²½
ìĥ ĺ
ĠìĹī ëļ±
Ġìŀ¥ íķĻ
ĠíļĮ ìĭĿ
ìĸ´ ì°Į
Ġìĭł íĻĶ
ĠíķŃ ëª©
Ġì§Ģ íĳľ
Ġìĥ ·
ìĦ ¬
ëį° ìĿ´
ĠìĿ´ëĶ° ê°Ģ
Ġê°Ħëĭ´ íļĮ
ĠìķĪ ê²½
ĠìĬ¹ ìĿ¸
ĠëĨį ëıĦ
ĠìĽĮ ìĭ±íĦ´
Ġê¸° ëĵĿ
Ġìĭ± ê°Ģíı¬ë¥´
ê³ł ì¶Ķ
ë¡ ¬
ĠìĿ´ ìĿ¸
Ġìĭł ìŀĦ
Ġë¹Ħ ìļ°
Ġì§ĳ ì°©
ĠìłĢ ìŀ¥
Ġê±´ êµŃ
ĠíĦ° ì¡Į
Ġì§ģ ê¶Į
ĠíĮĲ ìłķ
ĠìĤ¬ ëĭ¨
ĠìĨĮ ë¦´
Ġìľ¼ëĭĪ ê¹Ĳ
Ġìĺ¤ë°Ķ ë§Ī
Ġíķ´ êµ°
ĠíĶ¼ê³ł ìĿ¸
ĠìĤ¬ êµĲìľ¡
Ġìŀ¬ ê³ł
ê¶ Ī
ìķ¼ ì§Ģ
Ġë³µ íķ©
Ġì¤ĳ ê³ł
ĠìĦł ê³¡
Ġê°ķ ëł¬
Ġìļ© ëıĪ
Ġëı¼ì§Ģ ê³łê¸°
ĠìĿ´ ëĵĿ
êµ īìŀ¥
ĠìĤ ¼ë
Ġêµ¬ ê°Ħ
ħ ¸
ĠìĪĺ ìľĦ
Ġê³µ ìĿµ
Ġê´Ģ ë£Į
ê°ľ ìĿ¸
Ġìĭ± ê¸Ģ
ĠìĪĺ ìŀ¥
ĠìĪĺìĤ¬ ê´Ģ
Ġë§ĪìĿ´ ëĦĪìĬ¤
Ġê¸° ìĺ¨
ìĿ¼ë ¦¬
Ġìķ¼êµ¬ ìŀ¥
Ġì§Ģ ë¶Ħ
ĠëĤ¨ ê²¼
ëłĪìĿ´ ìħĺ
Ġëĭ Ŀ
Ġìĭ¤ ê²Ģ
Ġë³µ ìĽĲ
ĠìĿ´ ë³ĳ
ĠìłĦ ìĪł
Ġê³µ ì¤ĳ
ĠëĳĺëŁ¬ ìĭ¼
Ġë°Ģ ëł¤
Ġê°Ħ ìłĳ
ĠìĤ¬ ë§Į
ĠìłĦ íĽĦ
ĠìĦłë³´ ìĿ´
Ġêµ¬ ìĦĿ
Ġì²ľ ìķĪ
ĠíĥĢ ìŀĲ
Ġ g
ĠìĿ¸ ë¬¸
Ġìłģ íĺĢ
Ġë°ĽìķĦëĵ¤ ìĹ¬
Ġëĭ¤ ëĵłì§Ģ
Ġì§ ±
ìłľ ë°ľ
Ġê¹Ģ ìĹ°
Ġë¹Ħ ë¹Ķ
Ġë°©ìĨ¡ êµŃ
ĠëįĶ ìľĦ
Ġë°Ķ ëĭ·
Ġë°Ģ ê°Ģë£¨
ëĭ «
ìłķ ë¶Ģ
ĠíıŃ ìĹ¼
Ġì¹ĺ ëªħ
ĠìĹĶ íĦ°
ĠìĤ¬ íĳľ
ìĸ´ ìķ¼
Ġìŀł ìĪĺ
íİĺ ìĿ¸
ĠìĺĪ ìłľ
ĠìłĪ ëıĦ
ĠëıĦìĭľ ëĿ½
Ġìĥģ ìĭ¤
ĠëĦĺìĸ´ ìĦľ
ĠìĿĺ ìłľ
Ġì§Ģ ëĬ¥
ë¥´ íĬ¸
Ġê²¬ ìłģ
Ġëĭ¬ ìĦ±
ĠíķĺìĹ¬ ê°Ħ
Ġëĵ¤ìĸ´ ëıĦ
ĠìĿ¼ë ł
ĠíĶ¼ ìļ°
ĠìĿĢ ê·¼
Ġë§Į ëĳĲ
Ġë¹ł ì§Ī
Ġê´Ģ íĸī
Ġì¢Į íĮĮ
Ġë¶ĪìķĪ ê°Ĳ
ĠìĤ° ëĭ¤
Ġì²ĺ ì§Ģ
Ġëĭ¤ ê¸°
Ġëĭ¤ íĪ¼
ìķĦ ë²Ħëĭĺ
Ġë³¸ ìĤ¬
ĠìĹī ëį©ìĿ´
ĠëĶ° ëĭĺ
ı Į
ĠìĿ´ ìĿĺ
ĠìĤ¬ íĺķ
Ġëĭ¹ ì²¨
ĠìĬ¤ íģ¬
íıĲ íķĺ
Ġíķ´ ì§Ģ
Ġì°½ ê³ł
ĠìĿ´ ë»Ĳ
ê³ł ë§Ļ
ĠìĿ¼ ê°Ģ
ê·¸ ëħĢ
Ġêº ¼ë
Ġìĸ´ë¨¸ ëĤĺ
Ġë§Ī ê°Ĳ
Ġìľł ìķĦ
ĠìĽĮëĤĻ ìĹĲ
ë²Ħ ìĬ¤
ĠìıŁ ìķĦì§Ģ
Ġë³´ ë¦Ħ
ĠìľĦ ëĮĢ
Ġíı¬ ëıĦ
ĠíķľêµŃ ìĸ´
íĥ ĳ
ĠìĨĲ ìŀĲ
Ġëĸ¨ ìĸ´ëľ
ĠëĶĶìĹĶ ìĹĲìĿ´
Ġìĭł ëħĦ
Ġì²ł íļĮ
Ġê°Ī ê²ĮìļĶ
ë´ī ì£¼
Ġì§Ģ ë¬¸
Ġëª¨ ëĭĪ
Ġê±° ëĳĲ
ĠìĥĿ ê³Ħ
ìĦł ëĭ¤
Ġê·¸ëŁ´ ê¹Į
Ġìŀ İ
ĠëĤ´ ë³´ëĤ´
ĠíĻĺ ìĥģ
ê°ĳ ìŀĲê¸°
ĠìĿ´ìĸ´ ì§Ī
Ġíķľ ìłķ
ĠìĤ¬ ìĽĲ
ĠíĶ ½
Ġê°ĳ ìŀĳ
Ġìľ Ī
ĠìķĦ ë©Ķ
ĠëıĦë§Ŀ ê°Ģ
ĠìĦ¤ ìĤ¬
Ġìłĳ ì¢ħ
Ġì¼ĢìĿ´ íĭ°
ì» ¥
Ġìĭ¤ ìłģ
ĠìĹ° ìĪĺ
Ġxx xx
ĠìķĦ ë¶Ģì§Ģ
Ġíĥľ ìĸ´ëĤ¬
Ġíĥ± íģ¬
Ġë¹Ħ ê·¹
Ġë¸ĶëŀĻ íĻĢ
ĠìŀĲ ë¬¸
íİ ľ
ĠíĭĢ ëł¸
Ġìłľ ìŀĲ
ë³´ ê³ł
Ġë¬´ ê±°ìļ´
Ġê³Ħìĭł ëį°
Ġíİĺ ìĿ´
ĠëĮĢë²ķ ê´Ģ
Ġíģ¬ ë¡ľ
Ġìłķ ê·ľì§ģ
Ġê¹ ¡
ĠëŀĦ ê¹ĮìļĶ
ĠíĤ¤ ìĬ¤
ĠìĤ¬ìĿ´ ë²Ħ
ĠìŀĲìĭł ê°Ĳ
ìķĦ ë¬´ë¦¬
Ġíĸī ìĦ±
ĠìĦ¤ ëłĪ
Ġëį ¤
ë£ ©
ë¶ģ íķľ
Ġíĸīìłķ ë¶Ģ
Ġíķ© ë¥ĺ
Ġë° Ń
ê°Ģ ë¦¬
Ġê°ľ ë§ī
Ġê¸°ëĭ¤ ë¦´
Ġëª¨ ìķĺ
Ġìĭ¬ ìĿĺ
ìĬ¤íģ¬ ë¦¼
ìĬ ĺ
Ġëĵľ ìĭł
ì§Ħ ìĺģ
ĠìĹ¬ ìĻķ
ĠíķĻ ë¶Ģ
ĠìĬ¤íİ Ļ
êµīìŀ¥ íŀĪ
ĠìĿ´ íĺĦ
Ġê°Ģ ê³Ħ
ĠìĹ° ëıĻ
ĠëĨĢ ëŀį
ĠìĿ´ë£¨ ìĸ´ì§Ī
Ġíķľ ìĪ¨
Ġë¬¸ ëªħ
Ġë¬´ ê²ģ
Ġëŀ ¬
Ġìľł ìĹ°
Ġíķ© ì³Ĳ
Ġë¶Ģ ìĭ¤
Ġë¦¬ ìĸ¼
ĠìĥĲ ëŁ¬ëĵľ
ìĿ¼ë ³¸
Ġë§Ī íģ¬
Ġê³ł ëĮĢ
ĠëıĻ íĻĶ
ĠëĮĢ ëŁī
Ġë§Ī ìĤ¬
Ġë¹Ħ ìŀĲ
Ġê¸Ģ ìĶ¨
ĠëĮĢ ìŀħ
Ġëĵľ ëĿ¼ìĿ´
ì²´ ëĬ¥
ĠëĥĲ êµ¬ìļĶ
Ġëĭ¤ ëĭĮ
ĠìķĪ ë°©
Ġë¯¸ ìĹŃ
íĪ °
Ġë¶Īê°Ģ íĶ¼
Ġìĸµì§Ģ ë¡ľ
Ġíķľ ë¥ĺ
ĠìĦ¸ ìŀĲ
Ġìĭł ìĦ¸
ĠìĹ° ë£¨
Ġëĵľëł¤ ëıĦ
ĠìłĢì§Ī ëłĢ
Ġëĭ¬ ì½¤
ĠëĨį ìŀ¥
Ġë¹¨ ëŀĺ
ĠìļĶ ìłķ
Ġì¹ĺ ëŁ¬
Ġê³łëĵ± íķĻìĥĿ
Ġìķŀ ìŀ¥
ĠìĪĺ ê±´
Ġë¶Ħ ê¸°
ë²Ħ ê±°
Ġìļķ êµ¬
Ġë³¼ë ł¤ê³ł
ĠìĹĺë¦¬ ë²łìĿ´íĦ°
Ġì§Ģ ìļ°
Ġë¬¼ìĸ´ ë³¼
Ġëª» íķ´ìĦľ
ĠëıĻ ê³Ħ
Ġëĵł ëĭ¤
Ġìĵ°ëŁ¬ ì§Ģ
Ġìľł ìĭł
ĠìĬ¤ ìºĶ
ì¹´ ëĵľ
ëĭ¹ ìĹ°íŀĪ
Ġë°ľ ë§¤
Ġê²½ì°° ê´Ģ
Ġë§Į ìłĲ
êµ¬ ë¦¬
ĠìŀĦ ìĽĲ
Ġì§Ģ ê²Ģ
ĠëıĦ ì¤ĳ
Ġì°¨ ë¶Ħ
Ġìľ¼ë Ŀ¼
Ġëªĩ ëªĩ
ĠëıĻ ìĸĳ
íĭ° ìĬ¤íĬ¸
ĠëĤ® ì¶Ķ
ìĽ¨ ìĿ´
ì§Ħ ìļ°
Ġëª© ìļķ
Ġíķľëĭ¤ ê±°ëĤĺ
Ġì¶ľ ìĭľ
Ġìŀĳê³¡ ê°Ģ
ĠìĦ¸ ë¶Ģ
Ġì¹ľ íķ´
Ġê°Ģìł¸ ìķ¼
Ġê¹Ģë¶Ģ ìĦł
ìĦ¸ ìĥģ
a a
ë İ
ĠìĿ´ìķ¼ ê¸¸
ìĸ´ë Ĩĵ
Ġíķľëĭ¤ ëĵłê°Ģ
ìĽĮ ìķ¼
ĠìĪĺ ì§Ģ
Ġê·¸ëŁ° ê°ĢìļĶ
Ġë¹Ħ ìĹł
Ġë°© ë¶ģ
Ġê¸° ì¡°
ĠëĦĺìĸ´ ê°Ķ
Ġì´Īëĵ± íķĻìĥĿ
ĠíĤ¤ ìĽł
ëĭ¤ ëŀĢ
ĠëĬĶì§Ģ ìļĶ
Ġë³¼ë ŀĺ
ĠìļĶ ë¡ľ
Ġìłķìľł ëĿ¼
ĠëĦī ëĦī
Ġê¸° ìĽĲ
Ġì§Ħ ìŀĳ
ìŀ ĩ
Ġíķ© ì¹ĺ
Ġë°ĶìĿ´ ìĺ¤
Ġìķŀ ëĴ¤
Ġë¯¸ ìļ©
Ġëĭ¹ ëıĦ
ĠìĦ± ë²Ķì£Ħ
ê¸´ ëĭ¤
ĠëıĦ ìŀ¥
ĠìĿĮ ë°ĺ
Ġíķ© ë³ĳ
ĠìĦľ ëĳĺëŁ¬
ĠìĹ° íĿ¬
Ġìĭľ ìĥģ
Ġìłķ ì°©
Ġìłķíķ´ ìł¸
Ġì İĦ
Ġë ĸ´
ëĿ¼ ìļ°
Ġëª¨ ìļķ
ĠìĿ´ ê²¼
Ġíĥľ êµŃ
ĠíĹĮ ìŀ¬
ĠìĦ¸ ìļ´
Ġìĸ´ëĶĺ ê°Ģ
ĠëĨĢ ëŀĢ
ëĤ ®
ĠëĶ ©
Ġì¹ĺ ìĤ¬
ê³ł ìĥĿ
Ġë¡ľ ê·¸
Ġê³¼ ìĭľ
ĠìĤ¬ëł¹ ê´Ģ
ĠìĿ´ ë¯¼
ĠìłĦ ìĿ´
ìĽĮ íģ¬
ĵ ¤
Ġì£¼ ìłĢ
êµ¬ ëĭĪ
Ġì²ł ê±°
Ġê°Ģ ëıĻ
ĠìĤ¬ ëª¨
Ġì£¼ ì£¼
Ġì¢ħ ë£Į
ĠëĳĲ ìĦ¸
Ġê¹Ģ ê´ĳ
Ġê°Ī ëŀĺ
Ġë¶Ģ ê³¼
ë§Į ìķ½
ĠëĮĢ ë§Į
ĠíĶĮëĿ¼ìĬ¤ íĭ±
ĠìĽĲ ë§Ŀ
ĠíĨµ ì¹ĺ
ĠìĹŃ íķĻ
ë¹ ¨
Ġìĸ´ë¦°ìĿ´ ì§ĳ
ĠìĹ ½
ĠìĶ Į
ĠëĿ¼ë Ŀ¼ê³ł
Ġì¹ĺ ìľł
ĠìĻ¸ ë©´
Ġëĭ¨ ìłķ
Ġê·¸ëŁ¬ëĭĪê¹Į ëĬĶ
Ġë°© ì¹¨
Ġì²ĺ ìŀ¥
Ġëħ¸ëŀĺ ë°©
Ġì¼ĢìĿ´ ë¹Ħ
Ġë¶Ģìłģ ìłĪ
Ġìłķ ëıĻ
Ġë²Ħ íĬ¼
ĠëıĮìķĦ ê°Ī
ĠíķĦë¦¬ íķĢ
ĠëĮĢ ëĮĢ
ĠìĦľ ìĦľ
Ġë¶Ī ëŁī
Ġê½ ģ
Ġëĸłìĺ¬ ë¦¬
Ġíĺ¸ê¸° ìĭ¬
Ġë¶Ī ê±°
ĠìĻ¸ ë¡ľ
Ġìľ¼ìĭ¤ ê¹Į
Ġìłķ ëħĦ
ìĦ± ê¸°
Ġë³´ ê¶Ĳ
ĠëĮĢ ì¡°ìĺģ
00 0
ĠìĬ¬ íĶĪ
Ġê¸° ìĥĿ
ĠíĪ¬ ìĪĺ
Ġìº ¡
ëĸ ¨
Ġ ã
ĠêµŃ ìłģ
ĠëıĦ ë¦¬
ĠìĭĿ ê°Ĳ
íĮ į
ĠíĻĶ ìĿ´
Ġëį© ìĸ´ë¦¬
ĠìĿ´ìĸ´ ì¡Į
ë°Ķ ëĭ¤
Ġì°© ìļ©
Ġëĵľ ëłĪìĬ¤
ìŀ¬ íĿ¬
ĠìĿ¼ ìĭ¬
ê³ ½
ĠíĻĶ ìĥģ
Ġìĭ¤ ìĦ¸
Ġë¹¨ ëĿ¼
ëĶ ľ
Ġìŀħ ê¸Ī
ëĵľ ëł¤
Ġë£¨ ëĤĺ
Ġíİ¸ íķľ
ë´ Ħ
ĠëĤĺëĪ Į
Ġëĺĳ ë°Ķë¡ľ
ìī ½
ê¿ Ī
Ġëį°ëł¤ ëĭ¤
Ġê·¸ ê°Ħ
Ġêµ¬ ìĥģ
Ġì© ľ
ë¶ ķ
ĠìĨĮ ëł¨
Ġì¶ľ êµŃ
Ġíı¬ íĦ¸
ĠìĺĪ ì²´ëĬ¥
Ġëª¨ìŀĲ ëĿ¼
Ġìļ° ìĤ°
Ġì°¾ìķĦ ìĻĶ
ĠìľĦ ìĦ±
Ġëĭ´ ëįķ
Ġê¹ľ ë¹¡
Ġë°Ķê¿Ķ ìĦľ
ë µ
Ġê³µ ì§Ģ
Ġìŀ¥ ë¯¸
ĠìŀĦ ë¬´
ĠìĮį ëĳ¥ìĿ´
ìĽ¨ ìĸ´
Ġíķ´ ë²ķ
Ġë¯ ¹
Ġ1 8
Ġë§Į ì§Ģ
ĠìĦ± ë¦½
Ġë°ĿíĺĢ ì¡Į
Ġë°ķ ìĥģ
ìĿ´ ì¦Ī
Ġê°Ĳ ì¶Ķ
Ġê²½ ë¡ľ
Ġë³Ħ ê°ľ
ĠíĥĪ ë¶ģìŀĲ
Ġë§ĿìĽĲ ê²½
ĠëĤĺ ë¬¼
Ġê¸° ìģ¨
Ġìĭ¬ ìĭ¬
ĠëģĿ ëĤ¬
ĠìłĦ ìĦł
ĠíĦ ´
Ġë¬´ ì²Ļ
Ġëª© íı¬
Ġê·Ģ ìĭł
Ġëĥī ìłķ
Ġëĭ¬ëł¤ ê°Ģ
ĠíĬ¹ ìľł
ĠìĥĿíĻľ ë¹Ħ
Ġì¤ĺìķ¼ ì§Ģ
Ġëį°ëł¤ ê°Ģ
Ġìĭľ ëıĻ
Ġì°¨ ëªħ
ĠìĪ Ł
ë¶Ħ ëªħ
ĠëĦ¤ ìĹĲ
Ġë§Ī ë¥´
Ġm c
ìĥ ¤
Ġíİ¸ ìĦ±
ìĬ¤ ëŁ½
Ġìĸ´ëĸł ìħ¨
Ġê³¼ ìŀĲ
ĠìĿ´ë§Į íģ¼
Ġë¶Ħ ëĭ¹
Ġì¹ĺ ê°Ģ
Ġë¯¸ íĪ¬
ìŀ¡ ìĿ´
ĠíĬ¼ íĬ¼
ĠìŀĲ ë§¤
± ìĿ´
ĠìķĦìĿ´ ìĬ¤íģ¬ë¦¼
ĠíĥĦ ëł¥
Ġë¸ĮëĿ¼ ì§Ī
Ġì²´ ì¤ĳ
ĠìĹ¬ ëıĻìĥĿ
Ġë°ľ ê¸ī
Ġìī °
Ġì§Ģ ëª©
Ġë³´ ì¶©
Ġëĭ¬ ëŀĲ
ìĤ° ë¬¼
ĠëĨĶ ìķ¼
Ġê±° ìĭ¤
Ġì£¼ë ¨¸ëĭĪ
Ġìŀ¡ ì§Ģ
Ġìłģ ìłķ
Ġê·¸ëłĩ ëĭ¤ë©´ìĿĢ
ë¨¼ ìĬ¤
Ġëįĺ ì¡Į
Ġì°¨ ê°Ģ
ĠìĪľ ìĭł
Ġìĺ¤ ëĶĶìħĺ
Ġë¶Ī ê³łê¸°
ĠëĤł ë¦¬
ë¹ ¤
íļĮ ìĿĺ
Ġë°ľ ëłĪ
Ġíĥľ íıī
Ġì½Ķ ë¦¬ìķĦ
Ġìŀ¬ ìĥĿ
ĠíĦ° ìł¸
Ġìĭłë¶Ħ ì¦Ŀ
Ġê°Ħ ìłĪ
Ġíķµ ë¬´ê¸°
Ġì½© ëĤĺë¬¼
Ġì§Ģ ê²½
ìĪĺ íĻĶë¬¼
Ġê¸´ìŀ¥ ê°Ĳ
Ġì²´ ê²°
ìł ¯
Ġìĭľ ë¹Ħ
ĠìĤ´íİ´ ë´¤
Ġê³łìĬ¤ ëŀĢíŀĪ
Ġìľł ìłķ
Ġê°Ĳ ìĭ¸
Ġíĺ¸ ëŀĳìĿ´
¬ ë§Ī
ëŁ¬ ì§Ģ
Ġì£¼ ìĬ¤
ĠëģĿ ëĤł
íı¬ ë¨¼ìĬ¤
ĠëĨ¨ ëĬĶëį°
ĠìĦ¸ ìĽł
Ġë°¤ ìĥĪ
ĠëĤ¨ ë§¤
Ġìĺ¤ ë¸Į
Ġìŀ £
Ġì§Ģ ë¦¬
ĠìĬ¤ íĭ°
ë¹Ħ ìłĦ
ĠëıĻ ì°½
Ġë§Ī ë¹Ħ
Ġë°ĺ ëıĦ
ĠëıĮ ë³´
Ġëĥ ħëĭĪëĭ¤
Ġìĺ¤ ì£½
ĠìļĶ ìķ½
Ġì²ľ ë¬¸íķĻ
ĠëŃĺ ë¡ľ
Ġë£¨ ë¹Ħ
Ġë¬´ ê´Ģ
Ġê¹¨ ëĭ¬
ĠëįĶëĿ¼ êµ¬
ëĭ Ń
ĠìĦ± íĺķ
ĠëĮĢíĮ Į
Ġê¹Ģ ìŀ¥
Ġì¦Ŀ ìĦ¸
ìĸ´ ë¥¸
Ġê³µ ë¡ł
Ġì¹ľ ìĿ¼
Ġì¤Ħ ê¹Į
Ġê²¬ ëĶĶ
Ġë§Ī ìĿ¸ëĵľ
Ġíį¼ íı¬ë¨¼ìĬ¤
Ġì±ħìŀĦ ìŀĲ
ë¡ľ ì§Ģ
Ġíģ ½ëĭĪëĭ¤
Ġë²ķ ì¹Ļ
Ġìķħ ìĪĺ
ìĭľ ë¯¼
Ġë¹Ħ ê²°
Ġê´´ ë¡ľ
Ġìħ¨ ìĹĪ
Ġìĥģê´Ģ ìĹĨìĿ´
Ġê³ł ìĿĺ
Ġë°± ëĳĲ
Ġíİ ĳ
Ġë³´ ì»¬
Ġë¡ľ ì¼ĵ
ĠëıĮìķĦ ìĺ¬
Ġìłĳ íķĺ
ĠíĻķ ì§Ħ
ĠìĻ¸ ì¹ĺ
Ġê°Ģ ëł¹
ë¯¸ ë¦¬
Ġìķ½ íķ´
Ġíķ´ê²° ì±ħ
Ġìľł ì¡±
Ġìĺ¬ ê²ĮìļĶ
Ġë³Ģ íĸĪ
Ġê°Ģê¹Į ìĽĮ
Ġì£¼ ê°Ģ
ĠìĦ± ëĮĢ
ìĤ¬ ì§Ħ
Ġë¹Ħ ì¶°
íĥĢ ìĿ¸
Ġëĸł ëĵ¤
ĠìķĮ ë°Ķ
ê³ł ë£¨
Ġìĺ¤ íĺ¸
ëª¨ ëĳĲ
Ġìķł ìĦľ
Ġíķ© ë²ķ
Ġë¦ ´
ìĭł ìłĢ
ì ¥
ìĿ´ ê³³
ìķĦ ìľł
Ġë°ĺ ë¡ł
ì¿ Ħ
íĮ ł
ĠìĿ´ ê³µ
Ġê¸° ê¸°
Ġë¹Ħ ë¡Ŀ
Ġìĵ¸ ëį°
ĠíĸĦ ë²Ħê±°
ĠíĻĶ ìĿ´íĬ¸
ĠëĬĲ ëĭĪ
Ġê·ĢìĹ¬ ìļ´
ìľ¼ë ¦¬
Ġìĺ¤íĨł ë°ĶìĿ´
ëħ ľ
Ġë°ĺ ìŀ¥
Ġì¦ Ļ
Ġë²ł ìĿ´ìĬ¤
ĠíĻĪ ëŁ°
ĠëĤ´ ë©´
ì° ľ
Ġë¶Ħ ëŁī
Ġì¶Ķ ìļ´
Ġìĭł ëĭ¤ëĬĶ
ĠíķĻ ë¬¸
ĠìĿ´ ìĻķ
Ġìľ Į
Ġëª» ì§Ģ
ĠêµĲëıĦ ìĨĮ
Ġìļ° ìłķ
Ġë²Ķì£Ħ ìŀĲ
Ġìļķ ë§Ŀ
Ġë¹łìł¸ ëĤĺê°Ģ
Ġíĳ¸ ë¥¸
ëķ ¡
Ġë§¤ ì½¤
Ġìłģ ìĦ±
Ġë¬´ ëłµ
ĠìĿ´ ëª©
Ġê·¸ë Ŀ¼
ĠìŀĶ ëľ©
Ġì£½ ìĹ¬
ĠìĤ¬ ìļ°
Ġìľł ì¾Į
ëįĶ ëĭĪ
ìĭ¸ ìĽĢ
Ġê°ĢëĿ¼ ìķī
e r
Ġê¸° íķľ
Ġëªħ ìĭľ
ĠíĻĶ íıĲ
Ġë°ķìĺģ ìĦł
Ġëª¨ëĭĪ íĦ°
Ġë°© ìľĦ
Ġë¯¿ ìĿĮ
Ġê²© ë¦¬
Ġì¶© ìłĦ
Ġë³µ êµ¬
ĠíĨł ì§Ģ
ĠíĥĦ ìĪĺíĻĶë¬¼
Ġëħ¸ëıĻ ëĭ¹
Ġìłģ ë°ľ
Ġíı¬ ìĬ¤íĦ°
ĠíķĻ íļĮ
Ġíĭ ´
Ġìĭł ìŀħ
Ġì§Ħ ì£¼
Ġë§ŀ ì¶¤
Ġê¹Ģêµ¬ ëĿ¼
ìł¯ ë°¤
ĠíĽĦë³´ ìŀĲ
ĠëĵľëŁ¬ ëĥĪ
Ġì£¼ ê´Ģ
ĠìľĦ ì¡°
ìħĶ ìķ¼
Ġíķľ ìĸĳ
Ġìĥģ ìĤ¬
Ġê³§ ë°Ķë¡ľ
ĠíĥĪ ëĿ½
ĠíĮĮíĬ¸ ëĦĪ
Ġê¸Īê°ķ ìĤ°
ĠìķĦ íĭ°ìĬ¤íĬ¸
ĠëĬĺ ìĸ´ëĤ¬
Ġì´ī êµ¬
Ġíķ´ íĶ¼
Ġê²Į ìĿ´íĬ¸
ì£¼ ìĸ¼
ìģ ł
Ġíľ´ ìĭĿ
ĠìĺģìĽĲ íŀĪ
íĪ¬ ë¦¬
ìłĢ ëĤĺ
Ġìĺģ íĺ¼
ĠëĤ´ ëĨĶ
ĠìĭŃ ìĩ¼
Ġíļ Ł
ëħľ ìļĶ
ëĳĲ ë¥´
Ġìľ¼ëł¤ ë©´
ìĸ¼ë§Ī ëĤĺ
ë¯¸ ìķł
ĠìĨĲ ìĭ¤
ĠìĹĩ ê°Ī
ĠìĽĢì§ģ ìĿ¼
Ġíį¼ ì§Ģ
Ġë¸Į ëłĪìĿ´íģ¬
Ġìľ¼ìħĶ ìķ¼
ĠëĤ¨ ê¸´
ĠìĬ¤íĥ ł
ëĭ ĻëĭĪëĭ¤
íĺ¼ ìŀĲ
Ġëĸ¨ ë¦¬
ê¸ į
ĠìĹ¬ íķĺ
ìŁģ ìĿ´
Ġêµ¬ ìłľ
Ġì»¤ ìĦľ
Ġì¦ī ìĭľ
ĠìĦ¸ ìłľ
Ġì¿ ¨
Ġìłķ ë´īì£¼
Ġìĭ¤ ëªħ
ë°° ì¶Ķ
ĠìĿ´ë£¨ ìĸ´
Ġë°ľ ìĨ¡
Ġíķ© ëıĻ
Ġë³µ ë¬´
ĠìĬ¹ ì§Ħ
ë¦¬ ì¼ĢìĿ´ìħĺ
ĠëĬĶ ëĶĶ
Ġë°ľ êµ´
íĬ¸ ë¡¤
ìłĢ ê²ĥ
Ġë°ĺ ì§Ŀ
ê±¸ ë¦¬
ĠìŀĶ ìĨĮë¦¬
ĠëıĦ ìĤ¬
Ġìľł ê°Ĳ
Ġìķ½ ìłĲ
Ġì¶ľ ìłĦ
ë½ Ģ
ĠêµŃ ê²½
Ġìĭł ìĦ±
Ġìŀ¥ ëª¨ëĭĺ
ĠìļĶ ìļĶ
ĠìĥĿ íĥľ
Ġì¹ĺ ë°Ģ
Ġìĥģ íķľ
ĠëıĻ íķ´
Ġì¤ į
Ġìŀħ ìŀĲ
ëŁ¬ ë¦¬
ë¥´ ë¥´
ë ¹Į
ë¬´ ìĭ¤
Ġë²ķ ê´Ģ
Ġì¤Ģ íĺ¸
ĠíļĮ ëıĻ
ĠìľĦ íķĺ
ĠìĹ° ë£Į
ĠìĦ± ëĤ¨
ëĤĺëĿ¼ ëĭ¹
Ġì¡° íĻĶ
ĠìĦł ëĮĢ
Ġìķł ìĿ¸
Ġë¸Ķ ë£¨
ë³¸ ìĿ¸
ê· ¼ë
Ġë©Ķ ìĭłìłĢ
Ġì¡´ìŀ¬ ê°Ĳ
ìĻľëĥĲ ë©´
Ģ ë¡ľ
ĠìĿ´ ì²ľ
¡ľ ë¦¬
Ġíŀĺ ëĤ´
ĠìķĦ ê¹Ŀ
ìĭľ ì½Ķ
Ġìĵ° ìĹ¬
Ġì·¨ íķ´
Ġë³ĳ ëł¥
Ġë³Ħ ê±°
Ġì°¾ìķĦ ëµ
Ġì¹¨ ë¬µ
Ġë Ĺ
ê°Ģ ëĬ¥
Ġëĭ¨ ìĦľ
Ġìļ© íĴĪ
Ġë§Ī ëĪĦ
ĠëĮĢ ìĻ¸
ĠëįĶ ëĿ¼ë©´
Ġë§Ŀ ê°Ģ
ĠêµĲ ìŀ¥
Ġì¼Ģ ìĸ´
ĠìĤ¬ëĿ¼ ì§Ħ
ĠìķĦ ì£¼ë¨¸ëĭĪ
Ġì§Ģ ë¶Ī
ĠìĤ¬ ëıĪ
ĠíķĻëħĦ ëıĦ
ëį° ìĿ´íĬ¸
Ġìŀ¬ íĺ¼
Ġë²Ĺ ê²¨
ĠìĬ¤ íĶĦ
Ġë°ķ ì§Ģ
ĠëĶĶ íħĮìĿ¼
Ġìĭ± ìĸ´
Ġëĭ¹ìĦł ìĿ¸
ì» ·
Ġê²½ ìľĦ
Ġë¯¸ ìĬ¤íĦ°
Ġê¹Ģê¸° ì¶ĺ
ĠíŀĮ íĬ¸
Ġíķľ ëĤĺëĿ¼ëĭ¹
Ġëħ¸ ìĺĪ
ĠíĮĮ íģ¬
Ġê¹Ģìĺģ ìĤ¼
ĠìĪĺ ë¦½
ì¡° ìĦł
Ġë³´ìĹ¬ ìĦľ
ĠíĺĦ ëªħ
Ġ2 5
Ġìĺ¬ëĿ¼ ê°Ħ
Ġë¬´ ìļ©
ìłĦ íķĺ
ĠíĹ¬ ê¸°
ë©ĺ íĦ°ë¦¬
ĠíħĶëłĪ ë¹ĦìłĦ
ĠìŀĲ êµŃ
Ġë¡ľ ëĵľ
ĠìĹ¬ íķĻìĥĿ
Ġìĸ´ë ĳ
ĠìĻ¸ ê³Ħ
ĠìĤ¬ ê²©
Ġìĸ´ëł¤ ìļ°
ì¹ľ êµ¬
Ġê²© ëł¤
Ġìľ¼ìħĶ ìĦľ
Ġë¶Ģ ëŁ½
Ġìĭł ìŀ¥
ìĹ¬ ë³´
Ġì§ ¬
ĠìĽĲ ëĭ¨
ĠìĩĦ ìĭł
ĠìĹĦ ë§Į
íĻĺ ê²½
ĠìĺģìĪĺ ì¦Ŀ
ĠìĨį ë³´
Ġëĭ¤ ì³¤
ĠíĮĮ ìĹħ
ĠíĮĮ ê²©
ĠëıĦ ì¿Ħ
Ġêµ¬ ì¹ĺ
Ġë¬¸íĻĶ ìŀ¬
ëĿ ł
ĠìĺĪ ìĿ´
ĠëĮĢ ë¬¸
Ġì¤ Į
Ġìľł íı¬
Ġê¸¸ ê±°ë¦¬
Ġê¶Į ê³ł
Ġê³µ ì¡°
ĠìłĢì§Ģ ë¥´
Ġìłķ ìļ°
ĠìłĢ ë¦¬
ĠëįĶ ëŀĺëıĦ
Ġì¶Ķ ëĿ½
Ġìĭ¬ë¦¬ íķĻ
Ġìĭľ ì¤ĳ
Ġìļ¸ ìĤ°
ĠìľĦ ìŀĲë£Į
ĠìĬ¤ ìĽ¨
ĠëĮĢ ìĻķ
Ġìŀħ ëł¥
ĠíĬ¸ ë¦¬
ĠëĤ´ ë°Ģ
Ġíĥľ ìļ°
Ġìķ¼ ì±Ħ
Ġë°± ìķħ
ĠíĨł ëĮĢ
Ġìķ ¼ë§Ĳë¡ľ
ĠëĤł ì¹´
ìĺ¤ ìĦľ
Ġë°ķ ê³Ħ
Ġíĸ¥ ìĪĺ
Ġê²¨ ëĥ¥
Ġíĸīìłķ ê´Ģ
ĠìĿĺ ìķĦ
Ġìľł ìłĦ
Ġê³µíĨµ ìłĲ
Ħ ¤
Ġì¹´ ëłĪ
ĥ Ī
ê·¸ ì£ł
Ġê»ĺ ìĺ¤ìĦľ
Ġêµ¬ ê¸Ģ
ìľĦ ì¹ĺ
Ġëļľ ëł·
ĠëĮ ķ
Ġíģ¬ ë¦¬ìĬ¤
ĠìĤ¬ ìĥĿíĻľ
Ġì£¼ íĸī
ĠíĻĶ ë²ķ
ĠíĥĢ ìĿ¸
ĠìĽĲ ì¡°
Ġë§ µ
Ġì»¤ ëĭ¤ëŀĢ
Ġì¶© ëĤ¨
Ġìļ© ìĤ°
Ġê³¨ ê³łë£¨
Ġëĸ¨ìĸ´ ìł¸ìĦľ
Ġìľł íĺ¹
ĠêµĲ ëĮĢ
Ġë¨¸ ë¬¼
ĳ ëĭĪëĭ¤
ĠëıĮìķĦ ìĻĢìĦľ
ĠíĬĢ ê¹Ģ
ĠìĿ´ ì£¼
Ġíķľ ì¤ĳ
ĠëĤĺ ë¦¬
ìį ©
Ġìŀħ ìĤ¬
Ġìĺģ ëĤ¨
Ġëħ¸ íĻĶ
ĠíĮĮ ìĿ´íĦ°
ĠëĬĺ ìĸ´ëĤľ
ë°Ľ ì¹¨
Ġì°¨ ë¦¼
Ġíĸ¥ íķĺ
Ġì¹ ©
Ġìĸ´ëł¤ ìĽĮìļĶ
ĠìĿĺ ìĦĿ
Ġë§Ĳ ëł¤
Ġê·¼ë ĮĢ
ĠëĮĢ ì¹ĺ
Ġê¸° ëıħ
ìķĦ ë³´
ĠìĭĿ ìĿ´
ìļ© ì°¨
ĠìłĦ ì£¼
ĠëıĻ ì°¸
ëĺ ¥
Ġë¬¸ íķŃ
Ġì²« ëĤł
Ġìĸ´ ìłĢê»ĺ
ìĹ ĳ
ĠìĿ¼ íĸī
Ġëı ¼ë
Ġëĭ¹ ê¶Į
Ġê³łë§Ī ìĽĮìļĶ
Ġë³´ ìľ¡
Ġë¬¼ ê°Ģ
ĠìĥģìŀĦ ìľĦ
ë²ħ ì§Ģ
íĥĢ ìĿ´
ìĹ¬ ìŀĲ
Ġì§Ī íĪ¬
Ġê¸° ë°Ģ
Ġë§Į ìĦ±
Ġê°ķ íĸī
Ġê²Ģ ìłķ
¼ë² Ħ
ĠëĿ¼ë©´ ìĿĢ
ĠìĪĺ ì²ľ
ĠìĪĻ ë°ķ
Ġì°© íķĺ
Ġìłģ ìŀĲ
Ġê²½ ìĥģ
ìĭ¤ìłľ ë¡ľ
Ġìĭľ íķ©
Ġìĸĺ ê¹ģëĭĪëĭ¤
Ġì°¸ ìľ¼ë¡ľ
Ġê¸°ë¬´ ìĤ¬
ĠíĮ ħ
ë¯ ¹
ĠìķĦ ëħľìļĶ
ĠíĹ·ê°Ī ë¦¬
ĠíĻĶ ë¬¼
Ġê³¨ ëĵł
Ġë§Ī ìĭł
ê³µ ê°ľ
Ġê³łìĨį ëıĦ
Ġ e
ĠëĿ¼ìĦľ ìļĶ
Ġìłľ êµŃ
ĠìĦľ ë²Ħ
ĠìĽĲ íķľ
Ġì²ľ ìłķ
Ġë²Į ìĸ´ì§Ī
Ġíķ´ ìŀĦ
ĠìĪĺ íĺĦ
Ġë¶Ī êµĲ
Ġë°ľìłĦ ìĨĮ
Ġì§Ħ ìķķ
Ġê³łìļĶ ìĿ´
Ġë³´ìĿ´ ìĬ¤
Ġëµ Ĳ
ĠíŀĻ íķ©
ĠìĬ¬ íĶĶ
Ġëª° ìŀħ
Ġê·¹ ìļ°
? !
ĠìĪĺ ë²ķ
ĠìłĢ ìŀĳ
Ġêµ¬ íĺķ
Ġìŀ¬ ê±´
ĠëĤ® ì¶°
ĠìĤ¬ë¬´ ìĨĮ
Ġì¦ī ê°ģ
Ġê°ľ êµŃ
ĠëıĻ ë¶ģ
Ġìĭ¸ ìĽł
Ġìŀ¡ íĺĶ
ìµľ ëĮĢíķľ
Ġëĵľ ëĿ¼ê³ł
Ġíķ´ ì¤ĺ
ë§ ĺ
Ġìľł ìĦ¸
Ġíķ© ëĭ¹
Ġë°ĺ ì£½
Ġìķł êµĲ
Ġìŀ¥íķĻ ê¸Ī
ĠëĤĺ ëŀĢíŀĪ
Ġë°©ìĨ¡ ìĤ¬
Ġë§Ī êµ¬
Ġì°½ ìŀĳ
Ġìį¨ ìļĶ
Ġì¹¼ë ¡ľë¦¬
ĠëĤ¯ ìĦł
ìĺ ¹
Ġëĭ¹ ë¶Ģ
ĠíĮ¨ ê¶Į
ı Ī
Ġìĥģ ë´ī
Ġëĵľ ë¦¼
ĠìĹĲê²Į ìĦľ
Ġëŀ Ń
Ġíı¬ ì¦Ī
Ġë°±ìķħ ê´Ģ
ĠìĿ´ ìľ¤
ë§¤ ë§¤
íĹĪ ëĤĺ
Ġê°Ģ ìĨį
Ġíķ´ ìĸĳ
Ġìłķ íĨµ
ĠìĿ¼ ì°¨
Ġê¹ Ĳ
íĳ ¼
Ġë° ¸
Ġêµ¬ íĺ¸
Ġì¡° ìĺģ
ĠíĶ¼ íķł
Ġìŀħ ìĪł
ì¹ĺ ê¸°
ĠëĤ© íĴĪ
ĠìĹ¬ ë°°ìļ°
ë¥¸ ëĭ¤
ĠíĽĶ ì³Ĳ
í Ĩµëł¹
Ġìļ° ë¬¼
ĠíĨµ ì§Ħ
ĠëŃ £
Ġìļ° ìķĦ
Ġê·¸ëŁ¬ ê³ł
ë¬¸ ìłľ
ìŀĦ ê¸Ī
ĠíĤ¤ ìļ¸
ìľ¼ë Ĥĺ
Ġìĭ¤ ë¦¬
Ġìĭ± íģ¬
ĠëıĮëł¤ ì£¼
ĠëĶĶìŀĲ ìĿ´ëĦĪ
Ġìłķíķ´ ì§Ħ
Ġê²½ì°° ì²Ń
ĠíħĮ ëĭĪìĬ¤
Ġìĭľ ë²Ķ
ĠìĭĿ ë¯¼
Ġì¶ľ ìłľ
Ġì°¾ìķĦ ìĺ¨
íķ ı
ĠìĪĺ ëĭ¤
Ġëª¨ ìĺĢ
ë³´ ëĵľ
ê²½ ê¸°
Ġìĸĳ êµŃ
Ġëĭ¤íģĲ ë©ĺíĦ°ë¦¬
Ġëĭ¹ íķ´
Ġëħ¸ ìĤ¬
ĠíĺĪ ëĭ¹
ĠëıĻ ëł¥
Ġêµ¬ì¹ĺ ìĨĮ
ĠëĮĢ ë¥Ļ
Ġë©ķ ìĭľì½Ķ
Ġë§ī íĺĢ
Ġë¹Ħ íĭĢ
Ġë¬¼ ê³łê¸°
ĠìĿĺ ê²°
ì¹ľ ëĭ¤
Ġë¹Ħ íķ´
Ġì¡Į ìĸ´ìļĶ
Ġê·¸ëŀĺ ëĳĲ
ìĭĿ ê°Ħ
íĥľ ìļ°
ĠíĴ ĭ
ĠëĤĺíĥĢ ëĤł
ĠìĹ´ íĿĺ
Ġìķł ë¹Ħ
ĠëĽ° ìĸ´ëĤĺ
ĠìŃ Ī
Ġë§Į ìł¸
Ġëħ¸ íķĺ
Ġë¹Į ë¦¬
ī ëĭĪëĭ¤
ĠëĤĺìĺ¨ ëĭ¤ê³ł
Ġìĺ¬ë°Ķ ë¥¸
Ġë§Ŀ íķĺ
ĠëıĮ ìĿ´
Ġì»¨ íĬ¸ë¡¤
ĠìĻĶ ìĸ´ìļĶ
Ġê²° ì§ĳ
ëĭ µëĭĪëĭ¤
Ġë¶Ģ íĦ´
Ġê±´ ëĦ¤
Ġíĺķ ëŁī
ëĤ¨ ìŀĲ
Ġìĸ¼ë §Į
ëŃ ĺ
Ġê¹¨ ì§Ģ
Ġë¯¸ ëª¨
ĠìĿ´ ê²ģëĭĪëĭ¤
Ġë¶Ģ ìĤ¬ìŀ¥
ĠíĽĦ ìĨį
Ġëĭ¤ìĭľ ë§Ī
ë´Ĳ ìļĶ
ìĹ ¼ë
ĠìĹĲìĬ¤ ìĹĲíĶĦ
ĠìĥĮ ëĵľ
ĠíĻ© ìĭ¤
ĠìĿ¸ ëĶĶ
Ġìĭ¤ ê¹Į
ĠìĽĶ íĻĶ
Ġì§ģìŀ¥ ìĿ¸
Ġê³łìľĦ ê¸ī
Ġê°ķ ë¦ī
Ġì°Į ê°ľ
Ġëĵ Ń
Ġëĭ¬ ëĭ¬
ìŀĳ ëħĦ
ĠìĺģíĻĶ ê´Ģ
ĠìŀĲ ë°±
ĠìĦ± ìĪĻ
ĠìķĦ íĬ¸
Ġê±¸ ê¹Į
ĠìĬ¤ìľĦ ìĬ¤
Ġë¦¬ ëĵ¬
Ġê¹Ģ ê´Ģ
Ġê±¸ìĸ´ ìĦľ
ĠìĪĺìĭľ ë¡ľ
ìķ Ĭ
ĠëĥĦ ë¹Ħ
ĠìĶ ģ
ë¯¼ ì£¼
Ġìħ° íĶĦ
ëĭ¤ ìĪĺ
ëĤ Ń
ĠìŀĲê²© ì¦Ŀ
Ġë¹Ħ ì¦Ī
íĬ¸ ë¡ľ
Ġì²ĺ íĺķ
ĠíĮĶ ë¦¬
Ġë°ĿíĺĢ ì§Ħ
Ġê¹Į ë¨¹
Ġìĺģ íĨł
Ġì²Ń ê³¡
ĠìķĦ ëĵľ
Ġê´ĳ ë³µ
Ġ v
Ġëħ¸ ëł¤
Ġê°ĪìķĦ ìŀħ
ëĭĪ ìĸ´
Ġêµ¬ íķł
ĠíĤ¤ ìļ´
Ġë¨¸ ìĭł
ĠìĿ´ëŀĺ ìļĶ
Ġíķ´ ëĨ¨
Ġìļ© ëıĦ
ĠëĴ¤ ìª½
ĠíĹ Ŀ
Ġìŀĳ ìłķ
Ġê¸°ëıħ êµĲ
ìĺ¬ ë¦°
ëŁ¬ ìĦľ
Ġëª¨ ëŀĺ
ĠíĹĪ ë²ħì§Ģ
Ġê°Ģ íķĺ
ĠìŀĲ ì§Ħ
Ġë² ¼ë
ĠíĮĮ íĹ¤
Ġë§Ī ìļĶ
Ġê²½ ì£¼
Ġì¢ħ ë¡ľ
ĠëĨ¨ ìĸ´ìļĶ
Ġíİ¼ì³Ĳ ì§Ģ
Ġë¶ Ĳ
íĴĢ ìĿ´
ìĪĺ ìĪĺ
Ġìŀ¥ìĦ± íĥĿ
ĠìĻĢ ëĿ¼
Ġìľ¡ ìĦ±
Ġë²Ħ íħ
ĠìĽ¨ ìĿ´
ìłĢ ë²Ī
Ġì¤Ħ ê¸°
ĠëĪĪ ìķŀ
ĠëĤĺëĪ Ī
Ġëĵ ¬
ĠìĤ¬ ê°ģ
Ġê³ł êµĲ
ĠëĮĢ ìĽĲ
Ġì¶© ì¡±
ĠìķĦë©Ķ ë¦¬ì¹´
ĠìĹŃ ìłĦ
Ġë§ģ íģ¬
ĠíŀĲ ë§ģ
Ġìłķ ê³Ħ
Ġ1 3
Ġë§ī ê±¸ë¦¬
ĠìĽĲ ìĪĺ
ëĨ Ĵ
Ġë¯¼ë §Ŀ
Ġìĺ¤ ë¡ľì§Ģ
Ġì¹ł ë§Į
íĩ´ ê·¼
Ġíķ´ ìĦł
ë³ ķ
Ġìľł ìĺĪ
ĠëıĻ ëĤ¨
Ġì¹ĺ ìķĦ
Ġìĸ´ ìĦł
ĠìĤ¬ ëĥ¥
ĳ ¤
Ġëĭ¤ ë£¬
Ġë¶Ħ íķ´
Ġê°ķ ìĪĺ
Ġë§ī íŀĮ
ĠìķĦ íĮł
ĠìĿ¼ ìŀĲ
ëĭ¤ íĸī
Ġë¹Ħ ì£¼ìĸ¼
ĠëĨĴ ìĹ¬
ĠìŀĶ ìĿ¸
Ġìĥī ëĭ¤ë¥¸
ëĦ ¨
Ġë°© ìļ¸
ìĬ Ĳ
Ġë¶Ģ ëģĦëŁ½
ĠìĤ´ ìĤ´
ì²ĺ ëŁ¼
Ġìĸ´ì© ľ
n s
ìĬ¤ íĤ¤
ì¤ĳ êµŃ
ĠìĦľìĦľ íŀĪ
Ġë³´ ëŀĮ
ĠíĻĶìĿ´ íĮħ
Ġíİ¸ ê²¬
ĠìķĦ ìĿ¸
Ġë¬´ íļ¨
Ġì·¨ ëĵĿ
Ġì¦Ŀ íıŃ
íĺĦ ì§Ħ
ĠëĿĦ ìĽĮ
Ġì°¾ìķĦëµ Ļ
Ġë§ĪëĪĦ ëĿ¼
Ġê²½ ë§¤
Ġìĸĳ íķ´
ìľł ìĺĪ
ĠìĿĺ ëħ¼
ĠìĤ¬ìĿ´ ëĭ¤
ĠíĬ¹ë³Ħ ë²ķ
ĠìĿĮìĭĿ ìłĲ
Ġìĺ¤ íİĺ
ë³´ íĨµ
ìĪĺ ìĺģ
ëħ¸ ìĿ´
ĠëģĮ ìĸ´ëĵ¤
ì§ĢëĤľ ë²Ī
Ġêµ¬ ë³Ħ
Ġíľ´ ê²Į
Ġìĭ¤ íĥľ
ĠìĽĲ ìĦľ
Ġìŀ¥ëĤľ ê°Ĳ
ê³ł ë§Ī
ĠìĬ¤ ì¿¨
Ġì·¨ íķľ
Ġëĭ¹ ê³¼
Ġëª¨ ìĿ¸
Ġìĸĳ ë°°ì¶Ķ
ĠìĬ¤ìºĶ ëĵ¤
ìķĦ ì¹¨
Ġìķ¼ ê²łëĭ¤
Ġì§Ħ ëĭ¤ê³ł
ë²Į ìį¨
Ġê²¬ íķ´
ĠëĿ¼ëįĺ ê°Ģ
ĠëĤļ ìĭľ
Ġê° ¤
Ġì§Ģ ì¶ľ
Ġíķł ëĿ¼ê³ł
Ġíķ© ì³ĲìĦľ
ĠíĮĮìĿ´ íĮħ
Ġê·¸ë¦¬ ìĬ¤
Ġê¾¸ ë©°
Ġíķĺ ëĵľ
Ġìĥģ ëĭ¨
Ġìŀ¥ ìĭĿ
Ġë§ĪìĿ´ íģ´
ĠìĿ¸ ë¬¸íķĻ
Ġì£¼ ìĥģ
ĠìłĦ ìłģ
ê·¸ ëıĻìķĪ
Ġì§Ħ ìĿ´
Ġìµľ ê°ķ
ì£¼ë ¬¸
Ġìľł ìĿ¸
Ġì»¬ ëŁ¬
Ġíķľ ìĭĿ
Ġë¶Ħ ëĭ¨
ìĿĺ ìĤ¬
ĠìĦ± ë§¤ë§¤
ëª¨ ëĵł
Ġì¶Ķ ìĽĮ
ĠìĪ¨ ì§Ħ
ê¼ ½
ĠìĻ¸ ìļ°
ĠìĹ° ë´ī
ì§ĳ ìķł
Ġì±Ħ ë¬´
ĠëĶĶ ìĬ¤
ĠìĪŁ ê°ĢëĿ½
Ġê°Ģ ë§¹
ĠìĿĺ íķ´
Ġëĭ¤ëĭĪê¹Į ìļĶ
Ġëħ¸ ì´Ŀ
Ġê²Ģ ì§Ħ
Ġê¸ī ìĭĿ
ĠìķĦìĭľ ìķĪ
ë³¸ ëĭ¤
ĠëĤĺ ë
ìĬ¤ íĭ±
Ġê´Ģ ìŀ¥
Ġê°Ħ íĮĲ
Ġê³µ ì§ľ
Ġìŀ¥ ë§Ī
ĠíĶĦ ë¦°
ì» ´
ĠìĹ¬ ëĮĢ
ĠëłĪ ìĬ¤íĨł
ĠëĮ Ķ
ĠíĥĲ ìĤ¬
ĠëłĪìĬ¤íĨł ëŀĳ
ĠëıĦ ëł¨
ë¡ľ ëĵľ
Ġë°© ìĹŃ
ĠíĨłë¡ł íļĮ
ìłľ íĴĪ
ĠìĦ± ìĤ¬
Ġìĺ¨ ëĭ¤ê³ł
Ġì¹´ ë¦¬ìĬ¤ë§Ī
ĠëĴ· ë°Ľì¹¨
ĠëĨĢ ëŀĺ
Ġíħ į
í īģ
Ġë¶Ģ ëıĦ
Ġìĥģ ê³µ
ëĤĺ ëĤĺ
Ġë§ĺ ëĮĢë¡ľ
Ġìĺ¤ ìĦ¸íĽĪ
ĠìļĶ íķľ
ìĺ¤ ëŀľ
ĠíĴĢ ëł¤
Ġìĥģ ë¬´
ĠìĿ¼ìľ¼ íĤ¨
Ġíķľ ëıĻìķĪ
ĠìĹ´ ê¸°
ìĸ´ë ¨¹
Ġë¹Į ëĶ©
ĠëĳĲëł¤ ìĽĮ
ĠëıĦ íĶ¼
Ġìĭľ ëĮģ
Ġìŀ¬ ë°ľ
ëĿ¼ ìĿ´íĬ¸
Ġê·¸ëŁ¬ ëĭ¤ê°Ģ
Ġê°Ĳ ìĥģ
Ġíı¬ íķŃ
ĠëĶĶ ìĬ¤íģ¬
Ġê¹Ģê²½ ëŀĺ
íĥ ±
ĠìķĮ íĮĮ
Ġë§ĪìĤ¬ ì§Ģ
Ġìłķ íĻĶ
âĢ Ŀ
Ġì§Ģ ìĽĮ
ĠâĢ Ŀ
ĠíĿĺëŁ¬ ê°Ģ
¯ Ħ
Ġíĺ¸ ìĪĺ
Ġì°¬ ë¬¼
Ġìĭ £
Ġì¦Ŀ íĽĦ
ìľ¤ ìĦł
Ġìķ¼ ìĻ¸
ìĨĮ ëĵĿ
ĠëĤ´ìĦ¸ ìļ°
ĠìĿ´ ë¹Ħ
ĠëĮĢ ëĭ´
Ġëº Ĳ
ĠìĦł ìłľ
Ġìĸ´ ê¸ĭ
Ġì§Ģ ì¹¨
ĠìĪĺ ëª©
Ġê±° ì¹ľ
ê·¸ ìµ¸
ĠìĻ¸ ìĭł
Ġìĺ¤ ì§ģ
Ġê³¼ë °ĺ
Ġíķĺ íķĺ
ëĲ Ĳ
ĠìłĦ ë¬´
Ġìĺ¤ ìļ°
Ġë¶Ī ì¾Į
Ġì¤Ħ ìĿ¼
ĠëĤł ê°ľ
ĠìĭĿ ëŁī
ĠíĬ¹ ë³´
ĠíĽĦ ë¬¸
Ġì¹ľ ì²Ļ
Ġíķĳ íģ¬
Ġíķľ ê²¨
Ġê¹Ģ ë¯¸
ì¹´ ëĿ½
Ġë¨¸ë¦¬ ì¹´ëĿ½
Ġë¶Ģ ìĸĳ
ĠìłĦ ëĭ´
Ġìĥģ ìĦ¸
ĠíĬ¹ ê¶Į
Ġíĺķ ë¶Ģ
Ġìĺ¬ëĿ¼ ìĺ¨
Ġëª¨ìĸĳ ìĥĪ
Ġë§Īì£¼ ì¹ĺ
ëŃĶ ê°Ģ
ĠêµĲ íĻ©
ĠëĮĢìĤ¬ ê´Ģ
ĠìĿ¸ ê²©
ĠìĤ¬ ìĨĮ
Ġìĺ¤ëĬĺ ëĤł
ĠìĬ¤ëŁ¬ ìĽł
Ġìłķ íķľ
Ġë§Į ì°¬
ĠëĤ´ ë³´
ìłĢ ëħģ
Ġìºł íİĺìĿ¸
Ġë©´ ìłľ
Ġêµ¬ ë¦Ħ
Ġìŀ¬íĮĲ ê´Ģ
Ġíı¬ íĨł
Ġì»¨ íħĲì¸ł
ë¹Ħ ìķĦ
Ġëª° ë¦¬
ì¥ Ĳ
Ġë¯¼ ìĦ±
Ġìĭľ ìłķ
Ġíķł ëĿ¼
Ġì²´ ì§Ī
Ġìĭ¸ ìĿ´
½ ëĭĪê¹Į
ĠëĤ ¡
Ġìłĳ ëĮĢ
Ġë°© ìĺģ
Ġì½Ķ íĬ¸
Ġê°ģ ëıĦ
Ġë¬ĺ ìĤ¬
ê·¸ëŀĺ ìķ¼
ĠëłĪ ë²¨
ĠìłĦ ìĹŃ
Ġê°Ģ ë¬¸
Ġìĭł ëĿ¼
ë¦ ¼ë
ĠìľĦ ìĥģ
Ġë³Ģ ëıĻ
ĠìĨį ìĿ´
ĠìĬ¤ìĽ¨ ëį´
Ġëĭ¤ íĪ¬
Ġìĸĳ ë§Ĳ
Ġìµľ ë¯¼
Ġìŀł ëĵ¤
Ġë¶Ģëĵľ ëŁ¬ìļ´
ĠëģĮìĸ´ ëĤ´
ĠìķĦ ìĭŃëĭĪê¹Į
Ġëª¨ ë²Ķ
ĠìľĦ ë²ķ
Ġì£ł ìĿ´
Ġìľ¡ ë§Į
Ġíĸ¥ ê¸°
ëłī ìĬ¤
Ġë©ĶìĿ´ ìłĢ
ĠêµĲ ê°Ĳ
Ġíĺ¸ ìľĦ
Ġì¹´ ìļ´
ìĬ¤íĬ¸ ëĿ¼
ĠìĬ¹ ìļ©ì°¨
Ġë± Ģ
ĠëĤ¨ë¶ģ íķľ
Ġëħ¸íķĺ ìļ°
ìľ Ī
ìĨĶ ì§ģ
ĠìĽĢì§ģ ìĹ¬
Ġë³´íĹĺ ë£Į
ĠëĽ°ìĸ´ ëĦĺ
Ġìļ© ìĿ¸
ĠíĥĦ ìķķ
ĠìĿ¼ë ĮĢ
Ġìķŀ ëĳĶ
ë¦Ń ìĬ¤
Ġìľ¡ êµ°
Ġì¦ĿíĽĦ êµ°
Ġì° ¹
ĠíĻĺê²½ ë¶Ģ
Ġê±° ì¹ł
ĠìĦĿ ìľł
ĠìŀĲ ìĪĺ
Ġíĳľ ë©´
Ġì¿ł íı°
Ġë¹¨ê°Ħ ìĥī
ĠíĺĦ ê´Ģ
Ġë©Ķ ë¦¬
Ġì°¾ìķĦ ë³¼
ĠìĬ¤ íĮĮ
Ġëªħ ì¹Ń
ĠíļĮ ìłĦ
Ġìŀ¡ íŀĮ
ê°Ģ ìŀ¥
ĠìĪĺ ëł¹
ĠìĹĨ ìķ
ĠìŀĲìķĦ ëĥĪ
ĠìĿ¸ ë©¸
Ġìķ¼ ê°Ħ
Ġë¬´ ê±°
Ġë¬´ ìĤ°
Ġì¤ĳêµŃ ìĸ´
ĠìĨĮë°© ê´Ģ
Ġë¶Ģ ê²Ģ
Ġê±´ ëĵľë¦¬
ĠëĤł ìķĦê°Ģ
Ġëĭ¤ ìłķ
ìĿ´ íķ´
ëłĪ ìĿ¸
Ġìŀħ ìĪĺ
Ġë¶Ī ì¶ľ
Ġì¶Ķ ëª¨
ĠìĦ¤ ê±°ì§Ģ
Ġì·¨ íĸĪ
Ġì¹¨ ìŀħ
ëĵľë¦´ ê¹ĮìļĶ
ĠìĦł ëıĻ
Ġìľł ìĭľë¯¼
ĠìĿ¼ ìĪĺë¡Ŀ
ĠêµŃ êµ°
ĠëıĮìķĦ ìĦľ
Ġíķĺ ëħ¸ìĿ´
Ġìłķ ìłĦ
ëĬ ¬
Ġë§ŀ ìķĦ
ìĭľ ìĬ¤
ĠìĿ´ìĪľ ìĭł
Ġì¶Ķ ìľĦ
Ġíĳľ ì°½
Ġìĥģ íģ¼
Ġìĭ¤ íĺķ
ĠìĿ´ê²ĥ ìłĢê²ĥ
Ġì§ĢìĽĲ ê¸Ī
ĠíĮ ¥
Ġëĸł ëĤł
ìķ¼ êµ¬
ĠìĦ± ì·¨
ĠìķĦíĮĮ ìĦľ
Ġê¼¼ê¼¼ íŀĪ
Ġë¶Ģ íĻľ
Ġì° Ĳ
ĠëŃĺ ê¹Į
íĹĮ ëį°
Ġë ĥ¥
ìĻĢ ìĿ´
Ġê¹ į
ĠìĬ¤ íĶ¼
ĠíĻĶ ìĤ´
ĠíĬĢ ìĸ´ëĤĺ
ĠìŀĦ ì°¨
Ġê·¸ëł Ī
ĠëıĻ ìĥģ
ĠìĹ´ ìĩł
ĠìĤ¬ ìĺµëĭĪê¹Į
ĠìļĶ íķĺ
Ġë³¸ ëĭ¤ê³ł
Ġëº Ģ
ìĸ´ë¨¸ ëĭĺ
ìĿ¼ ìľ¼
Ġë°ĺëıĦ ì²´
ë£ ¸
Ġíİ¸ ë¦¬
Ġì¤ĺ ëıĦ
ĠìĿĢ ë°Ģ
ëŁ¬ ìĽĮ
ìĺ¤ ëŀĺ
ĠëĲľ ëĭ¨
Ġê´Ģìĭ¬ ìĤ¬
ĠìĽ¹ íĪ°
ľ ëĵľ
ĠëĳĲ ë£¨
ìĨĮ ë¬¸
ëĶ ´
ìĹĳ ìĬ¤
Ġê²° ìĬ¹
Ġìļķ ìĦ¤
Ġíĺ¸ ê°Ĳ
Ġìĺµ ìħĺ
Ġìĺ¤íİĺ ëĿ¼
ìĿ´ ê±¸
Ġì¶ľíĮĲ ìĤ¬
Ġìĺ¤ íĶ¼ìĬ¤
ĠìĦľ ìŀ¥
Ġì´Ī ë¡Ŀ
ĠìĦłê±° êµ¬
Ġì¿ µ
Ġê¹Ģíķľ ê¸¸
ĠìļĶ ë²ķ
ĠìĨĮíĶĦíĬ¸ ìĽ¨ìĸ´
Ġê³ł ìĦł
ĠìĦ¤ ë¬¸
Ġí Ĳģëĭ¹
ĠìĪĺ ì²©
ĠìķĮìķĦ ë³¼
Ġìľµ íķ©
Ġìĸ´ ìł¯ë°¤
Ġë¹Ħ ë¹Ħ
ĠíĥĢ ëĭ¹
ê·¸ ê¹Į
ëĭ¹ ìŀ¥
ëĵ Ģ
ĠíĮĲ ë¡Ģ
Ġë¶ĪëŁ¬ ìĿ¼ìľ¼
ĠìĪĺ ê¸ī
Ġì´Ŀ ê´Ħ
ĠìĦ¹ ìĭľ
Ġë¶Ģ ìĭľ
ëĤĻ ìĹ°
ëłĪìĿ´ ëĵľ
ĠìĿĺ ëĮĢ
Ġê³µ ë£¡
ĠìĿ´ íĺ¸
ĠëĮĢ ìĹ¬
ĠìĹ° ìĿ´
ĠëĤĻ íĥľ
Ġê³ł ì¡°
íĥ Ĳ
Ġê¹Ģíĥľ ìļ°
ĠìĹ° íıī
ĠìĿ¼ë §Į
Ġì´Ŀ ìĪĺ
Ġëĭ¹ ëĤĺëĿ¼
ê¹ ľ
Ġìª¼ ê°ľ
Ġìĥ¤ ìĽĮ
ĠìĪĺ ëªħ
Ġìłľ ìĿĺ
ê¶Į ëł¥
ĠìĿ´ ëł¥
Ġìķ½ ë¬¼
ë°ķ ìĬ¤
ëĥ ħëĭĪëĭ¤
Ġìĸ´ì©Į ëĭ¤
ĠìĿĮì£¼ ìļ´ìłĦ
Ġë°° ìĪĺ
Ġë¯¸ ìħĺ
Ġìŀħ ëĭ¹
Ġìį ¸
ĠíĻĶ íķ©
Ġê°ĸ ì¶ĺ
ĠëįĶ ìļ´
Ġê³Ħ ìłķ
ĠëįĶëįĶ ìļ±
ĠëĮĢ ëıĻ
íĶĦ ë¦¬ì¹´
Ġìĺ¬ ëł¤ìĦľ
ĠìĪľ ìĭĿê°Ħ
ĠìĤ¬íļĮ ì£¼ìĿĺ
ĠëĦ¤íĬ¸ ìĽĮíģ¬
Ġì¶Ķ ë¯¸ìķł
ĠìĹĲ ìĹĲ
Ġìĭ¤ ê°Ĳ
ĠëıĻ íĸī
Ġë²Ħ ë¦°ëĭ¤
ĠíĨł ëģ¼
ëĲ ľ
ĠìĿ´ ìĨĮ
Ġì¡° ìĥģ
Ġë°Ķ ëĤĺëĤĺ
Ġëģ¼ ì¹ĺ
ĠìĤ´íİ´ë³¼ ê¹ĮìļĶ
ĠìĿ´ ëĿ¼ê³ł
ĠëıĻ ê±°
Ġìķŀ ìª½
ë¶Ļ ìĿ´
Ġê°Ģë²¼ ìļ´
Ġìª Ħ
ĠìĿ´ ê¹Į
ĠìĹ¬íĸī ì§Ģ
Ġê¸° ìģĺ
ĠìĤ ½ëĭĪëĭ¤
Ġì¡° íĿ¬
Ġìĭ¤ íļ¨
Ġê±¸ ëł¤ìĦľ
Ġ1 4
ĠíĥĦ ëıĦ
Ġì§ľ ìŀ¥ë©´
Ġê³Ħìĭł ê°ĢìļĶ
Ġê°Ī ê¹ĮìļĶ
Ġê¹¨ ëĭ«
ĠìķĮìķĦ ëĵ£
ìĬ¤ íĭ°
Ġë¶Ħ íķł
ĠíĥĦ íĥĦ
ĠìķĦ ìħ¨
Ġë¨¹ ìĹ¬
Ġëĵ¤ìĸ´ê°Ħ ëĭ¤
ë¦ ħ
ĠìĥĿ ìĨĮ
Ġì¡° ì¢ħ
Ġëĸł ìĺ¤
ĠìĬ¤íĥĢ íĬ¸
ĠìĿ´ìĤ° ê°Ģì¡±
ĠëĲĺ ì°¾
Ġê¹ »
ĠìĿ´ ì§Ħ
Ġìĭľ ìĪł
Ġëª¨ ìĪľ
ĠìĬ¤íĬ¸ëłĪ ì¹Ń
Ġìľ¼ë ĥĲ
Ġì°¾ìķĦ ê°Ķ
Ġê³µíĻĶ êµŃ
Ġìĭľ íĬ¸
Ġê¸° ìĸ´
ĠìľĦ ì¶ķ
íħĮ ë¦¬ìĸ´
ĠíļĮ ìĪĺ
ĠìĤ¼ ê°ģ
Ġìĸ´ íľ´
Ġë§Ī ìĭŃìĭľìĺ¤
ĠíĢ ¸
Ġê³µ ê³ł
Ġìĸĳ ê·¹
ìĿ´ ëıĦ
ĠìĪĺ ê°ķ
Ġë°° êµ¬
ĠëĪĦ ìłģ
Ġê°Ħ íĺ¹
Ġê´´ë¡Ń íŀĪ
ĠìĤ¬ íĿĺ
ĠëįĶ êµ¬ëĤĺ
ĠíĶĮ ëŀľ
ĠìĬ¤íİĺ ìħľ
ê ¹Ħ
Ġê¸° ë»Ĳ
ĠìĹ¬ ìĭł
ĠìĹ° ìĸ´
ĠìŀĦëĮĢ ë£Į
ĠìĿ´ì¤Ģ ìĦĿ
ĠìłĲ ì°¨
Ġë¶Ħ ëĭ´
ê²¨ ìĦľ
íĤ µëĭĪëĭ¤
Ġíķ´ ìļ´
ìŀĲ ìĭĿ
Ġì½ §
ĠìĤ´ìķĦ ìĺ¨
Ġë§Į ìĦ¸
Ġë¶Ļ ìĺĢ
ĠëĤŃ ë¹Ħ
Ġëı¼ë ıĦ
ĠëĮĢ ëĤ¨
Ġíķľ ìŀĲ
Ġëı ¼ë²Ħ
Ġë¹Ħ ë§Į
ĠíĥĢ ìĽĮ
Ġì´Ī ê³¼
ĠìķĪëħķ íķĺ
ĠìħĢ íĶĦ
Ġìŀ Ń
Ġì¡° ìĦ¸
ë²Ħ ëł¤
ê² ¸
Ġìĥģ ìŀ¥
Ġìľł ìļ©
ëĿ¼ë ³´
ĠìĹĲìĿ´ ì¹ĺ
ĠìĬ¤ íĶ¼ë
Ġë°ľ ìĥģ
íĨ ¨
Ġë¸ĶëŀĻ ë¦¬ìĬ¤íĬ¸
ĠìĿ´ íĬ¹
ë¬´ ì§Ģ
ĠêµŃ ê°Ĳ
ë³ĳ ìĽĲ
ĠëĬĺ ëł¤
Ġì¦Ĳê±° ìĽĢ
Ġìĺ¤ ë¥¼
ĠìķĮìķĦ ëĵ¤
ì° Ķ
ĠëĮĢ ëĭ¤ìĪĺ
ĠìĦľ ê¸°
ĠìĦł ê´Ģ
ĠëĳĺëŁ¬ ìĭ¸
Ġìŀ¥ë¡Ģ ìĭĿ
Ġëĭ¤ ì¹ľ
ĠíĮĮ ëıĦ
ĠìĿ´ëĿ¼ëįĺ ê°Ģ
Ġìĭľìĥģ ìĭĿ
ĠëıĦ ì§ĢìĤ¬
ĠìĿĺ êµ¬
ĠëĤł ëł¤
Ġì²´ ê°Ĳ
Ġìľ¤ ìĥģ
Ġëħ¸ íļĮ
Ġë²Į ìĺĢ
Ġë°Ķ ìľĦ
ĠíļŁ ìĪĺ
ĠìĿ´ ìķ¼ë§Ĳë¡ľ
Ġë§ŀ ì¶ĺ
ĠíĿ ©
ìĺ¬ íķ´
ĠíĽĪ íĽĪ
ĠíĿ¡ ìĹ°
Ġë²łìĿ´ ì§ķ
ĠëĤ¨ ë¶Ģ
Ġìłľ ì²ł
ĠìĹ¼ ìĥī
ĠíĮ½ íĮ½
Ġë©ľ ë¡ľ
ĠìĿ¸ ëªħ
Ġìŀħ ì§Ģ
Ġìĭ¤ ëł¤
Ġëĭ¬ íķĺ
ì¡° ë¦¬
ĠíĻ© ìĥģ
ĠìĹ¬íķĺ íĬ¼
ĠíĻĶ ìĺģ
ëĥ ī
3 0
Ġìłģ ëĮĢ
ìĹ¬ ë¦Ħ
ĠìĤ° íķĺ
Ġë¯¸ ìĦ±
§ ¨
Ġíķł ìĪĺë¡Ŀ
Ġê°Ī ì§Ģ
Ġìī Ĳ
ĠìĹħ ëį°ìĿ´íĬ¸
Ġìĭľ ëģĦëŁ½
Ġë²Ī ì§Ģ
ĠëıĻ ë¶Ģ
ìłĪ ëĮĢ
ĠëŁ° ëįĺ
ĠìĿ¼ ìĦ¸
Ġëª¨ ëłĪ
ĠìĦ¬ ìĦ¸
ĠëıĦìļ° ë¯¸
Ġìłķ ìłķ
Ġìµľ íĽĦ
Ġê¶Į ìľł
ĠìķĶ ìĤ´
Ġì§ĳíĸī ìľłìĺĪ
Ġì§Ģ ëĤ¸
ĠëŃĲ ìļĶ
Ġìļ° ìĬ¤
Ġëĭ´ ìŀĦ
Ġìĥģ ìĽĲ
ĠìĨĮ ìĻ¸
Ġì´Ī ì½ľ
ĠíķŃ ìĤ°
Ġìº ¬
ĠìĨĮ íĻĢ
ĠìĨ¡ ìĺģ
Ġê¹Ķ ëł¤
Ġíķľê²¨ ëłĪ
Ġë³´ ìĬ¤
ìķĻ ìĬ¤
Ġê´Ģ ê±´
Ġìľł ë¨¸
Ġìĭ¸ ìļ¸
ĠìĪĺ ìłľ
êµĲ ìĪĺ
ê±¸ ìĿĮ
Ġë¡ ±
Ġìŀħ êµŃ
Ġë§Ī ë¥¸
Ġì§Ģ ìĺ¥
ìĺ Ľ
Ġì½ ¤
ĠëłĪ ìĭľ
Ġë§Ŀ ì¹ĺ
ĠëĶ ĺ
ĠíĻĶ ê°Ģ
ë» Ķ
ìŀĲ ìĹ°
ĠíĻĺ íĺ¸
ĠìĿĳê¸ī ìĭ¤
ĠìĿ´ìĦĿ ê¸°
ĠëĤ´ ìłķ
ĠëĤ´ ìĻ¸
Ġê³¼ ìŀī
Ġë¯¸ ë¤Ħ
Ġë°Ķ ëĳĳ
Ġëł¤ëĬĶ ëį°
Ġëĵ¤ìľ¼ ìĭł
ĠìĨľ ìĶ¨
ĠìĬ¤íģ¬ ë¦°
ĠìķĦ ëŀ«
Ġíķ´ ìł¸
Ġë¶Ħ ìĭĿ
Ġê°Ħ íİ¸
Ġë¹ħ ë±ħ
Ġê°Ģ ìľĦ
Ġì§Ģ ìĻĦ
ĠìĭĿ íĥģ
ĠìĿĺêµ¬ ìĭ¬
Ġìļ° ìĥģ
Ġêµ¬ ëıħ
ĠìĹ° ëĳĲ
Ġíı¬ ìĬ¤íĬ¸
ĠìĿ į
ì ĳ¥
ê¸° ìĤ¬
ĠìĽĲ íĻľ
ĠíķŃìĨĮ ìĭ¬
Ġìľ¼ë ¦¬
ìĭľ ê²½
ĠëĵľìħĶ ëıĦ
Ġëīĺ ìķĻìĬ¤
ĠìķĮìķĦ ë´Ĳ
ìĦľ ë¡ľ
Ġêµ¬ ìĤ¬
ĠìĹ° ê°Ħ
ĠíĽĦ íĩ´
íĮ¡ ìĿ´
Ġë¹Ħì¦Ī ëĭĪìĬ¤
Ġëĭ¤ ë¬¼
ĠìĪĺ ê°Ĳ
ĠëĤľ ê°Ĳ
Ġë°° íĽĦ
Ġê³µ êµ°
Ġê¹Ģ ì£¼
ĠìĤ¬ë§Ŀ ìŀĲ
Ġíķ´ ê²½
ĠìĭĿ ëĭ¨
Ġíĳľ ê³ł
Ġê²¸ ìĨĲ
ìĿ´ ìª½
ìľ¼ ëĭĪê¹Į
ĠíĸĪ ìľ¼ëĭĪ
ë°ĺ ëĮĢ
Ġëĭ´ ê°Ģ
ĠìĦłë³´ ìĺĢ
ëĿ¼ìļ° ë§Ī
Ġì²ľìłķ ë°°
Ġíķĺ íĥľ
Ġê·¸ë ©´
Ġìĭł ê°Ģ
Ġë°° ëĵľ
ĠëĤĺíĥĢ ëĤ´
ĠëĮĢìĥģ ìŀĲ
Ġìĸĳ ì¸¡
Ġìı ´
Ġê³¼ íķĺ
ĠìĽĲ ê³ł
ĠìłĪ ìĭ¤
ĠìĤ° ëĭ¤ëĬĶ
Ġëįĺ ì§Ħ
ìłľ ìŀĳ
Ġìł ¬ë§Ī
ĠëĤ¨ ëĭ¤ë¥¸
íĶ¼ ìķĦ
Ġêµ´ ëŁ¬
ĠìłĦ ìĪĺ
Ġëĭ¹ ì´Ī
ĠìĦĿ ë°©
Ġì¢Į ìłĪ
Ġê±° íĴĪ
Ġê¸° ê¸Ī
Ġëĭ¬ ë¦°
Ġíĸī ìłģ
Ġ :
Ġíķ´ íĤ¹
Ġê³łëĵ± ìĸ´
Ġìŀĥìĸ´ë²Ħ ë¦°
Ġë³´ ê¸ī
ĠìŀĲ ë¶Ģ
ĠìłĦ ëĭ¨
ĠìĺĪìĪł ê°Ģ
ĠíĮĮìĿ´ ë¸Į
ĠìĽĶíĻĶ ëĵľëĿ¼ë§Ī
Ġìłľ ë¡ľ
Ġë¬´ ì¹¨
Ġê¹Ģ ëĤ¨
Ġíĺ¸ ìĿĳ
Ġì°½ íĶ¼
ĠìŀĶ ëĶĶ
Ġì¡° ì§Ģ
Ġìµľ ìĺģ
Ġëĭ¨ ìĽĲ
ĠìĿ¼ë ¦¬
Ġì¦Ŀ ë§Ĳ
Ġëª¸ ë§¤
ĠìĹħ ìłģ
Ġì¹¼ ìĬĺ
ĠìĹī ë§Ŀ
ìĸ´ì© Į
Ł ¼
ìķĦ ìļ°
Ġê¹Ģ ëªħ
ĠíķľíħĮ ìĦľ
ĠíĬ¸ ëĿ¼ìļ°ë§Ī
Ġë¡ľê·¸ ìĿ¸
ĠìĿĺ ë¦¬
Ġì¤ĳ ëıĻ
ĠìĹħ ì¢ħ
ĠìĪĻ ìĦ±
ĠíĨ¡ íĨ¡
Ġëĭ¤ ëĿ¼
Ġì´ Ĳ
ĠíĻķ ê³ł
Ġìļ´ ìļ©
ĠìĻ¸ ë¡Ń
ĠëĶ°ëĿ¼ ìĺ¤
Ġíİ Ħ
Ġì»¤ ë²Ħ
ëª¬ ëĵľ
Ġë¹Ħë¹Ķ ë°¥
Ġì°¨ê°Ģ ìļ´
Ġë§Ĳ íĪ¬
ĠìµľìłĢ ìŀĦê¸Ī
Ġìŀ¥ ëª¨
Ġë§ŀ ëĮĢ
ĠíĬ¹ ê¸°
ĠìĥĮëĵľ ìľĦì¹ĺ
Ĩ Ī
Ġê·¸ë ĨĪ
Ġê²Ģ ì¶ľ
Ġëŀĺ ëıĦ
Ġëª©ê²© ìŀĲ
ĠëĤĺ ìĦ¤
Ġì£½ ìĿ¸
Ġìĵ¸ëį° ìĹĨ
Ġìĭł ê·ľ
Ġë²Ħ íĦ°
íķŃ ìĥģ
Ġê³µê°Ĳ ëĮĢ
Ġê±° ìĬ¬
ê°Ģ ìĬ¤
Ġíĸī ì§Ħ
Ġìŀ¬ë¯¸ ìĹĨ
ĠìĿ´ ìĦł
Ġì§Ģ ìŀ¥
Ġëĺ ĺ
ĠêµŃ ìĿµ
ĠìķĶ íĬ¼
Ġíĭ ±
Ġìłķ ì§ģ
ìĸ´ ì°¨íĶ¼
ĠìĬĪ íį¼ë
ĠìŀĲ íĥĿ
Ġëļ ±
Ġì£½ ìĺĢ
Ġë²¨ íĬ¸
ê° ĵ
Ġëª¨ ìĿĢ
Ġì¤ĳ ìĦ±
Ġë¬´ ìĿ¸
Ġê±¸ ì³Ĳ
Ġíı¬ ê´Ħ
ëª¨ ë¥´
ĠìŀĲë³¸ ì£¼ìĿĺ
ëİ Į
ĠìĿ´ ëĤĻìĹ°
Ġì¡° ë¦¼
Ġê°Ķ ëĭ¤
ĠíĿĳ ìĿ¸
Ġì¹¼ë Ł¼
ĠëĤĺ ìľ¼ë¦¬
ĠêµŃë¬´ ì´Ŀë¦¬
Ġë°Ķë¹ł ìĦľ
ĠìĿ¼ ëĭ¹
Ġê°ľ ìĦ¤
ĠëĵŃëĭĪëĭ¤ ëĦ¤
ĠìĹ°ìĺĪ ê³Ħ
ĠìļĶ ì§Ģ
ĠìĨĮ ìĨĮ
Ġ1 7
Ġì¹¨ ëª°
Ġì»¨ ëĶĶìħĺ
ĠìĹ¬ë¦Ħ ì²ł
Ġë¥ Ļ
Ġê¸° ì§ĳìķł
Ġìļ° íļĮ
ìĤ¬ ìĿ´
Ġë§ī íĮĲ
ĠìŀĶ ì¹ĺ
Ġëĭ¤ ëĵłê°Ģ
ĠìĿ¼ìľ¼ ì¼°
Ġê³µ ìłľ
ĠìĨĮ ê·¹
Ġëħ¼ íıī
ĠìĿ¼ìľ¼ ì¼ľ
Ġìĩ¼íķĳ ëª°
íĿ¥ ë¯¼
ĠìĿ´ìłķ íĺĦ
Ġë³´ íĥľ
Ġê¸° ë¥´
Ġê²¨ìļ¸ ì²ł
Ġê±° ë¶ģ
ì£¼ ìĿ¸
ĠêµĲ ì°¨
ĠìķĦ íĶĮ
ë¥ ¼ë
ìĬ¤ ì¹´
Ġê°Ī ëł¤ê³ł
Ġê°ģ ìĦľ
ê·¸ ëłĪìĿ´ëĵľ
Ġìŀ¥ ê°Ģ
Ġìµľ ê²½íĻĺ
Ġê¸Ī ëħĦ
Ġì£Ħ ìĿ¸
Ġìĥģ ìĬµ
ëī´ ìĸ¼
ĠìłĦ ëħĦ
² Ķ
ĠëĮĢ ëĨĵ
ë½ ķ
Ġë¡ľ ë§Ī
ĠëįĶ ìĽĮ
Ġê¹Ģ ìĦł
ëĿ¼ë ĵľ
Ġê°Ģìł¸ ìĻĢ
ìºĲ ìĬ¤íĬ¸
Ġíľ© ìĭ¸
Ġê³ł ê°Ģ
Ġì§Ģ ìĦ±
Ġì§Ģ ë£¨
ëĮĢ ì¡°ìĺģ
Ġê·¸ëŀĺìķ¼ ì§Ģ
Ġíģ¬ë¡ľ ìĬ¤
Ġíķľ ëıĦ
ĠìŀĲ ë§ī
ĠìĿ´ìłľ ìķ¼
Ġê´Ģ ìĦ¸
Ġë¸Ķ ë¦¬
Ġíķ´ ëĳĲ
Ġìĺ¤ ë©Ķ
Ġë°ľ ì£¼
ĠíĹ¤ ëĵľ
ĠëĬĲëĥĲ ëĬĶ
ĠìĤ¬ ì£Ħ
ĠìĿĺ ë¥ĺ
ìľł ëŁ½
ĠìĹ´ ë¦´
Ġêµ¬ìĦ± ìĽĲ
Ġìĭł ë¹Ħ
Ġì²Ń ìĸĳ
Ġê´´ ë¬¼
Ġë¶Ī ë§¤
ìĺģ ìĭ¤
ĠìĪĺìĺģ ìŀ¥
Ġëħ¸íļĮ ì°¬
ĠìĤ¬ ì§ģ
Ġìłľ ìķķ
Ġë§¤ ë§¤
Ġê³Ħ ìĹĦ
Ġìĥģëĭ¹ ìĪĺ
Ġê¹Ģ ì¤Ģ
ĠìļĶ ê°Ģ
Ġìµľ íĥľ
Ġëĭ¹ ê¸°
Ġë¯¸ ìĽĮ
ìĿĢ íĸī
Ġë² ¼
ĠëŀĦ ì§Ģ
Ġê·¸ë ĵł
ì§Ħ íĺ¸
ĠëĨį ìĹħ
ĠìĿ¼ êµ¬
Ġìĺ¤ ë²Ħ
Ġì²ĺ ìłľ
Ġê°Ĳ ì§Ģ
Ġìį¨ ëıĦ
Ġíĩ´ ìĽĲ
ĠìĤ¬ëł¹ ë¶Ģ
ë² ³
Ġê±¸ ìļĶ
Ġì¹ľ ë¶Ħ
Ġìĭ¬ íĸĪ
ĠìĨĲ ì£¼
Ġëª© ë¡Ŀ
Ġë¬´ìĤ¬ íŀĪ
ìĺĪ ìłĦ
ĠìĿ¸ íħĮë¦¬ìĸ´
ĠêµŃ ìĦ¸
ĠìĿĮë£Į ìĪĺ
Ġê¸°ìļ¸ ìĿ´
ëĨĴ ìĿ´
ĠìĤ¬ ìĦ¤
Ġìŀħ ê±´
Ġìµľ ìĥģ
Ġê´Ģ ëħĲ
ĠêµĲ íĽĪ
ê´Ģ ê³Ħ
ĠìķĦë¬´ ëłĩ
Ġì»¤ë®¤ëĭĪ íĭ°
Ġìĭľ ê³µ
ĠìļĶ ëıĻ
Ġìĺģ ìŀĲ
Ġë§¤ ëī´ìĸ¼
Ġê°Ģ ì¤ĳ
ìĭľ ë§Ī
Ġì¹ľ ë¬¸
Ġë²ķ ë¦¬
ìĻ¸ ìĦł
ĠìĥĿëªħ ì²´
ì« ĵ
Ġìłľ ìķ½
Ġìłľ ìĻķ
ë¯¼ ê¸°
Ġë°ľ íĸī
ì¹ ¸
ëª¨ ìĬµ
Ġë²Ħ ë¦ĩ
íľ ¼
ĠëĤĺ ê°ĳëĭĪëĭ¤
Ġì§Ī ëŁī
Ġê³ł ìĺģ
ĠìĿ¸ ì¢ħ
Ġêµ¬ ì²ľ
Ġëĭ¨ íİ¸
Ġì¤ĺ ëĿ¼
Ġê¹Ģë³ĳ ì¤Ģ
Ġë¶Ħ ë¹Ħ
ë°© ê¸Ī
Ġ1 6
ĠëĤĺìĺ¬ ì§Ģ
ĠìĿµ íŀĪ
ĠìĪĺ íĺ¸
ë¡ľ ìļ°
Ġì¹ľ ëĭ¤
Ġë½ Ĳ
ĠíĺĦ ë¯¸
ëĭ¤ ëħĢ
ĠìĿ¼ ìĸ´
Ġë¡ľ ìĬ¤
ĠìĬ¤ íĤ¨
Ġì§ĳ ìĤ¬
Ġì§ĳ ìĤ¬ëŀĮ
ĠìĹĺë¦¬ íĬ¸
Ġíĩ´ì§ģ ê¸Ī
Ġíĺ ¼ëĤ
ì»¤ ìĬ¤
ìļĶ ëłĩê²Į
Ġìĺ¤ ëĿ½
ĠìĦł ìŀ¥
Ġìľł ìĸ¸
ĠíĽĦ ì¶Ķ
Ġë³ĳ íĸī
ĠìĹħ ê·¸ëłĪìĿ´ëĵľ
ĠëĨį ì´Į
ì¯ §
ëĭ¤ ë§Į
Ġì¶ľ ìĥĿ
Ġë®¤ì§Ģ ìħĺ
Ġìĺ¬ ê²Į
ĠíĦ° ëĦĲ
Ġíľ´ ìĿ¼
ĠëĦĺ ìĸ´ì§Ģ
Ġë¿ ľ
Ġê²½ìłľ íķĻ
ëįĶ ëĿ¼
Ġê¿ °
Ġìĺ¥ ìĥģ
Ġíķĺ ìľĦ
ĠìĿ¸ ë°©
ĠëĤ´ëł¤ ìĦľ
ĠëıĻëĤ¨ ìķĦ
Ġë³µ ëıĦ
Ġìľ¼ë Ŀ¼ë
ĠìĤ¼ êµŃ
ĠìĤ´ìķĦ ìĻĶ
Ġìķ¼ ëĭ¨
Ġëĵľ ëĤĺ
Ġë©Ķ ëĭ¬
ĠíĮŁ ìºĲìĬ¤íĬ¸
Ġìĭ¬ íĻĶ
ê¸ī ìłģ
Ġë¯¼ ìĤ¬
ĠìĿ´ êµŃ
ìľ Ĺ
Ġê¹Į ëĭ¤
ëĦ ¬
Ġì°¨ ê·¼
Ġìĭ¬ ìĭł
Ġìľ¤ ì£¼
Ġìķ Ĺ
ĠìĨĲ íĿ¥ë¯¼
Ġì¶ķ ìłģ
1 9
i n
Ġëª¨ ê¸°
ì ª
ìĺĪ ìŀĲ
Ġìĭ¸ ìĿ¸
ĠìĿ´ ìĽĲ
ĠëĮĢ ê°ķ
ê±° ìĿĺ
Ġë¦¬ ëĿ¼ê³ł
ĠëıĮìķĦ ìĻĢ
ëĵ¤ìĸ´ ê°Ģ
Ġê±° ëĬĺ
Ġê·¸ëł ¸
ì¡° ìĭ¬
Ġìĸĳ ëĭ¹
Ġì¦Ŀ ìĹ¬
ìĨĶì§ģ íŀĪ
Ġê³ł ìĿ¸
Ġë¹Ħ ìķĪ
Ġë³¸ ëĬ¥
ĠìĿ´ ìĿĢ
Ġìłķ ë°Ģ
Ġë³µ ë©´
Ġê¹» ìŀİ
ê³ °
ê¸Ģ ìİĦ
ĠëıĻ ì§Ģ
ĠìłĦ ìĭł
Ġë§ĪìĿĮ ê»ı
ì²ľ ì²ľíŀĪ
Ġë§Ŀ ìĦ¤
ĠìĦ¼ íĭ°
Ġìĺģìĸĳ ìĨĮ
ĠìĤ¬ íĽĦ
ĠìľĦ ëł¥
Ġê±¸ ëŁ¬
Ġì§ĳ ê³Ħ
ìĭŃ ëĭĪëĭ¤
ĠìłķëıĻ ìĺģ
ĠìĿ´ ëĿ¼
ĠìĿ´ ìĬ¬
ĠìĨĮ ì§ĳ
ĠìĿ¼ë³¸ ìĿ¸
Ġë³´ íĸī
Ġìłľ ëĮĢ
Ġë§Ī ëĥ¥
ĠëıĻ íĸ¥
Ġì²ľ íķĺ
Ġë³µ ê¶Į
Ġíľ´ ì§ģ
ĠìĬ¬ íĶĦ
ĠìķĦ ë°Ķ
ìĹ Į
ĠìłĦ êµĲ
ĠíĮĮ ë¬¸
ê¶ģ íĻĶ
ĠíĪ¬ìŀĲ ìŀĲ
Ġê¶ Ĳ
ê³ł êµ¬
ĠìĦľ ìĹ´
ĠìĦł ëĭ¤
Ġíĳ¸ ëĵľ
ĠìĿĢê·¼ íŀĪ
ëĬ Ħ
Ġë¯¼ ì¤ĳ
Ġë³µ ìĤ¬
Ġë¨¸ ë¬´
Ġëŀľ ëĵľ
Ġê¸° ìĦ±
Ġìļ° ìĬµ
Ġìŀ¥ ìĻ¸
ĠëıĮ ë°ľ
Ġê°ģ ë³Ħ
ìĺ¤ëŀľ ë§Į
Ġì¡° ê·¸ë§Į
íį¼ ìĬ¤
Ġëª¨ ëħĢ
Ġëĭ¨ ì¶ķ
ìķĦ ëĭĻëĭĪëĭ¤
ê·¸ ë§Ī
Ġíĳľ ê²°
ĠëĤĺ ë¹Ħ
Ġì»¤ ì¡Į
Ġíİ¸ íŀĪ
ĠëĨį ë¯¼
ĠìĿ´ ê²¬
Ġìĥģ ìĹħ
Ġê³µ íĮĲ
Ġë§¤ ì§Ħ
ĠíĮĮ ê³ł
Ġìĭł ìĽĲ
Ġë°Ŀ íŀĲ
Ġê³ł ë¦½
íĮ İ
Ġë°ķ ìĦ±
ĠìĤ¬ íĪ¬ë¦¬
Ġíķ´ ìĥģ
ĠëĺĲ ëŀĺ
ĠìĨĮ ìĥģ
ìłĢ íĬ¸
Ġëªħ ìĭ¬
ĠíļĮ íĶ¼
ĠíĺĦ ìĪĺ
Ġê°Ħ ìĦŃ
ë¦° ëĤ´
Ġë¯¸ ìĿ¸
Ġë¶Ī ëł¤
Ġëĭ¨ ê°Ģ
Ġëĭ¬ ìķĦ
Ġê» Į
ĠìĿ´ìĻĦ êµ¬
Ġê² Ĳ
ĠíĻĶ ëĤĺ
Ġì¹ľ íĻĺê²½
ìķ½ ê°Ħ
Ġì´ī ì´ī
ĠìĿ¼ëł ¨
Ġë¬´ ëįĶ
ĠìĺĢ ìŀĸ
Ġì´Ŀ ìŀ¬
ĠëĤĺ ìĺģ
Ġë°Ķ ì§Ŀ
Ġë³µ ìŀ¥
Ġ ï
Ġê³ł ìļ´
ĠìĦ¼ ìĬ¤
ìĸ¼ êµ´
Ġìĺ¤ ì§Ģ
Ġëª¨ íĺ¸
Ġì¼Ģ ë¯¸
ĠìĤ¼ìĦ± ìłĦìŀĲ
ëļ ľ
ĠìĹ¬ ê¹Ħ
ĠìĬ¤ ëŁ°
Ġíĥľ ìĽĮ
Ġëĭ¹ëĩ¨ ë³ĳ
Ġë² ħ
ĠìķĪ íĮİ
Ġì§Ħ ëıĦ
ĠíĮĮ ìĿ¸
ĠìĨį ìĺ·
ĠíĤ¤ ë¡ľ
Ġì·¨ìŀ¬ ì§Ħ
r e
ê°ģ ê°ģ
Ġìĺ¨ ëª¸
ĠëıĮìķĦ ê°Ķ
Ġê³łë§Ī ìļ´
Ġê·¸ëĤĺ ìłĢëĤĺ
ëį ©
Ġë§¤ ìŀħ
ĠíĮĲ íĥĢ
ĠìķĦìĿ´ ìĶ¨
Ġëıħë¦½ ìļ´ëıĻ
Ġë¯¸ìĪł ê´Ģ
ĠìĶ¨ ìķĹ
Ġíį¼ ìł¸
Ġê¶ģ íķ©
Ġê¼¼ ìĪĺ
Ġë²Ħëł¤ ìļĶ
Ġì²´ìľ¡ ê´Ģ
ĠìĿ´ ëģĦ
Ġìķ¼ ìķ¼
ĠìĻĢ ìļ°
Ġë³Ģ ë¡ł
ĠíĻľëıĻ ë¹Ħ
ĠíĦ° ì§Ħ
Ġíģ´ ë¦Ń
Ġíķłì§Ģ ëĿ¼ëıĦ
ĠìĹ°ìĦ¸ ëĮĢ
ì¡° ìĤ¬
Ġê¶ģ ê·¹
ĠìĨ¡ êµ¬
Ġë§Ŀ ìĭł
Ġíĸĩ ë¹Ľ
ĠìĬ ¨
Ġë¹Ħ ì¹ĺ
Ġê´ĳ ìĹŃ
Ġìĺ¬ë¦¬ ë¸Į
ĠìĦ¤ëĵĿ ëł¥
ĠìĿ´ ë§Ī
ì¦ Ļ
ìĸ´ëĸ ¡
ĠìĽĲ ìŀĳ
ĠëĳĲ ëłµ
ë© Ģ
Ġìķŀìŀ¥ ìĦľ
ĠìĿĦ ìĪĺë¡Ŀ
ĠìĹ´ íĴį
Ġëĭ¤ê°Ģ ìĻĢ
ĠëĩĮë¬¼ ì£Ħ
ĠìłĦ ë°©
Ġë¯¸ ìĺģ
ëĭ¨ ì²´
Ġì²ĺ íķ´
Ġìļ© ëĤ©
Ġê¼¼ ì§Ŀ
Ġìĭľëĭ¬ ë¦¬
ê²½ ì°°
ĠìĹ´ ìķħ
Ġê°Ģìł¸ ìĺ¨
Ġìĵ´ ëĭ¤
Ġê¸°ëĭ¤ëł¤ ìķ¼
ìĸĺ ê¸°
ĠíĮį íĮį
Ġë¨¹ ë°©
íĥľ íĶĦ
ĠìķĦë¦¬ ëŀĳ
Ġë¯¸ ëĦ¤
ê²Ģ ì°°
ĠìľĦ íĹĮ
ĠëĤĻ ì§Ģ
ĠëĦĲ ë¦¬
ìķ ¼ë
ĠìŀĲ ìŀĲ
Ġìĥģ ìłķ
ĠìĨį ëĤ´
Ġíķ´ ìĪĺ
ëĮĢ ê¸°
Ġìľł ìĿĺ
Ġë½Ģ ë½Ģ
Ġê·¸ëĵł ìļĶ
ìķĦ ë¦Ħ
ĠíķĺìĹ¬ ê¸Ī
Ġì¤Ħìĸ´ ëĵľ
Ġëª»ì§Ģ ìķĬ
ĠìĨĮ ëªħ
Ġë§¤ ìĭ¤
ĠìķĦ ê»´
Ġê°ķ íķ´
Ġì¤Ħ ì¤Ħ
ĠìĹħ ìŀĲ
Ġë°ĺê°Ģ ìļ´
¥ ¨
Ġë²Ħ ë¬´
ìħĶ ì¸ł
ĠìĿ´ ìĭ¬
Ġêµ¬ ìĿ´
ĠëĦĺ ê²¼
ĠíĴĪ ëª©
ĠìĦŀ ìĹ¬
Ġìĭł ëıĦ
ĠíĮĮ ëıĻ
ĠìĪĻ ìĿ´
ĠìĬ¤ëŁ¬ ìļ¸
ĠìĿ´ë£¨ìĸ´ ìł¸ìķ¼
êµ¬ ìĦĿ
ì§ģ ìĽĲ
Ġë°° ìłķ
ĠíĻ© ê¶ģ
Ġê·ĢìĹ¬ ìĽĮ
ĠìĬ¤ ë¦´
ìłģ ìľ¼ë¡ľ
ĠìĿĢ íıĲ
Ġë°ķ ì¢ħ
Ġë²Į ìĿ¸
Ġê°ĳ ìĭľëĭ¤
Ġë¸Ķ ë¡Ŀ
ĠëĵĿ íĳľ
Ġì¤ĳ ìłĲ
ĠìĦł ë°ķ
Ġê²Ģ ê²½
ĠíĸĪìĹĪ ìŀĸ
ĠëĤĺë īĺ
Ġíķ´ ë³Ģ
Ġì¤ĳ ì§Ģ
Ġíİ¸ íķ´
Ġìĸ´ëł¤ ìĦľ
ĠìĿ´ ë¶Ģ
Ġêµ¬ ìłĪ
Ŀ ëĭĪëĭ¤
ĠëĲ ¨
Ġìŀ¥ ê°ĳ
ĠìłĪ ë°ķ
Ġíĺĳ ìķ½
ĠìŀłìĪĺ íķ¨
ìĺĽ ëĤł
Ġíķł ê»ĺìļĶ
ëĮĢ ìĭł
Ġë¬¼ ê¸°
ĠìĬ¹ ê³Ħ
ĠëĵŃëĭĪëĭ¤ ìŀĲ
Ġê³µìŀ¥ ìŀ¥
Ġì±ħ ë°©
Ġìĺ¤íĶĦ ëĭĿ
Ġíĳľ ì¶ľ
ĠëĿ¼ìĿ´ íĶĦ
ĠíķĻ ìľĦ
ĠìĤ¬ ìĭł
ìĸ Ģ
Ġë³´íĺ¸ ìŀĲ
ĠìĹĦ ì¤ĳ
ĠìĬ¬ íį¼
ĠëĥĲê³ł ìļĶ
íĺ ¼ë
Ġë¹Ħ ì¼ľ
Ġë³Ħ ëĭ¤ë¥¸
Ġì£½ ìĿ¼
ĠíĥĦ ìĨĮ
Ġ w
Ĭ ê·¸
Ġê²½ íĿ¬
Ġìĭ¤ ìļ©
ĠíĮĮ íĥĦ
ĠìĻĢìĿ´ íĮĮìĿ´
Ġê°Ģ ìĭ¤
Ġë°ĺ ìĤ¬
Ġëĭ¨ ìłĪ
Ġ2 4
Ġëº ¨
ëłĮ ì§Ģ
ĠìĦłê´Ģ ìľĦ
Ġê²ģ ëĤĺ
Ġì¡° ê³Ħ
Ġì°¨ ìĦł
Ġë³Ģ íķľ
Ġê°Ģ ê¸īìłģ
Ġìĭ¬ ë¶Ģ
Ġë¶ĢëĶª íŀĪ
Ġì¤ĳ íķĻìĥĿ
ìķĦë¬´ íĬ¼
ĠìĿ´ ë©´
Ġìĭľ ìĿ¼
ĠìĽĲ ì¹ĺ
Ġë°ĶëĿ¼ë ³¸
ĠíĿ° ìĥī
ìļĶ ìĥĪ
Ġë©´ ëĭ´
ĠíĻľ ëł¥
Ġìĺ¤íĶ¼ìĬ¤ íħĶ
Ġê³ł ìĦ±
Ġìŀĺ ëĤľ
ê· Ħ
Ġìµľ ìŀ¬
ĠìŀĬìĸ´ë²Ħ ë¦¬
ĠìĿ´ íĻĶ
Ġíķĺ ê¸´
ĠëĤĺ ìĿ¸
Ġìļ° ë°ľ
ìĺĪ ìĸ´
Ġì£¼ë¬´ ìĭľ
ĠëłĪìĭľ íĶ¼
§ ģ
Ġíķĺ ì²Ń
Ġìĺģ ë¦¬
Ġì¡° ìĪĺ
ĠìĨĮ íĺķ
Ġì¶Ķ ìĿ´
ĠìĿ´ ëĭ¬
Ġìľł ì§Ħ
Ġê¹Ģ íĺķ
Ġêµ¬ íĺĦ
ë¯¼ íĦ´
ĠìĺĢ ìĿĦ
ĠìĬ¤ íĥľíĶĦ
ĠìķĦ ìĤŃ
Ġë³´ ìĤ´
ĠêµĲ ìŀ¬
Ġë°° íĦ°ë¦¬
Ġë°ķ íĥĪ
Ġë¹¼ë ıĮ
ĠìĨĮ ë¦°
ì°¨ ê·¼
íĦ ±
Ġëĭ¨ ê³¨
ĠíĦ° íĤ¤
ł Ī
Ġëĭ ·
Ġëĭ ī
ĠëĩĮ ì¡¸
Ġëł¤ë©´ ìĿĢ
ìĿ´ ìĥģ
ë§ £
ĠìĪĺ ê±°
Ġëĭ¤ìĿ´ ìķĦ
ë©ĺ íĬ¸
ë ¼Ī
Ġë©´ ìłģ
Ġìĭľ ê¸Ī
ĠìľĦ ìĥĿ
ì±ħ ê°Ĳ
Ġíģ´ ë¦°
Ġë²łìĿ´ ë¹Ħ
Ġë²Ħíħ ¨
Ġíķ´ ëıħ
Ġìłķ íĸĪ
Ġë¯¸ ìķ½
ĠìĿ¸ ë¶Ħ
Ġêµ¬ ëĿ¼
Ġìĸ´ëĳĲ ìļ´
Ġíķĺíĥľ ê²½
ĠìĨ Ł
Ġê°ķ ê°Ħ
ë§Ľ ìŀĪ
Ġ7 0
ëħĦ ìŀĲ
Ġë²Į ëłĪ
ĠëĤ¸ ëĭ¤
Ġìŀ ¦
ĠìĶ ģëĭĪëĭ¤
ìłĢ ë¦¬
íĶĦ ëĿ¼
Ġê¸Ī ë´ī
Ġìı ľ
Ġ h
ìĿ¸ ê·Ģ
Ġë§Ī ì¹ľ
ĠêµĲ ìłķ
Ġë¥ĺ íĺĦì§Ħ
Ġë°ĶìĿ´ ìĺ¬ë¦°
ĠìŀĦëĮĢ ì°¨
Ġë³´ íĽĪ
ĠëĤ¬ ìĹĪ
ĠëıĻë¶ģ ìķĦ
Ġìĺ¤ ìĤ¬
ĠìĹ¬ ê¸¸
ĠìłĲ ëł¹
ê·¸ëłĩ ì§Ģë§Į
ìĨĮ ìĺģ
Ġìŀ¬ ìĦł
Ġëıħ ìĨĮ
Ġë¬´ìĦľ ìĽĮìĦľ
ë¯ Ħ
ĠìĶģ ìĵ¸
ĠíĨµ ë¡ľ
íĮĮ ë¦¬
ĠíķŃ ìķĶ
ì§Ģ íĺĦ
ë¥ ¨
íķĺ ëĬĺ
ìĿ´ ìłł
Ġì¡° ìķ½
ĠìķĮ ëłĪ
Ġìľł ìŀ¬
Ġëıħ ìłĲ
ĠìłĦ ë¶ģ
ĠìĦł ëªħ
ĠìĦł íĸī
Ġë¹¨ ê°
Ġë¶Ļ ìĿ¸
ĠìĽĥ ê²¨
ĠëĤ ±
ê°Ī ë¹Ħ
ĠëĶĶ ìłĢíĬ¸
Ġë¶Ģ íĴĢ
Ġìĭł íĨµ
ĠìŀĦ ë§Ī
Ġíĸĩ ë³ķ
ĠëĤĺ ìĹ°
Ġê´Ģ íķł
Ġëªħ ìĦ±
Ġë°ĿíĺĢ ìķ¼
Ġê¹ĥ ë°ľ
ĠìĿ´ ë¬¸
Ġìľł ëĤľ
Ġë°ķ ìļ©
Ġë§Ľ ë³´
Ġìĺ¥ ìĪĺìĪĺ
Ġìŀħ ëĮĢ
Ġëĭ¬ ëł¸
ĠìĽĮ íģ¬
Ġë°Ķëĭ· ê°Ģ
ì¹ ©ëĭĪëĭ¤
Ġê³µ ê¶Įëł¥
Ġê¹Ģ íĿ¬
Ġì¼ĢìĿ´ ë¸Ķ
Ġë¿Į ëĵ¯
ĠëĿ¼ ìļ´ëĵľ
Ġì¶Ķ ë¦¬
ĠëĽ° ìĸ´ëĵ¤
Ġìĺ¤ìĿ´ ìĶ¨
Ġï ¼
Ġíķ´ ìĺ¨
Ġë©´ ëª¨
Ġëĵ¤ìĸ´ ìĦłëĭ¤
ĠëĶ¸ ê¸°
ê·¸ëŁ¬ë©´ ìĿĢ
Ġì²Ļ íķĺ
ìłķ íĻķ
Ġë¬´ ëį¤
ì¤Ģ ë¹Ħ
Ġê°Ĳ íĥĦ
Ġìļ´ëıĻ ìŀ¥
ëį° íĥĢ
Ġëĵľ ëł¤ìĦľ
Ġê³Ħ ê¸ī
Ġíľ ł
Ġê» Ħ
ë¿ į
Ġê·¸ ìłľ
Ġìŀ¬ ìĽĲ
Ġë³Ģ íķ´
Ġì»¤ ì§Ī
ìĹł ìĹĲíĶĦ
ĠëĤ´ ë²Ħëł¤
Ġêµ¬ ëĭ¨
Ġëį° ìĬ¤íģ¬
Ġíĥĳ ìĬ¹
Ġíķĺ ê³¤
ĠìľĦíķ´ ìĦł
Ġëĭ¤ ìĭł
ìļ° ë¦°
Ġê°ĩ íĺĢ
Ġê²¬ìłģ ìĦľ
Ġìĺ¤ ì¼Ģ
ìĹħ ìŀĲ
ì½ §
Ġë©´ ìĦ¸
Ġìłľ ê²Į
ĠìĤ´ ë¦´
Ġë¶Ī ê½ĥ
Ġë°ľ ëł¹
Ġë§ŀ ì¶ľ
ĠëģĮìĸ´ ìĺ¬
Ġì£¼ ìµľ
Ġë¬¸ ëĵĿ
ĠìĹ° ìĩĦ
ĠíĨµ ìĹŃ
ĠìłĪ ë§Ŀ
Ġì¦Ŀ ê¶Į
Ġ5 00
Ġíİ¼ ì³¤
ìŀ £
ĠìĦł ìĥģ
Ġë°± ìłľ
ĠìĨĲ ìŀ¡
ĠìĤ¬ ì¶ĺ
Ġì§ Ļ
Ġìľł ëĮĢ
Ġë³´íĹĺ ê¸Ī
Ġìľł ìĿµ
Ġë»Ķ ë»Ķ
Ġìĭľ ê·¸
ìķĦ ì¤Įë§Ī
Ġìĭł ëį°ìļĶ
Ġê±´ ìłĦ
Ġë¨¹ ê±°ë¦¬
Ġêº ¼ëĤ
Ġê¸° íĽĦ
ìĸ´ ì¤Ģ
Ġs ns
s t
ĠëĮĢ ê±°
ĠìķĪ ë¬´
ĠëĳĲ êº¼
ìĪŃ ìķĦ
Ġìłľ ë²ķ
Ġë²ł ëŀĢëĭ¤
ĠìľłìĤ° ê·ł
Ġê¸° íĺ¸
Ġë¶Ģ ìĹĮ
Ġìĭł ìĦ¤
Ġìħĭ ì§¸
Ġì´ī ì§Ħ
ĠìĿ¼ ì²´
ĠìĨĮ ë³Ģ
ëĵ¤ìĸ´ ìĺ¤
ĠìĿ¼ìľ¼ íĤ¬
ĠëĵŃ ëĭĪ
Ġê·¸ ì§Ģ
ĠìĺĪ ìĪĺ
Ġìĭ¬ ê²½
Ġê¹Ģì§Ģ ìĿĢ
Ġê°Ģ ìĭł
Ġë¹Ħ ë²¼
Ġíİ Į
Ġìľł íļ¨
Ġê±¸ìĸ´ ìĺ¤
ĠìĭĿë¯¼ ì§Ģ
ĠìĿ´ íĺľ
ĠëĶ° ìľĦ
ìĤ´ ìĿ´
Ġëĵ±ë¡Ŀ ê¸Ī
Ġë±ĥ ìĤ´
Ġê¾ Ģ
ë¬´ ìĹĩ
ìĪ į
ĠëĪĪ ëĨĴìĿ´
ĠëĤĺìĺ¨ ëĭ¤ëĬĶ
ĠìĦľ êµ¬
Ġë± ī
Ġê¹Ģ ë¬¸
íĨł ë¡Ŀ
ìĺ¤ íŀĪëł¤
Ġë¬´ ëĬ¥
Ġëĵ¤ ëł¸
ìķĦëĭĪ ë©´
Ġê¹ ģëĭĪëĭ¤
Ġì°¨ ì§Ī
ĠìĨįìĥģ íķĺ
ĠëĮĢíı Ń
Ġê±° ëĭĪ
ĠìĥĿ ìłĦ
ĠëįĶ ëĥĲ
ĠíĻĶ ëĳĲ
ĠìĿĳ ìĭľ
ĠìĻ¸êµĲ ê´Ģ
ìĭľ ìŀ¥
Ġìĸĳ ë³µ
Ġìĸ´ëł¤ ìļ´ëį°
Ġê¸°ìĥĿ ì¶©
Ġ j
Ġê³µ êµ¬
Ġë¦¬ íĦ°
ìķĦ ìĽĥ
ĠìĨĮ íĮĮ
Ġì§ķ ìļ©
Ġìĸ´ìĿ´ êµ¬
ë¦° ëĭ¤ê³ł
Ġíı¬ ìļ©
Ġê¹Ģì§Ħ íĥľ
Ġë¯¸ ìĪĺ
Ġìŀ¬ ì¦Ī
Ġì´Ī ë³´
ĠìĥģíĴĪ ê¶Į
ĠìĻĢ ëıĦ
Ġíļ¡ ëĭ¨
Ġê²¹ ì¹ĺ
ĠíĭĢë¦¼ ìĹĨ
ĠìľĦ ìŀĦ
Ġì³Ĳ ëĭ¤
ĠìĽĲìŀĲ ëł¥
Ġíķ´ ëĤ´
Ġì´Ŀ ê°ģ
Ġ6 0
Ġë¶Ģ íķĺ
Ġìĭł ëħĲ
Ġìĸĳ íĺķ
ĠìĿ´ëŁ¬ ë©´
Ġíĩ´ ì§Ħ
Ġê°Ģ ì£½
Ġìĸ´ íķĦ
Ġê¹Ģ ìĽĲ
Ġì¿ł ëį°íĥĢ
ĠëĤ¨ ëıĻìĥĿ
ì½Ķ ë¡ľëĤĺ
ĠíĹĮ ìĭł
ĠíĬ¹ ê¸ī
ĠìŀĦ íķĺ
Ġìĭ¬ìĥģ ìłķ
ĠìĦ¸ ë¸Ĳ
ĠëĪĦ ëĭĺ
ê³Ħ ìķ½
ĠëĩĮì¡¸ ì¤ĳ
ĠìĿ´ìĸ´ ì§Ħ
Ġê°Ģì¹ĺ ê´Ģ
ĠìĦ± ì°°
ĠíĬ¹ ë¡Ģ
ĠíĻ© íĽĦ
ĠìĹĶ ì§Ģ
ĠìĨ¡ ìĿ´
Ġíľ´ ì§Ģ
Ġëª»íķľ ëĭ¤
Ġê³łëł¤ ëĮĢ
ĠëĤŃ ë§Į
Ġì°ľ ì§Ī
Ġìłķ ì§Ħ
ĠìĦ± ì£¼
Ġê¹Ģ ìĸ´ì¤Ģ
íķŃ ê³µ
Ġìĸ´ëĸł ìĭł
Ġëķ¡ ëķ¡
Ġìłķ ìķł
Ġíķĺë£¨ íķĺë£¨
ìĬĪ íĥĢìĿ¸
Ġì³Ĳ ìĦľ
Ġë³´ ë¬¼
Ġìĸ Ħ
Ġêµ¬ ê¸ī
ĠëĿ¼ë ĩ¨
Ġë³µ ìļ©
Ġíĭ° ìłĢ
Ġë¹łìł¸ ìĦľ
Ġìłķ ì²Ń
ìłķ ìĭł
ĠëĮĢí Ķ
ì¡° ë¦¼
ĠìĨĲ ëħĢ
Ġì§Ħíĸī ìŀĲ
Ġìľł ì°©
Ġê±¸ ë¦½ëĭĪëĭ¤
íħ Ŀ
Ġìķħ ìļ©
a n
ĠëĮĢ êµŃë¯¼
ĠìłĢ ëŀĺ
ĠìĬ¤ ë¦¬
Ġìŀ¥ ëĤ¨
íĴį ê¸°
ĠëıĦ ëĭ¬
ìķĦ ëĩ¨
ĠìĨĮ ë§Ŀ
íķł ìķĦë²Ħì§Ģ
ĠíķĻ ìłĲ
ĠìķĦìĿ´ ìĹłìĹĲíĶĦ
Ġíķ© ìĦ±
Ġê°Ģìł¸ ìĺ¬
ìŀĺ ëª»
ê´ľ íŀĪ
Ġ y
Ġíķĺ íĬ¸
Ġìĭľ íķľ
ĠìĪĺ ìłĢ
Ġì¶Ķ ìĥģ
ĠëĤ´ëł¤ ê°Ķ
ĠíĿī ëĤ´
ìŀ¬ ìļ±
ì¦ Ĳ
ë³ĳ ëĮĢ
ëĸ ł
Ġíķ´ ìķĪ
Ġë¹Ħ ì¤Ģ
íĻĶ ìŀ¥
Ġíľ´ ìłĦ
ĠìŀĦì¢ħ ìĦĿ
ĠíĻľ ì§Ŀ
íĤ ´
Ġìĺ¤ ëłĮì§Ģ
ĠìĽĲ íĸĪ
Ġê°ķ ìĿ¸
ìłĪ ë¡ľ
ëħ¸ ëŀĺ
Ġê·¸ë¦¼ ìŀĲ
Ġëª¨ë¥¸ ëĭ¤ëĬĶ
Ġëĳ¬ ìķ¼
Ġë¶Ħ ìĭ¤
Ġê¹Ģ ìĬ¹
Ġë¬¼ìĸ´ ë´Ĳ
Ġìĺ¹ íĺ¸
ĠìĹ Ĭê·¸
Ġë§Ī íı¬
ĠíķĦ ìĬ¤
íĭ Ī
ĠìĨĮ ëª¨
ĠìĹĦ ì§Ģ
ĠìĤ´ ê·ł
Ġì£¼ë ²Ķ
ĠìĤ¬ì¶ĺ ê¸°
Ġëĭ¤ ì§Ģ
Ġìĭľ ë¦½
ĠìĹ¬ ê²¨
Ġëĭ¹ ìĿĢ
ĠíĥĢ ìŀħ
ĠíĹĪ íĹĪ
Ġíĥģ êµ¬
Ġíķ©ê²© ìŀĲ
Ġë¬¸ìłł ëį°
Ġë¯¸ ëł¨
Ġìŀ¬ ìĭ¬
ê¹ Ĭ
ê» į
Ġíŀĺëĵł ëį°
ĠíĦ¸ ìĸ´ëĨĵ
Ġëĭ¨ëĭ¨ íŀĪ
ëį §
Ġê¸° ì¹¨
Ġì£¼ ìĹŃ
Ġìĥģ íĸ¥
ë§Ī ì¹¨
ĠëıĮ ìŀħ
ĠìľłëĭĪ íı¼
Ġê¸° ë²ķ
ĠìķĦìĿ´ íģĲ
Ġíķĺ ë°ĺê¸°
Ġìłķ ìŁģ
íĬ Ģ
Ġë¨¸ ë¬¼ë
Ġìµľ ìĭł
Ġëħ¸ë²¨ ìĥģ
ĠìĤ¬ ìħ¨
ĠìĺĪ ìĦł
ĠìĦ¸ ìĪĺ
Ġë°±ëĳĲ ìĤ°
Ġë¶Īì¶ľ ë§Ī
ê·¸ ì¹ĺ
Ġìŀ¥ ë²½
Ġê°Ģìł¸ ê°Ķ
ìĤ Ĳ
Ġì¶Ķ ì²¨
¶ Ļ
ĠìĬ¤ íĭ¸
ĠíĨµ ì§¸
Ġê°ķ êµŃ
Ġëª¨ ìĥī
Ġë¯¸ ìķĦ
Ġì§ĢëĤĺ ê°Ħ
Ġë¹Ħ ëħ¸
ĠìķĦ ì¹´
Ġë°ľ ë³ĳ
Ġë°ķ ì°¬
Ġëł¤ ëĭ¤ê°Ģ
ĠìŀĲ ëŀĢ
Ġê³¼ ìĦ¸
Ġìŀ¬ ì£¼
ĠëĮĢíĶ ¼
Ġê±° ì§Ģ
ë¹ ´
ĠìĹĶ ëĶ©
ĠìłĦíĻĶ ê¸°
Ġë°Ģ ìłĳ
Ġê¹ĢìĦ± ìĪĺ
Ġë³´ ì¡°ê¸Ī
ĠìĭĿ ìļ©
Ġì´Ī ì¡°
ĠëĬĺ ìĸ´ëĤł
ê¸Ģ ëĿ¼ìĬ¤
Ġë¹Ī ê³¤
Ġë¶Ħ ìĤ°
Ġë§ŀ ì·Ħ
Ġê·ľ íĺĦ
ĠëĤ Ģ
Ġì£¼ ìĭľ
ĠìļĶ ìĿ¼
Ġê²½ ë¯¼
Ġì²ľ ì§Ģ
Ġì¶ľ êµ¬
Ġíĺķ ë²ķ
Ġë³Ģ íķ¨
Ġë³´íĺ¸ ë²ķ
Ġëĭ¨ì²´ ìŀ¥
Ġì£¼ ìĸ´ì§Ħ
ìļ° ëĵľ
ĠìķĦìĿ´ ìľł
Ġëŀĺ íį¼
Ġëķħ ì½©
Ġê³µ êµĲ
Ġê¹Ģíĺľ ê²½
° Ķ
ĠìĦ± ëĭ¹
ĠìķĦëĭĮ ëį°ìļĶ
ĠìĿ´ìĬ¤ ëĿ¼
ĠíĴį ìĦ±
ìĺ¤ ëĤĺ
Ġìĸ´ìļ¸ ë¦´
íĶĦ ë¡ľ
ĠíĥĪ íĩ´
ëį° ê¸°
Ġë³´ ìķ½
ĠìĿ¸ íĶĦëĿ¼
Ġì¤ĳ ìĭľ
ĠíĥĢ ìĿ´ìĸ´
ĠìķĦ ëŀį
ëĦ¤ ìĭľìķĦ
ĠìĹĺ ìĹĲìĿ´
Ġì«ĵ ìķĦê°Ģ
Ġë¯¸ ìĿ¼
ĠíĽĦ ê¸°
ĠíķŃê³µ ìĤ¬
ĠìķĦ ë²Ħ
ĠìĽ °
Ġì¤ĳ ì§Ħ
Ġëªħ ê³¡
Ġê°Ħ ìĤ¬
ìħ ĭ
Ġì¸ ł
ĠëĤľ ëĭ¤ê³ł
ĠìĻ¸êµŃ ìĸ´
Ġëĭ¹ ë¡ł
ìĦ¸ ìĬ¤
ìĹħ ìĽĲ
ĠìĨĲ íĨ±
Ġì¥ ¬
Ġì§¬ ë½ķ
o n
Ġìľł ìĦľ
Ġë²Ħ ê±°
Ġë¬» íĺĢ
Ġë» Ĳ
Ġí ħĢ
ĠëĤ´ëł¤ ìĻĶ
ĠíĦ° ì§Ī
Ġê°Ģ ëĭ´
Ġíķľ ìĭ¬
ĠìķĪ ì£¼
Ġìĭ¤ ë¡Ģ
ĠìĦł íı¬
ĠíĶ¼ ìĭ±
ĠìĭľíĤ¨ ëĭ¤
o u
Ġê°Ģ ê³µ
ĠìĤ¬ ì´Į
ìŀ¬ ë¯¼
ĠëĦ¤ìļĶ ìĿ´
ëĺ ĺ
Ġê²¬ ê³¼
Ġëĵ¬ ë¿į
Ġëªħ ë¬¸
ëĿ¼ ê¸°
Ġë¬´ ìŀĳ
ĠíĺĦ íĻ©
Ġëł¤ ëĭ¤
Ġíĥģ ìĽĶ
Ġì¤Ħìĸ´ ëĵł
ĠíĸĪ ìľ¼ë©´
Ġìĥģ ê³ł
ĠëĤ¯ ìĦ¤
ĠìķĪ ìĦ±
ĠìĥĿ ë¦¬
Ġ2 1
ë¯ ¼ë
ìĥĿ ê¸´
Ġê¸° ëĳ¥
Ġìļ° ìĹī
ë¶Ģ ìŀ¥
ĠìķĮ ëł¸
Ġëł¤ ëįĺ
Ġì¡° íıŃ
Ġìĭł ì¡°
t v
£ ©
Ġë³´ ìĦł
ìķĦ ë¨¹
Ġëħ ķ
ĠìĦľ ëĦĪ
êµŃ ìŀ¥
Ġê¸Ī ìłĦ
Ġìľ¤ ì¢ħ
Ġì§Ħ ëıĻ
Ġë¯¸ íĿ¡
Ġíļ¨ ëł¥
Ġë©ľë¡ľ ëĶĶ
ĠìĿ´ ê°Ģ
Ġë¦¬ ëª¨
Ġê·Ģ ìĪľ
Ġìłľ ìĤ¬
ĠìĨĲ ìĪĺ
Ġìĭľê¸Ī ì¹ĺ
ĠìĪĺ ëł´
ĠìĬ¤íĶ¼ë ĵľ
Ġì°¨ê·¼ ì°¨ê·¼
íĶĮ ë¦ŃìĬ¤
ê¸° ì¤Ģ
Ġìľł ê³µ
ĠìľĦ ê²½
êµĲ íĨµ
ĠìŀĦ ìĿĺ
íĥľ ë£Į
Ġëģ¼ ìĽĮ
Ġìºł íį¼ìĬ¤
Ġë²¤ ì²ĺ
ìĭľ íļ¨
Ġìĥģ íĻĺ
ĠìĦ± ëĬ¥
ë³µ ê¶ģ
ĠíĶĮ ëĿ¼
ëĮ ĵ
Ġ u
ëģ ¼ë¦¬
ĠëĿ¼ëĭĪê¹Į ìļĶ
ĠìĥĪ ê²¨
Ġì¹ĺ ê³¼
Ġì·¨ ë¡Ŀ
ĠíħĲ íĬ¸
Ġìłľë³´ ìŀĲ
ĠìĿĺ ìłĦ
ê·¸ ìª½
ë²Į ìĿ´
ĠíĹ¤ ìĸ´ì¡Į
Ġìĭľ íĤµëĭĪëĭ¤
ë³´ ê¸°
ĠíĬ¹ íĻľ
ĠìĿ´ íĿ¬
Ġì§Ģ íĺķ
Ġíķ¨ ìłķ
ëĳĲ ë¦¬
ëĤĺ ìĺ¤
Ġê³µ ì¡´
ĠíĽ ħ
Ġê°ĳ ëĭĪê¹Į
ĠìĿĮìĭĿ ë¬¼
Ġì§Ħ ì§Ħ
ĠìĽĥ ê¸´
ĠìĺĪìĤ° ìķĪ
Ġë§Ī ì³¤
Ġë°Ķ ëŀĺ
Ġì§Ħ ìĪĺ
Ġì¶ľ íĩ´ê·¼
ĠëŁ Ń
Ġìĺ¤ë©Ķ ê°Ģ
Ġëĵ¤ ìĹ¬ìĦľ
Ġë°ĺ íĻĺ
ĠíĮĶ ìŀĲ
Ġëľ ¸
Ġì§Ģ ê°ģ
ĠìĨĮ ìĺģ
Ġë°ĺ ë§Ĳ
ĠëģĬ ìĿ´
ĠíĤ ¥
į ½
Ġê³ł ëĤľ
Ġìĭ¬ ì¸µ
Ġëĥ ħ
Ġë§Ŀ ëªħ
ĠìĤ´ìķĦ ëĤĺ
Ġì«Ħ ê¹ĥ
Ġíķľ ì¸µ
ĠìłĢ ì¶ķ
ĠêµŃ ê³¼
ìĨ ¥
Ġì¡° ìŀ¥
ë¶Ī ë¦¬
ìĪŃ ìĿ´
ĠìłĢ ìłĪë¡ľ
Ġìŀ¥ êµĲ
ĠìĿ´ë¤Ħ ì§Ģ
Ġìłķì²Ń ëŀĺ
Ġìŀ ¼
íĮ ¥
Ġì²ľ ìŀ¥
ĠìĦĿ íĥĦ
ĠìĿ´ íķĻ
Ġë° ī
Ġëĭ´ ê·¸
ĠíħĮ ë§Ī
Ġìĭ¸ ìĽĮ
Ġìĸ´ë¦° ìķĦìĿ´
Ġë©ĺ íĨł
Ġê³¼ íĥľë£Į
ë¬´ ê²Į
íķĺ ìĹ¬
Ġìŀ¥ ë¶Ģ
Ġì´Ī ìĦł
Ġì§ĢëĤĺ ì¹ľ
ĠìĽĮ íĤ¹
Ġì«ĵê²¨ ëĤĺ
Ġë¯¸ëĦ¤ ëŀĦ
Ġê¸° ìĻķ
ĠìĿ¼ ìĦł
ĠìļĶ ë§Į
ĠìļĶê¸Ī ìłľ
Ġìłķ íĺľ
ĠìĿĺë£Į ì§Ħ
Ġìĸĳ ìĤ°
Ġê¾¸ ë¯¸
Ġìıł ë¦¬
Ġíķľ ëĮĢìļĶ
ĠëķĮ ëł¸
ì£¼ë ¥ĺ
Ġê¹¨ëģĹ ìĿ´
Ġìĸ Į
ĠìķĦíĮĮ ìļĶ
ĠìĿµ íĺĢ
Ġì¶¤ ì¶Ķ
ĠìķĪ ëĭ¤
Ġìĭ¤ ìłķ
Ġê²° ê³¼ë
Ġê°Ħ ê²©
Ġëĥī ìłĦ
Ġë³¸ëĭ¤ë©´ ìĿĢ
ìłķ ì¹ĺ
Ġìĥģ íĥ
Ġëĭ´ íĻĶ
Ġìľ¤ íļĮ
Ġëħ¹ ì·¨
ê°Ģ ê²©
ìĦĿ íĿ¬
Ġìĵ ±
ĠìŀĲ ì§Ī
Ġìĺ¬ëĿ¼ ìĦľ
Ġíķ´ìĤ° ë¬¼
ëĭ¤ ìŀĦ
Ġíķľ ìĥģ
Ġëĵ¤ ê¸°ë¦Ħ
ĠìĤ¬ ìļ´ëĵľ
Ġê¹Ģ ìĨĮ
Ġì¹ľ ê·¼
Ġì£Ħ ì±ħê°Ĳ
ìĹ¼ë ³ĳ
Ġë§Ĳ ë¦°
ë°ķ ìĿ´
Ġì²´ ìĺ¨
ĠìĿ´ ê¸´
Ġì¤ĳ ìĪľ
Ġëĭ¹ ì§ģ
ĠìĬ¤ íħĿ
Ġë©Ķ ìĿ´íģ¬
ĠíĿ¬ íķľ
ĠíĮĮëŀĢ ìĥī
Ġìłķ ì¤Ģìĺģ
Ġì£¼ ìŀ¬
Ġìļ° íĮĮ
ĠìĥĿ ë°©ìĨ¡
Ġì°¨ìĿ´ ìłĲ
Ġì´Īì½ľ ë¦¿
ê¸° ìŀĲ
ê·¸ ë¶Ħ
Ġìĥģ ìķĶ
Ġíķľëĭ¤ êµ¬
ê±° ëŀĺ
ĠìĿ¼ë³¸ ìĸ´
Ġë¹Į ëĿ¼
ĠíĮ¨ëŁ¬ ëĭ¤ìŀĦ
Ġìŀ£ ëĮĢ
Ġë¯¸ ëĤĺë¦¬
ĠëĤľ ë°©
ĠíĻį ëĮĢ
ĠëıĦ ë§Ī
Ġë°© ì²Ń
Ġíĸī ìļ´
ĠìĬ¹ ë¬´ìĽĲ
Ġë¶Ļ ìĹ¬ìĦľ
Ġíķĺ ëĤľ
Ġíķ´ ì§ĳëĭĪëĭ¤
ĠíķĦ ë¦Ħ
íģ¬ ë¦¼
Ġì§Ģ ìłĢ
ĠìĹ¬ ì§Ħ
ĠìĹ° ìĿ¼
ĠëĤ¨ ì¸¡
Ġì± Ķ
Ġìĸĳ ì§Ģ
ë°ĺ ê°ĳ
ĠìłĦíķ´ ì¡Į
ĠëĮĢ ë©´
ĠìĨĲ ëª©
íĨł ë¦¬
ëıĮ ìĿ´
ĠìĿ¸ ìĦł
ĠìŀĲ ìĻ¸ìĦł
Ġì¹ĺ ë§Ī
ê¸ī íŀĪ
Ġë¹Į ë³´ëĵľ
ĠìĬ¬ ì©į
ĠìŀĬ íĺĢ
Ġë¹łìł¸ ëĤĺ
Ġë°°ëĵľ ë¯¼íĦ´
ĠëĳĲ ë¥´
ĠíĽĦ ì§Ħ
ì²Ń ìŀĲ
Ġì²´ ì¡°
ĠìĽĮ ëĦĪ
ĠìĦ¸ ìļ¸
Ġìķ¼ ìĥĿ
Ġíģ ¼
ĠìĨĲ ë°Ķëĭ¥
ĠìĺĨ ì§ĳ
Ġëħ¹ ìĥī
ĠíĮĲê²° ë¬¸
Ġì¡°íĺĦ ìķĦ
ë¦¬ íı¬
ë¬´ ìŀ¥
Ġëľ °
Ġê°ľìĿ¸ ê¸°
Ġê¼¬ ë§Ī
Ġê¾ ¹
Ġëĭ¤ ìłĢ
ĠìķĦìķ¼ ì£ł
Ġa aa
ĠëĿ¼ëįĺ ì§Ģ
ĠìķĦë©Ķë¦¬ì¹´ ëħ¸
ĠìĿ¼ íĻĺ
Ġë¶Ħ ë°°
íĤ¤ ìĬ¤
ĠëĶĶ ìĹł
ĠëĿ¼ë©´ìĦľ ìļĶ
ëįľ ëŀĢëĵľ
ĠìĤ¬ ìĤ¬
ĠìĹ´ ë§¤
Ġìķ½ íĺ¼
ĠìĹĲíĶĦ ìĹł
ë Ľ
ĠìĿ´ ê´ĳ
ĠìĿ¸ ì²Ļ
Ġë² ļ
Ġê²½ ìĥī
ĠìĦ± íĿ¬
Ġìŀ¥ ê±°ë¦¬
ĠíıŃ ìĸ¸
ë¸Į ë¦¬
ĠìĤ¬ëĿ¼ ìł¸
Ġì§Ģ ë¢°
Ġìĸ´ë ľ
Ġê¸°ëħĲ ìĿ¼
ĠëĵľëĿ¼ê³ł ìļĶ
ìĬ¤íĭ° ë²Į
ĠìĻ Ī
ë¥´ ê¸°
Ġê¹Ģ íĿ¥
Ġìĸ¸ë¡ł ìĿ¸
ìĻĦ ì¢ħ
ĠìĿ´ìĬ¤ëĿ¼ ìĹĺ
Ġê²°ê³¼ë ¬¼
Ġê°Ģ ìĤ°
ĠêµŃ ìķħ
í Ĳģëĭ¹
ĠíĶĦ ëŀľ
ê°Ī ìĿ´
ĠíĥĪ ëª¨
Ġë°°ê³ł íĶĦ
Ġìłķ ì¤ĳ
ëĤľ ëĭ¤
ì¤Ģ ëĭ¤
Ġë¦½ ëĭĪ
Ġìĭł ìĤ¬
ĠëıĻ ìĦł
Ġë°°ê³ł íĮĮ
Ġíķĺ íķĺíķĺ
Ġëĭ¤ ë¤ĺ
ĠëıĦ ì²Ń
ĠìŀĲ ëĭĪ
Ġì§Ħ ëĭ¤ëĬĶ
ì¤ ¬
Ġì§Ī ìĿĺ
Ġê» Ģ
ĠëŃī ì³Ĳ
Ġëıĭ ë³´ìĿ´
ìĿ´ ë¦Ħ
ìŀĲ ìĦ¸
Ġê·¸ëŁ¬ ê²Į
ĠìĦ¸ ëł¨
ëĭ¹ ìĭľ
ĠìĹ° íķĺ
ĠíĽĦ ì¿ł
Ġëĸ ³
Ġíĥľ íĺ¸
Ġíķľ ë°©
Ġê°ķ íķĦ
Ġíĳľ ì§Ģ
Ġíİĺ ìĬ¤íĭ°ë²Į
Ġë¬ĺ íķľ
Ġíķĺ ë²Ħ
Ġê³ł ë¹Ħ
ëĭ¤ ì§Ģ
ĠìłĦ ê²½
ĠëĮ ĳëĭĪëĭ¤
Ġëĭ¤ëįĺ ëį°
Ġë°ĺ ëĤ©
ĠëıĮìķĦ ê°Ħ
Ġê¶ģ íĻĶ
ĠíĽĶ ì¹ľ
ë´ ħëĭĪëĭ¤
íĻĺ ìŀĲ
ĠìĽ¨ ëĶ©
ĠìĿ´ ë£¬
Ġìłķ ìŀĦ
ĠìļĶ ìłĦ
ĠìĹ¬ ìłķ
ë¯¼ ìĦ±
Ġëħ¸ íĥľìļ°
íĪ Ń
Ġì°¸ê³ł ìĿ¸
Ġë²Ħëł¤ ìķ¼
Ġê¶¤ ëıĦ
ĠìŀĲë¶Ģ ìĭ¬
Ġì§Ģìĥģ íĮĮ
Ġê¸° ê°ķ
ìŀ¥ ë³´ê³ł
Ġì§ģ ìĦł
Ġì¡°íĿ¬ íĮĶ
ĠìĿ¸ ì§Ī
ĠìķĪ ê²¨
ë¶Ģ íĥģ
ĠìĦ± ìĻĦì¢ħ
Ġë³¸ ëŀĺ
ĠíħĮìĿ´ íĶĦ
Ġë§Ī ìĬ¤íĦ°
ë¶Ģ ë¥´
ĠìĮĵ ìĿ¸
Ġìĭľ ìķ¼
ĠíĿĶ íķľ
ì»¤ íĶ¼
ì§Ģ ëĮĢ
Ġëĵľëł¸ ìĹĪ
ĠìĿ¸ ê³¼
ĠíĶĦë¡ľ íķĦ
ìłľ ìĽĲ
Ġë¶Ī ë¡ľ
Ġë³Ģ íĺķ
ĠìĹħ ìĨĮ
Ġëħ¸ëıĻ ë¶Ģ
Ġë¶Ģ ê°Ģ
ĠêµĲ ë³µ
Ġìĭľ ìĺ¤
Ġë¬´ ê³ł
Ġë³Ģ ë¹Ħ
Ġëª© ê±¸ìĿ´
ĠíĹĮ ëį°
ĠìĿ´ íķľ
ĠëĮĢ ì£¼
ĠìŀĲ ëŀĲ
ĠìķĦìĿ´ ì½ĺ
Ġì·¨ íķł
ĠíĴĪ ì§Ī
Ġëª¨ë¥¸ ëĭ¤ê³ł
ĠíĮ½ ì°½
ĠëĿ¼ ìļĶ
Ġë°°ìĽĮ ìķ¼
Ġë¸Ķ ë¡ľê·¸
ĠìıŁìķĦ ìł¸
ĠìĬĪíį¼ë §¨
ĠìĿ´ ì¡°
ĠëĮĢ ìĿ¸
ĠëĮĢ ìĪĺ
Ġëª» íķ©ëĭĪëĭ¤
ĠëĭŃ ê³łê¸°
ĠìĿĺìĻ¸ ë¡ľ
Ġë§ĪëĿ¼ íĨ¤
ìĿ´ ë©´
Ġìĥģ ë°ĺê¸°
Ġê±´ ìł¸
Ġì¤Ħ ìĹ¬ìĦľ
ĠìĪľ ë°©
ĠìĬ¬ ìĬ¬
ĠìĿ´ëĿ¼ëįĺ ì§Ģ
Ġê°Ģ ë°ľ
ì¢ħ ë²Ķ
ĠìŀĺëĿ¼ ìĦľ
ìĿ´ ëŁ´
Ġêµ¬ ë¯¸
Ġì ·
ĠìĹ° ë§¹
ĠíķĻ ì°½
ëĿ¼ë ¶Ļ
ĠëĮĢíĳľ ëĭ¨
Ġëº Ħ
Ġì¡° ê²½
ĠíĽĦ ìĹ°
ìĬµ ê¸°
ĠíĹ¤ ìĸ´ì§Ħ
ìĿ´ ë¶Ħ
Ġìĺģ ë³Ģ
Ġì¹ľ ìĦľ
Ġíı¬ ìĬ¤
Ġë¬¸ ìĸ´
ë¯¸ ëĭĪ
ĠëıĮ ë´Ħ
Ġì§ĢëĤĺ ê°Ķ
ĠëªħíĻķ íŀĪ
Ġê³ł ëıħ
ê¸Ī ë°©
ĠëĬ ĳ
Ġê´ĳ ëªħ
Ġì¡° ë¡Ģ
ìĿĢ íĿ¬
Ġë°± ì§Ģ
Ġë°ķ ì£¼
ĠêµŃíļĮ ë²ķ
Ġê¹Ģì¹ĺ ì°Įê°ľ
ĠìĪ¨ê²¨ ì§Ħ
ĠìĿ´ ê°ķ
Ġë¶Ħ ìŀ¥
ëı Ĺ
ĠêµĲ ìĽĲ
Ġì¢ħ ìĹħìĽĲ
ĠìĿµ ëªħ
Ġëĸ¨ìĸ´ëľ ¨
Ġìŀ¬ê±´ ì¶ķ
ĠëĮĢëĨĵ ê³ł
Ġìĭ¬ë¶Ģ ë¦Ħ
ĠìķĦ ë¹Ħ
ë¦¬ íĬ¸
Ġëªħ íķ¨
ĠíĿ¬ìĥĿ ìŀĲ
ĠëıĻ ìłĦ
Ġìłĵ ê°ĢëĿ½
Ġê²½íĿ¬ ëĮĢ
Ġë§Į ëĵŃëĭĪëĭ¤
ĠìĬ¤ íĮĮìĿ´
Ġë°± ìĿ¸
Ġíĺĳ ì°¬
ĠíħĮ íģ¬
Ġë£ Į
Ġê¼½ íŀĪ
Ġìłľ ê³±
ĠëĤ´ ë¹Ħ
Ġë°© íĻĶ
ĠíĺĦ ìķĦ
Ġíĩ´ ìŀĦ
ĠíĥĲ ì§Ģ
Ġë»Ķ íŀĪ
Ġê³¨ëĿ¼ ìĦľ
Ġê³µ íıī
Ġì§ĳ ë¬´ìĭ¤
ĠëĪ ķ
Ġê°Ģ ì£¼
Ġìĥģ ê¶ģ
ì¦ ī
Ġì²Ń íķ´
Ġíģ¬ ë£¨
Ġì²¨ ëĭ¨
20 1
Ġí ıĦ
ìķĦ ìķĦ
ĠìĿĮ ëŀĢ
ĠìĽĲ ë¡ľ
ëĤ´ ë¦¬
Ġë§ī ìĹ°
Ġìĸ´ìļ° ëŁ¬
Ġì¿ ¼
ĠìĿ¸ëıĦ ëĦ¤ìĭľìķĦ
ĠìĹ° ë°©
ĠíĬ¹íŀĪ ëĤĺ
Ġìľ¼ëł¤ ëĬĶ
ëĸ ³
Ġë³´ ê°ķ
ĠìłĢ ìĨĮëĵĿ
Ġìĭł ëĭ¹
Ġíı´ ë¦¬
Ġíĥľíıī ìĸĳ
b c
ĠìĨĮ ëŀĢ
Ġë°° ì¢ħ
Ġëıħ ê°Ĳ
ĠëĤĻ ë§Ī
Ġì²© ë³´
Ġë¶Ģ ì¹ľ
Ġëª¨ ê¸Ī
Ġíĥľ íĿ¬
Ġê°ģ ì§Ģ
Ġíļ¨ ëĬ¥
ĠìĭłëħĦ ìĤ¬
Ġì§Ģ ë¶ķ
ĠëĦ¤ ëįľëŀĢëĵľ
Ġë°Ķ ëŀĢëĭ¤
Ġìķł ìĵ°
ìħĢ ëŁ¬
ĠìŀĦì°¨ ìĿ¸
ĠíĲģëĭ¹ íĲģëĭ¹
ĠìķĦ ë¯¸
Ġìĺģ ìĭ¤
Ġë°ĺ ìłĲ
ĠìĿĳ íķĺ
ĠìĨ¡ ê¸Ī
ĠëĿ¼ëĭĪ ìļĶ
ĠìĹĩê°Ī ë¦¬
Ġê°Ģ íĺ¹
Ġëł ¨
ĠìłĪ ìķ½
Ġì°© ìĪĺ
ìĤ¼ ì´Į
ĠìĨĮìĦ¤ ê°Ģ
ë¦¬ ìļ°ëĵľ
Ġë³´ ìľĦ
ĠíĮĮ íĶĦë¦¬ì¹´
ĠíĻĺ ê¸°
Ġê°Ģìł¸ ê°Ī
Ġìĸ´ ë§¤
Ġëĭ¤ ë£°
ĠìĺĪ ìĪľ
ĠìłĢ ê²©
ìķĦ ì°Į
Ġëªħ ëª©
Ġë²Ħ ë¦½ëĭĪëĭ¤
Ġë°©ìĤ¬ ëĬ¥
Ġê°Ģ ì¶ľ
Ġë¯¸ ì§Ģ
ĠëĤ¨ ìĤ°
Ġë§ī ê°ķ
ĠêµŃ ìĤ¬
Ġëĭ¬ ëł¥
ëľ °
Ġë°ĶëĿ¼ë ´
ĠíĨµ íĸī
Ġê°Ī ê²Į
Ġë¿ Ķ
Ġì½Ķ ë¯¹
ĠìĿ´ì²ľ ëħĦ
ĠìĽĲ ì²ľ
ĠëĦĺìĸ´ ìĺ¤
Ġì²¨ ë¶Ģ
Ġì İ
Ġë¥ ľ
ĠìĿ¼ ìĸ´ìĦľ
Ġê³Ħ ê³¡
Ġì¶Ķ íĽĦ
Ġë¯¼ê°Ħ ìĿ¸
Ġê³° íĮ¡ìĿ´
ĠìĹ° ì°¨
Ġì°¸ ë§Ĳ
Ġëħ¹ ì°¨
Ġ8 0
Ġêµ¬ì²Ń ìŀ¥
ĠìŀĲ êµ¬ìļĶ
ìŀĲ ìĭł
ĠíĽĦ ìľł
ĠëĿ¼ë ıĪ
Ġëº ĳ
ĠìĨĮìľł ìŀĲ
Ġê´ĢìłĪ ìĹ¼
Ġì¢ħ ê²°
ĠìĪĻ ì²Ń
íķĦ ìļĶ
Ġ +
ĠìķĪ ì¤ĳ
Ġë¯¸êµŃ ìĿ¸
Ġë²Į ë¦¬
Ġê³¨ ë°ĺ
Ġëĭ¤ëĭĪ ìļĶ
Ġìķ¼ ìĭ¬
Ġìĺ¨ ëĭ¤ëĬĶ
Ġê°ĳìŀĳ ìĬ¤ëŁ½
Ġìĸ´ìļĶ ìĿ´
Ġê²½ ìľł
âĢ Ļ
ë°Ģ íŀĪ
Ġë¬µ ë¬µ
Ġëĭ¤ ëĵ¬
ìħ Ī
ĠíĽĦìĽĲ ê¸Ī
ëĭ¤ ë¥´
ĠëĿ¼ ê³¤
ëıĦ ëĮĢì²´
ĠêµŃ ë°¥
Ġì°¸ ì¹ĺ
Ġë¬¼ëŁ¬ ê°Ģ
Ġì¡°ìļ© íķĦ
ĠëĵľëĿ¼ìĿ´ ë¸Į
ĠìŀħëĭĪëĭ¤ ë§Į
Ġê²¬ ëİĮ
Ġëĵ¤ìľ¼ ìħ¨
Ġíķ´ ëĤ¼
Ġìļ° ëŁ¬
Ġì£¼ë ł¥
íĮ ©
ĠíıŃ íĴį
ĠìķĪíĥĢê¹Į ìĽĢ
íķ ¸
ìłķ ìĭĿ
Ġê¸¸ ëŁ¬
íģ´ ëŁ½
Ġì§Ģ ì¼°
ĠìĿ¸ ìĤ¼
Ġì¹ĺ ìĽĮ
ìĻ¸ ê³¼
Ġì¸µ ê°Ħ
Ġì¹ «
Ġì¡° ë¬¸
ĠìĥĪ ì½¤
ĠíķĦ íĦ°
ìĦ¤ ì£¼
Ġ &
Ġê³µ ë¬´
Ġë°Ķ ìĤŃ
Ġê°ľ ë¯¸
ĠëıĻ ê²°
ĠëĤľ ìĿ´ëıĦ
Ġì±ħìŀĦ ê°Ĳ
ĠìĽĲ ìľł
Ġìĭ¬ íĺĪ
ëŀĺ ê¸°
ê³¼ ìĹ°
Ġë¶ĢëģĦëŁ¬ ìļ´
Ġíķľ íĻĶ
Ġê°ķìłĲ ê¸°
ĠìĦ¸ ìĨĲ
ëĵ¤ ìĹ¬
Ġìĸ´ë¨¸ ë¨¸
ëł ĺ
Ġì£¼ ìľł
ĠëĳĲ ëĵľ
ĠíĹ ¹
ĠìĪł ì§ĳ
Ġëĭ¤ ì§Ĳ
Ġìĭľ ìĦ¸
ĠìĨĮ íĸī
Ġìĭł ë¹Ļ
ĠìĦł ê¸ĢëĿ¼ìĬ¤
íĭ° ëĤĺ
Ġìº ĺ
Ġì°¬ ìĬ¤
Ġëª¨ ëĵľ
Ġë¬´ ìĭĿ
Ġì¶Ķ ê²©
ì°½ íĺ¸
ĠìĺĪ ìļ°
ĠìĺĪ ë³´
Ġë¹Ħ ì£¼ë¥ĺ
Ġë°ķ ìĿ´
Ġìĭ¬ ë¬¸
Ġíı¬ ëŁ¼
Ġë³´ìĿ´ ì½§
Ġê´ĳ íķ´
ĠíĭĢë¦¼ ìĹĨìĿ´
ģ ëĭĪê¹Į
Ġê³µ ìĺģ
Ġê¸Ī ê³ł
Ġìĸĳìľ¡ ë¹Ħ
ĠìĤ¬ ì£¼
ĠëĦ¤ ëª¨
Ġìĭ¸ ìļ´
ĠíĦ° ì¹ĺ
ĠëĦĺìĸ´ ê°Ħ
Ġì°Į ë¥´
Ġë°ĺ ëŀĢ
íĺĦ ìĦĿ
ĠíĶĦë¡ľ ìĦ¸ìĬ¤
ì¶ķ êµ¬
Ġë£¨ íĬ¸
Ġë°ĳ ê°Ħ
Ġì°¨ ë§Ī
ëª¨ ìĤ¬
ĠíĨ ¨
ëĽ °
ëĮĢ ìĬ¹
Ġë¯¸ ìĪĻ
Ġì´Ī ì½Ķ
Ġíķ´ ì¹ĺ
ĠìĦľ ì´Ī
Ġìľł ë¶Ģ
ë£ »
Ġìŀ¥ ëŀĺ
ĠëĨĴ ìĺĢ
Ġê¸°ëħĲ íĴĪ
Ġëĭ¤ëħĢ ìĺ¬
ëł Ĳ
ĠìĤ¬ ë¬¼
Ġìļ° ë¦´
Ġêµ¬ íĸĪ
ĠìķĪë³´ ë¦¬
íķ´ íķĺ
ĠëıĻ íı¬
Ġë¶Ī ê±°ì§Ģ
Ġê°ģ êµŃ
Ġê¹Ģíķľ ìĦĿ
Ġëĭ¤ ì±Ħ
ĠíıŃ ê²©
Ġì°½ ìĽĲ
Ġì¡°ìĺģ ëĤ¨
Ġê¸° ëĤ´
ìķĦ ìłĢìĶ¨
ĠëĿ¼ë ĳĲ
ĠëĴ¤ ì§Ģ
ĠìĤ¬ìĿ´ ëĵľ
ĠìĥĿê²¨ ëĤĺ
Ġì¤ĳ ê°ľ
Ġíħ ĥ
Ġì§Ģ ì¹ĺ
Ġìłķ ê°ľ
ĠìķĪ ì¢ħë²Ķ
Ġë¯¸ ì²ĺ
Ġëª¸ ë¬´ê²Į
ĠìĦ±íĿ¬ ë¡±
Ġí īģ
ĠìĿ¼ ìĤ°
Ġìĸ´ë ²Ħ
Ġë¶Ģ ìĪĺ
ĠìĨĮ ìĿ¸
Ġë°ľ ìĤ°
Ġëĭ´ ë°±
ĠíĨł ë¡ľ
ìĿ¸ íĦ°
ĠëĬĲ ë¦¬
ĠìĻ¸ ìĥģ
Ġê¸Ī ìĹ°
Ġë³¶ìĿĮ ë°¥
ĠìĿ¸ ì¡°
Ġë§Ī ìĪł
Ġëĵ±ë¡Ŀ ì¦Ŀ
Ġêµ¬ êµ¬
Ġì´Ī ìĥģ
ĠìĤ° ë¶Ī
Ġìĸ´ëĬĲ ìĥĪ
ê¸° ë³¸
Ġìłķ íĺķ
Ġë¶Ģ íķ©
Ġëĵľ ë¬¼
Ġì¹¨ íĪ¬
Ġíģ´ë¦° íĦ´
ìĬ¤ ëłĪ
Ġì²ľ ìĤ¬
ĠìķĪëħķ íŀĪ
ë¦¬ ìķĪ
ĠíıŃ íĮĮ
Ġìĸ¼ íķı
Ġã ħ
ĠìĿ´ ìĺ¤
Ġíĸī ë°©
ĠìĦ¤ ëł¹
Ġìķħ ë§Ī
* *
Ġê±° ê¸´
ĠìĤ¬ ë§ī
Ġìĺģ ìĪĻ
Ġë°ľ ëĿ¼ëĵľ
Ġìŀ¬ íĺĦ
ìĺĪ ìķ½
ĠíĻį ìĤ¼
ĠìĬ¤ì¼Ģ ì¹ĺ
Ġìĸ´ëĸłìĭł ê°ĢìļĶ
ĠëıĦ ìļĶ
ìĭľ íĺ¸
ëıĻ ìĽĲ
ĠìĽĲ ìĤ°
Ġê°ķ ìĦ±
Ġë²ķ ëĮĢ
ĠëĨĵ ìĿ¸
Ġë³ĳ ìŀĲ
Ġêº¼ ìł¸
Ġë²¤ ì¹ĺ
ĠìľłëĤľ íŀĪ
Ġìłķ ë°ĺëĮĢ
ĠíĸĪ ìĿĦê¹Į
ĠìłĦ íĸ¥
Ġì° ¼
Ġêµ¬ ìĪĺ
Ġì¡° ë¡±
Ġëħ¸ ëŀ
ĠìķĦë¦Ħëĭ¤ ìĽĢ
ê¸° ìĸµ
Ġìłģ ìĭľ
ĠìĦł ì¡°
Ġì§Ħ íķľ
Ġë¹ ½
íĭ ĭ
ĠìĹ¬ ëĵł
Ġê³µ ìķĪ
Ġì»¨ ìĦ¤
ë¥¼ë ¦°
v e
Ġëĵ¤ìľ¼ìĭľ ê³ł
ĠìłĦ ëıĦ
ìĸ´ë Ĩ
Ġíļį ëĵĿ
ĠëĤĺ ë§Ī
Ġìĺ¤ ëĦĪ
ĠìłĦ íķľ
Ġìļ° íĺ¸
ìĦł ê±°
ĠìķĶ íĿĳ
Ġê³µìĹ° ìŀ¥
ë¿ Ĳ
Ġìĸ´ê¸ĭ ëĤĺ
Ġë¯¸ìĦ± ëħĦìŀĲ
ĠìĿ¼ ìĥĿ
ĠìĽĲ ìĦ¸íĽĪ
Ġìŀ¬ íķĻ
Ġìĥģìĥģ ëł¥
Ġë¸ĶëŀĻ ë°ķìĬ¤
ĠìķĦ ìĬ¤
ĠìłĢ ëĦĲ
Ġì°¬ ë°ĺ
Ġëµ Ģ
¡ Ģ
ĠëıĦ ëª¨
Ġì¡° ê°ľ
Ġê°ķê²½ íĮĮ
Ġë±ħ íģ¬
Ġë »ĺ
Ġê³µ ë°±
Ġì¸ Ħ
ĠìłĦíĪ¬ ê¸°
Ġê³µìĨĮ ìĭľíļ¨
Ġìĸ´ ë¬µ
ĠìĤ¬ ë²Ķ
Ġíķ´ ëĵľë¦´ê¹ĮìļĶ
Ġìłķ íĥľ
ëĦ¤ ìĸ´
Ġì±ħìŀĦ ì§Ī
Ġë§Īì°¬ ê°Ģ
ĠíĮĲíĥĢ ì§Ģ
Ġíķ´ ìł¸ìĦľ
ìŀĲ ëıĻ
Ġìĭł íķĺ
Ġë´ī ì§Ģ
ĠìķĮìķĦ ì£¼
ìį ¹
ĠíĽĦìľł ì¦Ŀ
Ġë³´ ìĿ¼ëŁ¬
Ġë°Ķ ì¹ĺ
Ġì¤ĳêµŃ ìĿ¸
Ġìĭłì²Ń ìĦľ
Ġìĸ´ëĸ¨ ì§Ģ
ĠìĿ¸ ê±´
Ġê°Ħ ì§ģ
Ġë³Ħ ìŀ¥
Ġíĺģìĭł ìķĪ
Ġëª½ ê³¨
Ġëħ¸ëł¤ ë³´
ëĤ Į
Ġìłľ ëªħ
ìĬµ ëĭĪëĭ¤
ĠíĽĮ ì©į
Ġë©ĶìĿ´íģ¬ ìĹħ
Ġì ĳ¤
ĠëıĦ íĿ¬
Ġê¸° ëł¥
ë¯¼ ìłķ
ĠíĥĢ ê³ł
ĠëĮĢë¦¬ ìĿ¸
Ġìĭľ ìķĦë²Ħì§Ģ
ĠíĮĮ ìĬ¤
Ġìļ© ìĹŃ
Ġëĸ³ ëĸ³
Ġëĭ¨ íĴį
ĠëĪĦ ì§Ħ
ĠìħĶ ìļĶ
Ġìĺ¤ì¼Ģ ìĬ¤íĬ¸ëĿ¼
Ĭ ĺ
ĠíĿ¬ ê²½
íĶĮ ë¦¬ì¼ĢìĿ´ìħĺ
Ġì²Ļ ì¶Ķ
Ġìĸ´ì©Ĳ ì§Ģ
Ġ "
ëĿ¼ë Ŀ¼
ĠìĿ¼ë £¨
ĠíĶĦ ëĿ¼
ĠìĨį ìĿ¸
Ġì»¤ ìļĶ
Ġê¿ Ķ
ìķŀ ìĦľ
Ġë¹Ħ ì¶Ķ
ĠìĦ¸ ì§Ħ
ĠíĽĦ ìĨĲ
ĠíĻ© ëıĦ
Ġëĸ¨ìĸ´ ì§Ħëĭ¤
ì¤ĺ ìķ¼
Ġë³´ ëĵľ
Ġê¸° ë¯¸
ĠìĦ¸ ìĿ¼
ĠíķĻ ìĤ´
Ġë§ī ëĮĢ
ĠìĥĿë¬¼ íķĻ
ê²¨ ìļ¸
Ġíļ¨ ëıĦ
Ġíĩ´ ìĤ¬
ê¸° ëĮĢ
Ġìłģ ë¦½
Ġê³µ ë¶Ħ
Ġê°ľ ìĹ°
ĠëĦĺ ë²Ħ
Ġëĭ¥ íĦ°
ĠìĲ Ī
ĠìłĦ ê³¼
Ġìŀ¬ ë°°
Ġì¶ľ ê³ł
Ġë²Ī ì©į
Ġë¯¸ ëģĦëŁ¬
Ġìľ¡ ì²´
ĠíĥĢ ê²°
ĠìłĦìĭľ íļĮ
Ġëĸ¨ìĸ´ëľ ¨ë¦¬
Ġíķľ ê²°
ĠìĺĪ ëĭ¨
ë¯¼ ìĦĿ
ĠìŀĦ ìĥģ
ìķĦìĿ´ ê³ł
Ġê±¸ëł¤ ìļĶ
Ġíķĺ ì²´
Ġê·¸ë Ĭĺ
ĠìĿĢ íĺľ
Ġë¹ ¤
ê½ ģ
Ġì£¼ ê¶Į
Ġìĺģ ì£¼
ĠìĪľ ì²ľ
ĠìŀĦ ì§Ħ
Ġëĭ¹ìĦł ìŀĲ
Ġì¡± ë°ľ
Ġíľ´ê²Į ìĨĮ
Ġê¹ĢíĿ¥ êµŃ
Ġì§Ģ íĤ¨
ĠìĻ¸ ìĭĿ
Ġì§Ħìłķ íķľ
ì§Ģ ë°©
Ġíķ´ ìŀ¥
Ġìĭľ íĭ°
ìĭľ ìĽĲ
ĠìķĪ ê±´
ĠëıĻ ìłķ
Ġ2 3
Ġê´Ģê´ĳ ì§Ģ
Ġëħ¸ëŀĢ ìĥī
ĠìĻ¸ê³Ħ ìĿ¸
ìĺ Ĩ
Ġì¤ĳ ìĤ°
Ġìľł ìĦ±
Ġìŀ¥ ë¬¸
ëĿ¼ë ²Ħ
Ġê²Ģ ìŀ¥
ë¦¬ ì¦ĺ
íħĮ ìĬ¤
Ġìļ© ê°Ĳ
Ġëĵľë¦° ëĭ¤
ìĹ £
Ġê°Ħ ëĭ¤ë©´
ìĽĮ ëĵľ
ĠìĻķ ìĭ¤
ê·ł ê´Ģ
ĠíĹĿ ê°Ģë¦¬
Ġê°Ģë§¹ ìłĲ
Ġë¦¬ ìĸ¼ë
Ġë¹Į ë¯¸
ëĪĦ ëĤĺ
ĠëģĮëł¤ ê°Ģ
ĠìĿ´ ë£°
ëĭ Ľ
ĠìķĦ ëħĢ
ìĸ´ ë¡ľ
Ġê±´ ìĪĺ
ë¦¬ íĭ°
Ġê³µ ìĭľ
ĠêµŃ ê¸°
ĠìĨĮ ë¦Ħ
ĠìĿ´ê±´ íĿ¬
Ġë§Ŀ íĸĪ
Ġìĭ± ìĭ±
ĠëŃī ì¹ĺ
ĠíĬ¹ íĹĪ
Ġë²ķì¡° ìĿ¸
ĠëĮĢ ë§Ī
ĠìĿ¼ íĿĶ
Ġëĵľ ë¬¸
ëĦ ĵ
Ġëĭ¨ ëĭ¤
Ġì¤Ħ ëł¤ê³ł
ĠìĥĪ ìĤ¼
ì°¨ ìĿ´ì¦Ī
ĠìķĦìĿ¸ ìĬĪíĥĢìĿ¸
Ġê±´ ìĿĺ
Ġë¯¸ ìĽĮíķĺ
Ġì¶ľ ê°Ħ
Ġê°Ī ë¦¬
Ġë³µ ìĪŃìķĦ
Ġìºł íķĳ
ĠëĮĢ ìĿĺ
Ġíİ¸ íĸ¥
Ġëģ¼ ìĸ´ëĵ¤
Ġìĭľíĸī ëł¹
Ġë¶ĢìľĦ ìĽĲìŀ¥
ĠëıĮìĿ´ ì¼ľ
ê·¸ ëĿ¼ë
Ġìķł íĭĭ
ìĪĺ ë¦¬
Ġíķľëĭ¤ ëĭĪê¹Į
Ġì½ ķ
ĠëĬĲëĥĲ ê³ł
Ġë§Įëĵł ëĭ¤
Ġìĺģìĸĳ ìłľ
Ġë²ļ ê½ĥ
į Ķ
ĠìĹ°ê¸° ëł¥
ìĬĲ ë¦°
Ġê¸° ìĬµ
ĠìĦł ë³Ħ
ĠìĹŃ ìĦ¤
ĠëĮ Ī
ĠìĹ°ê¸° ìŀĲ
ìľ¤ ìłķ
Ġëł¤ ëĤĺ
Ġë³ĳ ìĭ¤
ĠìĦŀ ìĿ¸
ĠêµŃìĦ¸ ì²Ń
ê¸° ìķ¼
Ġëĵľ ëĭĪ
Ġë¬´ ëĭ¨
ĠìĭĿ ìļķ
ĠìĿ´ëŀĺ ìķ¼
Ġíķ´ ë¬¼
ĠìłĦ ë¶Ħ
ĠìĤ¬ ê³¼ë
ĠíļĮ ê³ł
Ġìĵ°ëŁ¬ ìł¸
Ġìĸ´ëĶĺ ì§Ģ
Ġìľ¼ëĿ¼ë ĬĶ
Ġê·¸ ëĭ¤ì§Ģ
ĠëĤ© ë¶Ģ
ĠìĹĳ ìĨĮ
ĠëĵľìħĶ ìķ¼
Ġê³ł ë£¨
ĠìĥĿ ìķł
ĠëıĻ êµ´
ĠíĻĶ ëĤ´
ë²Ħ ë¦¬
Ġìī ¼
Ġíķĺ ìĪĺ
Ġê³ł ë§Į
Ġê³ł ëŀĺ
Ġìĭľ ëŀĺê¸°
Ġìĸ´ë ¯¸
¯¸ íĦ°
Ġë°ľ ê±¸ìĿĮ
Ġì°¹ ìĮĢ
Ġê°Ģ ìħĶìķ¼
Ġê¸° ìģľ
ëĳĲ ë¶Ģ
ĠëıĮ ëł¤ìĦľ
Ġì°į íŀĮ
ĠíĴį ìĦł
Ġì§Ģ ëĭĪ
ĠìĨĮ ìĭ¬
Ġë°° ëĭ¹
Ġìĭľê°Ħ ëĮĢ
Ġìķł ìį¨
ĠìĪľ ì§Ħ
Ġì±Ļ ê²¼
Ġê¹Ĭ ìĪĻ
Ġê³ł ëĮĢë¡ľ
ĠëıĻ ê°ĳ
ĠíĪ¬ ìķ½
Ġê¹Ģìĺģ ëŀĢ
ëĮ Ħ
ĠëģĮìĸ´ ìķĪ
ĠìĿ¸ê±´ ë¹Ħ
ĠìłĦ ë¡Ģ
Ġìľł ê²½
ĠíķĻ ê¸ī
ĠíĬ¹ ê°ķ
ĠëĤ´ëł¤ ìĻĢ
ĠëıĮëł¤ ë°Ľ
ĠìĹ¬ ìļ°
Ġê¹Ģ ìĦ¸
Ġê¼¬ ë°ķ
ĠëĬĲê»´ ì¡Į
Ġíħ ľ
ê³¼ ê±°
ĠìĽĲ ë³¸
Ġëħ¸ ìĪĻ
Ġíŀĺ ëĵŃëĭĪëĭ¤
Ġëĵľë¦´ ëł¤ê³ł
ĠíĻĺ ìĪĺ
Ġë¶ĪëŁ¬ ìķ¼
ĠëĿĦ ìļ°
ë£¡ íķ´
Ġì¦Ŀëªħ ìĦľ
ĠëĤĺ ë¥´
ĠìĿ¸ ìĬĲë¦°
ê¶ģ ê¸Ī
Ġíķĺ íĬ¼
ĠìĤ¬ ê·¹
Ġë§Į ìļĶ
Ġê³µ íĳľ
Ġë¯¸ ë¬ĺ
Ġìķ½ ìŀ¬
Ġíĭ° ìħĶì¸ł
ìĿ¼ë ŀ
Ġë°ĽìķĦëĵ¤ ìĺĢ
ĠíĿĺ ëłĢ
Ġë¯¹ ìĬ¤
Ġë¬´ ìĭ¬
Ġì¶Ķ íĸī
Ġíĺĳ ëıĻ
ĠìŀĦëĮĢ ìĿ¸
Ġê°Ģ ë§Ī
ĠëĦ¤ ìĺ¤
Ġìłķ êµĲ
Ġì£¼ íĿ¬
Ġìľł ìĺģ
ì°¨ ë¡Ģ
Ġê²½íĺ¸ ìĽĲ
ëĨĢ ìĿ´
ĠìĤ¬ ëĤĺìĿ´
ĠëĮĢí Ĩµ
ìĹ° ëĿ½
Ġë¡ Ģ
ĠëĿ¼ìĿ´ ë²Į
Ġë©ĶìĿ´ ì»¤
Ġë¶Ģ ìŀ¬
ĠëĿ¼ë Ŀ¼
Ġë³¸ ëĭ¤ëĬĶ
ĠíĿĺ ëł¸
íĪ ´
ĠìĿ´ëĿ¼ íģ¬
Ġì±Ķ íĶ¼
ĠìŀĲ ìłķ
ĠìĿ¼ ìĭĿ
Ġìķ½ íĻĶ
ĠíĶĦë¡ľ íĮĮ
Ġëį°ëł¤ ìĺ¤
Ġíķł ë¨¸
Ġê·¸ëŀĺ íĶ½
ìĪĺ ê³ł
Ġìĺģ íķĺ
Ġë°ľ ê¸¸
Ġì´Ī ë¯¸
ĠíĥĦ íĬ¸
Ġp d
Ġê°ķíĺ¸ ëıĻ
Ġë¶Ģ ë¦ħëĭĪëĭ¤
Ġê°Ĳ ê¸Ī
Ġíĺ¸ ëĳĲ
Ġëĵł ëį°
Ġë¨¸ ëĭĪ
ìĿ¼ëŀ ľëĵľ
Ġê²½ ìĤ¬
Ġê´Ģ ìķħ
ĠìĹ´ ë³ĳ
Ġíĺķ íıī
ĠìłĪ ì¹ľ
Ġê·Ģ ì¡±
êµ ½ëĭĪê¹Į
Ġì¡° ìĽĲ
Ġê°ķ ìłķ
Ġê¹¨ ìļ°
ĠíĶ¼ë Ĥ
Ġíľ© ìĵ¸
Ġë¯¸ìļ© ìĭ¤
Ġëª ¹
ĠìĪĺ ë°°
Ġìłķ ìłĲ
ĠìĦ± ê·łê´Ģ
Ġìķķ ì¶ķ
ĠìĽĢì§ģ ìĺĢ
Ġê²¬ ëĶľ
íĺĪ ìķķ
Ġ0 6
ĠíĶĦëŀľ ì°¨ìĿ´ì¦Ī
ĠìĹ´ ë¦½ëĭĪëĭ¤
Ġëĭ¤ê°Ģ ìĻĶ
Ġíļ¨ ìĨĮ
Ġê³¼ê±° ìĤ¬
ĠìĹ¼ ìŀ¥
ë¯ ¿
ê³łêµ¬ ëł¤
Ġì¹¨ ëŀµ
ĠìĬ¤ë¦´ ëŁ¬
ĠëĤĺ ìĤ¬
Ġì²ľ êµŃ
Ġê¸Ī ì£¼
íı¬ ìĿ¸íĬ¸
Ġëĭ¬ëĿ¼ ìĦľ
Ġëĭ¬ëł¤ ìĺ¤
¼ë² ķ
Ġì²ĺ ëĤ¨
Ġëĭ¤ê°Ģ ìĺ¨ëĭ¤
ĠíĻľ ê¸°
Ġë³´ìĹ¬ ìķ¼
ëĪĦ ìĿ´
ĠìĿ´ ìĦ¸
Ġëª¨ ìļ©
Ġì§Ħ íĨµ
Ġë¦¬ ìĬ¤
Ġê¹Ģìłķ ëĤ¨
³ ¼
Ġ r
Ġê±° ìĦ¸
ĠëĤ´ ê¸°
ìĨĮ ìĹ°
ì¶ľ ìĤ°
Ġíĳ¸ ì§Ĳ
Ġì¶ĺ ì²ľ
ë§Ī íģ¬
Ġê¾¸ ëł¤
ĠìĦľ ë¶Ģ
Ġëª¨ íĺķ
Ġê²° ëł¬
Ġë§ŀ íŀĪ
íİ ĳ
Ġëĭµ ë°©
ĠìĹĲìĿ´ ìķĦìĿ´
Ġì¿ ¡
Ġìŀ¡ìķĦ ë¨¹
ìļ© ìĦĿ
Ġì°¾ìķĦ ìĻĢ
Ġëľ» ëĮĢë¡ľ
ª ħ
Ġë² Ļ
ĠëĤ¨ ê²½
ìĹ¬ ê²¨
ĠëıĻ ëĮĢë¬¸
Ġë²ł ë¦¬
ĠìĤ¬ ê±°ë¦¬
ê± Ķ
ìĦ¤ ë§Ī
Ġì±Ħ ë¦¬
ê²Į ëĭ¤ê°Ģ
Ġê¸° ìĿ¼
Ġë¹Ħ ìĽĮ
Ġê¸ ĭ
Ġìµľ ë£¡íķ´
Ġíıī íĥĿ
Ġë¶ĢëĶª ì¹ĺ
° ķ
ĠìĦľ ìĿ¸
ìĦ± ìĿ´
Ġìĵ¸ ìĵ¸
ĠëĨ¨ ëĭ¤
Ġë¡ľë§¨ íĭ±
Ġë¯¸ìĬ¤íĦ° ë¦¬
Ġë³´ ëĿ¼
ĠìĿ¸ ëĤ´
ëĬ ł
ĠíĮĮ ì£¼
ì°½ ê¸°
Ġìķ½ êµŃ
Ġì¶Ķ ë¡ł
Ġìŀ¥ ëĭ¨
ĠëĪĦ ìĽĮìĦľ
ê·¸ëŁ¬ ê²Į
Ġë¹¨ë¦¬ ë¹¨ë¦¬
ĠíĤ ´
ĠíŀĪ ìĸ´ë¡ľ
Ġíĳľê³ł ë²ĦìĦ¯
Ġíķĺ ìĻĢìĿ´
Ġë¶Ļ ëĵ¤
Ġêº¼ ì§Ģ
ë» ¤
Ġë¬¸íĿ¬ ìĥģ
Ġëħ¸íĬ¸ ë¶ģ
Ġë İ
Ġë§Ĳ ëĿ¼
Ġë°© íķľ
Ġë°ĺ ë°ĺ
Ġìŀł ê²¨
Ġê·¸ë¥´ ëĭĪê¹Į
ĠëĵĿ ìłĲ
Ġë³´ ëĥħëĭĪëĭ¤
ĠëĤ´ ê±¸
ĠíĹĪ ë¬¼
ĠëĤĻ íķĺ
Ġì§ĢìłĢ ë¶Ħ
ĠëĤ ¼ë
Ġê¸° ìĪĻ
Ġê¹Ģ ê·ľ
ìŀ¬ íĺĦ
ìŀĦ ìŀĲ
ĠëıĦ ëģ¼
ìłķ íĻĶ
Ġêµ° ëĭ¨
ĠëĪĪ ìĹ¬ê²¨
ĠìĿ´ì¢ħ ê±¸
Ġë°°ì¢ħ ì°¬
Ġê³ł ìĿĢ
Ġìłķ ì°°
ĠíļĮ íĻĶ
Ġê¸´ ëį°
Ġì²´ ë©´
Ġíľ Ļ
ĠëıĦë§Ŀ ì¹ĺ
Ġê³ł ìŀĳ
ëı ¼
Ġë¯¸ ëħĢ
Ġë°ķ ìľł
ĠëĨĢ ìĿ´íĦ°
Ġìľłê³µ ìŀĲ
Ġê°Ģ ìĬµê¸°
Ġìŀ¥ ìķĦì°Į
Ġìķŀ ìĦł
Ġê¶Į ìŀ¥
ĠëĨĢ ëŀĦ
Ġìĥģ ìĥĿ
Ġëª¨ íĹĺ
Ġì§Ī ê¹Į
Ġê°Ī ë¦´
Ġë§Į ëĬ¥
ë² ¼ë
ìĭ¬ ìŀ¥
Ġë¬¼ ìĿĮ
Ġë§¤ ì¹ĺ
Ġì£¼ìłĢ ìķī
Ġì§Ģ ëĭĮ
ĠìĿ¼ íĥĪ
ë£ ¹
ĠëıĻ ë§¥
ì²Ń ìĽĲ
Ġì¤Ģ ëĭ¤ë©´
Ġê³¨íĶĦ ìŀ¥
Ġë©´ìĦ¸ ìłĲ
Ġê°Ģ ëĬł
ĠìĮ ©
Ġë§¡ ê¸¸
íĶĮ ëłīìĬ¤
ĠìĹ¬ ìłĦ
ìĿ´ ëĶ°
ĠíĽĦ ê³Ħ
Ġëķ Ħ
Ġìľ¤ ìĦľ
Ġ201 5
Ġê¸° ìĦ¸
Ġë¶Ģ ê·¼
Ġìĭ¤ ë¬¼
ĠëĪĦ êµ½ëĭĪê¹Į
Ġë´Ĳìķ¼ ê²ł
ĠìŀĶ íĺ¹
Ġë°ķ íķ´
Ġíĺ¸ íıī
ê²¨ ìļ´
ĠëĦ· íĶĮë¦ŃìĬ¤
Ġì§Ģ ëĤ¼
ĠìĦ± ë¬¸
ĠíĬ¹ ì¡°
Ġë¦¬ìĸ¼ë ¯¸íĦ°
Ġìĭ« ìĸ´
ĠíĨµìĭł ìĤ¬
Ġì° Ŀ
Ġìŀ¥ ëĭ´
ì°¨ ëĿ¼ë¦¬
Ġíķ´ ëĥĪ
Ġìĭł ë³Ģ
Ġë¹Ħ ìŀ¥
Ġë°Ķëŀ Ħ
Ġìĸ´ëĳ ł
ĠëĤĺ ìķĦì§Ģ
ĠìĨĮ ëĤĺ
Ġì´Ī ëŀĺ
Ġëľ» ë°ĸ
Ġìĥ ´
Ġë¹Ħ ë¡ľ
Ġìľ¼ ìĭŃëĭĪëĭ¤
ĠíĿĶ ëĵľ
ĠíĿĺ ëł¤
ĠìĪĺëª© ëĵľëĿ¼ë§Ī
Ġêµ¬ ìļ´
Ġê³µ ìĭł
Ġëł ´
ëĤ¨ íİ¸
ĠìĿ´íķ´ ê´Ģê³Ħ
Ġì¡° ë¯¸
Ġìľł ë¯¼
ĠìĹĦ ëĭĪ
Ġíķ©ëĭĪëĭ¤ ë§ĪëĬĶ
ĠëģĦ ëįķ
Ġê¹¡ íĮ¨
Ġëħ¸ ìĺģ
Ġê¸ī ìĨį
ĠëıĻ ìĦ±
Ġê¸Ī íĴĪ
Ġë³µ ë¶Ģ
ĠíĽĪ ìŀ¥
Ġì¢ĭìķĦ íķ©ëĭĪëĭ¤
Ġë§ĪìĿ´íģ¬ ë¡ľ
Ġë¬¸ ìłķ
íĴ ĭ
ĠíĥĦ ìĤ°
Ġê·¸ë¦ ´
ĠìŃī ìŃī
Ġëĵ¤ ëŁ¬
ëŀ ´
Ġìļ° íİ¸
ĠìĪ¨ ì§Ģ
Ġê³ł ìķĦ
ĠëĮĢ ì¶Ķ
ĠìĦľ ëĳĲë¥´
ĠëįĶ ìĽĮìĦľ
Ġë¹Ħ ëįĶ
Ġìŀ¥ ìĭľíĺ¸
Ġíĳľ ê¸°
Ġì¢ħ ìĤ¬
Ġê½ Ī
Ġì¶ľìĹ° ë£Į
ëĶ° ë¡ľ
Ġìĺ® ê²¼
ëĦĺ ê¸°
Ġ Â
ĠìłĦ ìĨ¡
Ġìĥģ ì¶Ķ
Ġìľł ëĿ¼
ĠìĬ¹ ì°¨
ĠìĬ¬ ê¸°
ìį ¬
ĠìĦľ ë©´
ĠìĿ¼ë Ł¬
Ġìľ¡ ìĿ´
ĠìĨ¡ ì¹ĺ
Ġíķłëł¤ ëĬĶ
Ġìĭľê·¸ ëĦĲ
Ġì§Ģ ê·¹
ĠìĻ ĵ
ĠìĿ¼ íļĮ
êµŃ ëĤ´
Ġì£¼ ìŀĦ
ĠìĽĲ íķ©ëĭĪëĭ¤
Ġíĺľ ìĺģ
Ġê²½ìĥģ ëıĦ
Ġìĺ¤ ë§Ī
ĠìĬ¤ íĨ±
Ġì²Ń ìłķ
ĠëĿ¼ ìĿ´íĬ¸
ìķĦ íķĺ
Ġê°ľ ê°ľìĿ¸
ê±´ ê°ķ
ĠìĤ´ìķĦ ê°Ī
ĠìĿ¼ ê´Ħ
Ġê³¼ ëĭ¤
Ġìĭ¤ íĻĶ
Ġë³¸ íļĮìĿĺ
ĠíĹ ī
Ġê¼¬ ì§ĳ
Ġë¶Ģì§Ģ ëŁ°
Ġíķĺ ìĽĲ
Ġìĸ´ ì¹ĺ
ìĬ¤ íĦ´
Ġìŀ¬ íķ´
ì§ģ ìłĳ
Ġê°ķ ìļ©ìĦĿ
Ġë²ł ë¥¼ë¦°
ĠëĵľëŁ¬ ëĤ¸
Ġë¯¸ìĹŃ êµŃ
ê¸° ë¶Ģ
ìŀĲ ìľł
ĠìĦ¸ ìĬµ
ĠëĨį ìĦ±
ĠíĮĿ ì½ĺ
Ġì´Ĳ ëŀĳìĿ´
Ġê¸° ì¶ľ
Ġìĸ´ë ²
ĠìĥĿ ê¹ģëĭĪëĭ¤
ĠìĦľ ê°ķ
Ġëĭ¹ ë©´
Ġ2 2
ĠíĿĶ íķĺ
ĠíĹ¤ ë§¤
Ġê¸°íļį ìĤ¬
ĠìĿ¼ ê°Ħ
ĠìĦľ ìłķ
Ġìľł ëŀĳ
Ġìľł ìĭ¬íŀĪ
Ġë³Ħ ìĿ¼
íĺľ ìĺģ
ĠìķĦìī¬ ìĽł
Ġìľł ëĬ¥
ĠëıĮ ìĹ°
Ġë»Ķ íķľ
Ġë¹Ħ ìĹĶ
Ġê¹Ģ ìľ¤
Ġìŀ¥ ìĿ´
Ġë²ķ ìĤ¬
Ġíķĺìĸ Ĺ
Ġìŀĥìĸ´ë²Ħ ëł¸
êµ¬ ë©į
Ġëª©ìļķ íĥķ
Ġë¯¸ ì³Ĳ
Ġë¶Ī ê¸¸
Ġì¤Ħ ëŀĺ
ĠëıĮ ë¦´
ì¢ħ ìĽĲ
ĠíĹĮ ìłķ
Ġë¶Ģëĭ´ ê°Ĳ
ĠìĿ´ íļĮ
ĠìĦľ ì²ŃìĽĲ
êµŃ íļĮ
Ġìķ¼ ê·¼
Ġë³¸ ìĥī
Ġê¹¨ ìĸ´ëĤĺ
ĠìĻķ ëĶ°
Ġíķľ ëĪĪ
Ġìľł íĿ¥
ìĦ¸ íı¬
Ġê°Ĳ ì¹ł
Ġëł Ģ
Ġì±Ħ ê¶Į
ì½Ķ ìĺ¬
ìĵ° ê¸°
Ġë¶ĢëŁ¬ ìĽĮ
Ġí ĵ¨
Ġê¸° ë¥ĺ
Ġë¡ľ ì§ģ
ĠìĦł ìĿĺ
Ġê°Ħ ëŀµ
ì¤ĳ ê°Ħ
íģ¬ ë¡ľ
ĠíıŃ íı¬
ĠíĶĮ ë¡ľ
ķ Ĳ
ĠìĿ´ ìĥī
íĺ Ĳ
ĠìĦ± ìļ°
ìĺģ íĳľ
ĠíĻĶ ëģĪ
Ġíģ¬ ë¦¬
ĠíĺĪìķ¡ íĺķ
ĠëĮĢ ê¸Ī
ĠìķĪ ëıĻ
Ġì° »
ì¹ µ
Ġë§Ī ì¼ĵ
ĠëĨĵ ì³¤
Ġë²ł ê°ľ
Ġê¸°ë¡Ŀ ë¬¼
ĠëĤłì¹´ ë¡ľìļ´
Ġëĵ¤ ê¹¨
Ġìłľ ìĪĺ
ĠëıĻ ìļĶ
ĠìłĲ íĶĦ
ĠìĨį ë§ĪìĿĮ
Ġë°ĶëĿ¼ë³¸ ëĭ¤
ĠìŀĲ ìŀĳ
ĠìĦ¸ ë¡ľ
Ġì¡° ìĹ°
Ġëħ¸ ê³¨
ĠìĦľ ëŀį
Ġë¹Ħ ìľĦ
ĠìĶ¨ ë¦Ħ
Ġëħ¸ ëħĦ
ĠíĺĦ ìĨ¡
Ġìķŀ ëĭ¹
Ġíĥľ ì¤Ģ
Ġìĸ´ëł¤ ìĽĮìĦľ
Ġë°Ķëŀ ¨
Ġìłľì¡° ìĹħ
ĠíĺķìĪĺ ëĭĺ
íķ¸ ëĵľ
ĠìĿ¸ ì²´
ëĿ¼ íħĮìĬ¤
Ġê·¹ ëĮĢ
ĠëĮĢìŀ¥ ìķĶ
ĠìĬ¤ ì½Ķ
Ġì¼ ł
ĠëĨĢ ë¦¬
ĠìĿ´íĥľ ë¦¬
Ġê¸° ì¦Ŀ
ĠíĬ ķ
Ġêº¼ëĤ ¸
ĠìĿ´ ë³´
ĠìĤ¬ íĥķ
ĠëĮĢ êµŃ
Ġíĸ īìŀ¥
ĠìĽĲ ê°Ģ
ĠëĦ¥ íĥĢìĿ´
Ġê¹Ģê´ĳ ìĦĿ
¼ë ¡ľ
ĠìĨ¡ íĻĺ
Ġë°ĿíĺĢ ëĤ´
Ġì¢ĭìķĦ íķ´
ĠìĬ¤íĨł ìĸ´
ĠëıĦ ìĦ±
ĠìłĦ ëĿ¼ëıĦ
ĠìĹ¬ìŃ¤ ë³¼
í ļ
ĠêµŃëĤ´ ìĻ¸
ĠìĿ´ íĶ¼
ĠìķĦ ìĶ¨
ĠíĸĪ ìľ¼ëĤĺ
ĠìłĦ ì²ĺ
íķĺ ìĿ´
íĬ¸ ë¥¨
Ġì±ħ ìłķ
ĠëıĮìķĦ ëĭ¤
Ġíİľ ìħĺ
Ġìłľ ìĸ´
Ġì¶ľ ìĨĮ
Ġíħ ħ
ĠìĿ´ ëĮĢ
Ġë©´ íļĮ
ĠìĦ¸ ë¬´
ĠêµŃ ìĤ°
ĠìĻ¸ ê³½
Ġì·¨ íķ´ìĦľ
Ġìĸµ ìķķ
íĨ¨ ë¦Ń
Ġê¸° ìļ°
ĠìĦľ ìĺģ
ĠìĹ° ìĭľ
Ġë³Ģ íķł
ĠêµŃê³¼ ìĪĺ
ĠìĨĮ ë°ķ
Ġê¶Į íķĺ
Ġíı¬ ë¡ľ
ê·¸ë¦¬ êµ¬
Ġë§Ī ë²ķ
Ġê²° ë§Ĳ
Ġíĺ¸ ì¹Ń
ĠìķĮëłĪ ë¥´ê¸°
Ġíķľ ê»ı
Ġìłķ íĺĦ
ĠìĨĮ íĴĪ
Ġë³¸ ìĦł
Ġíĸī ê°ģ
Ġíĺĳ ìĹħ
ĠíĽĶ ì¹ĺ
Ġíķı ì¤Ħ
Ġì²ľ ë¬¸
Ġì¶Ķ ê¶ģ
ĠëŁ¬ ëĭĿ
Ġê·¹ íķľ
Ġëĭ¥ ì¹ĺ
ĠìĤ¬ ë£Į
ìľ Ļ
ĠìłĪ ë¡ľ
ĠìĦ £
Ġìłķ íĺ¸
Ġëª¨ ì²ĺëŁ¼
Ġëĵľ ë¡ł
Ġë§ŀ ë¬¼ë
Ġì´Ŀ ê¸°
ĠëĮĢíı ¬
Ġì§Ģ ì¹ľ
Ġíķ´ ì§Ħëĭ¤
ĠëıĻë¬¼ ìĽĲ
Ġëĵ¤ìĿ´ ëĮĢ
Ġì§Ģ íĶ¼
ì¡° íķ©
Ġìĸ¸ ëįķ
Ġìŀ¬ ë¬¼
ĠíĻĶ ìĤ°
Ġíĥľ ìĤ°
ĠíĴĢ ë¦´
Ġì¢ģ íĺĢ
Ġíħĥ ë°Ń
Ġëĭ¤ ë°©
ĠìĬ¤ íĳ¼
Ġëŀ į
ĠìĨ¡ íĮĮ
ĠëĹ Ħ
ĠëĬĲ ëĭ·
Ġìľ¼ìħ¨ ëįĺ
Ġê°Ŀê´Ģ ìłģìľ¼ë¡ľ
Ġê°± ìĭł
ëĵĢ ìĦľ
ĠìľĦ ì¦Ŀ
Ġë²Ī ë³µ
Ġë°ľ íĥģ
ëĿ¼ë ¹Ħ
ë¦° ëĭ¤ëĬĶ
ĠëıĮ ë´Ĳ
Ġë³µ ëĭ¹
Ġ3 00
ìį ½
ìķĦ ëĥĲ
ĠìłĦ ì§Ħ
ê·¸ ëĤł
Ġëª¨ ìĭł
Ġì§Ī ëŁ¬
ìĪľ ê°Ħ
Ġì°¾ìķĦ ê°Ħ
Ġì¡´ ìĹĦ
ĠìĤ¬ìļ° ëĶĶ
Ġë°ĺ ê²©
Ġë³¸ ëį°
ĠìĨį íķĺ
Ġìĺ¬ëł¤ ìķ¼
ë¿ Į
ìŀ¥ ëĤľ
Ġê³µ ìĪĺ
Ġìľł ìŀħ
Ġê¹Ģ íı¬
Ġì¶ľ ëĳĲ
ĠìĪĻ ëªħ
Ġëħ¹ ìĹ¬
Ġìľ¤ì¢ħ ìĭł
ëŁ ¿
ĠìĬ¤ ë©°
Ġê³¨ ì¹ĺ
5 0
ĠìĿĢ ë¹Ħ
ì§Ģ ëħ¸
ĠìĤ¬ ëªħ
ĠìĪĺ ìĽĶ
Ġê´Ģ ì¤ĳ
Ġë§¤ ëĦĪ
Ġíĥľ íĽĦ
ĠíĶĦëĿ¼ìĿ´ ë¨¸ë¦¬
ĠëĳĲ ëĵ¤
ĠëĦĺ ëĤĺ
ĠëĴ· ëª¨ìĬµ
Ġëı¼ë²Ħ ëł¸
¡ Ŀ
ĠìĿ´ íĥĢ
ĠíĸĪ ìĸ´ìķ¼
Ġì£¼ ìĭŃìĭľìĺ¤
Ġê²½ ë³µê¶ģ
ĠëłĪ ìĿ´ìĬ¤
ĠìŀĶ ëį°
Ġê³µìĤ° ì£¼ìĿĺ
ê¸° ëĭ¤
Ġêµ¬ íķľ
Ġê·¸ëŀĺ íĶĦ
Ġë¬¸ ë²ķ
íĻĶ ìĺģ
íħĮ íģ¬
ĠíķŃ êµ¬
ìĹ´ ìĭ¬íŀĪ
Ġëľ¨ê±° ìĽĮ
ĠìĿ´ ê³¼
Ġê³ł ê³ł
Ġì§Ģ ê¸°
Ġë¹ ¼ëĤ´
Ġê·¼ë ł¥
Ġìī¬ ìĽĮ
Ġë¯¸ ì£¼
Ġë¶Ī ë¥ľ
ë°ĺ ì°¬
ĠíķŃ ìŁģ
ìķĦìĿ´ êµ¬
Ġëĺĺ ëĺĺ
Ġëĵ¤ ë¦´
Ġìłķ ë³µ
ìľĦ ìĽĲ
Ġì°¸ ìłĦ
Ġíķ¨ ëŁī
Ġë²Ħ íĭ¸
ĠíĻĺ ìĤ°
Ġë°Ģ ëıĦ
Ġë½ ķ
Ġê¹Ģì¢ħ ë¯¼
ĠëļĿ ëĶ±
Ġìĸ´ë¦¬ ìĦĿ
ëĿ¼ë²Ħ ëĭĪ
ĠìĹ´ë³ĳ ìĭĿ
Ġìļ° ìľĦ
êµ¬ ë§Į
íĻĶ ìĥģ
Ġì§ĳ íķĦ
ê¹ Ł
ĠëŃĶ ëį°ìļĶ
Ġì´Ŀ ë¬´
Ġíļ¨ ìŀĲ
Ġìľ¼ìħ¨ ëĬĶëį°
ë£» ë°¤
ĠìĿ´ ìĭľ
ĠìĿ¼ íĻĶ
Ġë¬´ ëĤľ
ìĿĺ ìĭĿ
Ġê°Ħ ë³ĳ
Ġë¦¬ ëĿ¼
Ġë¹µ ë¹µ
ĠìĦł íĴįê¸°
ĠìĹ° ëħĢ
ìĤ° ë¶Ģ
ĠìĿ´ìķ¼ ê¸´
Ġì½Ķ ëģ¼ë¦¬
Ġíİĺ ë¯¸ëĭĪ
Ġê»į ëį°ê¸°
Ġë¦¬íı¬ íĬ¸
Ġê³ł ì¶©
ìłķ íĺľ
ìļ° ì§Ħ
ĠìĬ¤ íħĶ
ì¶Ķ ê°Ģ
Ġ0 8
Ġëĸłìĺ¬ ëŀĲ
ĠìĤ¬ ê´Ģ
ëĮĢ íĨµëł¹
Ġìŀħ ì²´
ĠìķĮ ì½Ķìĺ¬
Ġëŀ ´
ĠìĻ¸ ë¬´
ĠíĶĦë¡ľ ëĵĢìĦľ
ĠíĮ¨ ëĶ©
Ġì°¾ìķĦ ìĻĢìĦľ
ê¼¬ ë¦¬
ĠìŀŃ ìĬ¨
Ġê±°ìĬ¬ ëŁ¬
ĠêµŃ ê³ł
Ġì°¸ ìĻ¸
Ġíı¬ ì»¤ìĬ¤
ĠíĺĳìĿĺ íļĮ
Ġëĭ¤ ëĿ¼ë©´
Ġë¬¸ ìł
ĠìĿ¼ë³¸ êµ°
ĠìĹĺ ì§Ģ
Ġê·ł ìĹ´
ĠìłĦê¸° ì°¨
ĠëĤĺ ìĽĲ
Ġê¸° íĶ¼
Ġìŀ¥ ëıĻ
Ġìŀ¬ ì§ģ
Ġì¶© ë¶ģ
Ġì±ħìŀĦ ìł¸ìķ¼
ĠëĿ µ
Ġt h
ĠìķĦ ìĺ¤
Ġì§Ģ ë§Ŀ
ĠìĤ¬ ë¬¸
Ġë¶Ģ ê²°
Ġì²ĺ ëħĢ
Ġìŀ¥ ìŀĲìĹ°
ìĹ° íĿ¬
ìĺģ ìĪĻ
ĠíĻĶ ë³´
Ġë¬¼ëŁ¬ ìĦľ
ĠìĻ¸ë¡ľ ìĽĢ
Ġíķľ ëĮĢ
ĠìĬ Ľ
Ġë°ľ ìŀĲ
Ġë²ķ ì¹ĺ
Ġë°©ìĨ¡ ìĿ¸
Ġìĩ¼ íĬ¸
Ġìľ¼ìħ¨ ìĿĦ
Ġë²Ħë¬´ ëł¤
Ġíķľ ì§Ħ
ëį° ë¯¸
ìĿ´ ë¦¬
ĠìĦľ íĽĪ
Ġì§Ħ íķĺ
Ġë´ī ìĩĦ
Ġìĺ¤ë¦¬ ì§Ģ
Ġê¹Ģê´Ģ ì§Ħ
Ġê³¼ ê²©
ĠìĨĮ ìħľ
Ġë¹Ħ ë¦°ëĤ´
ĠìĽĲ ìłķ
ĠëıĻ ì¡°
ë®¤ ì§Ģ
ĠìķĪ ëĭ¤ê³ł
ê°Ħ ìŀ¥
ĠìĦ¤ ë¹Ħ
Ġíľĺ ëĳĺ
Ġë°°ìĭł ê°Ĳ
Ġíĺ¼ëĤ ĺ
Ġìĺģ ë¬¸
ë¯¸ ëĤĺ
Ġêµ° ìĪĺ
Ġì´Ī ìĽĶ
Ġë§¡ ê²¼
Ġë¹Į ëł¤ìĦľ
ê°Ħ ëĭ¨
Ġëª» ëĤľ
Ġì¤Ħ ì§Ģ
ĠìłĪ ìłľ
Ġì¦ī ìĦĿ
Ġ0 9
Ġê¹Ģ íķ´
Ġë°° ê¸ī
Ġì°© ìĺ¤
Ġì°© ë¥Ļ
ĠìĹĬê·¸ ìłľ
Ġê°ķ ëĮĢ
ĠìĹ´ ìĹ°
ĠíĹĪ ëĤĺ
ĠíĴĢ ëł¸
ĠìļĶë¦¬ ìĤ¬
Ġê¹Ģë¬¸ ìĪĺ
ĠìķĦ íį¼
ĠìĹ¬ ê³ł
Ġëª¨ íħĶ
Ġìŀ¥ ì°©
Ġ2 7
Ġë£ ©
ĠìĤ¬ìĹħ ìŀ¥
íĬ¹ ë³Ħ
ĠìĤ¬ë¬´ ê´Ģ
ĠìĥĿê²¨ ìļĶ
Ġë°ķ ê²½
ĠíĮĮ ê¸°
ì³Ĳ ìķ¼
Ġê·Ģ íķĺ
Ġì±Ļê²¨ ìĦľ
ëĲĺ ê²Į
Ġê°Ĳì¹ł ë§Ľ
Ġë° į
ĠìĺĪ ìĸ¸
ìĿ¸ ìĤ¬
Ġì°¸ ëĭ´
Ġìļ´ ìĨ¡
ĠíĶĦ ëŀĢ
Ġê³Ħìĭł ì§Ģ
ĠíķŃê³µ ê¸°
ìħī íĬ¸
ìĥĺ íĶĮ
ĠìĿ´ ìĸ¸
ìĿĢ ì§Ģ
Ġê°ľ ì²Ļ
ë¹Ħ ìĬ·
Ġìĺģ ìĦł
ĠìķĶ íĺ¸
ĠìĤ´íİ´ ë´Ĳìķ¼
Ġë°ĽìķĦëĵ¤ ìĹ¬ìķ¼
Ġ â
ĠìĤ¬ ëĮĢ
Ġìĭľ íļ¨
Ġì²Ń ìĤ¬
Ġêµ° ìĤ°
ê°ķ íĺ¸
Ġê°ĲìĤ¬ ìĽĲ
ĠìĻķ íĽĦ
Ġë§Ŀ ê°Ģì§Ģ
ĠëĨĶ ìĦľ
Ġë°ĶëĿ¼ë ³¼
Ġê·¸ëł¤ ì¡Į
Ġê·¸ë ķĲ
ĠìĬµëĭĪëĭ¤ ìļĶ
Ġë²ķ ìłľ
Ġê·¸ëĭĪê¹Į ëĬĶ
Ġíķ© ì°½
Ġì²´ ë¥ĺ
íĤ ·
ĠìĺĪìĪł ëĭ¨
Ġë¬¼ìĸ´ ë³¸
ĠëĦ¤ ê±°
ëĤĺ ìĻĢ
íĥĢ ë¦¬
ëĦĪ íĿ¬
Ġë³µ íĿ¬
Ġì£¼ìĿĺ ìŀĲ
Ġëºı ê¸°
Ġë§Ĳ ê¸°
ĠìłĲ ìľł
ê³µ ì£¼
Ġì±Ħ íĮħ
ĠìĦ¼ ìĦľ
Ġìĸ´ìļ¸ ëł¤
ê³łë§Ī ìĽĮ
ĠëĦ¤ ìĿ¼
ë§ µ
Ġìĺ¤ ì°¬
ĠìĹ¬ ê³łìĥĿ
Ġìĥģ ë°ĺ
ĠìĽĲ íĶ¼ìĬ¤
Ġë¯¼ ê¸°
Ġì´¬ìĺģ ìŀ¥
ĠëĮĢ íķŃ
ìĸ´ ìł¸ìĦľ
ĠìĹ´ ë§Ŀ
Ġê´ ĺ
ĠìĲ ¬
Ġìĥģ ê¶Į
Ġë¶Ħ íı¬
ĠëĤ¨ íķĻìĥĿ
ĠëĮĢíķľ íķŃê³µ
íıī ìĥĿ
Ġìłľ ìĬ¤
íķĺ ìĦ±
ĠìĽĲ ë§Į
Ġê¹Ģ ë³´
Ġì¤Ģ ìĿ´
Ġë§¤ ê°ģ
Ġíķĺ ì°¨
ĠìĪĺ êµĲ
Ġì¤ĳ íĺķ
Ġê³µ ë¬¸
Ġê¸Ī ìĪĺ
ìĺ¬ ëĿ¼
ĠëĤ´ëł¤ ìĺ¨
® ¬
Ġìĭľ ëĦ¤
Ġë§Į ê¸°
Ġë°© ëıĦ
ëª¨ ëĭĪ
ìĸĳ íĺ¸
ĠìĿĳ ìĿĳ
Ġìļ´ëıĻ ê°Ģ
ĠìĬ¤íĬ¸ ëĿ¼
ĠìĤ¬ ë¦¬
ĠìłĢ ì¶ľìĤ°
Ġíķ¨ ìľł
ìĦľ ìļĶ
ê¸° ëĭ¤ë¦¬
ìĬ¤ íħĮ
ĠìĽĲ ìĪŃìĿ´
Ġê²ĢìĤ¬ ìŀ¥
ĠëĨĶ ìļĶ
ĠìļĶ ìļ°
Ġëħ¸ ìķĪ
ìĦ¸ ìĿ´
Ġê´ĳ ë²Ķ
ĠìĪĺ ìĪľ
Ġì´Ŀ ì²´
ĠìłĪ ë²½
ĠìĻķ ì¡°
Ġëĭ¤ë¦Ħ ìĹĨ
Ġì¤Ħì¤Ħ ìĿ´
Ġë¹Ħë¡ľ ìĨĮ
ł ëį°
Ġìĭľ ìĬ¹
ĠëıĻ ìª½
Ġíĺ¼ ìĪĺ
Ġì§Ģë°© ìĤ°
ĠìľĦ íĥľ
Ġìľł ìŀĲ
Ġë²Į ëĸ¡
Ġê·¼ ìĤ¬
ìĿ¼ë ĵľ
íĿĲ íĿĲ
ìłľ ìĿ¼
Ġë¶Ģ ìĬ¤
Ġê¹Į ë§Į
ĠìĽĲ ê²©
ĠíĮĮ ëĿ¼
Ġì´Ī ì°½ê¸°
Ġë©Ģë¦¬ ìĦľ
ĠìĪĺ íĻķ
Ġì§ Ń
ê·¸ ëĤĺ
Ġì±Ħ ì·¨
Ġëį§ë¶Ļ ìĺĢ
Ġê³ĦìħĶ ìĦľ
ëı¼ ì§Ģ
Ġê³¼ ìĸ¸
ĠìĽĲ ë£Į
Ġëªħ ìĥģ
ì§Ī ëŀľëĵľ
Ġì¹¨ ì°©
Ġê¹Ģë¶Ģ ê²¸
ĠìĿ´ ìĭĿ
Ġê°Ģ ì°½
ìĨĮ ëĭĪ
Ġê¹Ģ ì°½
ìĦ¸ ëĮĢ
ĠíĻĶ ëł¥
Ġë¦¬ ìĬ¤íģ¬
ĠìłķìĦ¸ ê·ł
ĠìķĦ ìĿ¼ëŀľëĵľ
ĠëĤ´ ìĪĺ
ĠìĦ¸ ìĿ´
ĠìľĦ ìķĶ
Ġì²ĺ íķľ
Ġìŀ¥ ìĸ´
ë°° ê¸°
ë³¶ ìĿĮ
Ġì¹« ìĨĶ
Ġìłķ ì¡°
Ġìļ° ì¸¡
Ġê²½ íķ©
íĥľ íĺĦ
íĺĦ ìłķ
Ġíģ´ëŀĺ ìĬ¤
Ġë°ķìļ© ì§Ħ
ĠëĤĺ íĬ¸ë¥¨
Ġë¡ľ ìĽĮ
Ġëª¨ ìĭ¤
ìĺ¤ íĶĦ
Ġìļ¸ ìĿĮ
ĠíĥĲ ìĥī
ł ģ
Ġì°¨ ê°ĳ
ĠìĬ¹ ìŀĲ
Ġê³¨ ëŀĲ
ëıĮ ìķĦ
Ġ100 0
Ġíļį ê¸°
ĠìķĦì¹´ ëį°ë¯¸
Ġìłķ ë¥ĺ
Ġêµ¬ ë¨¼
Ġìĭ¤ ìĬµ
Ġê°ķ ë³Ģ
Ġë°ľëªħ íĴĪ
Ġìľł ëıĻ
Ġìľł íĿ¬
Ġìŀ¬ ìĽĮ
Ġëĭ¬ êµ°
ĠëĪĦ ëĿ½
Ġê¼Ń ì§Ģ
ĠíħĮ ëłĪ
Ġê¸°ë¡Ŀ ë¶Ģ
Ġìłľìŀĳ ìĤ¬
ĠìĿ¸ ë§¥
Ġìħ ľ
Ġê°ķ ìķķ
ĠëıĦ ìļ¸
ĠëĤ´ ë¶Ħ
íĨµ ìĪĺ
ĠìĨĲ ë°ľ
ĠëĦĺ ì³Ĳ
Ġê³ł ê²ĥ
ĠìķĦ íĿĶ
ëŀ ©
ìŀĲ ê¾¸
ìĺģ ë¯¸
Ġ2 8
íĥĪ ë¡ľê·¸
Ġì°ľì§Ī ë°©
ĠìĹ¬ ìĪĺ
Ġëĭ¹ íĺ¹
Ġì¤Ģ ìĺģ
ĠìŀĦ ë°ķ
Ġëĭ´ ìķĦ
Ġìĺ¬ëĿ¼ ìĻĢìĦľ
Ġìĥ¤ ìĿ´
ĠëłĪìĿ´ ëįĶ
Ġë²łìĬ¤íĬ¸ ìħĢëŁ¬
ĠìĨĮìļ© ìĹĨ
ĠìłĦ ìĤ¬
Ġë¯¸ ë¶ĢìĿ¸
Ġë°ĺëĮĢ ìª½
Ġë³´ìķĪ ë²ķ
Ġì§Ģ ì²´
ìĪĺ íĺĦ
ëł¤ êµ¬
Ġëĭ¹ ëĮĢ
Ġíķľëĭ¤ ëįĺ
Ġì§ģ ë©´
ì§ĳ íĬ¸
ĠìĿ´ìĸ´ ìł¸
Ġë¹¡ ë¹¡
ĠìĿĺ ì´Ŀ
ĠìĿ¸ ìĩĦ
Ġìĭľ ì²´
ìķĦ ëĤĺ
ĠìĨĮ ëĿ¼
íĿ °
Ġëł Ľ
Ġìķħ ëĭ¨
ëłĪìĿ´ íĦ°
ì© Į
ëĬĶëį° ëıĦ
ĠìĬ¤ì¼Ģ ìĿ´íĬ¸
Ġëľ¬ ê¸Ī
ĠìĿ´íĺ¸ ìĦł
Ġï¼ Ł
Ġìĸ´ íĽĦ
Ġê¸° ë§ī
Ġìľ¼ë ¯Ħ
ĠìķĪ ëĿ½
ĠìĥĿ ìĪĺ
Ġìĥģ ë¥Ļ
ĠìĨĮ ë§¤
Ġë°Ķ ëĬĺ
Ġë²Ħ ë¸Ķ
Ġìŀ¬ë¯¸ ëĤľ
ĠíĿĳ ìĪĺ
ĠìĿ´ìĿĺ ë¯¼
Ġëĭ¤ ê°Ħ
Ġëĭ¤ ê¸ī
ìĭ¤ íŀĪ
ìĹ¬ ê¸´
ĠíĶ¼ ìĬ¤
ĠìĿ¸ì§Ģ ëıĦ
ĠëĤĺëĪ Ķ
Ġíĳ¸ íĭ´
Ġë¡ľì§ģ ìĬ¤
ĠìĪĺ ì°¨ë¡Ģ
Ġìĺ¤ ìĬ¤íĬ¸
Ġíıī ìĿ¼
Ġì¶© ê³ł
Ġì¹¼ êµŃìĪĺ
ĠìĦ¼íĭ° ë¯¸íĦ°
Ġê³ł ì¹ł
ĠìķĦ ì°Ķ
Ġê´Ģ ì²ł
ìłĢ ìª½
ê¿ Ķ
ìĻĦ ìłĦ
ì ı
Ġê¹ ¼
Ġê±´ ëĵľ
Ġë³¼ ìĿ¼
Ġíĺ¸ íĺ¸
Ġì¡°ìĤ¬ ëĭ¨
ëĪĦ êµ°
Ġì½ĺ ìħīíĬ¸
Ġíķľìĸĳ ëĮĢ
Ġëĵ¤ ëłĢ
Ġê³µ êµĲìľ¡
ĠìĨĮ ëıħ
Ġìĭ¤ ìłĦ
Ġëĥī ìĿ´
Ġ0 7
Ġíĺ¸íĿ¡ ê¸°
ĠÂ ·
í Ģ
Ġì¡° ìľ¤ìĦł
ĠëĲľëĭ¤ë©´ ìĿĢ
Ġê´ĳë²Ķ ìľĦ
Ġê³ł ìĭ¬
ëĮĢ ì¶ľ
ĠìĦľ ê²½
Ġìľ¼ ìľ¼
ë²Ħ íĬ¸
Ġê¸°ìĸµ ëł¥
Ġíľĺ ë§Ĳ
ĠìĤ¬ ëıĦ
ìĨ Ł
ĠìĨĮ ì§Ħ
Ġìĺ¬ ì¼Ģ
Ġìĵ° ìĺĢ
ì½Ķ ìĿ¸
ìĹĦ ì²Ń
Ġê²½ë¹Ħ ìĽĲ
Ġë±ĥ ìĨį
Ġê±° ì·¨
Ġë¶Ī ëł¸
ĠëĪĪ ìį¹
ĠìĤ° ìŀ¬
íİ ł
Ġë©Ķëī´ íĮĲ
ĠìĿ¼ ìĽĲ
íķ´ ëĭ¹
ĠìĦľ ìª½
íħĮ ëŀĳ
Ġê°ķ ì¢Į
ĠíĻķ ìĦ±ê¸°
Ġëıħ ëĮĢ
Ġëĥ Ķ
ĠìĬ¹ ë§Ī
Ġë°ĺëĮĢ íİ¸
Ġìĵ¸ ëª¨
ĠëłĮ íĬ¸
ĠêµĲìĦŃ ëĭ¨ì²´
ê°Ģ ë§Į
Ġìłķ ìĤ°
Ġë°© ìłĲ
Ġë¦¬ ìĦľ
Ġê·¼ ìłĪ
Ġìłķë³´ ìĽĲ
ê²Ģ ìĤ¬
ĠëĮĢê¸° ìĭ¤
Ġë§ ı
ë¬¸ íĻĶ
Ġì°¸ íĮ¨
Ġìĺ¨ íĨµ
Ġê·¸ë£ ¨
Ġë§ŀì¶° ìķ¼
Ġìŀ¥ê¸° ê°Ħ
ĠíĶĮëŀ« íı¼
Ġë°° íı¬
ĠëĶ° ì§Ī
ëĭ´ ëįķ
Ġíı¬ ë¥´
íİ Į
íĬ¹ ìľĦ
Ġìĭľìĭľ ê°ģê°ģ
Ġìĸ´ ê¸°
ì§Ģ ìļ°
Ġì¤ĳ íĻĶ
Ġì¶Ķ ì¶ľ
Ġìŀł ìŀĲ
Ġì»¤ ì§Ħ
Ġë¶ĪëŁ¬ ìļĶ
ĠìĦ¸ìĽĮ ìķ¼
Ġìłķ ìľ¤
ĠíĸĪ ëĬĶëį°ëıĦ
Ġìłľ ìŀĲë¦¬
Ġê°ľ ê°ģ
Ġê²° íķ¨
Ġê·¼ ìłĳ
Ġê¸°ìĹħ ìĿ¸
Ġìķ¡ ì²´
Ġìłķ íķ´ìĦľ
Ġë°Ľ ì³Ĳ
Ġìĺģ ìķĦ
Ġì§Ģë§Į ìĿĢ
Ġëªħ ìĨĮ
ĠìĹ´ ê´ĳ
íıŃ íĥĦ
Ġì½ľëĿ¼ ê²Ĳ
ìłķ ìļ°
Ġì¡° ëĭ¬
ì§Ħ ìķĦ
ĠëĤ¨ ë¯¸
Ġì²Ń ìķ½
ĠëĴ¤ì§ĳ ìĸ´
Ġë¬¶ ìĹ¬
ĠìĬ¤ì¹´ ìĿ´
ĠëĮĢ êµ°
ìĹ ¿
Ġì¤ĳ ìľĦ
ĠìĹ° ê·¼
ĠìĻ¸ ëıĦ
ë¸Ķ ë¦¬
¾ °
ë¦ ı
ĠìĪĺ ìĭĿ
ìĸ´ ë¦°
Ġë¡ľ ë§Ŀ
Ġìĭł ìĥĿ
ĠëıĻ íĺ¸
Ġë¶Ī ëªħ
Ġë§ŀë¬¼ë ł¤
Ġëĭ¨ ì¶Ķ
ëłĪ ìĿ¸ì§Ģ
Ġìŀ¡ ì±Ħ
Ġê°ĢìĿ´ëĵľ ëĿ¼ìĿ¸
ë¯¼ì£¼ ëĭ¹
ĠìĿ´ê±´ ìļ°
Ġëķ¡ ê¸°
Ġê±´êµŃ ëĮĢ
Ġê·¸ëŁ° ëĭ¤
ìĭł ê²½
Ġë°± ìĪĺ
ĠìĨį ìĨį
Ġì±Ļ ê¸¸
ĠìĬ¬ ë¡ľ
ĠíĬĢ ê¸°
Ġìĸ´ìĿ´ ìĹĨ
ĠìĤ¬ ì²´
ĠëĮĢ ë¶Ģ
Ġìłķ ëª½
ĠìłĦ ìĦ±ê¸°
Ġê³¤ ì¶©
ĠìĮĢ ìĮĢ
ĠìĿ´ìĬ¬ ëŀĮ
Ġê±° ê¸¸
Ġë§Į ë£Į
Ġê²° ìĦ±
Ġë°ĺ ìĹŃ
Ġê°ķ ë¶ģ
Ġì¶Ķ ì§ķ
Ġê³łì³Ĳ ìķ¼
Ġì»¤ë®¤ëĭĪ ì¼ĢìĿ´ìħĺ
Ġê¸° íķĺ
Ġë¬» íŀĪ
ĠëĮĢì¤ĳ êµĲíĨµ
ĠëĮĢ ëĳĲ
Ġì¶ľ ê²©
Ġìľ¤ ê¸°
Ġë¹µ ì§ĳ
ĠìĿ´ìĺģ ìŀĲ
Ġì¼ĢìĿ´íĭ° ìĹĳìĬ¤
ĠìķĪ ìĵ°
Ġê³Ħ ì§ĳ
Ġìŀ¥ ëł¤
Ġìŀ¬ ì§Ī
ì°¨ ë¦¼
ĠíĮĮ ìĤ°
Ġë¦¬ ìĦ¤ì£¼
ĠìĿ´ê±´ ëį°
ĠëŁ ½
Ġì£¼ìľł ìĨĮ
ìĦ ŃëĭĪëĭ¤
Ġë¶Ħ ìŀĲ
Ġë¬¸ ìĭł
ĠìĨĮ ë©¸
ĠìĦł ëĳĲ
ĠíĻĶ ê¸°
Ġë¬¼ ê°ĪìĿ´
ë°Ģ ë¦¬
Ġì§ĳì¤ĳ ëł¥
a r
ĠìĦ¸ ìĽĮìĦľ
Ġë¹Ħ ì°¸
Ġê°Ĳ ê²©
Ġê°ķ íĸĪ
Ġì¢ħ íİ¸
Ġìłĳ ìĸ´ëĵ¤
Ġìľ¡ìĿ´ ìĺ¤
Ġê³ł ëłĩê²Į
Ġëĭ¤ ìĺ¤
Ġìĭľ íģ¬
Ġìĭ¬ ìŀ¬
ĠíĬ¸ ëłĪ
Ġì¹¨ ì²´
Ġê²¬ ìĿ¸
Ġì§ĳìķĪ ìĿ¼
Ġìĭľ ëĦĪì§Ģ
ĠìļĶ ìĹ¬
Ġìļ¸ ì»¥
ĠìĬ¬ ë¦¬
Ġë§Īì¹¨ ëĤ´
Ġìł¤ ë¦¬
Ġìļ° ëıĻ
Ġê·¸ë¦¬ ìĽĮ
íĥľ ì¤Ģ
Ġë²ķ ìĥģ
ëłĪ ë§Ī
ĠëĨį ê°Ģ
ĠìłĢìĨĮëĵĿ ì¸µ
Ġíķľ ëĵ¤
Ġì¡° ìĭĿ
ĠíļĮ ê´Ģ
Ġì±Ļ íĶ¼
Ġì¶ľìĹ° ì§Ħ
ìĹ¬ë³´ ìĦ¸ìļĶ
ĠìĿ´ ìĨ¡
Ġì§Ģ ìĸ´ìĦľ
Ġìłģ ê¸Ī
Ġê²½ ë³´
ìĦ¸ ìŀĲ
ĠìĤ¬ìĹħ ê°Ģ
íıĲ ë¬¼
ĠìĦłë³´ ìĿ¼
ĠìĬ¤íĶ¼ ì»¤
Ġíķĺ ë£»ë°¤
ĠìĦ± ìĪĺ
Ġë§¡ ê¸´
Ġë£¨ ë¨¸
ĠìĥĿê¸´ ëĭ¤
ĠíĬ¸ëłĪìĿ´ ëĭĿ
Ġê¹ĢìĹ° ìķĦ
ĠìĦ±ëĮĢ ëª¨ìĤ¬
ëĭ¤ ìĦ¯
ĠìĺĪ ê¸Ī
Ġì£¼ ìŀħ
ìĭľ ê¸°
Ġë´ ħ
Ġëŀ Į
Ġíİ¼ ì¹ł
Ġê¸°ìĪĻ ìĤ¬
ĠìĦł ìŀħ
Ġê´Ģ ë¡Ģ
Ġì²ĺ íķĺ
Ġë³¼ ê»ĺìļĶ
Ġìĸĳ ëıĦ
Ġê°Ī ì¹ĺ
Ġë¦ Ń
Ġë¶Ģ ìĨį
Ġìŀħ ì£¼ë¯¼
Ġê¹Ģ ìĸĳ
Ġìŀ¬ ìŀĳëħĦ
ĠìĤ¬ ì§Ģ
Ġëħ¸ ìĽĲ
Ġê¶Į ìĿµ
ĠëĤľ ëıĻ
Ġê¸ī ì¦Ŀ
ĠìĽĮ íĦ°
Ġë°Ģ ì°©
ê¿Ī ì¹ĺ
Ġë¡ľìĬ¤ ì¿¨
Ġì§Ģ ì³Ĳ
Ġì¡° ì§Ĳ
Ġëī´ ì§Īëŀľëĵľ
ĠëĤ´ëł¤ ìĻĢìĦľ
Ġê°Ģ ìĻķ
ê¸° ë¶Ħ
Ġê¸° ìłĢ
ĠìĦ± ëıĻ
ĠìĻ¸ ìķķ
Ġëĸł ìĦľ
Ġê·¹ ìĭ¬
Ġë¬´ìĦľ ìĽł
ĠìĹŃ íĴį
ĠìĻ¸ íĻĺ
Ġë¶Ģíĥģëĵľ ëł¤ìļĶ
ĠìķłíĶĮ ë¦¬ì¼ĢìĿ´ìħĺ
ê° ¯
Ġìĭ¤ ì»·
Ġìľł ë°©
Ġëħ¸ íıĲë¬¼
Ġê°Ħ ìĭł
ĠíĬľ ë²Ħ
Ġìĭ¬ ê·¼
ë²Ħ ê·¸
Ġê¸Ī ê°Ĳ
Ġê·¼ ìĽĲ
ĠìŁģ ìĿ´
ê³ł ëª¨
ĠìĿĺ ìķ½
ĠíĸĪ ìĸ´ëıĦ
Ġë²ł íħĮëŀĳ
ĠëĨ¨ ëįĺ
ĠëĶľ ëłĪë§Ī
ĠìĬ¤íĶĦ ë§ģ
Ġêµ¬ ë°ķ
ĠìĦł íĽĦ
ë§Ī ë¦¬
ì¤ĳ ê¸°
Ġì¤ĳìķĻ ìĿ¼ë³´
Ģ ëĵĿ
ì§Ģ ëıĦ
Ġë§¤ ëıĦ
Ġëı¼ìķ¼ ì§Ģ
Ġì½© íĮ¥
Ġê±´ì¶ķ ë¬¼
Ġë¬´ëĦĪ ì¡Į
Ġìĺ¤íĶĦ ëĿ¼ìĿ¸
Ġë°Ģìĸ´ ë¶ĻìĿ´
Ġì¹ľìĿ¼ íĮĮ
ĠìĿ´ ì§ĳíĬ¸
ĠìļĶ ë¬¼
ĠìļĶ ë§ī
Ġìŀĺ ìĥĿê¸´
ĠëģĿ ëĥĪ
Ġë¹¨ ê°ľ
ĠíıĲ ìķĶ
ìķ¡ ìħĺ
Ġë§¨ ëĵ¤
ĠëĲľìŀ¥ ì°Įê°ľ
Ġê¹ĢëĤ¨ êµŃ
Ġê° ¯
Ġìłķ ìŀ¥
ĠìĦ± ê²½
Ġë°ķ ìŀĲ
Ġë§ī ë§ī
ĠëŀŃ íĤ¹
Ġë°ķìľł ì²ľ
ĠëĬĲëĭ· ìĹĨìĿ´
Ġì ¨
Ġë¡ľ ê³ł
Ġë¶Ħ ëŀĢ
ĠìĦł ëıĦ
ĠíĨµ ìĺģ
ĠíĻĺ ìľ¨
Ġê¸Ģ ìĵ°ê¸°
Ġê°ĢìĬ´ ìĤ´
Ġê³µê¸° ìĹħ
ĠëĮĢ ìĹŃ
ìĽ ¬
Ġë¹Ħ ëĪĦ
ìĨĮ ê¸Ī
Ġìĺģ ëĵ±
Ġëĭ¬ ìĿ¸
Ġê´Ģëł¨ ìŀĲ
Ġë¯¿ ê¸°
ĠíĦ° ë¯¸
ĠëĲĺ íĴĢìĿ´
ĠìĹ° íĥĦ
Ġë°± ì¢ħìĽĲ
ĠëĪĦ ëªħ
Ġì¹ĺ ìķĪ
ĠíĴĢ ìĿ´
Ġë¶Ģ íĨµëł¹
ĠìĹ¬ ìŀĶ
Ġì¤ĳ ì¦Ŀ
ĠìĹ° ìĨĮ
Ġë°ķ ì°¨
Ġê³ĦìĹ´ ìĤ¬
ĠìĿ¼ìłľ íŀĪ
Ġë¶Ħ ê¶Į
Ġë°Ķ ê°Ģì§Ģ
Ġìľł ë³´
Ġìŀ¥ ìľ¤ìłķ
Ġì§ģ ì±ħ
ĠìłĪ ìĹ¬
ìĪľ íĻĺ
ìĹ¼ ìŀ¥
íŀĮ ëĭ¤
Ġë¬´ì§Ģ íķĺ
Ġêº¼ë ĥĪ
Ġê³ł ê±¸
Ġì£¼ ìĽĮ
ĠìĦ± ë³Ħ
ĠìĬ¤ íĦ°
Ġë¶Ī ìĸ´
ĠíĹĪ ìĪł
Ġëĵ¤ëł¤ ì£¼
ê·¸ ë£¹
Ġëĭ¹ ìĤ¬
ĠìłĪ ê°Ĳ
ĠìĿĳ ì§ķ
Ġì« ĳ
ĠìĤ¬ê°ģ ì§ĢëĮĢ
Ġíķľ ìĺ¥
ĠìłĦ íĺĦ
Ġì§Ī íĥĢ
ĠíĹĪ êµ¬
ì¦Ī ëĭĪ
ĠìĹ¬ìŃ Ļ
Ġë¬¼ìĸ´ ë´Ĳìķ¼
Ġ9 0
ĠíĮ¨ëŁ¬ ëĶĶ
Ġìĸ´ ìĿĺ
ĠìĤ¬ ìĪĺ
Ġë§Ī ë¸Ķ
ĠëĿ¼ëĬĶ ëį°
ê³Ħ ìĦł
íĺ¸ íħĶ
Ġíı¬ ì§Ģ
ĠëĨĴ ìĿ¼
ìķĦëĭĪ ìĬ¤íĬ¸
Ġ201 7
ĠíķĺìĿ´ ëĿ¼ìĿ´íĬ¸
Ġëļ± ëļ±
Ġìİ Ī
ĠìĿ´ ë¦ı
Ġëĭ¤ ìł¸
ë¶ ĵ
Ġë¹Ħ ìĦł
ìĦł ë°°
ĠëıĮ ëł¸
ìĿ¼ë °ĺ
Ġì§¤ ëĿ¼
1 5
Ġíķ´ ë´ĲëıĦ
ĠìĿ¼ ìłĦ
Ġë¶Ģ ëĶĶ
Ġê´Ģ ìĥģ
Ġë¨¹ íŀĪ
Ġíĥľìĸĳ ê´ĳ
Ġì±ĶíĶ¼ ìĸ¸
Ġëĭ¤ ëįĶëĿ¼
Ġìłķ ëĳĲ
Ġê·¸ëŁ°ëį° ìļĶ
íĹ ¨
ëĤł ìĶ¨
Ġìº Ħ
íıī ìĨĮ
ìķĦëĭĪ ìķ¼
ĠëłĮ ì¦Ī
ĠìĤ¬ ë°©
Ġê±´ ëĦ
Ġê²° ìŀ¬
Ġë°° ê¸°
Ġë°° ìŀĦ
Ġì§ģ ì§Ħ
Ġë°ľìĤ¬ ì²´
Ġë§¤ìļ´ ë§Ľ
Ġë¶Īê±° ì§Ħ
ĠìĨĮ ìŀĲ
ĠìĹ° ìłķ
Ġì°¨ ì¢ħ
Ġë°ľ ê°ĢëĿ½
ìĽĶ ìĦ¸
Ġìĥī ìĨĮ
ĠìĦĿ ë¥ĺ
Ġë¬´ìŀĳ ìłķ
ĠíĽĦì¿ł ìĭľë§Ī
Ġìľł ìĹĲìĬ¤
ĠíķĻ ìĪł
Ġíĳľ ìłģ
ĠìĬ¤ëŁ¬ ìļ°
Ġë¹ĦìĦľ ìĭ¤
Ġë¦¬ìĦľ ì¹ĺ
Ġë Ģ
ëĭ¤ ë°ľ
Ġìĭľ êµŃ
ĠìĦľ ì¤Ģ
ëŁ¬ ê¸°
ë¶Ħ íŀĪ
ĠëıĻ íĺĦ
ëĿ¼ë ħ¸
Ġì°¸ ìľ¼
ĠìĨĮëĵĿ ìĦ¸
ĠìĬ¤íĬ¸ëĿ¼ ìĿ´íģ¬
ĠëĤ´ ì«ĵ
ĠíĥĢ ìĤ´
ĠíĻį ë¬¸
Ġë§¹ ìĦ¸
ĠíĪŃ íĪŃ
Ġìĺ ´
ĠìĿĺ ìłķ
ìľ ½
ê´Ģ ë¦¬
Ġë°° ê¼½
Ġë¶ģ ë¶Ģ
Ġê°ģ íķĺ
ĠëģĦ ì§ĳ
ĠìĤ¬ ëĭ¹
Ġë³´ ìłĦ
ĠìłĦ ìķ¡
ĠìĦł ë¹Ħ
Ġë¯¸ ë¥´
Ġì²ĺ ìĨĮ
Ġìķŀ ìĦ¸
Ġìĺ¨ ì²ľ
ĠëĤĺìĿ´ íĬ¸
ĠìļĶ ê°ķ
Ġì¡° ëł¥
ĠìĹ° íĺ¸
Ġìĸ¸ ëľ»
Ġëª° ì¹´
Ġë°ĽìķĦëĵ¤ ìĿ¸
Ġë¬´ëĦĪ ìł¸
ĳ Ķ
ĠëįĶ ëįķ
Ġë¹Ħ ê²ģ
ĠëĳĲ ë¦¬
Ġëħ¸ ë¦°
Ġì½Ķ ì½Ķ
Ġëĭ¤ëħĢ ìĻĢ
Ġê¶Įëł¥ ìŀĲ
Ġë°°ëĭ¬ ë¶Ģ
ì« Ħ
ĠìĿ´ ìĬ¤íĬ¸
Ġíĺ ¼ëĤ´
Ġëĭ¬ ëĿ¼ë¶Ļ
Ġìĸĳ ìłķ
ĠìĨį ìĦ±
ëįĶ ë¶Ī
Ġíľĺ ê²½
ĠìĦ¸íĥģ ê¸°
Ġë¬¸ìł ŃëĭĪëĭ¤
ĠìŀĲ ìļĶ
Ġìŀ¬ ëŀĺ
ì½ľ ë¦¬
ĠëĦĺ ê¸´
ĠìŀĦ ìļ©
íĥĿ ìĭľ
ì½ ķ
ì²ĺ ë¶Ħ
Ġì«ĵ ìķĦëĤ´
Ġê° ¸
ĠíĻĶ ìĤ¬
Ġì§ģ ê²°
ĠìĪĻ ì£¼
Ġë²Ĺ ìĸ´ëĤł
ĠìĿ´íĺĦ ì¢ħ
ĠìĿ¸ ëĭ¨
ĠìķĪ ëª©
ĠìĨĮ ëĤĺë¬´
Ġë°Ľ ëĵ¤
Ġìŀ¥ ë³ĳ
Ġë¬¸ìłľ ì§Ģ
Ġë°ķ ë³ĳ
Ġë¬¼ ì²´
ĠìĭĿ ë¹µ
ĠíĮĮ ìĨĲ
ĠìĨĮë¦¬ ìķ¼
ĠìĿ´ëĿ¼ë ĳĲ
ĠìķĮìķĦ ëĤ´
ĠìĭľíĤ¬ ê¹Į
ĠìĿĮëª¨ ë¡ł
Ġê±° ëĬĲë¦¬
Ġê¸° ìķĦ
ĠìĹ° ìľł
Ġë§ŀ íĺĢ
ê³µ ìłķ
Ġë¦¬ ëĵľ
Ġëŀĺ ëĬĶ
Ġë§ ´
Ġíķľ ìķ½
ĠíĶ¼ ìķĦëĭĪìĬ¤íĬ¸
ĠìĦ¤ ëĤł
ëĭ´ ëĭ¹
ĠëĴ¤ ìł¸
Ġë²¨ ë²³
ĠìĦľìŀ¥ íĽĪ
ĠìŀĲ ìķĦëĤ´
Ġë¡ľ íİĮ
ĠìļĶ ëĮĢ
Ġìĭł ìŀĳ
Ġê±¸ ìĤ¬
ë£¨ ëĤĺ
ĠëĴ¤ íĨµìĪĺ
Ġíķ´ìĻ¸ ìĹ¬íĸī
ĠëıĦ ëıĦ
ĠëĤ´ ëŀĢ
Ġëħ¸ ë¥´
Ġë¶Ī ë³µ
ĠëĪĦêµ° ëį°
Ġë¬¼ëł¤ ë°Ľ
ĠìĺĪ ê²¬
Ġë¶Ħ ìĪĺ
Ġì¤ĳ ë¶Ģ
ì²´ ìĸ´
ĠíĻį ê³łì¶Ķ
ĠìĨĮìĿ´ ê¹Į
Ġë½Ĳ ëĤ´
ĠêµŃ ê³µ
Ġíĸ¥ íĸĪ
ê¿ į
ĠíĹ¤ ìĿ´
ĠìĦ±ìłģ íĳľ
ì»¤ ëħķ
íıŃ íĴį
Ġì½ľ ëĿ¼ë³´
ĠíĮ© ìĬ¤
Ġë¹ĦíĬ¸ ì½ĶìĿ¸
Ġì»¨ìĦ¤ íĮħ
ìĸ´ ìĸ´
íĬ¸ ëŀĻ
Ġìŀ¥ ë³´ê³ł
Ġìĸ¼ë £©
ëľ ©ìĿ´
ĠìĿ´ìĸ´ ì§ĳëĭĪëĭ¤
Ġì»¤íĶ¼ ìĪį
Ġë°©ì§Ģ ë²ķ
Ġì¶©ì²Ń ëıĦ
ĠìŀĲ ì·¨
Ġìĺ¤ ìĭł
Ġìĥģ ìĿĳ
Ġê²½ íĺĳ
Ġê¹Ģ ìĿĺ
ë¦° ëį°
Ġê´ Ħ
ĠëģĿ ìŀ¥
Ġë¦½ ìĬ¤íĭ±
ëŀŃ ìĿ´
ëıĦ íĺĦ
ĠëıĻ êµŃ
ê³µ ìĤ¬
Ġë¦¬ ì¡°
ĠëĬĳ ëĮĢ
ĠíĸĪ ìľ¼ë©°
ĠìļĶ ë¯¸
Ġë¬´ ëªħ
êµ° ìĤ¬
Ġì°į íĺĢ
Ġê³¤ íĺ¹
ë» ĳ
ìĿ´ íĽĦ
Ġê³µ ê³¼
Ġê³µ ëŀµ
Ġë°± ì¡°
Ġì§Ŀ ìĤ¬ëŀĳ
ĠíĶĦë¦¬ ë¯¸
Ġê³µìĤ° ëĭ¹
ĠìĿ´ ì²´
Ġíķľ ìļ°
Ġìłķ ìŀ¬
Ġíģ´ ë¡ľ
Ġëķħ êµ´
Ġìłķë¥ĺ ìŀ¥
ħ ìĿ´
ĠìķĪ ë¶Ģ
Ġë´ ¬
Ġíı Ī
Ġì²Ń êµŃìŀ¥
Ġíĳľ ìłĪ
ìĸ´ë ĥĪ
Ġì°į íŀĪ
ĠíĹĮ íĭ°
ë¶Ħëªħ íŀĪ
ĠìĿ´ ì²ł
Ġìĸ´ ëĭ¤
Ġ~ ~
ëĤ´ ëł¤
Ġë°© ì¹´
Ġì²Ń íķĺ
ĠìĤ° ëĭ¤ê³ł
ĠëĤĺìĿ´ ëĭ¤
Ġë¸ĮëĿ¼ ìļ´
ĠëĶ± ì§Ģ
Ġë¯ Ģë¡ľ
ĠìĿ´ìĸ¸ ì£¼
ĠìĿ´ ìŀ¥
Ġíķľ ëªħ
Ġëħ¸ íģ¬
Ġëį° ì³Ĳ
Ġìŀ¬ íĻľ
íĥľ ìŀĲ
ĠìĨĮê°ľ íĮħ
Ġëĭ¤ëħĢ ìĺ¨
ĠìĤ´ìķĦ ìĺ¤
Ġê³¼ë°ĺ ìĪĺ
ĠìĿ´ ìķĪ
ĠìĹ¬ íĮĮ
Ġê³µ íĻ©
Ġë°Ķ ë¦¬
ìŀ¬ ìĿ¸
Ġë§Ŀ ìĸ¸
ĠëĵľëŁ¬ ëĤł
Ġëģĵ ìĿ¸
ĠìĿ´ ìĺ¨
ĠìĪĺ ìĦł
Ġë°Ķ ëĶĶ
ìĿĢ ê²½
Ġìłķì¹ĺ ë¶Ģ
íĺľ êµĲ
ĠíĶĮ ëŀĺ
Ġìļ¸ ëł¤
Ġìľ¼ìĭł ì§Ģ
ĠìĭĿìļ© ìľł
n ame
Ġìĭľ ìĻĦ
ê°Ģ ë°©
Ġëł¤ ëĭĪ
ĠëĴ¤ ëĶ°ëĿ¼
Ġë²ł íĴĢ
Ġì¹¨ ë²Ķ
Ġë¶Ģëĵľ ëŁ¬ìĽĮ
ĠìłľìĿ´ íĭ°
Ġìĸ¼ë§Į íģ¼
ĠìĤ´ê·ł ìłľ
ĠìĤ¬ íķĻ
Ġê³µ ê´Ģ
ĠìľĦ íĥģ
ìĨĮ ìĦľ
Ġìļ© ëŁī
ĠìĦ¼ íĥĢ
ĠíĶ¼ëĤ ľ
ĠìĿĺ ì¤ĳ
Ġë§Ī ë£¨
ĠìķĮ ì½ľ
ĠëĽ° ì³Ĳ
ëĮĢíĳľ ìłľ
ĠíĤ¬ë¡ľ ê·¸ëŀ¨
Ġê³Ħ ìĬ¹
Ġê°ľ ì¡°
ĠêµĲ ëĤ´
ìĥĪ ë¡ľìļ´
ĠëĦĵ íĺĢ
Ġìĭľ ìķĪ
ìĤ¬ ë¦¬
ĠìłĦ ë²Ķ
Ġê²½ ê³¼
Ġë°ĺ íķĺ
ĠíĺĦ íĥľ
êµĲ ëıĻ
Ġì¹¼ ì§ĳ
Ġíİľ ìĬ¤
Ġê³łìĭľ ìĽĲ
ĠìłĪëıĦ ë²Ķ
Ġê·¸ ê¹Ĳ
Ġë³´ ìŀĦ
ĠíķĻ ê³Ħ
ê²½ ë¯¼
ĠëĤł ëł¸
ĠíĮĮ ì¶ľ
ĠìĻ¸ íĻĶ
ĠìĿ´ëŁ¬ ìĿ´ëŁ¬
ĠëŀĢ ëĭ¤
ĠíĻį ìĪĺ
Ġíķľëĭ¤ë©´ ìĦľ
Ġì²łíķĻ ìŀĲ
Ġì°Ķ ëŁ¬
Ġëª¨ëĭĪíĦ° ë§ģ
Ġíķłë¨¸ ëĭĺ
ĠìŀĲ ìľĦ
Ġì£¼ ìĸ´ì§Ģ
ĠíĨ °
ĠìĹ°ì£¼ ìŀĲ
ĠìĿ´êµŃ ì¢ħ
Ġëĭ¹ ê²¨
ìĿĢ ìĥī
ĠëĦĪ ë¨¸
ĠìĬ¤ íĨ¤
ĠíĿĲ íĬ¸
Ġê³ł íĴĪ
ìĿĮ ìĭĿ
Ġì¹´ íĴĢ
íĺĪ ì¦Ŀ
Ġìĸ´ íĶĮë¦¬ì¼ĢìĿ´ìħĺ
ìĦľ ìķ¼
Ġë¶Ģ ì¹ĺ
Ġìŀ¬ ë²Ķ
ĠíĺĦ ì¶©
âĢ ľ
íıī ê°Ģ
ĠíĴį ê¸°
Ġë¹Ħë¡Ģ ëĮĢíĳľìłľ
Ġë¶Ģ ìľł
ĠìĶ °
ìĭĿ ìĤ¬
Ġë°ĺ ì¹Ļ
Ġì¶ķ ë³µ
Ġìĵ´ ëĭ¤ê³ł
Ġìłķê°ľ íĬ¹ìľĦ
Ġëħ¸ ëŀľ
Ġë§Ľ ê¹Ķ
Ġê²© ëł¬
Ġ201 6
Ġìĺģëĵ± íı¬
Ġê·¸ ê²ģëĭĪëĭ¤
ì§Ģ ë¶Ģ
Ġë¹Ħ ìķĦ
ĠìķĦìĿ´ ëŁ¬
Ġëĵ± ê·¹
ê¹ ģëĭĪê¹Į
Ġë¬¼ë ¥ĺ
Ġì²Ļ ê²°
Ġíľĺ ëĳĲë¥´
ŀ ĳ
ê²Į ìŀĦ
ĠìĿ¸ ìľĦ
Ġìĭľ ë
Ġìļ° ìĽĶ
ë¥ µ
Ġìľł ì´Ŀ
ë¥¸ ìŀĲ
ì§Ī ëŁ¬
Ġì¶© ëıĻ
ĠíĿĲ ëŃĩ
ĠìŀĲì¹ĺ êµ¬
Ġê¸°ìļ´ ì°¬
Ġìŀ¥ìĿ¸ ìĸ´ë¥¸
ĠëĮĢ ë£¨
ì§ ļ
ĠëıĻ ëªħ
ĠìĨĲ ìī½
ĠëłĪ ìĿ¸
Ġëĸłìĺ¬ ëł¤
Ġê¹Ģê¸° ìĭĿ
ĠìĬ¤íĭ° ë¸Ĳ
ĠìĹĨìķ ¨
Ġìĭľ ëł¥
ìĭł ë¬¸
Ġê¹Ģ ìľł
Ġê±¸ ë§ŀ
ĠìĤ´ ê¹Į
êµĲ ìĤ¬
Ġì²Ń ë°Ķì§Ģ
ĠíĻį ì§Ħìĺģ
ëĬĲ ëĭĺ
ĠëĮĢìŀ¥ êµ°
ĠìĤŃ ë°ľ
ĠìĤ¬ ìŀĦ
ĠëĤĺ ìģł
ĠìĿ¸ ìĸĳ
Ġìķł íĺ¸
ĠìĻķ ë¹Ħ
ĠìĹĺ íĶ¼
Ġì ģ
ĠìĿ´ íļ¨
ê·¸ ëĦ¤
Ġëĭ¹ íķ´ìĦľ
Ġì§Ħ íĺ¸
Ġë°ĺ ê°Ĳ
ĠìĦ¤ ìĿ¸ê·Ģ
Ġíľĺ ë°ľ
Ġìŀĩ ëĶ°ëĿ¼
Ġë¬´ëĦĪ ì§Ħ
Ġê±°ì³Ĳ ìķ¼
Ġìµľì§Ħ ë´ī
Ġí į½
Ġê²½ ê°ģ
ĠìľĦ ìª½
ĠìĹ´ ë¬´
Ġì²Ń ê³Ħ
ĠëĤ¨ê²½ íķĦ
ĠìĺĪ ìĹĲ
ĠëĲĺ ìĤ´
ëĮĢ ìĤ¬
Ġë°ľ ëıĻ
Ġìµľ ìļ°ìĦł
ĠìĨĲ ê¸¸
ĠëĦĺìĸ´ ìĦ°
Ġë¡ł ê°Ģ
ĠíĺĦëĮĢ ìĿ¸
Ġì¦Ĳê±° ìĽł
Ġëľ¨ê±° ìĽł
Ġìĺ¤ ë¹¤
Ġë¶Ī íĥĢ
Ġë°ĺ ìª½
Ġê°ķ ë°ķ
ĠêµŃë¬´ ë¶Ģ
Ġíķĺë²Ħ ëĵľ
Ġê°Ģì°½ ëł¥
o p
Ġì¤ĳ ìłĦ
Ġê³µ ìŀĲ
Ġë°© ê³¼
Ġë¶Ī ë¦°
Ġíķľëĭ¤ ë©°
ĠìĦ¤ ëłĺ
Ġíĥľ ìĦ¸
ĠìĽĶ ê°Ħ
Ġê°Ģìł¸ ê°Ħ
Ġì°¸ê°Ģ ìŀĲ
Ġê°ľë§ī ìĭĿ
ĠëĵľëĤĺ ëĵ¤
Ġíķĺ ì¤Ģ
Ġë¶Ħ ì£¼
ë¹ ħ
Ġíĳľ ë³¸
Ġëıħ ìĦ±
ĠëĤ´ëħĦ ëıĦ
Ġì±Ļê²¨ ìķ¼
Ġë¸Įë¡ľ ì½ľë¦¬
ĠíĶĦë¡ľíĮĮ ìĿ¼ëŁ¬
Ġê²½ ìķħ
Ġëª¸ ìĤ´
Ġìĸ´ì¨Į ê±°ëĤĺ
ĠìĹĲìĿ´ ìĹĲìĬ¤
ĠëĮĢ ê²Ģ
ĠìĬ¤ íı°
ĠíĬ¹ ì¢ħ
ĠìķĶ ìĭľ
ì£¼ë ¡ľ
Ġì¡°ê²½ íĥľ
Ġë¬µë¬µ íŀĪ
Ġë ¾°
Ġê±° ëĳ¬
Ġì¤ĳ ë³µ
Ġë¬´ ë¡Ģ
Ġë°© ë©´
ĠíĻĶ ë¶Ħ
Ġëªħ ëıĻ
Ġë³¸ íĨł
Ġì¹ĺ ë¥¼
Ġíı¬ íģ¬
Ġê¸´ ë°Ģ
Ġê¸ī ë³Ģ
Ġê´Ģë¦¬ ë¹Ħ
ê¿ Ģ
ë¿ Ķ
Ġìłķ íķł
ĠìļĶ ëł¹
Ġë¬´ ëĬ¬
ê³µ ì¦Ŀ
Ġìĸĳ ì£¼
ĠíĶ¼ë ĵľ
ëķ Ģ
Ġíķ« ëĿ¼ìĿ¸
íķĺìĹ¬ íĬ¼
ìļĶ ê±°
ĠìĺĪ ìĬ¤
ì¹ĺ ë¯¸
Ġëĭ¤ëĭĪ ìĹĺ
íĽĪ ìķĦ
Ġëģĵ ìĿ¼
ĠëĳĲëł¤ ìĽĮíķĺ
Ĩ Ģ
Ġë¬´ ì§Ħ
ê³Ħ íĥķ
ĠíĥĿ íķĺ
Ġê³± íķĺ
ë± ĥ
ë¶ĢìĿ¸ ê³¼
Ġë©į ì²Ń
Ġë¶Īê±° ì¡Į
ë¦¼ë ıĮ
Ġì§Ģ ìľ¼
ìĿ¸ ìĺģ
Ġëª¨ ëŀĢ
Ġê´Ģ ìłĦ
Ġë°ľ ëŀĦ
Ġìĭ¬ ìķ¼
ĠìłĲìłĲ ìłĲ
ĠìķĦìķĦ ìķĦ
Ġë¶ķ ìĸ´
Ġëĭ¤ìĿ´ìķĦ ëª¬ëĵľ
ë§Į ëĤĺ
ë§Ī ëĭ¤
ê²¬ ë¡Ģ
Ġì¼Ģ ìĿµ
ĠìĬ¤ë¬¼ ìĦ¸
Ġìľłìŀ¬ ìĦĿ
ĠëĮĢ ëł¹
ĠìĹ¬ ìļ´
ĠëįĶ ëŁ½
Ġìķ¼ ê¸°
ë¹ Ĺ
ĠìĹħ ë¡ľëĵľ
ì½Ķ ëĵľ
Ġëĵ¤ ìľ¼ë
ëıĦ ë¦¬
Ġìŀħ íŀĪ
ìĪĺ ìłķ
ĠìķĮ ë¦´
ĠíĮĶ ëł¸
Ġì²´ ìĿ¸
ĠëĶ°ëĿ¼ ìĻĢ
Ġì½Ķ ëĶ©
Ġê³¨ ìłĪ
Ġíľł ì²´ìĸ´
Ġë¶Ģ ëħĢ
Ġë¬¸ ì²´
ĠìĦł ê°Ģ
ì§Ħ ì§Ħ
Ġë³¸ ëªħ
ĠëĪĦ ìĪĺ
íĤ¤ íį¼
ĠíĽ ĳ
ê¾¸ ë¯¸
ĠìĹł ìķĮ
Ġë²Ĺ ìĸ´ëĤľ
Ġê¹ľ ê¹ľ
ì£¼ìĿ¸ ê³µ
ê³ł ëŀĺ
ë§ ¡
ĠìĹ¬ ëł¥
Ġê°ľ ìĪĺ
ĠëĳĲ ëĵľë¦¬
Ġìª½ ì§Ģ
ë¸Ķ ë¦¿
ĠìĤ¬ ìĸĳ
ĠìĪĺ ìĹ¼
Ġì¡° ìĿ´
Ġë¯¸ ìļ´
Ġë¶Ī ì°¸
ĠìłĦë¬¸ ìĿĺ
Ġëį© ì¹ĺ
Ġìĸ´ëĳ ¡
Ġê³ł ë¥¸
ìĭ «
Ġìŀħ ëĭ´
ĠìĬ¤ ì³Ĳ
Ġë© §
ê²½ ìĪĺ
ĠíķŃ ë³µ
ĠëĪĮ ëłĢ
Ġë¶Ļìŀ¡ íĺĶ
ëĭ¤ ê³µì¦Ŀ
ĠìĻ ¼ìĨĲ
Ġê³¼ ìĻ¸
Ġìĺģ ë¯¸
Ġìĺģ ìĦ¸
Ġê±¸ ë¦¼ëıĮ
Ġë¬¼ ìľ¼
ĠëĬ¥ëł¥ ìŀĲ
Ġë¶Ģ ì²ľ
Ġë§Ĳ ëł¸
Ġëĭ¤ë¥¸ ëį°
ĠìħĶ ì¸ł
Ġë³µ ìĭ±
Ġìķī íĺĢ
ĠëĤłëĿ¼ ê°Ģ
ĠìĿ´ìĿĺ ë°©
ĠìĺĪ ì§Ħ
Ġì¦ ĺ
Ġì´Ī ìĹ°
ĠìĤ¬ìĹħ ì£¼
ĠëĽ ¸
Ġì´ī ë°ľ
Ġë¬´ê±° ìĽĮ
ĠìĿ´ ìłģ
Ġê·¸ë Ķ
ìķĦ ëŀĺ
ĠìłĦ ëĮĢ
ĠìłĦ íķł
Ġì²ĺ ìļ°
Ġëĵ± êµĲ
Ġ2 6
Ġê´ĳ ê²½
Ġì²¨ ìĺĪ
ĠìĨįìĥģ íķ´
Ġìĥģ ê¸Ī
Ġë¬¸ ë¬´
Ġì¶ °
ĠëĬĲ ìĿ´
Ġë¶ģ ìĨĮë¦¬
ĠíĻķ ì¶©
Ġë©Ķ íĥĢ
Ġëĭ¤ëħĢ ìķ¼
Ġìķ¡ ìłĵ
ĠìĤ¬ìłķ ê´Ģ
íŀĺ ëĵ¤
ìŀĲëıĻ ì°¨
ĠìŀĲ ìĿ´
Ġë¶Ģ ëł¤
ĠìĦľ ë¸Į
Ġëĭ¹ ìłķ
Ġë¹Ħ ìĽĥ
Ġì§Ħ íĿ¥
Ġìľł ë¡ľ
Ġê±¸ë¦´ ê¹ĮìļĶ
Ġë· Ķ
ĠìĦľ ìłģ
Ġë¬´ ê¶ģíĻĶ
ĠëĳĲ ê»į
Ġë°ĺ íķŃ
ëª¨ ìĬ¤
ĠìĭĿ ìĬ¤
ĠìķĦê¹Į ìļ´
Ġëħ¼ ìĦ¤
Ġë°Ģ íķŃ
Ġíĩ´ ì¶ľ
Ġ0 2
Ġê¹ĢëıĻ ìĹ°
ĠëĤ´ ìĭľê²½
Ġì¶ľ ìĦ¸
Ġíķ© ì°¸
Ġì¯ Ķ
Ġê°Ŀ ìĭ¤
Ġë¡ľëĵľ ë§µ
Ġíķľ íĮĮ
ê°Ģ ëģĶ
ĠìŀĲ ì±ħ
Ġë¡ľ ëĺĲ
ìĥģ ìĪĺ
Ġìĥģ ìĭľ
ĠìľĦ ìĦł
ĠëĶ ¥
ĠìĦ± ìķħ
ĠìĬ¤ ìľĻ
ĠíĶ¼ ì¼ĢìĿ´
Ġê°ģ ìĿ¸
ĠìĨ¡ íĺľêµĲ
Ġìķħ ìĹŃ
ê¹Ģ ìĹĨìĿ´
ĠíĥĲ íĹĺ
Ġê°Ģë¡ľ ë§ī
Ġìłĵ ê°Ī
ĠëģĮìĸ´ëĵ¤ ìĿ´
ê°Ģ ìĿĦ
Ġìŀł ë³µ
Ġë³µ íĮĲ
ĠìĦłìŀħ ê²¬
¬ ¼ë
Ġê²Į ìĿ´
ĠìķĪ ë¯¼ìĦĿ
Ġì¹ ©ëĭĪëĭ¤
Ġë°ķ ë¯¸
Ġìĺ¨ ìĪĺ
Ġìĺ¨ ìłĦ
Ġê´ľ íķľ
Ġì°½ êµ¬
Ġì¡°ê³Ħ ìĤ¬
Ġíķ´ ì¤Ħ
ëıĦ ë¡ľ
íķ´ ìĻ¸
Ġë°ķ ìĿĢ
Ġëĭ¬ ë¹Ľ
Ġì¶ľ íĺĪ
Ġìŀł ìĭ¤
Ġíĭ° ìĹĲìĬ¤
ĠëıĻìķĦ ìĭľìķĦ
ĠìĺĪê³ł íİ¸
Ġê³¨ëª© ê¸¸
Ġíĥľê¶Į ëıĦ
Ġê¹Ģ ìłľ
Ġê»ĺ ìļĶ
ĠìĿĳ ìļ©
ëĭ¬ ë¦¬
Ġë»Ķ íķĺ
Ġê°ľíĹĮ ìķĪ
ĠíķĢ ëŀĢëĵľ
ĠíĺĦíĸī ë²ķ
Ġíķľ ìŀħ
ĠìĿ¼ ì¡°
ìĸ ¼ë¦¬
Ġë°© íĨµ
ĠëıĻ ê²½
ìŀĦ ìĬ¤
Ġë§¤ ìĪĺ
Ġê³Ħìĭł ëį°ìļĶ
íľ´ ìĿ¼
Ġê½ģ ê½ģ
Ġíķ´ìļ´ ëĮĢ
Ġëĭ¹ êµ¬
Ġë¹Ħ ëªħ
Ġë¬´ íľ¼
Ġì²Ń ëŁī
Ġíı¬ ê²©
Ġëĭ´ ëĭ´
Ġíĥľ ë¸Ķë¦¿
Ġê¸ī ê¸°ìķ¼
Ġíı´ ëŀĢëĵľ
Ġë·° íĭ°
Ġìĭľ ìĭĿ
ê¸Ī ë´ī
ĠìĦ¸ ìĦ¸
ĠìĶ¨ íĭ°
Ġê¹Ģ ë§Į
Ġìĺ· ìŀ¥
ĠìĹ¼ ì¹ĺ
Ġì£¼ë¬´ ìĦ¸ìļĶ
Ġê²°ìĿĺ ìķĪ
ĠëĥīëıĻ ìĭ¤
ĠìĿ´ ë¹¨
ĠëĮĢ ëĬĶ
Ġê¸° ìłĪ
ë¬´ ì§Ħ
Ġê³µ ìĺĪ
ëĦ Ľ
Ġë°ľ ìķĶ
ëĦ¤ ìŀĲ
Ġê³¨ ëĭ¤ê³µì¦Ŀ
Ġìľ¼ìĭł ê°Ģ
ĠëĬĶ ëĭ¨
Ġê³ł ê²Į
Ġë³´ ëĭµ
ĠëķĮ ë¦°
ê·¸ ë¦ĩ
Ġì¤ĳ êµ¬
Ġë¹Ħ íĺķ
Ġìĺµ ìĨĮìĦľ
ĠìĬ¤íĥ Ń
Ġê¸īê²© íŀĪ
Ġë§Į ì·¨
Ġìĸ´ëĸ¤ ê°Ģ
Ġëħ¸ ëĿ¼
ĠíķĺëĤĺ ëĭĺ
Ġì°¸ ëĤĺ
ĠëĤł ìĶ¬
Ġì¹´ ìĿ´
Ġëĭ¬ëł¤ ëĵ¤
Ġíİ¼ì³Ĳ ì§Ī
Ġìĺ¤ìĤ¬ ì¹´
Ġê±° ì¹¨
ĠëĤĺ íĽĪìķĦ
ìĤ¬ ëıĪ
ëŁ¬ ë¯¸
ĠìĤ° íĥĢ
Ġíĥľ ìĹ°
Ġê´Ģê³Ħ ìĹĨìĿ´
ĠíıĲ ìĹħ
ì¶© íĹĮ
ĠìĤ¬ ì±Ħ
Ġë§Į íķľ
Ġëª¨ ì§Ħ
Ġë¯¸ ë¯¸
Ġê°ķ ìĦľ
Ġê°ģ ê¸°
Ġê·¹ íŀĪ
Ġì§Ģì¼ľ ë´Ĳ
Ġìľł ë¥ĺ
Ġìķł ëĿ¼
íĺĦ ìĪĺ
Ġë¹ĦìŀĲ ê¸Ī
ĠíĽĦê³Ħ ìŀĲ
Ġì§Ģ ë²ķ
ĠìłĦ ìĽĶìĦ¸
Ġë§Ī ì°°
ĠëĬĲëĥĲ ë©´
ë© ĭ
ĠìĹĲìĬ¤ ìĹł
Ġìŀ¬íĮĲ ìŀ¥
Ġê¾¸ ë¦¬
ĠëĬĲê»´ ì§Ī
ĠìĿ¼ ê±°
ĠêµŃ ë³´
ĠêµĲ íı¬
ĠìĪ ±
Ġëª¸ íĨµ
ĠëĨį ë¶Ģ
ĠìĻķ êµŃ
ĠìĦ¸íĥģ ìĨĮ
Ġìľ¤ìĥģ íĺĦ
Ġëºĳ ìĨĮëĭĪ
Ġíķ´ ë³ĳëĮĢ
ĠìĹħë¬´ ìĥģ
u v
ĠìĿ´ ì¦Ī
ĠìĿĢ ì¡°
Ġì° ¡
Ġìĥģ ì£¼
Ġë¬´ íĺĲ
ĠìķĮ ëľ°
ĠëĳĲ ê»ĺ
Ġê°Ĳ ì²Ń
Ġë°° ë¶Ħ
ĠëĤł ê¹Į
Ġíĺķ êµŃ
ê°Ĳ ëıħ
ĠíĹĪ ë¸Į
ĠìĦłìĪĺ ëĭ¨
Ġì¤¬ ìĹĪ
Ġì§Ģ ì¹Ń
Ġë¶Ģ ìĿĺ
Ġê¹Ģ íĻį
Ġìŀ¬ ë¬´
ĠìĪł ìŀĲë¦¬
Ġê³łë§Ī ìĽł
Ġíĸĩ ìĤ´
ĠíĻĶë¬¼ ì°¨
Ġì§Ģ ëģĶ
Ġë°ľ ê°ģ
Ġê°Ĳ ì¶°
íĺ¸ íĿ¡
ĠëĦĺ ê¸¸
íĨł ë²¤
Ġìľ¤ ì§Ģ
Ġê³¨ íĤ¤íį¼
ĠíĬĢ ê²¨
Ġëĭ¨ìĿ¼ íĮĢ
Ġê´ĳë³µ ìłĪ
Ġë¶ĪëŁ¬ìĿ¼ìľ¼ íĤ¤
ĠìķĦë²Ħ ì§Ħ
ĠìĿ´ ëŀĺëıĦ
Ġë§Ĳ ëłĪìĿ´
ìĬ¤ ëŁ¬ìļ´
Ġê²½ ëĮĢìĬ¹
Ġê¹ ¬
Ġëª° ìķĦê°Ģ
Ġëĵľë¦´ ê¹Į
ë²Į ëłĪ
Ġë°¤ ì¤ĳ
Ġì¦ī íĿ¥
Ġë¹ĦìĹĶ ëĤĺ
Ġìłķ ë¬¸
Ġìĺ¤ ê°Ķ
íĻ Ī
ĠìĦ± ê¸ī
Ġëªħ ì¾Į
ĠíĽĦ ìŀĦ
ĠëĶ° ë¥¼
íĶĦ ëłĪ
Ġì²´ íķĺ
ĠëĤĺìĻĢ ëıĦ
ĠìłĦë§Ŀ ëĮĢ
Ġê±° ìķ¡
ĠëĤĺ ê¸°
Ġê¸° ê»ı
ëŀ ¨
ĠìĦ¸ ë¹Ħ
ĠìĦł ìĦł
Ġê³Ħ íĨµ
Ġë¶Ī íĻĶ
Ġìķł ìĻĦ
Ġì¹ľ ë°Ģ
ìķĶ íĬ¼
Ġ0 5
ĠìĨĮëħĦ ëĭ¨
íĮ© íĬ¸
Ġë «
Ġëĭ¤ ìķ¼
ì£¼ íĸī
Ġì§Ħ ìļ±
Ġê°Ī ëł¤
ĠìĻĶ ëĭ¤
ĠìĪľ ëĮĢ
Ġê¸°ëħĲ ìĭĿ
Ġë¬ĺ íķĺ
ĠëłĪìĿ´ ëĶĶ
ìĥ Į
Ġìłģ íŀĮ
ĠìĦł ëľ»
ĠìĹ° ê³ł
ĠìĦ± ìĿĺ
Ġëĭ¨ ë¬¸
ĠíļĮ ìŀĲ
Ġì¹ľ ìĪĻ
ëª¨ ë¡ľ
ìłĲ ìĭ¬
Ġë²ł íĥĢ
ĠëĮĦ ëĭ¤
ĠìĿĢ ëĭī
ĠìĤ¬ ìĭľ
Ġíķ´ ìĻĶ
Ġë¶Ģ ì¶ķ
Ġê°Ĳ ì¶ķ
Ġê¸Ī ìĨį
Ġê·Ģ ê°Ģ
ëŃ Ħ
ĠìĿ´ ëĭ¤
ìł Ĭ
Ġë¹Ħ íĺ¸
Ġì§ģ ê´Ģ
Ġíį¼ ìĬ¤íĬ¸
ëĳĺ ê¸°
Ġì¦Ī ìĿĮ
ĠìľĮ ë¦¬
ë º
Ġì§Ģ ëĶĶ
Ġë§Ĳ ë¯¸
Ġë§¤ ëĵŃ
ĠíĤ¤ ì¦Ī
ĠëĶĶ ì¦ĪëĭĪ
Ġì¡Į ìľ¼ë©´
Ġë°Ģìĸ´ ëĤ´
ë±ħ ìĿ´
1 2
ê ¾
ĠìĿ´ ì°½
ĠìĹĲ ëĶĶ
ê¸° ì¡´
ĠëĦ¤ ëĨĪ
ê± ±
Ġì¤ĳ ê²¬
Ġê³µ ìļ©
Ġê°ľ ìļ´
ĠëĳĲ ëĩĮ
ê´Ģ ëł¨
ĠìĹĶ ìĹĲìĬ¤
Ġë¦ ¿
Ġë©Ī ì¶ĺ
ĠëĬĶ ì§Ħ
Ġë¬´ ëª¨
ĠìĨį íķ´
ê¹¨ ë¹Ħ
Ġê±´ì¶ķ ê°Ģ
ĠìĿ´ ë¤ĺ
ìĿ´ ìĿĺ
ĠëįĶ ìļ°
ĠíĨµ íĨµ
ë¶ģ ëıĦ
Ġëª¸ ìĭ¸ìĽĢ
ëĮĢíķľ ë¯¼êµŃ
Ġìĸ´ì§Ģ ëŁ½
Ġìłķì§Ħ ìĦĿ
Ġë¶Ģ ì°©
Ġê·¸ëŁ° ëĭ¤ê³ł
ĠìĦ¸ íĮħ
ìĺ¤ íĽĦ
ëĭ¹ ìĹ°
Ġëĵ¤ìĸ´ ìĺµëĭĪëĭ¤
Ġìĸĳ ë©´
ĠìĮį ë°©
Ġì¹´ìļ´ íĦ°
ìŀ£ ì§ĳ
ìĿ į
Ġê³ł ì¢ħ
Ġê¸° ì§Ī
ĠìĿ¼ ìĤ¬
Ġêµ¬ ë¶Ģ
Ġì§Ħ ìĹ´
ìĸ ¹
ĠìĹ° ëıĦ
ì§Ħ ë³´
Ġë§Ŀ ê³ł
ëī´ ìĬ¤
ĠíĽĶ ì³¤
Ġì¹´ìļ´ íĬ¸
Ġê¸° ìŀ¥
ĠëĲľ ëĮĢìļĶ
ĠíļĮ ìľł
ëª¨ ìħĺ
Ġìķħ ìĪľíĻĺ
ë§ĺ ëķĮ
ë¯¸ ìĺģ
ìĥĪ ë¡ľ
ĠíĦ° ëľ¨
1 8
Ġê¸° ìłĲ
Ġëį° ëª¨
ĠíĹĪ ë¬´
Ġì¹´ íĥĪë¡ľê·¸
ĠíĻĺ íķĺ
ĠíıŃ ì¹¨
ê·¸ëŁ° ê°Ģ
Ġìłĳ ê²¬
ĠìĨ¡ ì¤ĳê¸°
Ġìĸ´ëķĮ ìĦľ
ĠëķĲ ëį°
Ġë°ĺê°Ģ ìĽĮìļĶ
ĠìķĦ ìļ¸
ĠìŀĲ ë¦½
ĠìłĦ ìŀĦ
Ġìłľ ì§Ģ
Ġê³µ ìĹħ
Ġë¬´ ëĭ¹
ĠëĲľëĭ¤ ëĭĪê¹Į
ĠíıŃ ëĦĵ
Ġìĭ¬ë¦¬ ìłĦ
Ġì°¨ ì°¨
ìĪ «
Ġíĺ¸ ìĤ¬
Ġëįķ ìĪĺ
ĠìķĪëĿ½ ìĤ¬
ĠëĤ´ ê³µ
Ġê¹Į ì¹ł
ëĵľ ëłĪ
íķŃ ìĦľ
Ġì§Ģì¼ľ ë³¼
ë©° ì¹ł
ĠìĿ¼ ìĿ¸
ĠìĹ¬ ëŁ¿
Ġìµľ ìłģ
Ġëĭ¤ëħĢ ìļĶ
Ġë³¼ë ł¤
Ġì²¨ ê°Ģ
ĠìļĶìĸĳ ìĽĲ
Ġê³łíĴĪ ê²©
ĠìĿ¸ ìĺģ
ĠìĤ ¿
Ġëĵľ ëŁ¼
Ġëħ¸ ë¹Ħ
ĠíĬ¸ ë¡¯
Ġíİ ł
Ġë°Ķëŀ ¬
Ġìĭ¤ ìĥģ
Ġì§ĳ íķ©
Ġë´ī íķ©
ëĶ° ë¦¬
ìĬ¬ ê¸°
Ġë³´ íĥ
ĠìĪĺ êµ°
Ġêµ¬ ìļ°
Ġê· ĵ
Ġì§Ī ì£¼
ë°° ëĭ¬
ĠëĤ´ëł¤ ê°Ī
¼ëĤ ł
ì¢Į ìĦĿ
Ġìĵ°ëŁ¬ ì¡Į
ĠìĿ¼ìĸ´ëĤľ ëĭ¤
Ġê°ĦìłĪ íŀĪ
ĠíļĮê³ł ë¡Ŀ
Ġê³ł ëĭ¨
ĠëĿ¼ ìĺģ
ĠìĦł ìĽĲ
ĠëĶ° ëģĪ
Ġìĺ¨ ìłĦíŀĪ
ĠìłĦëĤ¨ íİ¸
Ġê³łìĨįëıĦ ë¡ľ
Ġê²½ê°ģ ìĭ¬
§ ¤
Ġê³ł íĮĮ
Ġêµ¬ ë¥´
êµ¬ ì²´
Ġë§Ī ì¹ł
Ġê¹Ģ ìļ°
ĠëıĻ ë¬¸
Ġìµľ ìŀ¥
Ġíĸī ìĪĺ
Ġìŀ¡ íŀĲ
Ġë¦¬ ì½Ķ
ë§¤ ìĿ¼
ĠìĨ¡ ìĨ¡
Ġk m
Ġëĸłìĺ¤ ë¥¸
Ġë¬´ëįĶ ìľĦ
íĺ¼ë ª¨
Ġìľł ì£¼
íĿ¬ ê²½
Ġê°Ī ìĥī
ĠìĿ´ë£¨ ìĸ´ìł¸
íķľ ìª½
Ġì¤Ħ ìĹ¬ìķ¼
ĠìĿ´ìļ© ìŀĲ
ìĦľ ë¹ĦìĬ¤
ĠìĤ¬ ëĤĺ
Ġë¬´ ë§Ī
Ġì§Ħ ë°ķ
Ġìŀĸ ëĭĪ
Ġìµľ ìļ°
Ġê°ķ ìĦ¸
ë°© íĨµ
ĠìĻ¸ ìłľ
ĠìŀĶ ìŀĶ
Ġë³´ìĿ¸ ëĭ¤ëĬĶ
ĠìĭľìĤ¬ íļĮ
Ġë²Įê¸Ī íĺķ
íĤ¤ìĬ¤ íĥĦ
ĠìĪĺ ì¶ķ
Ġêµ¬ ìĿ¸
Ġì¤ĳ íĻĺìŀĲ
Ġê¹Į ìĬ¤
Ġê¹Į ëĭŃ
ĠíĽĦ íıŃíĴį
ĠìķĦìĿ´ ìĺ¤
ì¼ Ī
Ġíĸī ìĦ¸
ĠíĻ© ìłķ
ĠëįĶëĭĪ ë§Į
ĠëĤ´ëł¤ ìķ¼
ĠìĹĲìĿ´ ìĬ¤
ĠíĴį ë¯¸
Ġì¢ĭìķĦ íĸĪ
ì§Ģ ìĿĢ
Ġì§Ħ ìľĦ
Ġì²ĺ ê°Ģ
Ġëıħ ëł¤
Ġì³Ĳ ìķ¼
Ġ0 1
Ġëĭ¨íĺ¸ ë°ķ
Ġìľ¼ë¦¬ ëĿ¼ê³ł
Ġë¨¸ë¬¼ë Ł¬
Ġìĭ«ìĸ´ íķĺ
ĠëĦ¤ê±° íĭ°ë¸Į
ĠíĶ¼ëĵľ ë°±
Ġê³ł ìĿ´
Ġëª¨ íķ¨
Ġë²ķ ëł¹
Ġíĺ¸ ìĿĺ
ĠíĬ¸ ìľĹ
Ġë²ł íĨłë²¤
Ġë©¸ ì¢ħ
Ġì´Īë¡Ŀ ìĥī
Ġì ¥´
ĠëıĦ ë¯¼
ë¬ »
Ġìŀħ ìķĪ
ĠìĦ¸ ë¦°
ĠìĨĮ ìĥĿ
ìłĦ íĺĢ
ĠìŀħëĭĪëĭ¤ ìĿ´
Ġìŀ¬ ìļ±
ë¹ł ë¥¸
Ġ201 8
ĠíĬ¸ëłĪìĿ´ ëĦĪ
ĠìĪĺ íĳľ
Ġìĥģ ìĪĺ
Ġëįĺ ì§Ī
ìĹ¬ ê³¡
Ġì§ĳ ìļĶ
Ġë§ŀ ë²ĮìĿ´
ĠíıŃ ìĨĮ
ë³ĳ ìłľ
Ġê¹Ģìłķ ìĪĻ
Ġì¢ĭìķĦ íķł
Ġë¬ĺ ì§Ģ
Ġëĭ¤ìĬ¤ ë¦¬
ĠíĹĽ ìĨĮë¦¬
ĠìķĦìĿ´ëŁ¬ ëĭĪ
ìĹ¬ê³¡ ìłĪ
o r
Ġìĭľ ë¶Ģëª¨
ê¸Ī ìĨį
ĠëįĶ ëĿ¼ëĬĶ
ê³µ ë¶Ģ
ì¢ħ ìĿ¼
Ġê·¸ë¦ ½
ĠëıĻìķĦ ìĿ¼ë³´
ĠëĽ°ìĸ´ ê°Ģ
Ġê´´ë¡Ń íŀĺ
Ġy ou
Ġìĭľ ìĨį
Ġì£¼ ì¹ĺ
Ġì£¼ ì§Ħìļ°
ĠìĦľ íĥľ
ĠìĽ ģ
Ġêµ° ì£¼
ĠíĺĪ ìłĦ
Ġëŀĺ ëĳĲ
ë²ł ë¦¬
ìķĦìĿ´ íĶ¼
ĠìķĪíĥĢê¹Į ìĽĮ
Ġëĵ¤ìľ¼ìĭľ ëĬĶ
ĠìĿ´ ëįķ
Ġì§Ģ ë¦Ħ
ĠìĺĪ ë¦¬
ëĭ¹ íŀĪ
Ġëħ¸ ë¥¸ìŀĲ
ĠíķĻ ë²Ī
ĠìŀĦ ìĤ°ë¶Ģ
íĤ ¥
Ġë°Ķê¹¥ ìª½
Ġìĸ½ íĺĢ
Ġë§ĿìĦ¤ ìĿ´
Ġìĸ´ëľ ¨
Ġìłľ ìŀĦìĬ¤
íķĻ ìŀĲ
Ġëģ ķëĭĪëĭ¤
ìĺģ ìĪĺ
Ġê¸´ ìļĶ
ĠíĹĪ ê³ł
ĠìĤ° ë¦¼
Ġê¹¨ ìķĮ
ĠíĴĪ ìľĦ
ĠëĤĻ ê´Ģ
ê²Į íĭ°
Ġê¸° ì°¬
Ġë¹Ħ ìĪĺ
Ġë°© ì¡°
Ġë¬¼ ìŀĲ
ìķĦê°Ģ ìĶ¨
Ġë¹Ħíķĺ ìĿ¸ëĵľ
ìķ¼êµ¬ ìŀ¥
ĠëĤ Ħ
ìĿ´ ìķ¼
Ġê°ľ êµ¬ë¦¬
ĠëĤ¨ ì¹ľ
Ġëªħ ëªħ
Ġë¯¼ ê²½
ìģ ©ëĭĪëĭ¤
Ġê°Ģê²© ëĮĢ
Ġíĺľ ë¹Ī
Ġíķ¸ ëĵ¤
¦ ¼
Ġê°Ģ ìħĶ
Ġë¹Ħ ë°©
Ġë¯¸ ëĤ¨
Ġë°ķ ì¤Ģ
Ġë³¼ ê±°ë¦¬
Ġìĸ´ëĬĲ ëį§
Ġìĸ´ì¨Į ê±´
ĠëĬ¦ ì¶Ķ
Ġ0 4
Ġëį§ë¶Ļ ìĿ´
ĠêµŃê³µ ë¦½
Ġê°Ģ ëŃĦ
Ġëĭ¤ ëįĶëĭĪ
ĠìĿ¸ ì¶ľ
ê·¸ ëĮĢë¡ľ
Ġìĥģ ëıĦ
íķĺ ëĭĪ
íĿ ī
Ġê·¸ë¦¬ ìĽĢ
ĠìĤ¼ ê³Ħíĥķ
ìľł ìĤ°
Ġë°ķ íķŃìĦľ
Ġê°Ħ ì§Ģ
ìłĪ ê¸°
Ġë§Ľ ìĪł
Ġìº ī
Ġê·¹ ì°¬
Ġë°ĿíĺĢ ì§Ī
Ġìļ°ì£¼ ìĦł
ĠíĦ¸ ìĸ´ëĨ
Ġë¯¼ë ħ¸
Ġë¬´ëĦĪ ì§Ī
Ġíķ´ìŀ¥ êµŃ
ë²¼ë Ŀ½
Ġë°ľìŀĲ êµŃ
ìĿ´ ëĮĢë¡ľ
ĠìķĪ ìľĦ
ĠìłĦ ì§Ģ
Ġì¹ Ļ
Ġë¬¸ ëĭ¨
ë© Ī
ĠíĻį ìĿµ
ĠìĬ¤ì¼Ģ ìĿ¼
ĠìĬ¤íı° ìĦľ
Ġì§ ĸ
ìļ° ì£¼
Ġìĭł ê°Ħ
Ġë³ĳ ìŀ¥
Ġë³´ìĿ¸ ëĭ¤ê³ł
Ġìĭłì¡° ìĸ´
Ġì· Į
¾ ħ
íķ į
ĠëĮĢ íĥĢ
ìĤ¬ ìłķ
ĠìłĦ ìłĦ
Ġë¶ģ ê·¹
Ġë¶Ļ ìĿ¼
Ġìķħ ìĿĺ
Ġë¬¼ìĸ´ ìķ¼
ĠëĤĻíķĺ ìĤ°
Ġìĺ¤ë¦¬ì§Ģ ëĦĲ
êµŃ ê°Ģ
Ġì¤ĳ ê³µ
Ġë¹Ħ ë¬´ìŀ¥
Ġë¬´ ëıĦ
Ġë²Ī ê±°
Ġì°¨ íĥľíĺĦ
Ġíİ¸ ê³¡
Ġìį¨ ë¨¹
Ġì§Ĳ ìĬ¹
ĠìĶ¹ íŀĪ
Ġìĺ¤ ëĿ¼ë²ĦëĭĪ
ĠíĹ¤ ì³Ĳ
ìĵ ±
Ġë³¼ë ¥¨
ĠìĦłë³´ ìĿ¸
Ġìĸ´ì§¸ ìĦľ
Ġíķ´ ìł¸ìļĶ
ĠìķĪ ë©´
Ġìļ° ìĦ¸
Ġìĥģ ê²¬ë¡Ģ
ĠìĹ´ ìĦ¸
ë°Ķ íĥķ
Ġìį¨ ëĭĪ
ĠëĨį ì¶ķ
ê´ĳ ê³ł
ĠìĹ¬íĸī ìĤ¬
Ġìķħ ìŀ¬
ĠëĤĻ ìĦł
Ġë¡¤ ëŁ¬
ĠëĮĢ ì§Ħ
ĠìĥĿ ìĦ±
Ġêµ¬ ìĦ¤
Ġìĭł ë£Į
Ġìĵ´ ëĭ¤ëĬĶ
ĠêµĲíĨµ ë¶Ģ
Ġëĭ¤ìĿ´ ë¹Ļ
Ġë§ĲëłĪìĿ´ ìĭľìķĦ
Ġê·¸ ìĿ´
Ġë³´ ëĶ°ë¦¬
ĠëĤĺ ìķ¼
Ġê¸° ëıĻ
ĠìĪĺ íĺľ
ĠìĿ¼ ì£¼
ë¬¸ ìŀ¬ìĿ¸
Ġë¹Ħ ëĳĺê¸°
ê·¸ëŁ¬ ëĭ¤
Ġíģ¬ë£¨ ì¦Ī
Ĭ Ħ
Ġì¡° ìĸĳíĺ¸
Ġìŀ¥ ìĽĲ
Ġìŀ¥ ëħĦ
ĠíļĮ ìĭł
ëĿ¼ë ĬĦ
Ġìķ½ ìłķ
ĠìĹŃ ì£¼íĸī
ĠíķŃ ìĥĿ
ĠìĹĲìĬ¤ íĭ°
ĠíĮ¨ ëŁ´
Ġìŀħì£¼ ìŀĲ
ë¶Ģ ë¶Ģ
ĠìĹ° ìŀ¬
ĠìĽĲ ìłĲ
ĠëĤ¨ ìķĦ
Ġìŀ¥ ìłľìĽĲ
ëĿ¼ë Ĥĺ
Ġìŀ¡ ìĪĺ
ë´Ĳ ëĿ¼
Ġëģ¼ ìĸ¹
Ġëª½ ëķħ
Ġë¹Ļ ìĪĺ
Ġë³´ íĬ¸
ìĪĺ ìľ¡
ìĿ¼ ìłķ
Ġìľł ê°Ģ
ĠëĳĲ ìĤ°
ëĳĲ ê¸°
ĠíĤ¤ìĽĮ ìķ¼
Ġê¸°ë¦Ħ ê¸°
ìĿ¸íĦ° ëĦ·
ĠìĦľê°ķ ëĮĢ
Ġê±° ìŀ¥
Ġê±° ì³¤
Ġìĥģ ìłĲ
Ġê²½ ì§Ī
Ġë¬´ ë¹Ħ
Ġë°ĺ ë¬¸
Ġì£¼ë ĳĶ
ĠíĮĮ íĨł
Ġê¸Ī ìĦ¸
íıŃ ëł¥
Ġê²¹ ì³Ĳ
Ġíĳľì°½ ìŀ¥
Ġìļ°ìĥģ íĺ¸
ĠíıĦ íķĺ
ĠëĪĦì§Ħ ìłľ
Ġìĩ¼íĬ¸ íĬ¸ëŀĻ
ĠìļĶ ë¬¸
ĠëįĶ ìļ´ëį°
Ġìĺģ ìĺģ
ĠìĭĿ ëıĦ
Ġì¹ĺ ìĨŁ
Ġíĥľ ìĸ´ëĤł
ìĥĪ ë²½
Ġëī´ íĦ´
ë©Ķ ìĿ´íģ¬
Ġìļ´ìłĦ ê¸°ìĤ¬
Ġì¹¼ ì¹¼
Ġëĭ¤ìłĢ ìĬ¤
ĠìĥĿ ìĭł
Ġì°¸ ë°°
Ġì´Ī ë°¥
ĠëĤľ ëĭ¤ëĬĶ
Ġê¼¬ ì¹ĺ
ì¿ µ
ĠìĬĪ íĮħ
ĠíŀĪ ë¡ľ
ĠìĺĪë»Ĳ ìļĶ
ĠìĬ¤íĬ¸ëłĪ ìĿ´íĬ¸
íĻĶìŀ¥ ìĭ¤
¬ Ĳ
ĠëĮĢ ì¡°
Ġê²½ íĻĶ
Ġë¯¸ ì§Ħ
ìĦ¸ ê³Ħ
Ġìĭłë¬¸ ìĤ¬
Ġì»¬ ë§ģ
ĠëĦ¥ ìĦ¼
ĠëıĦ ì§Ħ
ĠìŀĲ ëĦ¨
ĠìĦľ ëĮĢë¬¸
Ġë¯¸ íĺ¼ëª¨
ĠìĬ¹ ìĨĮ
ĠëģĬ ê¸°
ë§¹ ìĿ´
Ġëĭ¹êµŃ ìŀĲ
ĠìĿ¼íļĮ ìļ©
i t
ĠëĤ¨ ëĤ¨
ì¶Ķ ìĸ´
Ġë²ł ë¥´
Ġìĸ» ìĸ´ë¨¹
Ġìĩ¼ íģ¬
Ġëģĵ ìĹ¬ìĦľ
Ġêµ´ ìļķ
Ġìĺ¬ ì§Ģ
Ġë³¸ ìĹ°
ĠëĳĲêº¼ ìļ´
Ġê±° ì°½
Ġìŀ¬ íħĮíģ¬
ì¤ĳ íĽĪ
Ġêµ° ë³µ
Ġì¹ĺ ëłĢ
ê²° ìłľ
ĠìĨį ëĭ´
íİ¸ ëĦ¤
ìĬ¬ ìķĦ
Ġìĭľ ë²ł
ìĭľ ëĮĢ
Ġì§Ħ ìĦ±
ĠëĦĪ ëĿ¼
ìĤ ¿
íĮĮ ìĿ´ìĸ´
Ġìŀł ìŀł
Ġìłĳ ëª©
ĠíĿ¬ ê·Ģ
ĠìĿ´íĿ¬ íĺ¸
i p
ì§Ģ ë¥´
ëŁ° ìĬ¤
Ġêµ¬ ìĬ¬
ĠìĽĲ ë¹Ħ
Ġíĺķ ìĥģ
Ġìĺ¬ëĿ¼ ê°ĳëĭĪëĭ¤
ĠìĪĺìĥģ ìŀĲ
Ġë¸ĮìĿ´ ìķĦìĿ´íĶ¼
ĠëĤĺìĺģ ìŀĲ
Ġê³ł íĺĪìķķ
ëĭ¤ ëĵ¬
ĠìŀĲ íļĮìĤ¬
Ġê³¨ ëĵľ
ìĿ¼ë ª¨
Ġëķ¡ ê²¨
Ġê¹ĢìĪĺ íĺĦ
Ġìĭľë ®¬
ĠìłĢ ê°Ĳ
Ġêµ¬ ìĦľ
ĠìĽ ľ
ë§Į ì¹ĺ
ĠìľĦ ë°°
Ġìľł ëŀĮ
Ġíİ¸ íķł
ĠëĤ´ëł¤ ì¡Į
ĠíıĲ ëł´
ĠëłĪìĿ´ ìłĢ
ëĨĢ ëĿ¼
Ġìĭł ëĮĢ
íĥĢ ê¸°
ë°ĺ ëĵľìĭľ
ĠíĽ ¤
ëĶ° ë¥´
ĠìĥģìķĶ ëıĻ
Ġê¸°ëĤ´ ìĭĿ
Ġíķľ ëĿ¼
ìķĦ ë¶Ģì§Ģ
ĠìļĶ ìĪł
íķĺ íĤ¤
Ġíıī ìķĪ
íİ Ħ
Ġìľ¤ ì°½
Ġë§Įëĵľ ìĭł
ĠìĤ¬ê³¼ë ¬¸
Ġëĵ¤ íĤ¤
ĠëĮĢ ìĦ±
Ġë§Į ì£¼
ĠìķĪ ì§Ħ
ĠíĬ¹ ê°Ĳ
ĠíĥĢ ìļ´
Ġìļ¸ ë¦¼
ĠíĺĦëĮĢ ìĤ¬
Ġìĵ°ëŁ¬ ì§Ħ
ĠëĤ´ìĦ¸ ìĽł
Ġê°ĢìĤ° ìłĲ
ĠìĿĦ ëĿ¼ê³ł
Ġì§Ģ ìĨĮ
ĠëıĦ ëĿ¼ì§Ģ
ĠìĿ¸ ìłĢ
Ġêµ¬ ìķł
ëŀĺ ê³¤
ĠìĽĲ ë¡ł
Ġë°ľ ì§Ŀ
ìĺģ ìĸ´
ĠìĪ ¯
ëĿ¼ë Ĥ
Ġì¤Ģ íķĺ
Ġê¼ °
Ġê·¸ëŁ´ ëł¤ë©´
Ġëľ¯ ìĸ´
Ġê°Ģ ì²ĺë¶Ħ
ĠëĿ¼ ìķ¼
Ġê°ķ íĥĢ
Ġë¬¼ ì¦Ŀ
Ġíĺ¸ ìĦł
a l
Ġëĭ¤ ëŀĢ
Ġíķł ë¦¬ìļ°ëĵľ
ĠìĭŃ ìĭľ
ìĿ¼ ìĸ´ëĤĺ
íĬ¸ ëŁ¼
ìĦ¸ ì§Ħ
ĠíļĮ ìĥģ
Ġë°ķ íĥľ
Ġì¦Ŀ ì§Ħ
ë°° ìĨ¡
Ġë¿Ĳ ìĿ´
ĠëıĮíĮĮ êµ¬
Ġìłľìłķ ìĭł
ìķĦ ìĤŃ
Ġë¶Ħ ë¦½
Ġê°ľ íĨµ
Ġìĸ¸ ëįĶ
ĠíĮĮ ìļ¸
Ġíİ «
ĠìºĲ ìĬ¤íĦ°
Ġìŀĩ ëª¸
ĠìĨ¡ìĺģ ê¸¸
ĠìŀĲ ìŀ¬
ĠìķĪ ìĤ°
Ġìĸĳ íĺĦìĦĿ
Ġê¼¬ ìĿ´
ëĮ ķ
ĠëĤŃ ëıħ
Ġëıħìŀ¬ ìŀĲ
ìĸ´ì© Ķ
Ġíķľ ìĿ¸
Ġìłķ ìŀĲ
ĠìĹ¬ íİ¸ëĦ¤
Ġìĭł ìķĻ
Ġë¹Ħ íĭ°
Ġìŀ¥ ìĭľê°Ħ
Ġëĭµ ìŀ¥
Ġìĸ´ëĸł ìĭŃëĭĪê¹Į
Ġê¹Ģê²½ íĿ¬
Ġê¹Ģëªħ ìĪĺ
ĠìłĦêµĲ ì¡°
ĠìĿ´ê°Ģ íĿ¬
ĠìĥĿ ìĤ¬
Ġëª¨ ì°¨
ĠìĦ± ìĽĲ
Ġìŀ¥ íİ¸
ëĵľ ëĶĶìĸ´
Ġê°Ĳ ê²½
Ġìĺ¬ ê¹Į
Ġëĵ± ìŀ¬
ĠìĹŃ ëıĻ
Ġê²Ģ ìĹ´
Ġì»¤ ìł¸
ĠëŁ ¼
Ġë©¸ ë§Ŀ
Ġê¸°ìĥģ ì²Ń
Ġìĸ´ë² ¤
ëĭ¤ ëĭ¥
Ġì§Ģ ìĦŃ
ìĿ´ ìŀĲ
Ġê¸° ì¢ħ
ìĸ´ ë¶Ļ
Ġìļ° ìĹ¬ê³¡ìłĪ
Ġë§Ī ì·¨
Ġê³µ íľ´ìĿ¼
Ġë¶ģ ë°©
ĠíĶĦë¡ľ ëª¨ìħĺ
Ġë°Ģ ë¦°
ë²¨ íĬ¸
Ġì§Ģ ìķĦ
ĠìĺĪ ê°Ĳ
ĠìŀĲ ìĦľ
Ġìŀ¬ íİ¸
ìĬµ ê´Ģ
ĠìĤ° ë¶ĢìĿ¸ê³¼
Ġë©Ķ ë°Ģ
Ġì½Ķ íĮħ
ĠìĤ¬ëĿ¼ ì§Ī
Ġê¹Ģìĥģ ê³¤
ìĿ¼ë¦¬ ì§Ģ
ĠëĤ± ëĤ
íķ¸ëĵľ íı°
Ġì§Ģ ì£¼
ĠëĦ ĭ
ĠìĪĺ ëħĦ
ìłķ ë¦¬
Ġì§Ħ ë¦¬
Ġìŀ¥ íķĺìĦ±
ĠëıĻ êµĲëıĻ
ìłĢ ëŁ°
ĠìĿ¼ë ©´
Ġë°Ķë¡ľ ìŀ¡
ĠëĨį ìķ½
Ġìĸ´ì©Į ëĭ¤ê°Ģ
Ġì§Ģìĥģ ëł¬
ĠíĹĺ íķľ
Ġìºĺ ë¦¬íı¬
ĠìłķëĳĲ ìĸ¸
Ġëĭ¤ ë°ľ
Ġëĭ¤ íģ¬
Ġê±° ëĵ¤
Ġì¡° ê¸ī
Ġë¯¸ íĸī
ĠëģĿ ëĤ¼
ĠíĬ¸ ëŁ¬
Ġíķ´ê²° ìĤ¬
Ġê´Ģë¦¬ ìŀĲ
íĹĪ ìĦ¤
ĠëĳĲëł¤ ìļ´
ĠìĿĦ ëł¤ë©´
ĠëıĦ ì¶ľ
ĠëĮĢ ì§Ģ
Ġê¹Ģ íĺ¸
ìĸĳ ì£¼
Ġë²Ħ ëł¤ìĦľ
ĠíĪ¬ ìĹ¬
Ġë³µ ìĭ¤
ĠìĦ¤ëªħ ìĦľ
Ġíİ¼ì³Ĳ ì§ĳëĭĪëĭ¤
ë°ĶìĿ´ ë²Į
Ġëĺĳëĺĳ íŀĪ
Ġëª»íķ´ ìļĶ
ĠìķĪì¤ĳ ê·¼
ëľ©ìĿ´ ëĤĺ
Ġê°Ģ ëĭ¥
ĠìĪĺ ìĹĨìĿ´
ĠìłĦ ëıĻ
ĠìłĦ ì²ł
Ġëª° ëĿ½
ĠëĬĶëĭ¤ ëĵłì§Ģ
ĠìĽĢì§ģ ìĿ¸
Ġê¸°ìĪł ìŀĲ
ê¸° ìļ´
Ġìĭľ ìĹ°
Ġìĥ ħ
Ġìĺ¤ ë³´
Ġê°Ĳ ë©´
Ġë°° ìĽĮìĦľ
Ġìľ¡ ë°ķ
ĠíĶ¼ ê²¨
ĠìłĦìĽĲ ì±ħ
ĠìĬ¤íĭ° ì»¤
Ġìļ° ëĿ¼ëĬĦ
ĠêµŃ íķľ
Ġë¬´ ìĦł
Ġë¯¸ ìłľ
Ġìľł ë¬´
Ġë°ķ ì§Ħ
Ġë©Ķ ê°Ģ
ìĪľ íŀĪ
ĠíĦ° íĬ¸
Ġë§ īìŀ¥
Ġì§Ģ ì§Ī
ë¬¸ ìŀĲ
Ġê³µ ëĮĢ
ëıĻ ìŀĲ
Ġìŀ¬ ë¯¼
Ġê°ķ ì£¼
Ġì§ĢëĤĺ ê°Ī
ĠìĿ´ëªħ íĿ¬
Ġëª©ìłģ ì§Ģ
Ġì§Ħëĭ¨ ìĦľ
Ġëį® ë°¥
Ġê¹ĢíĺĦ ì²ł
Ġì© Į
Ġìļ° ìĿµ
ĠìĦ¸ ê°Ħ
Ġì¹ ¼ëĤł
Ġìķ¼ ìĭĿ
ĠìľĦ ìķ½
Ġìľł ëª¨
ëĤ´ ëħĦ
ìļ´ ëĭ¤
Ġê°Ħ ê³¼
Ġìĸ¸ íĸī
Ġìĭ¬ ëıĦ
ê°Ĳ ì¹ĺ
Ġì§ĢìĽĲ ìŀĲ
ĠìĬ¤ëŁ¬ ìĽĮìĦľ
ĠìĿ´ìłķ ë¯¸
Ġë§ĪìħĶ ìķ¼
ĠìłľìĬ¤ ì²ĺ
Ġê°Ħìĭł íŀĪ
Ġë§Ī ì¤ĳ
Ġì§Ħ ìķĦ
Ġë¶Ī ë¬¸
Ġë¶Ī ìĸ´ëĦ£
ĠìķĦìĿ´ ìĸ¸
ĠíĶ¼ íģ´
ĠìĻ¸ ë¡ľìļ´
ì°Į ê°Ĳì¹ĺ
Ġê° Ń
ĠìłĢ ëĨĪ
Ġìłģ ë²ķ
Ġë§Ī ì¹´
ê³µ ìĭĿ
Ġë§¤ ê°ľ
Ġê±´ëĦĪ ê°Ģ
Ġì¤ĳëł¥ íĮĮ
ĠìĦłíĽĦ ë°°
êµ ³
ìĤ¬ ê´Ģ
íħĮ ìĿ´ëĦĪ
Ġì½ľ ë¡¬
ĠíĤ ¨
Ġë©Ī ì¹«
ê°ĵ ì§ĳ
Ġìĺ¤ìĭł íĻĺ
Ġíķĺ ë§Ī
ĠìĦľ ëĳĲ
Ġë³¼ë §ģ
Ġì§ķìĹŃ íĺķ
ĠìľĹ ìĦł
ĠíķŃìĥĿ ìłľ
Ġê±° ìłĲ
ĠìĤ¬ ë¶ĢìĿ¸
Ġë§Ī ëĭĺ
Ġë¬¼ ê²°
ĠíĽ Ĺ
ë³¸ ë¶Ģ
ĠëĨĢ ëŁ¬
ĠíĿ¡ ìŀħ
o t
Ġìŀħ íĺĢ
Ġì§ģ êµ¬
Ġìľ¼ìĭł ëį°
ĠíĮĮíĹ¤ ì³Ĳ
ĠìķĦ ëĦ¤
ĠìķĦ ë¹¤
ĠìĤ¬ ê·Ħ
ĠíĸĪ ëĭ¤
Ġëª¨ ëıħ
Ġê±´ ëĮĢ
ĠìĽĲ ì£¼
ëĤ´ ê¸°
Ġìĺģ íĿ¬
Ġíķ´ìķ¼ ê²łëĭ¤
Ġìłķì¹ĺ íĮĲ
ëģ ĵ
Ġë©ľ ëĿ¼
ĠìĿ´ë³ĳ íĹĮ
Ġíķĺ ìŀ¬
ĠìķĦ ë¶Ģ
ĠìĺĪ ê²°
ĠìłĢ ëŁ´
ìķ¼ ì°¨
ĠìļĶ ëŀĢ
Ġíķ´ìĦľ ëĿ¼ëıĦ
ìĦ± ë£¡
Ġìĭ¬ ê¸°
Ġê·¸ë§Į ëĴĢ
ìħĶ ëĦĲ
Ġ5 5
Ġíķ´ìĪĺ ìļķ
Ġìĸĳì§Ģ ìĹ´
ĠíĥĢê³ł ëĤľ
Ġê·¸ íĨłë¡Ŀ
ĠìĽĲ ë£¸
Ġìŀ¬ ìĹ°
íĺĦ ë¯¼
Ġìª½ íĮĮ
ëĶ ĺ
Ġì°¾ìķĦ ëĭ¤ëĭĪ
Ġíķ©ë³ĳ ì¦Ŀ
Ġì°¨ëªħ ì§Ħ
ĠíĻįë¬¸ ì¢ħ
Ġê±° ë¯¸
Ġìľł ìĦł
Ġë°© ìłķìĭĿ
ĠìĬ¤ ì¼ĢìĿ´
Ġë§ī íĺĢìĦľ
ĠíĹ ¨ë¦¬
Ġìķ½ ìĤ¬
ĠëĤľ ëį°
Ġì¹´ íĬ¸
ì²ĺ êµ¬ëĭĪ
Ġê²¨ ìŀĲ
ĠìķĦëĭĻëĭĪëĭ¤ ë§Į
ĠìķĶ ê¸°
Ġìĺ® ê¸´
ëĮ Ķ
ĠíĮĮì¶ľ ìĨĮ
2 1
ĠìĪĺ ìĨ¡
ìĭľ ê³Ħ
Ġêµ¬ ë¦¬
Ġê°ľ ìĭľ
Ġë³µ ìłľ
Ġë¹¨ ëŀĳ
ĠìĿ´ìłķ íĿ¬
Ġë¶ĢëŁ¬ ì§Ģ
ĠëįĶëŁ¬ ìļ´
Ġëį´ ë§Īíģ¬
ĠìĭłíĨµ ë°©íĨµ
ĵ ±
Ł °
ĠìĪĺ ëıĹ
ĠìķĪ ê°ľ
ë¶Ģ ìĤ°
ĠíĻį ìĺģíĳľ
Ġì£Ħ ì§Ī
Ġìľłë¦¬ ì°½
Ġì¿ł íĤ¤
Ġë§¤ëĭ¬ ë¦¬
ĠíĢ Ħ
Ġìĭľë®¬ ëłĪìĿ´ìħĺ
Ġìĺ¤ ìĬ¹
ê·¸ ë¦¼
Ġë¬¸ ê³¼
ìĿĢ íĺľ
ĠëĪĦ ë¦´
ĠìĹĦ ìłķ
Ġíı¬ íĬ¸
Ġì§Ī ì±ħ
Ġëĭ´ ìķĦëĤ´
ĠíĸĪìĹĪ ìĸ´ìļĶ
ĠíĺĪ íĨµ
ĠìĹł ìĶ¨
Ġì¢ĭìķĦ íķ´ìĦľ
Ġíķľìĥģ ê·ł
ĠëĤĺ ìŀĩ
Ġìłľ ìĿ¸
Ġëĭ¹ ì²Ń
ìłĦ ëĵľ
ĠìĽĲ ìį¬
Ġìľ¼ ìĿĳ
Ġìŀ¬ ê³Ħ
ìķ½ ìĨį
ĠìĥĪ ìĭ¹
ĠìĨĲ ê¼½
ĠíĮĲ ëĭ¤
Ġê¹į ëĳĲê¸°
Ġth e
ĠìĪĺ ìŀĳ
ĠíĮ ľ
ëĬĶ ì§Ģ
ë§Ī ì¹ĺ
Ġë²Ī ìĺģ
Ġë°ķ íĺĢ
ëįĶ ê¸°
Ġê³Ħìķ½ ì§ģ
ĠìłķëıĪ ëį°
ê¾ ¹
Ġê¸° ë¦¬
Ġìłķ ìłģ
ìłķ íĻĺ
Ġìŀħ ì°°
íķĺ ëĿ¼
íĿ Ļ
íĺ¸ ìĤ¬
ĠìĪľ ëĳĲë¶Ģ
Ġìĭ¬ìŀ¬ ì²ł
ì§Ħë³´ ëĭ¹
Ġìł Ŀ
Ġíķľ ìĦĿ
ĠëıĦ ëĿ¼
Ġë³´ ë¥ĺ
Ġë§ī íĺĶ
Ġìī¬ ìĽĮìļĶ
ĠëĤĺìĺ¬ ê¹Į
Ġê°ķëł¥ íŀĪ
ëĸ ¼
Ġíĥľìĸĳ ê³Ħ
ì ıĻ
Ġê±° ëŀĢ
Ġê³µ ë³µ
Ġìĭ¤ ìĹĲ
Ġìľ¼ ìĿ´
ĠìĤ´ ëł¤ìĦľ
Ġë¦¬ ë©ĶìĿ´íģ¬
ë© ľ
Ġê¶ģê¸Ī íķ´íķĺ
Ġì³Ĳ ëıĦ
ê·¸ë§Į íģ¼
ĠíĿł ì§ĳ
ĵ °
ĠìĿ´ ë¸Į
ĠëĤĺ ìĺµëĭĪê¹Į
ĠëĮĢ ëĤ®
ìĹ İ
Ġë²Ī ê°Ī
ĠìĤ¼ ëĭ¹
Ġë§ŀ ìĦł
ĠíĻĶ ëŀĳ
ê°ķ ìķĦì§Ģ
Ġì°¢ ìĸ´ì§Ģ
Ġëĭ¨ê¸° ê°Ħ
ĠìĬ¤íİĻ íĬ¸ëŁ¼
Ġìĺ¬ë¦¬ë¸Į ìľł
ĠìľłíĿ¬ ìĹ´
Ġëĭ¤ ëĭ¹
Ġì£¼ ì§Ģ
ê°Ħ ë§Į
Ġìľł ëł¹
Ġë¶Ī ë¹Ľ
ĠíĽĦ ëĿ¼ìĿ´
ĠìłĪ ì¶©
Ġëıħ ë³´
ìĸ´ë Ķ
Ġì£Ħ ëĭ¤
ĠíĮĿ ìĨ¡
Ġê°Ģë¦¬ íĤ¤
Ġëª¨ ì¡°ë¦¬
ìĺ¤ ë¥¸
ĠìĨĮ ëıĻ
ìĭł ìĪĺ
Ġëł ī
Ġë³¼ íĦ´
ĠíĶĦ íĭ°
ĠìķĦíĶĪ ëį°
Ġc c
íķĺíķĺ íķĺ
² Į
ìŀ¥ êµ¬
ĠëĤ´ ë¦°ëĭ¤
ìĥģ ìĦł
Ġê³µ íĹĮ
Ġê´Ģ ëĳĲ
ë³´ ì¹´
ìľł ì£¼
ĠìĹ¬ëŁ¬ ëª¨ë¡ľ
Ġë¬¼ ê¼¬
Ġë³Ģ ê¸°
Ġê¸´ ë°ķ
ĠìķĦë§Ī ì¶Ķìĸ´
Ġì¶© ë¬´
ë´ ħìĭľëĭ¤
ĠëĤ´ìłķ ìŀĲ
Ġê¹Ģê·ľ ë¦¬
ĠìĨĮ ì¶Ķ
Ġë°Ľ ìķĦ
Ġë°ķ ë³´
ĠëĨĵ ì¹ľ
Ġìłĳ íķł
Ġê´´ë¡ľ ìĽĮ
ĠìĬ ¥
ĠìĪĺ ì§ģ
Ġìłķ íĿ¬
Ġìłķ íĮĮ
ëĮĢ êµĲ
ĠìĽ į
ì¹ĺ ìĹ´
Ġìĺ¥ íĥĳ
Ġì«ĵ ê¸°
ĠìŀĲ ìĿĺ
Ġêµ¬ ë¡ľ
Ġìĥģ ìŀ¥êµ°
Ġëĵľ ëĬĶëį°
ĠìĶ¨ ìłľìĿ´
Ġìĺģ ìŀ¬
ĠêµĲ ìłľ
ë²Ħ ë¦°
Ġë¦¬ ìķ¡ìħĺ
Ġëĭ´ ê²¼
ĠëĬ¦ ì¶°
Ġê» Ĳ
ìĵ ´
Ġìĥ´ íĳ¸
Ġê°Ģ ìłĦ
ĠëıĦ ìĺģ
ĠìĪĺ íıī
Ġê²½ ì§ģ
Ġì§Ħ êµŃ
Ġì¶Ķ ë°©
Ġë¦¬ ë·°
ì²ĺ ë¦¬
Ġìĭ¸ ëĬĺ
Ġê·Ģ ì¤ĳ
Ġk g
Ġìĺ® ê¸¸
ĠìĬ¤íĤ¤ ìŀ¥
ĠíĮĮíĹ¤ ì¹ĺ
ĠìĿĺìķ½ íĴĪ
ĠìŀĲ ê°Ģ
ìłĦ ìŁģ
Ġìĭ¤ ëł¤ê³ł
Ġë¯¸ íĺ¼
Ġìŀ¬ ìŀĦ
Ġìķł ì²ŃìŀĲ
ìĽĮ ëĤĻ
Ġì¶ľ ëł¥
ĠëĶ°ëĿ¼ ìķ¼
Ġê¸ī ë°ķ
ĠìĦ¸ê³Ħ ìĿ¸
Ġê½ĥ ëĭ¤ë°ľ
Ġë¹¨ê° ±ìĿ´
ĠëĤ±ëĤ ±ìĿ´
ĠìĤ¬ ë³ĳ
ĠëĤĺ íĿĺ
ĠìķĪ ë§Ī
Ġíķł ê»ĺ
Ġì§Ħ ìĨĶ
ĠìĹ° ê³¨
Ġê°ķ ìŀĲ
Ġê´ Į
Ġë²Ĺ ê¸°
Ġì¹ĺë£Į ë¹Ħ
Ġì§ĳê¶Į ëĭ¹
Ġì§ĢìĭĿ ìĿ¸
Ġê°Ĳì°° ê´Ģ
ê¸° ìĨĮ
Ġì² µ
ê·¸ ìłĢ
Ġê´Ģ ìłĢ
Ġëĭ¤ê°Ģ ìĺ¬
Ġê²Ģì°° ì²Ń
Ġê´´ ë¡ľìļ´
Ġê¸° ìĪĺ
ĠëĤ´ ìļĶ
Ġê¹Ģ ìĭł
ë£¨ ë¹Ħ
Ġë³Ħ ë¯¸
ĠìĤ´ìĿ¸ ì£Ħ
Ġìĺ¤ìĿ´ ê¹Į
Ġ~ ?
ìĽ ģëĭĪëĭ¤
ìĤ¬ ëª¨ëĭĺ
Ġë´ ĩ
Ġë¯¸ ëĵľ
Ġìŀ¥ ìľ¤ìĦł
Ġë´¤ ìŀĸìķĦìļĶ
ĠíĶ¼ íģ¬
ĠíĥĢ íĮĮ
ĠëĨį ìĤ°ë¬¼
Ġë§Ŀ íķł
ĠíļĮìĿĺ ìĭ¤
Ġëįķ ëĭ´
Ġì¶ľë°ľ ìłĲ
Ġëĵ¤ìĸ´ìĻĢ ìļĶ
ĠìĿ´íļĮ ì°½
ìĬ¬ìķĦ ìĬ¬
Ġìĸ´ ì²ĺêµ¬ëĭĪ
Ġìłķ ìĦł
Ġìŀħ ë¬¸
ë¬´ ëĭĪ
ĠìĨĮ ê²¬
ĠìĹ° ëĤ¨
ĠìĤ¼ ìŀĲ
Ġíĺ¸ ìłģ
ë°± ìĦ±
ĠìķĶ ë§Į
Ġë¬´ìĦľ ìĽĮìļĶ
Ġë©ĺ íĥĪ
ĠìĿ¸ë¯¼ êµ°
1 1
Ġìłķ ì£¼
ê·¸ ê³³
ìĭł ìĦ±
Ġë¯¸ ìĥĿ
ĠëĤ¨ ì§ĵ
Ġì¶ľ ì²ĺ
Ġë§¤ ê¸°
ëĶĶ ìŀĲ
ĠìŀĦ íĮ©íĬ¸
ĠíĥĪ ìĦ¸
ĠëĬĲê»´ ì§ĳëĭĪëĭ¤
Ġìľ Ļ
ĠìłĦ ê´ĳ
ëĮĢ ì¤ĳ
Ġìķ½ íĴĪ
ë°ĺ ì§Ŀ
Ġì¢ħ ìĭł
Ġê·¹ ëıĦ
Ġëĥī ê°ģ
ĠíĨµíķ© ì§Ħë³´ëĭ¹
Ġê·¸ìłĢ ê»ĺ
ĠìłĦíĺĦ ë¬´
ĠìĬ¤ì¼ĢìĿ´ íĮħ
ĠëıĦ ìķ½
Ġê¸° ìłķ
Ġê¸° ìĬ¹
ĠìĪĺ ëł¨
ĠëĿ¼ë Ħ¤
ĠìĽĲ ëįĶ
ĠíĨµ ê¹¨
ĠìĹ°ìŀ¥ ìĦł
Ġë¬¼ë¦¬íķĻ ìŀĲ
Ġíİĳ íİĳ
Ġì´Īë¯¸ ìĦ¸
ì ĳ¤
Ġíķ´ ëĭ¤
ĠìŀĲ íĮĲ
ĠìłĦ ìĹ¼ë³ĳ
ĠìĹ¬ ëıĦ
Ġíķ´ìĦľ ìļĶ
Ġê´Ģ íķ´
Ġê°ľ íķĻ
ĠìłĲ ì£¼
Ġë°Ģ ìĸĳ
Ġê²°ìĬ¹ ìłĦ
Ġìĸĳìłķ ì²ł
Ġë¡ľ ìĦł
ìĿ¸ ìĦ±
Ġëĭ¹ ê·ľ
Ġê±¸ ëłĪ
Ġëªħ ê°Ģ
Ġíĸī ëł¬
ë¹ł ë¥´
Ġê¹¨ ì§Ħ
ĠíĮ¬ íģ´ëŁ½
Ġëĵ¤ëł¤ ìĺ¤
ĠìĿ´ìĿ¸ ìĺģ
Ġêº¼ë ł¤
Ġë« ¼
ĠìĿ´ ë¶ģ
Ġíķ´ ë´Ĳìķ¼
ĠìĪĺ ìĭł
Ġíĺ Ķ
Ġìĥģ ì²´
ĠìĦł ìļ°
Ġë²Ī ê°ľ
ìľł ë¦¬
Ġë§ĪìĿĮ ìĨį
Ġíķ© ìŀĳ
ĠíĹĪ ìłĲ
ĠìĪ¨ ì¡Į
Ġíĥģ ìŀĲ
êº¼ ìĿ´
ĠëıĻíĺ¸ íļĮ
Ġìĸ´ ìĦ¤
Ġêµ¬ íĥľ
Ġê²½ ì²Ń
Ġì°¨ ëł¸
ĠëĬĲ ê·¸
íģ¬ ìĬ¤
Ġë¬¼ë ĨĢ
Ġë¦¬ íĹĪìĦ¤
ĠìĻĦ ì¹ĺ
Ġëıħ íķľ
Ġìĥī ê°Ĳ
ê¼¬ ë°ķ
Ġê¹Ģê´Ģ ìĺģ
íļ ¡
ê³ł ëĭ¹
ĠëĮĢ ëªħ
ĠëĿ¼ ì§Ģ
ĠìĹ¬ ì¤ĳ
Ġêµ¬ ë¹Ħ
Ġë°Ķ êµ¬ëĭĪ
ëĵ¤ ë¦¬
Ġìķŀ ëĤł
Ġì§ģ ìľĦ
Ġìĭ¬ íķ´ìĦľ
ĠíĮĮ íĸī
Ġëĸł ëıĮ
ĠíĴĢ ìĸ´ëĤ´
Ġë²ĦìĬ¤ íĦ°
ì į¼
Ġíķľ ìĭľ
ìĸ´ ìļ°
Ġì£¼ íĺĦ
Ġë¶Ģ ì©į
ìĺ¤ ë¦¬
ĠìĨĮ íĴį
ĠìĽĲ ëĮĢ
ëĦ¤ ì¦Ī
Ġìĭ¬ ëł¤
Ġìļ´ ë°ĺ
ĠìķĦë¬´ ê±°
Ġì»¤ íĬ¸
ĠëŁ° ëĭĿ
ĠíĿ¥ë¯¸ ì§Ħì§Ħ
Ġìĸ´ë²Ħ ìĿ´ëĤł
Ġíķľ íķ´ìĦľ
Ġìĺ¤ ëĶĶìĺ¤
Ġë¬¸ ê³łë¦¬
Ġìĸĺ ê¹ģëĭĪê¹Į
ìĦ± ìŀ¥
Ġê¹Ģ ì¤Ģíĺ¸
ĠíĨł ë§ī
Ġì°į íĺĶ
Ġì°© ì·¨
Ġêº¼ ê¾¸
Ġë¦ ī
Ġì£¼ìĿĺ ë³´
ĠëĦĵ íŀĪ
ĠíĮĲë§¤ ëŁī
ĠìŀĲ ì²ĺ
ìĪĺ ìĪł
Ġì¡° ê·¸ë§Ī
ì¤ĳ ëıħ
Ġë§¤ íģ¬ë¡ľ
Ġëª¨ìħĶ ìĦľ
ĠìĨĮìĪĺ ìŀĲ
Ġë°©ì²Ń ê°Ŀ
ĠìĬ¤ì¼Ģì¹ĺ ë¶ģ
Ġì ĳ
ĠìłĦ ìĬ¹
ìłķ ìķł
ĠìĦľ ìŀ¬
ĠìĦł ì²ĺ
ĠìĬ¤ ëª¨
ĠëĲł ëł¤ë©´
Ġì²´ ëĤ´
ĠíĻ© ìĤ¬
ê¼ ´
Ġì§ķ ë²Į
Ġë¬µ ì§ģ
ìª ¼ë
ì§Ģìļ° ì§Ģ
Ġë§Į ìĪĺ
ĠìłĢ ì£¼
Ġìĺ¤ íĤ¤
Ġë¯¸ ëĿ¼
ĠìĤ¼ ê°Ģ
Ġì²ĺ ìĭł
Ġë¬¸ìłľ ê¸°
Ġì¢ħ ìķĦë¦¬
ĠìĤ° ì§Ģ
ìķł íĶĮ
ĠëłĪ ìłĦëĵľ
ĠìĦŀ ìĿ´
a t
ìķĦ ë¥´
ĠìĨĮ ëĭ¤
Ġëĭ¹ íĮĮ
Ġìŀ¥ íĺģ
Ġìŀĳ ìĭ¬
íģ¬ ë¦¬íĬ¸
Ġë¬¼ë ĵ¤
Ġì¦Ŀ ìĭľ
ĠìºĲ ì¹ĺ
Ġì¢Į ì§Ģìļ°ì§Ģ
ĠìĹ°ìĬµ ìĥĿ
Ġë¸Įë¡ľ ì»¤
ĠëĤłì¹´ ë¡Ń
Ġì·Į ìŀ¥
ê¸° ëħĲ
Ġìĺ¤ ëĭµ
Ġë¶Ħ ìĽĲ
ë§Ī ìĿĦ
ĠìĹ° ëĤ´
ĠíķľêµŃ ìĤ¬
ĠíĻ© ë³ĳ
ĠëŁ ´
ĠìĪĺìļ© ìĨĮ
ĠìĿ´ìĻķ ìĿ´ë©´
ìĦľ ë¦¬
Ġë§ Ļ
Ġì§Ģ ìļ¸
ĠìĪĺ ëĩĮ
ĠìĦł ìľ¨
Ġë¶Ī íĹĪ
Ġê°Ĳ ëŁī
Ġë°ķ ì§Ħìĺģ
ĠìĹ´ ëĦ¤
Ġê¿ ¨
Ġë£ ¡
ĠíĹ¤ ìĸ´ì§Ī
Ġl o
Ġê°ķëĮĢ êµŃ
Ġì¡° ë¬¼
Ġëª¨ íĦ°
íĸī ìľĦ
ĠëĪĦ ìĦ¤
ìĨ¡ ìĿ´
Ġì²ŃìĨĮ ê¸°
ëļ ¤
Ġë³´íĸī ìŀĲ
ìĦľ ë¥ĺ
Ġëĵ¤ ìĺĢ
Ġìĭľ ë¦¬ìķĦ
Ġë¶Ģ ìŀ£ì§ĳ
Ġë§Ī ìĿ¼ë¦¬ì§Ģ
Ġì¡° ìĨį
Ġìķ¼ ìķĦ
Ġë°Ķ ëŀĢ
Ġë°ľ ì°Į
Ġìľ¤ ìĦ±
íķ¨ ê»ĺ
ĠìĿ¼ë¶Ģ ë¶Ħ
Ġìķħ ëª½
ĠìĦĿ ìĥģ
ĠìĿĺë¬¸ ìłĲ
ĠìĬ¤íĤ¨ ìĭŃ
Ġë¹¨ê° Ľ
Ġìĺ¤ìĬ¤íĬ¸ ë¦¬ìķĦ
ĠëıĦ ë¬´ì§Ģ
ĠìĪĺ ëĿ½
Ġê³µ ê°Ī
Ġë¬´ ìĨĮ
Ġê°Ĳ íĺķ
ìķł ìķł
ëĿ¼ìĿ´ ìĸ¸
ĠìıĻ ìıĻ
ĠìĹĲ ìĦ¸ìĿ´
ĠëĤ´ ë§ī
ë¬´ ìĨĮ
ĠëĿ¼ë įĶ
ĠíķĦ ëĵľ
Ġì¦Ŀ ìĺ¤
Ġì¹´ ë¥´
Ġíİ Ń
ĠëĤĺìĺ¬ ê¹ĮìļĶ
Ġëĸ¨ìĸ´ ì§ĳëĭĪëĭ¤
Ġì§ķ íĽĦ
ĠëĤĺê°Ħ ëĭ¤ê³ł
ĠìķĦìĤŃ ìķĦìĤŃ
Ġëª¨ì°¨ ë¥´íĬ¸
Ġì§Ģ ëĤł
Ġíķľ ëĭµëĭĪëĭ¤
ĠëıĦ ë³´
ìĺ¤ ìĬ¤
Ġë°© íĻ©
ĠíĽĦ ìĺĪ
ĠìĪľ ì°°
ĠìĤ° ìłķ
Ġê·¼ë ŀĺ
ìĨĲ ëĭĺ
Ġìĸĺê¸´ ëį°ìļĶ
ĠìĪĺëıĹ ë¬¼
ĠìĦľ ë°ĶìĿ´ë²Į
íķĺ ê¸´
Ġë¹Ħ ìĭľ
Ġë²Ī ìĭĿ
ëıĻ ìĦĿ
Ġìľł ìłģ
ìļ© ìĦľ
ĠìĹ°êµ¬ ìŀĲ
íĶĮ ëłĪìĿ´
Ġì¶ľê·¼ ê¸¸
ìĮ Ī
Ġì§Ģê·¹ íŀĪ
ĠíĦ°ë¯¸ ëĦĲ
Ġê·¸ ì³¤
ìĸ´ ê°Ģ
ĠìļĶ ìĤ¬
Ġë© ±
Ġë²ł ëĦ¤
Ġìĺ¬ë¦¬ ê³łëĭ¹
Ġê²½ìŁģ ìŀĲ
Ġë° §
ĠìĿ¸ ì¹ĺ
ìĦł ë¬¼
íĺľ ì§Ħ
ĠíĥĦ ìĽĲ
ĠìĽĢì§ģ ìĹ¬ìķ¼
ëįķ ë¶Ħ
Ġì¢Į ì¸¡
ĠíĨµê³Ħ ì²Ń
Ġìĭ¤ì¢ħ ìŀĲ
Ġëĵ¤ìľ¼ìĭľ ë©´
Ġíķľëªħ ìĪĻ
Ġíķĺ ìŀĲ
ĠìĿĦ ëł¤
Ġíķľ ë°ľ
Ġê°ľ ìĹħ
Ġë°° ê´Ģ
Ġì£¼ë ¬¼ë
Ġì´Ī ìĭ¬
ĠëĶĶ ìł¤
Ġê´Ģë¦¬ ë²ķ
Ġì¥ Ķ
Ġo st
Ġì°¸ë§Ĳ ë¡ľ
Ġë§ ĻëĭĪëĭ¤
ĠìĪĺ ì¹Ļ
ĠìĹ¬ ê´Ģ
ìĪĺ ê±´
Ġë¶Ī ìĶ¨
íĭ° ìĬ¤
ĠìĿ´ìĺģ íķĻ
Ġìķ ´
Ġê·¸ ê¸°
Ġëĭ¤ ëĤĺ
Ġë¡ľ ìļ°
ĠìłĦ ìĤ°
Ġì¡° ìĦľ
Ġëĵľ ëłĪ
Ġìĭł ìĿĺ
Ġê²° íķµ
ìĺģ íĸ¥
Ġê°ķ êµ¬
Ġì¹ĺ ë¶Ģ
íĺĦ ìĭ¤
Ġìļ© ìĿ´
Ġíĥķ ìĪĺìľ¡
ĠìĿ´ì¢ħ íĽĪ
ĠìĨĮíĻĢ íŀĪ
Ġê³ł íĶĦ
Ġê·¸ë ¥¸
Ġì§Ģ ìĺ¤
ĠëıĻ ê°Ĳ
Ġë°ķ ëªħ
Ġì¹ľ íĻĶ
ĠëĨĶ ëĳ¬
ĠìĹ°íķ© íļĮ
Ġìĸ´ëľ¨ ì¼Ģ
ĠëĬĶ êµ°
Ġê°Ģ ë¯¸
Ġì§Ģ ë¯¼
ĠìĪĺ ìĦ¸
ëŁ° íĬ¸
ĠìĨĮ ìķ¡
Ġë°Ķ ë¹´
Ġê³Ħ ëŁī
Ġìľł ì¶Ķ
Ġë°ķ íĺķ
Ġìŀł ëĵł
ĠíĻĺ ê´Ģ
Ġê²¨ ëĪĦ
Ġëĭ¹ëĭ¹ íŀĪ
Ġìłķ ë¦½
Ġëı Ķ
ë¯¸ ìĬ¤
Ġì´ ĺ
ìĺĪ ì§Ħ
Ġ2 9
ì¹´ ë©ĶëĿ¼
Ġì°¾ìķĦ ìĺ¬
ĠìĺĨ êµ¬ë¦¬
Ġìļķ ë¨¹
ìĹĲìĿ´ ì¹ĺ
ĠìĿ´íĥľ ìĽĲ
ĸ ¼
ĠìĿ´ ëĭĿ
ĠìĤ¬ ìĿ¼êµ¬
ê°Ģ ìĬ´
Ġë°© íĮ¨
Ġì§ģ ìĦ¤
ĠíĮĮ íĮĮ
Ġíĳľ ë°©
ĠíĥĢ ëł¹
ĠëĽ ´
Ġìĸ´ë¦° ìķł
Ġê²© íĪ¬
Ġì½ĺ íģ¬ë¦¬íĬ¸
Ġêµµ ì§ģ
ĠìĭŃìĭľ ìļĶ
Ġíķ´ ì¤Ģ
ĠìĪĺ ìĤ°
Ġë¶Ģ ê¸°
ĠìĨ ¥
íĥľ íĿ¬
Ġê¶Į ìĿĢíĿ¬
ĠìĤ° ëª¨
ìĤ¬ ê³¼
ĠìĦł ì§Ģ
ĠëĳĲ ìĸ´
ìĨĮ íĨµ
ìĹ¬ ëĮĢ
ë§Ĳ ëĿ¼
Ġë¶Ī ê³µìłķ
Ġìµľ ìĬ¹
Ġìķ½ ì¡°
ĠìĤ° ìķħ
Ġêµ³ ê±´
ĠìľĦê¸° ê°Ĳ
Ġìĵ°ëłĪê¸° íĨµ
Ġê°ĪëĿ¼ ì§Ģ
Ġíķ´ ë´ĲìļĶ
Ġê²½ ìĹ°
ĠìķĮ ë¦°
ĠìĹ° ëĭ¬
Ġì¤Ħ ìĺĢ
ĠëĤľ ì²ĺ
Ġê½ Ŀ
Ġì°¬ ìĸĳ
ĠìłĦìŀĲ ëłĪìĿ¸ì§Ģ
ĠìĦłë³´ ìĹ¬
Ġíķ´ìĪĺìļķ ìŀ¥
ĠìĦ ŃëĭĪëĭ¤
ĠìĦľ ìĪł
ìĥģ ëĮĢ
ĠìĦ¸ ë°Ģ
ĠìĽĲ íĿ¬
ĠìĹ´ ìĤ¬
ĠìĭĿ ìĬµê´Ģ
ëĳĲ ìĪľ
ĠíĶ¼ ìĭľ
Ġë¦¬ ìĸ´
Ġìĭłê²½ ìłĦ
Ġê¶Įë¦¬ ê¸Ī
Ġë§Įì¡± ëıĦ
Ġê¸°ìļ¸ ìĹ¬
Ġë¶ĢëģĦëŁ¬ ìĽĮ
ĠíĬ¸ëŁ¬ ë¸Ķ
Ġëĭ ³
ì§Ģ ë°°
ĠìŀĲ ê¶ģ
Ġìĥģ ìĸ´
Ġë¬¸ íĦ±
Ġëĵ± ê¸°
Ġìľ¡ ì§Ģ
Ġë¯¸ë¦¬ ë¯¸ë¦¬
Ġíĥĳ ìŀ¬
Ġê°Ģ ë¦´
ĠìĿĢ ìĪĺ
Ġëª¨ ìĬ¤íģ¬
Ġëĭ¨ êµŃ
ì¤ĳ ìļĶ
Ġíı¬ ë¶Ģ
ĠìĪł ìŀĶ
Ġê°Ģ íĨ¨ë¦Ń
ĠìķĦ ìħĶìķ¼
Ġì§Ģ ê¸ĭ
ê°Ģ ì§Ĳ
ĠìľĦ ê¸ī
ĠìĽĲ íĺķ
ëĵľ ë¡ľ
Ġíĺ¹ ìĹ¬
ì¯ ¤
Ġìµľíĥľ ë¯¼
ĠìķĦë¯¸ ëħ¸
§ ī
Ġìĸ´ ìłł
ĠìĺĪ ë°°
Ġê°ķ ì§Ħ
Ġìŀł ìłķ
Ġìļ´ëıĻ ë³µ
ĠíĴį ìŀĲ
ĠìĿ´ë¤Ħ ì§Ħ
Ġì¦Ĳê±° ìĽĮ
i c
ĠìĹĲ ë¦Ń
Ġìĺ¨ ëĭ¤ë©´
Ġíĺ¼ ìĦł
Ġëģ¼ ì³Ĳ
Ġì²´íģ¬ ìĿ¸
ĠëŃī íģ´
ĠìĿ´ë¤Ħ ì¡Į
Ġì½ĶìĬ¤ ëª¨ìĬ¤
Ġì£¼ë¬´ ìħ¨
Ġë§ĪìļĶ ëĦ¤ì¦Ī
ĠìĤ¬ ìĦł
Ġë§Į ëĤ©ëĭĪëĭ¤
ĠëıĻ ìĬ¹
Ġìĸĳ ì¹ĺ
ëģ Ĭ
Ġì·¨ íķ´ìķ¼
ìĦ¼ íĦ°
Ġìĺģìĸĳ ë¶Ħ
ĠíĢ µ
Ġìľłë°© ìķĶ
ĠìķĪì§Ħ ê±¸
Ġë¶Ģ ë¦ħ
Ġê¹ °
ĠìĽĲ ê³¡
Ġìĺģ íĻĺ
Ġê±¸ ì¹ľ
Ġê·¸ë¦ ı
íĶĮ ëŁ¬
Ġíĩ´ íĸī
ìŀĶ ì¹ĺ
Ġì´ĪëĮĢ ìĦĿ
Ġê³° ê³°
ĠìķĦ ìĬ¬ìķĦìĬ¬
ĠëıĦ íĻĶ
Ġë³´ ë¯¸
Ġìłķ ìļ©
Ġëĭ¨ íķ©
ê¹ ħ
ĠìĥĪ ë³Ħ
Ġ3 5
Ġìłķìĭł ìĹĨìĿ´
ĠíŀĲ ëŁ¬ë¦¬
ĠìĺĪ ëĮĢ
ĠëĲľ ëĮĢ
ĠíĶ Ī
ì²Ń ìĨĮ
ĠíħĮ ìĿ´íģ¬
ĠìĨ¡ ìĹ°
ĠíĴį ìļĶ
ĠëĵŃëĭĪëĭ¤ ìķĦ
Ġì¹ĺë£Į ìłľ
Ġëĸłìĺ¬ ëĿ¼
Ġíķ´ ì£¼
Ġê²Į ìŀ¬
Ġê¸° ë§Ĳ
Ġìłķ ìłľ
ĠëķĮ ë¦´
ëĿ¼ ìĿ´ìĸ´
Ġê´Ģ íĨµ
ê³µ ê²©
Ġê¶Į ìĹŃ
ê» Ħ
Ġë°Ģìĸ´ ì£¼
Ġê³µìĨĮ ìŀ¥
Ġê¹Įëĭ¤ ë¡Ń
Ġê°Ģ ìĦ¸
ĠìĪĺ ì¤ĳ
ĠìļĶ ê³µ
Ġì¡° ìĿĳ
ĠìĶ ½
ĠìĪľ ì°¨
Ġê·ľ íĥĦ
ĠìĦ¸ê³Ħ ê´Ģ
Ġë°Ģ ìĪĺ
ĠìĽĢ ì¼ľ
ì£¼ë ¶Ģ
Ġêµ°ìĤ¬ ëł¥
ìµľ ìĨĮ
Ġë°ķì§Ģ íĽĪ
ĠìĬ¤íĮĮ ê²Įíĭ°
e l
ĠìĿ´ ë°©
ĠìĤ¬ ê°ľ
ĠìŀĲ ì´Ī
Ġìĺ¬ ëĵľ
Ġì¹ľ íĺķ
Ġê¶ģ ìłĦ
ĠìĹħ ì£¼
Ġë» ĳ
Ġ0 3
Ġì¹¼ë ¥¨
ĠìĦľìĸĳ íĺ¸
ĠëģĮìĸ´ìĺ¬ ë¦¬
ĠíĻĶê¸° ìķłìķł
Ġì£¼ ì¶¤
ĠêµŃ ë¹Ī
ĠìĨĮ ìĸĳ
Ġê¹Į ë¶Ī
ĠìĦ± ìĤ°
ìĹ¬ ì§Ħ
ë¯¸ ìŀĲ
Ġìµľ ìłķ
Ġê³Ħìķ½ ê¸Ī
Ġìľłê¸° ëĨį
ë± Ģ
Ġë ¼
Ġë¥ ¸
Ġê±° ìĬ¤
Ġìłķ ë£¨
Ġì§ Ĭ
Ġê±´ ë°©
Ġìļ´ ìļ´
Ġíĥľ ì¢ħ
ĠìĿĺë¯¸ ìĭ¬ìŀ¥
ĠíĭĢ ëł¤
ĠíĮ¬ ëį¤
ĠëĤĻ ìĿ¸
Ġìµľë¯¼ íĿ¬
ĠëĮĢ ëĭĪ
Ġë¬´ ë°©
ĠìĹ° ë¹Ħ
ĠìĹ° ì²´
Ġì§ĳ ëĵ¤ìĿ´
Ġì¹´ íĶ¼
ê·¸ëŀ Ĺ
Ġì¹´íİĺ ìĿ¸
Ġë²½ ëıĮ
Ġëĭ¤ëįĺ ê°Ģ
ë®¤ì§Ģ ì»¬
ĠìĤ¬ ìłľ
ê°Ģ ê²Į
Ġë¡ľ ë²ĦíĬ¸
ĠëĿ¼ë ĸ¼
ĠìĦ± ë¶ģ
ĠêµĲ ìĭľ
Ġìŀ¬ ëŁī
Ġëĭ¨ ê±°ë¦¬
Ġì§ģ ì¢ħ
Ġìĭ¬ ìĦĿíĿ¬
ĠìĻ¸ ì£¼
ĠìĿĳìĽĲ ëĭ¨
ĠìĬ¤íİĺ ìĿ´ìĬ¤
ĠëıĦ ìĻĶ
Ġìĭľ ëĪĦìĿ´
ĠìŀĲ ìĥģ
ĠìłĢ ìĬ¹
Ġíķł ëŀĺìļĶ
Ġêµ¬ ì§ģ
ĠìĨĮ ìķĦ
Ġë¹Ħ ê´Ģ
Ġê°Ĳ íĸī
Ġìĵ° ìĿ¸
ëłĪ ìĺ¤
Ġì½Ķ ëĶĶ
Ġë§Ŀ íķľ
Ġë´Ħ ëĤł
Ġë²ķìĿ¸ ìĦ¸
ĠëĶĶìĹł ì§Ģ
Ġêµ¬ ëªħ
Ġìĥģ íĸĪ
ĠìĻĢ ìĿ¼ëĵľ
ëıĻ ì£¼
Ġê²° ìĤ¬
Ġê²° ìĦł
ìŀ¬ ë°Į
Ġê°ķ íĺĦ
íĥĢ ë¥´
ìĸ¸ ìĬ¤
Ġíľ´ ìĸĳ
ì£¼ë ²Ħ
ĠíıĲê¸° ë¬¼
Ġì«ĵìķĦ ëĭ¤ëĭĪ
Ġìłķëª½ ì¤Ģ
ĠìŀĲ ë¹Ħ
ĠëĲĺ ìĥĪ
Ġë§Į ìŀ¥
ĠìĦ¸ ë¯¸ëĤĺ
Ġë§Ī ëħĢ
Ġê±¸ ìľ¼ë©´
Ġì¶Ķ ìļ´ëį°
ĠìĦ¤ ëıĦ
Ġë§Įëĵł ëĭ¤ê³ł
Ġëĵ¤ëł¤ ìļĶ
Ġíķĺ ìĨĮìĹ°
ĠìĿĢ ê°ĢìļĶ
ê²½ ìłľ
ì´ ĺ
Ġìļ¸ ë¦ī
Ġê¸°ë»Ĳ íķĺ
Ġê¼¬ë°ķ ê¼¬ë°ķ
Ġìĸ´ ê¹ĢìĹĨìĿ´
ĠëĤĺ ìĿĦ
ĠëĤ´ ìĦ±
ĠìĥĿ ëŀµ
ëĦ¤ ìĬ¤
Ġëĵ¤ìĸ´ ìĦł
ĠìłĲ ìŀĸ
Ġë¹¨ ëĮĢ
Ġë¯ ¼ë²ķ
Ġìĺ· ì°¨ë¦¼
ĠìºĲ ìĬ¤íĬ¸
ĠìķĦë¯¸ëħ¸ ìĤ°
ĠìĿ´ ë´ī
Ġì§Ģ ëł¹
Ġë¶Ģ ìĽĲìŀ¥
Ġìłľ íķĺ
Ġëį° ì¹ĺ
ĠíķĻ ë²Į
Ġìĭ¬ íĶĮ
ĠìłĪ ë¬ĺ
Ġë¸Į ë£¨
Ġê°Ģìŀħ ìŀĲ
ĠìĿ¸ìĪĺ ìľĦ
ĠëĦīëĦī íŀĪ
Ġíİĳ íģ¬
Ġê²Į ìŀ¥
ĠìĺĪ ìĺ¤
ĠìĹ¬ ìĨĮ
Ġì¤ĳ ìĥģ
ë§Ī ëĬĺ
Ġì²ľ ë§ī
ĠìĿ´ëĤĺ ë§Ī
ë³µ ì§Ģë¶Ģ
Ġìļ© ì§Ģ
ì¹¨ ëĮĢ
Ġê´ĳ ìĤ°
ĠìĿ´íķ´ ê³ł
íĭĢ ëŁ¬
Ġìĺ¤ë¥¸ ìĨĲ
ĠìķĦìī¬ ìĽĮ
Ġìĺ¤ìĿ´ ëĭ¤
Ġìľ¼ëĿ¼ êµ¬
Ġê¹ĬìĪĻ ìĿ´
Ġë©§ ëı¼ì§Ģ
ìĿ´ ëŀĺ
ĠëĤĺ ëŀĺ
ìĿ¸ ìĪĺ
Ġìŀ¥ ì°¨
Ġë°ĺ ì¦Ŀ
Ġëªħ ëŀĢ
Ġì°¸ íĺ¹
Ġë¬¼ ìĿĺ
Ġíĭ° ì¼ĢìĿ´
Ġê°ģ ìĦ±
Ġìķ¤ ëĵľ
Ġìłľê³± ë¯¸íĦ°
ĠìĪĺ ìĤ°ë¬¼
ĠëĤ´ ìĤ¬
Ġë§Ī ëĭ´
Ġìľł êµĲ
ê·¼ ê¹Į
íĹ ¬
ìĪľ ìĭł
ĠëĦĺìĸ´ ìĻĶ
Ġìī¬ ìļ¸
ĠìłĦë©´ ìłĦ
Ġë¶Ģì¶Ķ ê¸°
ë¿Į ë¦¬
ĠìĿ´ íľĺ
Ġê·¸ ìĦľ
ĠìłĦ ì¡°
Ġìłľ ëķĮ
ëıĻ ìļ±
ë°Ķ êµ¬ëĭĪ
Ġê´ĳ íĿ¬
ìĤ´ ì§Ŀ
ëĦĲ ëĵľ
Ġë¬¸íķĻ ìĥģ
ĠíĥĢìŀĦ ì¦Ī
Ġì¶ĺ ì¶Ķ
ĠíĺĦìĪĺ ë§ī
Ġê°Ģ ëĳĲ
Ġìĭľ ë°©
ĠìĪĺ íĻĶ
Ġìĭł ë§Ľ
Ġê¹Į ë§£
Ġë°ĺ íķ´ìĦľ
Ġë°ĺ ìŀħ
Ġë¬¼ ìĹ¿
Ġê¼Ń ê¼Ń
íĭ° ë¹Ħ
Ġìłķìļ° ìĦ±
Ġë¯¼ëħ¸ ì´Ŀ
Ġìºĺë¦¬íı¬ ëĭĪìķĦ
í ī
ĠëıĦ ê¹¨ë¹Ħ
Ġìĭľ ëł¨
Ġê¸° íĬ¹
Ġë°° íĭĢ
Ġë°ķ ìĹ°
ê·¼ ì²ĺ
Ġìĸĳ ì§Ħíĺ¸
ë°Ķ ëĿ¼ì§Ģ
Ġê°ĳ ìĥģìĦł
Ġìļ¸ ë¦°ëĭ¤
ë± ī
Ġì¡°íķ© ìĽĲ
ĠíĢ ĺ
Ġë´ħ ëĭĪê¹Į
Ġê°Ģ íĺķ
ĠëĬĶëį° ëıĦ
ëıĦ ë¡Ŀ
Ġìļ° ì²´
Ġìľł ëŀĺ
Ġê¹Ģ ë²Ķ
ê·¸ëŀĺ ëĳĲ
Ġì´Ŀ ëł¥
ĠíĻĺ ìłĪê¸°
ëŃ ī
ĠìĽĮ ëĿ¼
ĠíĹ¤ ìķĦ
Ġë¹Į ë¦°
Ġìŀ¥ëĤľ ì¹ĺ
ëłģ íģ¬
Ġìŀħë²ķ ë¶Ģ
ëĭ¤ ìļ´
Ġëĭ¤ ëıħ
ĠëĮĢ ê´Ģ
ĠëĤ´ ì¹ĺ
ĠìľĦ ê³Ħ
íļĮ ìłĦ
ìł¸ ìĬ¤
íı¬ ì¦Ī
ĠíĸĪìĹĪ ìĹĪ
ì£¼ë §Ĳ
Ġìļ´ìłĦ ìĦĿ
Ġë¹¼ë ¨¹
ĠìĥĪìļ° ìłĵ
ĠìĤ¬ ìłģ
ĠìĦľ ëĬĺ
Ġìĥģ íĳľ
Ġì¡° ëĳĲìĪľ
ìĦ± ìĸ´
íĶ ķëĭĪëĭ¤
ĠìĹĦ ë²Į
Ġëĭ´ ìļĶ
Ġê³łì§Ģ íĺĪì¦Ŀ
ĠìĬ¬ë¡ľ ê±´
íĹ¨ íĭ°ëĤĺ
ĠëıĦ íĨłë¦¬
ĠëĿ¼ ìļ°
Ġë¶Ī íıī
ĠíĽĦ ì¶§ê°Ģë£¨
Ġì°¸ ìĭł
ĠìĹ´ ëĮĢ
Ġëª° ëĳĲ
Ġìĸ´ì°Į ëĤĺ
Ġë©Ģ íĭ°
Ġìľłíĸī ìĸ´
ìĬ¤íĨł ë¦¬
ì¯§ ì¯§
ĠìľĦìķ½ ê¸Ī
ĠìĿ´ ë§ĺëķĮ
ĠìŀĲ ìĦĿ
ì£¼ íĥĿ
ĠêµŃ ì§Ħ
ĠìĨĮ íıŃ
Ġìĸ´ëĸ» ëĵł
ĠíĻķ ë¦½
Ġìľ¡ ë¥ĺ
ìĹŃ ìĤ¬
ĠíĤ¤ ìĽĮìĦľ
ĠìĿĮìķħ ê°Ģ
Ġë²łìĿ´ ì»¨
ĠëĲĺëıĮ ìķĦë³´
Ġë²¼ë ŀĳ
ĠìĿ´íĻĶ ìĹ¬ëĮĢ
Ġê¸Īê°Ĳ ìĽĲ
Ġëĵ¤ ìĿ¸
Ġë¶Ģ ì§Ħ
ĠëįĶ ëĵ¬
Ġìħ ī
Ġê¹Ģ íķľêµŃ
Ġë²ķ íķĻ
ĠìĨį íķľ
ĠëĶ°ëĿ¼ ëĭ¤ëĭĪ
Ġëľ» ê¹Ĭ
ĠìłĬ ìĿĮ
Ġì§Ģíľĺ ê´Ģ
ĠíĭĪ ìĥĪ
ĠìĭłëıĻ ìĹ½
Ġë¾° ì¡±
ĠìľĮë¦¬ ìĹĦ
ĠìĿ´ ê·ľ
ĠìĪĺ íķĺ
ìĪĺ ìķĦ
ìłĢ ê±°
Ġëĵ¤ìĸ´ ì¤Ħ
íĶĦ ë¦¬
ë°ķ ê·¼íĺľ
Ġêµ¬ìĦĿ êµ¬ìĦĿ
Ġì¡°ì¢ħ ìĤ¬
ĠìĺĪ ìĭľ
ĠìĦ¸ ìĭ¬
Ġë¶Ħ íĻį
Ġê´Ģ ë¬¸
Ġìľł ìĪĺ
ìĿĢ ìłķ
Ġëħ¸ ê³Ħ
Ġë°ķ ê¸°
ĠíĬ¹ íĮĮ
Ġì¶Ķ ìĤ°
ĠíĻĺ ê°ĳ
ĠëĬĺ ëł¤ìķ¼
ĠìĤ¬ìļ° ëĤĺ
ĠëĮĢ ìĨĮ
ëĤĺ ëŀĺ
ìķĦ ìĺĪ
ê·¸ ëŁ½
Ġìĭł ì¢ħ
íĻĶ ë©´
Ġìĭ¤ ë¦°
Ġë¶Ī ìĪľ
íĥľ ìĺģ
Ġíĺ¸ ì¶ľ
ëłĪ ëĤĺ
Ġì´Ī ìľł
Ġíķ© ìĤ°
Ġíİ¸ ë²ķ
ĠíĿĺëŁ¬ ëĤĺìĺ¤
Ġëĭ¤ìļ´ ë¡ľëĵľ
ĠëĮķ ê¸°
ëĭ¤íĸī íŀĪ
Ġê³ł ê¹ĥ
ĠëĿ¼ ê°Ģ
ĠëĤ´ ìĭ¬
ë§Į ê°Ĳ
Ġëª¨ ëĭĿ
ëı ĭ
ì¹ĺ ë§Ī
Ġê¹Ģ ëıĦ
ĠëĶ° ëıĮ
Ġì¤Ħ ê²ĮìļĶ
íĺĦ ì£¼
Ġë§¤ ìłĲ
ìłĪ ìĿ´
ĠëĤĺìĺ¨ ëĭ¤ë©´
Ġë©´íĹĪ ì¦Ŀ
Ġê¸°ìĸ´ ìĿ´
Ġìµľíĥľ ìĽĲ
Ġë¨¸ë¬´ ë¥´
ĠìĿĺ ìłķë¶Ģ
ĠìĪĺ íĿ¬
Ġìłķ ëħķ
ĠìļĶ ëĭ¹
Ġë¬´ ê³µ
íĸī ë³µ
Ġëį° ì¹ľ
Ġìŀ¬ ìķĻ
Ġê°Ħ ì£¼
Ġë¬¼ë °
Ġì¶© ìĽĲ
Ġì°© ìŀ¡
Ġë°ĳ ë°ĺì°¬
Ġëĵ¤ íĨµ
ĠìĿĺ íĸ¥
Ġìłľ ëıĻ
Ġêµ¬ ì¶ľ
Ġë¯¼ íĺ¸
Ġìĸ½ íŀĮ
ĠìĿ´íķĻ ëħĦ
Ġìĸ´ íķĻ
ĠìķĦ ë³´ì¹´
Ġíķľ íĮĲ
ì§ ĸ
ĠìĻ ģ
ë° Ł
ĠëĤ´ ìłĦ
ìĿĮ ìķħ
ë¹ ¼
Ġìĸĳ ìĨĲ
ì´Ī ë¦¬
ĠëĤ© ìŀĳ
Ġê²Ĳ ê°Ģ
ĠëĮĢ êµĲ
Ġì°¨ ìĿ¸
ì²Ń ìĻĢëĮĢ
Ġìĵ° ìĿ¼
Ġíŀĺ ì°¨
Ġì´Ŀ ìķĮ
ĠìķĦë§Ī ì¡´
Ġê¼Ń ëĮĢê¸°
Ġìłĳ ìłĲ
Ġíģ´ ë¦¬
Ġìĺ¤ë¥¸ ëĭ¤
ĠëļĿ ëļĿ
Ġíı¬ì§Ģ ìħĺ
ł Ģ
ĠëĤĺ ë¯¸
ĠìĿ¸ ìĪľ
Ġë¡ľ ìĹ´
Ġê·¸ëŁ¬ ë¯Ħ
Ġë³¸ íļĮ
ĠíĶ¼ íĦ°
Ġë§¤ ëª°
ĠìĨį ìĺĢ
ìĿ¼ë Ĥ
Ġë¹Ļ ìĥģ
Ġëªħë°± íŀĪ
Ġë°©ìĤ¬ ìĦł
ĠìĬ¤ë©° ëĵ¤
ĠëĮĢ ìĦľ
Ġë¡ľ ìļ¸
ĠìĦ¸ ì°¨
ĠëĶ Ľ
ê³Ħ ë¦¬
ĠìłĲ íı¬
Ġìĸ¸ ëĭĮ
Ġë§¤ ë¬¼
ëģ ½
Ġë§Ľ ìĹĨ
Ġìĸ¼ ìĸ´ë¶Ļ
ĠëĬĺ ë¦´
Ġê·¸ëł¤ ìł¸
Ġêµ¬íķĺ ëĿ¼
Ġìĸ´ëĳĲ ìĽĮ
ĠìŀĲìĦľ ìłĦ
ìĿ´ íĺ¼
ĠìĬµ ê¸°
Ġìĭľ ë©ĺíĬ¸
Ġê³¼ ì²ľ
Ġìĥģ ìĦ¤
Ġë¯¸ íĺ¸
ê±¸ ìļĶ
Ġëĵł ëĭ¤ê³ł
Ġë²Į ëł¤
Ġê·Ģ ìĤ¬
Ġê¹¨ ì¡Į
ĠìĮĢ êµŃìĪĺ
ĠìĿĺë¢° ìĿ¸
ĠìľłìĤ° ìĨĮ
íĮ½ ìĿ´
ĠëĳĲëĵ¤ ê²¨
Ġíİĺë¯¸ëĭĪ ì¦ĺ
Ġ **
Ġê³ł íķĺ
ìĤ¬ ìłĦ
ë§Į ì¶ĺ
ìłĦ ì²´
Ġëĭ´ íĮĲ
Ġíĺ¹ ëıħ
Ġë¿Į ë¦°
ĠíĿĺ ë¦°
Ġë³´ê±´ ìĨĮ
Ġê·¸ì¹ĺ ë§Į
Ġë°Ķìģľ ëį°
Ġìŀłìŀ¬ ëł¥
ĠìĿ´íĺľ ìłķ
Ġì´ĺ ì´ĺ
ĠìĿ¼ ì°Įê°Ĳì¹ĺ
ëĮĢ ë¶Ģë¶Ħ
ëŁ¬ íı¬ì¦Ī
Ġê²½ ì¹ĺ
Ġë¯¸ ìŀĲ
ë¹Ħ ë°Ģ
ìĭ¬ ì§Ģìĸ´
Ġë°ĺ ì£¼
Ġíı¬ ì§Ħ
ëľ ¬
ĠíĴį ê¸Ī
ĠìĦľíĥľ ì§Ģ
Ġëĭ¤ ì¹ł
ĠìļĶ ìŀ¥
íŀ ĻëĭĪëĭ¤
ë§Ī ì°¨
Ġë¯¸ ìĭĿ
ĠëıĻ ëıħ
Ġìŀ¬ ëł¥
ìĺ¬ ë¦¬
Ġë²ł ìĿ¼
íĹĪ íĹĪ
Ġìľ¼ìħ¨ ìľ¼ë©´
Ġì»· ìĺ¤íĶĦ
ĠëıĻë°ĺ ìŀĲ
Ġë¬¼ìĿĮ íĳľ
ĠìľłëŀĮ ìĦł
Ġë¶Ģ ìłľ
ĠìłĦ ìĨį
ëħ ¹
Ġìķł ì°©
íĹ Ĳ
Ġëĭ¤ê°Ģ ìĺ¨
Ġì§Ī ìĨĮ
ĠìĤ° íĸī
ĠìĤ´ìĿ¸ ë²Ķ
ì§Ħì§ľ ë¡ľ
Ġê°ķëĤ¨ êµ¬
ĠíĬľ ë¸Į
Ġë°ĺì§Ŀ ë°ĺì§Ŀ
Ġê·¸ëłĪ ìĿ´
ĠíħĮëłĪ ë¹Ħ
ĠíİŃ ê·Ħ
ĠìķĦ ëª¬ëĵľ
ê²Į ëįĶ
ĠìĪĺ ë§Į
Ġìĺ¤ ê³µ
Ġë°Ķ ë¹Ħ
Ġì§Ħ íķ´
ĠìĽĲ ëıĻ
Ġë°ķ ìŀ¬
ĠìĿ¼ë ªħ
ê³µ ìĽĲ
Ġìŀł ìŀĲë¦¬
ìĦ¼ ìĬ¤
Ġê·¼ íĻ©
Ġìľ¤ ëĳĲ
Ġê°Ģìł¸ ìĻĢìĦľ
Ġê¹Ģíĥľ íĺ¸
ĠíĬĢìĸ´ëĤĺ ìĺ¤
Ġíľĺë°ľ ìľł
Ġëª¨ëŀĢ ë´ī
ĠìĿ Ĭ
ĠëĮĢ ëŀĢ
ëŀ Ĺ
ĠìĪĺ ìĿ¸
Ġìłķ ë¯¸
Ġìŀħ ê°ģ
ìĿĮ ë£Į
Ġê´Ģ ëĮĢ
Ġìľł ê´Ģ
Ġê°ķ ê¸°
Ġë¬¼ ê¹Ģì¹ĺ
ĠíĮĲ ìĦ¸
ëĤł ëĳĲ
ĠíĪ¬ ê²ĮëįĶ
ëŀĮ íļĮ
Ġë¿Į ëł¸
Ġê³¼ë ĮĢ
ĠëĮĢì¤ĳ ìĥģ
ĠëģĪ ìłģ
Ġë¦¬ì¡° íĬ¸
Ġíķ´ ëĭµ
ìĬ¤ ì¼Ģ
Ġê³µ ì±Ħ
Ġìħ §
Ġë°© ì¤ĳ
Ġë¶Ī ìĥģ
Ġëªħ íĥľ
Ġìķł ìłĪ
Ġìķ½ ê´Ģ
ĠëıĪ ê°ĢìĬ¤
Ġì²´ ì§Ģë°©
Ġëĭ´ ë¡ł
Ġê·¼ ìĪĺ
Ġëĳĺ ëłĪ
ĠíĮ¨ ë°Ģë¦¬
ĠíĮĢ ìĽĲ
Ġìļķ ìĭ¤
Ġë£¨ ìĿ´
Ġëĵ¤ìľ¼ ìĭ¤
Ġë©Ī ì¶ľ
ĠëģĪ ëģĪ
Ġìŀ¥ë¡ĢìĭĿ ìŀ¥
Ġê²½ ìļ´
Ġë¶Ī íĨµ
íħĮ ìĿ´ìħĺ
Ġëĭ¤ìĭľ ê¸Ī
ë²Ħ ëł¸
ĠíĮĮ ë§Ī
ĠìĨĲ ë§Ľ
Ġì§Ī ì§Ī
Ġì¹´ ì§Ģëħ¸
ĠìĽĶ ëĤ¨
ĠìĤ¬ìĿ´ ì½Ķ
íĹĪ ë¦¬
Ġëª°ëŀĲ ëĭ¤
ìĬ¬ ë§ģ
Ġê¸Īì§Ģ ë²ķ
ĠìĿ´íķľ êµ¬
ëĿ¼ë¹Ħ ìķĦ
ì£¼ë²Ħ ëĭĺ
e n
Ġë³´ ì§ģ
Ġì§Ħ ëĭ¤ë©´
ì¤ į
Ġë¶Ī ìĿ´
Ġë¯¼ ìĪĺ
Ġì´Ī ìĿĮ
íİ «
Ġíķĺë£¨ ë¹¨ë¦¬
Ġíİ¼ì³Ĳ ì§Ħ
Ġì§Ģíľĺ ìŀĲ
ĠìĬ¤ì¹´ íĶĦ
ĠëįĶëįĶ êµ°ëĭ¤ëĤĺ
ëĶĶìŀĲ ìĿ¸
Ġê°Ģ ìĹ´
ìĦľ ìļ´
ĠìĿ¼ íĮĮ
Ġëªħ ìŀ¥
Ġê°Ħ íĨµ
Ġë§Įëĵľ ìħ¨
Ġìĭłë¢° ëıĦ
ì§ĢëĤľ ì£¼
ĠìķĦëŀĺ ìª½
Ġíİ¼ì³Ĳ ì¡Į
ĠìŁģ ë°ĺ
Ġë§¤ëĭ¬ ëł¤
ê³ł ëĵ±
ĠìĬµ ëĵĿ
Ġìĺ¤ ì´Į
Ġë¡ľ ìĽĢ
ëĬ ī
ĠêµĲ ë¬ĺ
Ġì§ĳ ëĭĪê¹Į
ĠíļĮ ìĥĿ
ìľĦ ìĦ±
Ġê°ķ ì§Ģ
Ġë¯¼ ìĺģ
íĳľ ìłķ
ĠíķĺìĸĢ ìĥī
Ġíį¼ë ľ
Ġì¡°ìĿĳ ì²ľ
ĠëıĦ ìĸ´
Ġì¡° ìĭ¬íŀĪ
ëŁ¬ ìĽĢ
Ġë¬´ ìĪł
ìĨĮ ìĬ¤
Ġë¶Ī ë©´
Ġë°ĺ ê³ł
Ġê°Ĳ ìĭĿ
Ġê¶Į íķ´
ĠìĻ¸ íķłë¨¸ëĭĪ
ĠëĦĺìĸ´ ìĦł
Ġíĳ¸ ë¥´
Ġíĭ ¸
ĠíĺĦê´Ģ ë¬¸
ĠíĬ¹íĮĮ ìĽĲ
ł ì§Ģ
Ġì§Ģ ëıħ
ĠëĤĺ ì¹ĺ
Ġë©´ ë°Ģ
Ġìłķ ìĿ¸
ĠìłĦ ëĿ½
Ġíķł ëĭ¹
Ġë¬´ ë¥´
ë³´ ëĿ¼
ìĿĢ íİ¸
Ġê¹Ģ ìĪĻ
Ġë§¤ ìĬ¤
Ġê³µìĤ¬ ìŀ¥
ĠìĿ´ê²½ ìķł
ĠëĤĺ ë¹´
Ġíķł ëĿ¼ë©´
Ġì¡° íĺķ
Ġìĭł ëĭ¨
ĠíķĻ ìĤ¬
ë°© ìļ¸
Ġì²Ń ëĭ´
Ġì¹ĺ ìķ½
Ġíİ¸ ìŀħ
Ġì¶© ëĭ¹
ëĭ¬ ëŀĺ
Ġìķħ ìĹ°
Ġíĩ´ ìŀ¥
Ġìĭ¤íĹĺ ìŀ¥
ĠìĭłëıĻ ë¹Ī
ĠìıŁìķĦ ì¡Į
ĠëĮĢì£¼ ì£¼
ĠìķĦë³´ì¹´ ëıĦ
ĠìĪĺ ê¸į
ĠìķĪ íĨł
ĠìļĶ ìķĪ
Ġê²½ ë¦¬
Ġì§Ħ ê²©
ĠìĶ¨ ë°©
íĺ¸ ìĺģ
ĠìĹĦ ìĹ°íŀĪ
ĠëĶ°ëĿ¼ ê°Ī
ê°Ķ ëĭ¤
ĠíĿĶ ì¾Į
íĳ ¹
Ġë¯¼ë ³Ģ
Ġíķłëł¤ë©´ ìĿĢ
Ġê¹Ģíĺķ ì¤Ģ
Ġë¬¸ë¬´ ìĿ¼
Ġì¤ĳíĻĺìŀĲ ìĭ¤
Ġcc tv
ì į°
ĠìķĦ ëŀĳ
Ġëĵ¤ ë¦°ëĭ¤
Ġì§ °
ĠìĿ¼ êµŃ
Ġìĺ¤ ëĭĪ
ë¬´ ìĭľ
ë¶Ģ ëıĻ
ìłĦ ë¶Ģ
ìĦł ìĪĺ
Ġê±¸ ë¦°ëĭ¤
Ġìµľ ëĭ¤
Ġë°ĺ íĴĪ
Ġëĭ¬ ëŀĳ
ĠìĹŃ ìŀĦ
Ġë³Ģ ê°ķ
Ġì²´ ì½Ķ
Ġì¶© ìłķ
Ġë³µ ì§ģ
Ġë´ī ì¤Ģíĺ¸
Ġê²½ìĺģ íķĻ
Ġë¦´ ëłĪìĿ´
íĶĦë¡ľ ê·¸ëŀ¨
Ġê¹Ģìłľ ëıĻ
Ġìĺ¤ ë¸Ĳ
ĠíĻĶ ë°±
ĠìĹ´ ëŀĮ
ĠíĪ¬ ë³ĳ
Ġê²½ìłľ ëł¥
Ġë°ľíĳľ íļĮ
Ġì§ľ ë¦¿
Ġìĥī ì±Ħ
ĠìĥģìĬ¹ ìĦ¸
Ġì¶ĺ íĿ¬
ĠëĤ´ìĦ¸ ìļ´
Ġë°ķì£¼ ìĦł
ĠìĪĺ ëıĻ
Ġìĺ¤ íĥĢ
Ġë§Ī ë¦¬ìķĦ
ĠêµĲ ì°©
Ġê°ķ ìĦĿ
Ġì¹ł ëłĪ
Ġìŀ¡ ìķĦê°Ģ
Ġëıħ íķĺ
ĠìĿ´ìĸ´ ë°Ľ
Ġì£¼ë¬¸ ìĦľ
ĠëĤĻ ìĹ½
ìĸ´ì©Į ë©´
Ġìĸ´ ìĬ·
ìŀ¥ ìĪĺ
Ġìĥģ ì¾Į
Ġê²° íķį
Ġëªħ ìĸ¸
ì¡° ìļ©
Ġì¶Ķ ìŀĲ
íĥĢ ìļ´
Ġê°Ī ëł¤ë©´
ĠìĺģíĻĶ ë°°ìļ°
ìĦ¤ íĥķ
Ġì½Ķ ì¹Ń
ĠìĪ¨ ê²¼
ĠëĤŃ ì²Ń
Ġë°Ģìĸ´ ë¶Ļ
ê³łë§Ī ìĽĮìļĶ
Ġì§Ģ íıĲ
Ġê±° ëĴĢ
Ġìĺ¤ ëĶĶ
Ġë¡ľ êµ¬ëĤĺ
ĠëĤ´ ë±ī
Ġì¤ĳ ìĽĲ
ĠêµŃ ì§Ģ
ì£¼ìĿĺ ìŀĲ
ìĻľ ëŀĢ
Ġì¿ł ë°Ķ
Ġs uv
ĠìĤ¬êµĲìľ¡ ë¹Ħ
Ġì§Ģë¦¬ ìĤ°
Ġë§ŀìķĦ ëĸ¨
Ġë¶ĢìĿĺ ìŀ¥
e t
ĠìĪĺ ì§Ħ
Ġìĸ ķ
Ġê³¼ ìĹ´
Ġê³Ħ ë¥ĺ
ì¤ įëĭĪëĭ¤
Ġëĭ¨ ê²°
Ġë§ĪìĿĮ ë¨¹
Ġë³µ ìĬµ
Ġë²Ķ ì£¼
ĠìķĪìłķ íĻĺ
Ġíĺ¼ë Ĥ¬
ĠìķĦìĿ´ìĬ¤ íķĺíĤ¤
ëĥī ë©´
Ġê°Ģ ëŀĺ
Ġê°Ģ ê²°
Ġíķĺ ìĪĻ
Ġìļ° ê¸°
ëĿ¼ë ĵłê°Ģ
Ġì§ģ ìĨį
Ġíĥľ ì§ĦìķĦ
ĠëıĮìķĦ ìĺµëĭĪëĭ¤
íıī ìĸĳ
ĠíĴį ê³Ħë¦¬
ìŃ Ī
Ġëĸ¡ êµŃ
Ġê²ī ìłĪìĿ´
Ġë³´ê±´ ë³µì§Ģë¶Ģ
Ġëĳ¬ ìĦľ
Ġìŀī ê¸Ģ
Ġë¬¼ëł¤ ì£¼
Ġì²ľë¬¸íķĻ ìŀĲ
Ġë¹ĦíĭĢ ì¦Ī
Ġêµ¬ê¸ī ì°¨
Ġíķĺ ëª¨ëĭĪ
Ġë³´ ìĸĳ
ĠìłĦ ìĹ¼
ë§Ī ìĿ´
Ġê°ľ ëĺ¥
ĠìĽĲ ìĥģ
ĠìĬ¤ ëħ¸
Ġê°ķ ëıĻ
ë³µ ìŀĲ
Ġìļ© ì¢ħ
ĠìķĮëł¤ ìķ¼
ĠíĻ© íķĺëĤĺ
Ġë©ĭ ëĮĢë¡ľ
Ġì½¤ íĶĮëłīìĬ¤
ĠìĪĺëĩĮ ë¶Ģ
ì§Ģë°° ìĿ¸
Ġíķĺ íĸ¥
Ġê¸° êº¼ìĿ´
ìļ° ë¨¼
Ġì§Ħ ì²Ļ
ĠíĨµ ì§Ģ
Ġê¶Į ì´Ŀ
Ġì±ħ ìŀĲ
ĠìĻ¸ ê³¼
Ġìª ĺ
ĠìķĮìķĦ ë³¸
ĠìĦĿ ìĤ¬
ĠëĬĲëĤĢ ëĭ¤
Ġëħ¸ëŀľ ëį°
ìĿ¼ëĤ ł
1 00
Ġê°Ģ ìĦ¤
ìŀ Ĭ
Ġê³¼ íķľ
Ġíı¬ ìĺ¹
Ġì¢ħ ìĭľ
Ġì¢ħ ìĭĿ
ë¶Ī íİ¸
Ġíĸ¥ ìĭł
ĠìĬ¤íĥĢ íĤ¹
Ġê°Ģë¥´ ì¹¨
Ġê³± ì°½
Ġìĸ´ë²¤ ìł¸ìĬ¤
Ġê°Ģ ëľ©ìĿ´ëĤĺ
ĠìĤ¬ ëĭ¤ë¦¬
ĠìĹ¬ ì§ģ
ĠêµŃ ê°Ħ
ìĿ¼ ê¸°
ĠìĨį ì´Ī
Ġìŀł ìłģ
Ġìĺ¬ëĿ¼ ìĺ¬
Ġê·¸ë§Į ëĳ¬
Ġê³¨ ë±ħìĿ´
ê¹Ģ ìłķ
Ġíİĺ ë¥´
ĠìĭľìľĦ ëĮĢ
ĠìĨįìĥģ íķľ
ĠìĹİ ëĵľëł¤
ĠíĮĮìĿ¸ ìķłíĶĮ
Ġìĭł ëĮĢìļĶ
Ġë°© ì¶ľ
Ġëªħ íļĮ
Ġê°Ĳ ëªħ
ĠíĹĪ ê²½íĻĺ
ĠìĤ° íĽĦ
ĠíĻľëıĻ ê°Ģ
Ġëģ¼ ì¹ł
ë§¨ ëĤł
ĠìĿ´ë¦¬ ìłĢë¦¬
Ġë¬´ëĦĪ ëľ¨ë¦¬
ĠëĪĮëŁ¬ ìĦľ
Ġê¼° ëĮĢ
ĠìĽĲíĿ¬ ë£¡
ĠìĦľ ê±°
Ġì¡° ë¦½
Ġìĭł ì§Ħ
Ġì²ĺ ì¹ĺ
Ġê°ķ ëł¹
Ġë³¼ íİľ
Ġíķ¨ ê²½
Ġìĸĳ ê¶ģ
Ġë³Ģ ìĿ´
Ġì±Ħ ìĭĿ
Ġìłķìĭł ìĹĨ
íį¼ ëĭĪ
ĠëĤ¸ ëĭ¤ê³ł
Ġíİ¸ì§ĳ ìŀ¥
Ġê°Ģìł¸ëĭ¤ ì£¼
Ġë§Īëķħ íŀĪ
Ġê³ł ë¥¼
Ġë§Į ëģ½
ĠìļĶ ìĭľ
ĠìĹ¬ ê°Ŀ
ĠëıĻ íĺģ
Ġë°ľ ë°Ķëĭ¥
Ġëł ¬
ĠëıĮ ë¦°
ĠíĶĦ ëŁ¬íı¬ì¦Ī
ĠíĬ¸ ëłģíģ¬
ë§Ŀ ìĿ´
ĠíĹĪ ìłĦ
ĠëŁ¬ ìĬ¤
Ġê°ģ ì§Ī
ĠëĨ¨ ëĭ¤ê°Ģ
Ġëª¨ íĭ°ë¸Į
Ġìľł ë¬¼
ĠìĬ¤ íĭ°ë¸Į
Ġì¶Ķ ìĬ¤
Ġíĺ¸ ëĤłëĳĲ
Ġì¢ħ ìĤ¬ìŀĲ
Ġë¦¬ ìĸ¼ë¦¬
ë°Ķ ëĿ¼ê¸°
ĠíķŃ íķ´
ĠíķŃ ìĿ¼
ĠìĬ¹ ìĥģ
Ġêº ¼ë¦¬
Ġì¡´ ìĨį
ëłģ ìĿ´
ĠíĮĮìĿ´ íĶĦ
Ġë¥´ ëĦ¤
ĠíĻ©íĥľ ìŀĲ
Ġë²¼ ìĬ¬
Ġìĥģíĥ ŃëĭĪëĭ¤
ìĿ´ìķ¼ ê¸°
ê¸° ìĹĲ
Ġì² ¼ë¡ľ
Ġë°° ìĽĢ
Ġë§ī ë¡ł
ĠìĻ¸ ë¬´ìĦ±
Ġë¦¬ ì½ľ
ĠíĨł íķĺ
ĠíĻį ìĦĿ
ĠëĨĶ ëĿ¼
Ġëį°ìĿ´ ë¹Ħ
ëĭ¤ êµ¬
ĠëĤĺ ëŃĩ
Ġìĥ ¹
Ġìłķ ê´Ģ
ĠëĿ¼ ê±°ëĤĺ
Ġì£¼ íĮĮ
ìļ© ìĪĺ
ĠíĨµ ì°°
ĠíĮĶ ì§±
ì²ľ ì§Ģ
ĠíĿ¬ ìĦĿ
ĠìĿ½ íŀĪ
ëıĮ ìķĦê°Ģ
êº¼ ê¸°
ĠìĨ¡ìĺģ ë¬´
ĠìļĶë§Į íģ¼
Ġíķľ ìķĦë¦Ħ
ĠëıĦ ìĿĺ
ĠìĬµ ê²©
Ġìłľ ìĤ¼
ë¬´ ì¡°ê±´
ĠìķĮ ìĦł
Ġêµ° ê¸°
íĶĦ ëŀĢ
Ġì´Ī ë¦¼
ĠìĦłê±° ìłľ
ĠìĬ¹ íĺĦ
Ġë´Ħ ëĤĺë¬¼
ĠíĿĶëĵ¤ ë¦´
Ġê³łìľĦ ì§ģ
Ġìĭ¤ë¬´ ìŀĲ
Ġì§ģìĦł ìłľ
ì«Ħ ê¹ĥ
ĠëıĦ ë©´
ĠìķĪ ëĮĢ
ëĭ¨ ì§Ģ
Ġë¶Ī ìĳ¥
Ġë§ĪìĿĮ ê°Ģì§Ĳ
ìĦ¼ íĭ°ë¸Į
ĠìĹ¼ ìĨĮ
Ġíķľ ìłĦ
ĠìłĦ ì°¨
Ġìĭł ìŀĲ
Ġìĭł ìŀ¬ë¯¼
ĠìķĮ ë¦¼
ĠìĹ° ì¤ĳ
Ġì²ĺ ìłĪ
Ġëł ¸
Ġìķŀ ë¶Ģë¶Ħ
Ġìĭ¬ íıĲ
ĠíĶ¼ íĬ¸
Ġë§¤ ìĽĶ
ĠìłĪ ìłĪ
ìķħ ê¸°
ëħ¸ ìĨĮ
Ġì³Ĳ ìļĶ
Ġì»´ íį¼ëĭĪ
Ġê³łë§Ī ìĽĢ
Ġê¹Ģíĺľ ìĪĺ
Ġìĭ¤ìĹħ ìŀĲ
ĠìĸĮ ìłĦ
Ĳ ľ
Ġì§Ģ íĽĪ
Ġìłķ ìĦĿ
Ġê±´ ëĦ¨
ìĻĢ ìĿ¸
Ġê°ĢìļĶ ìłľ
Ġê°Ģë²¼ ìĽĮ
ĠìĹĶì§Ģ ëĭĪìĸ´
Ġìĭľ ì¹´
ĠìĪĺ ìĹ¬
ĠìļĶ ì§ĳ
ìļ° ìĻĢ
Ġê²½ ìĿ´
ë¶Ģ ìĥģ
ëĭ¹ ë¶Ħ
ìĶ ©
ĠíĻĶ ëĭµ
Ġíķ¨ ìĦ±
ê³µ íķŃ
Ġíĺ¸ ìłĦ
Ġíĥľ ìĭĿ
Ġì°½ ê°Ģ
ĠìķĦíĮĮ íķĺ
Ġëį°ëł¤ ìĻĢ
Ġìŀ¬ìłķ ë¶Ģ
Ġì¤ĳê³ł ì°¨
³ µ
Ġìłķ ìķĦ
ìĸ´ ëĵľ
Ġìķ¼ ê²½
ĠìĦ¤ ìłĦ
Ġì¢ħ ìĺģ
Ġíİ Ļ
Ġê·¼ ìĭ¬
ìĸĢ ë§Ī
Ġíģ¼ ì§ģ
ëĭ´ëĭ¹ ìŀĲ
ĠíĢĦ ë¦¬íĭ°
Ġê·¸ë ¬¼
ĠìĤ¬ ì¹ĺ
ëĮĢ íķĻ
Ġì¡° ê°ķ
Ġì¤ĳ ìĦ¸
Ġì°¨ ê³¡
ĠêµĲìľ¡ ë¹Ħ
ĠíĦ° ëľ¨ë¦¬
Ġì¡Į ìĹĪ
Ġì±Ļ ê¸´
Ġíĺľ ìĦ±
ĠìĤ´ëł¤ ìķ¼
ê°Ģ ìĪĺ
ĠìĪĺ ë°ĺ
ìŀĲ ì£¼
Ġì¡° ë¥ĺ
Ġê³µ ì²Ń
Ġê±´ ëĵ¤
ĠìĭĿ ì¤ĳëıħ
Ġì¹ĺ ê³ł
íı¬ íĻĶ
ë¸Į ëĿ¼
íħ Ģ
ĠìĨ¡ ê°ķíĺ¸
Ġìķķ ë¥ĺ
ĠëĽ°ìĸ´ ëĭ¤ëĭĪ
ĠìĿ´ê²¨ ìķ¼
ĠìĶĮ ìĽĮ
ĠìĿ¼ ìĦĿ
ìĭľ ì¤ĳ
Ġìļ° ë¥´ë¥´
ĠìĦľ ìĭł
ë¯¸ ëŀĺ
Ġê°ķ ë¬¼
Ġë¶ģ ê²½
ĠìłĲ ë§ī
ĠíĮĲ ëıĦ
ê¸¸ ëıĻ
Ġì±Ħ ìļ¸
Ġë°Ģ ì§ĳ
íĽ ¼ìĨĲ
Ġë¸Į ëłī
Ġìĸ´ë¨¸ ëĭĮ
Ġìļ¸ íĥĢë¦¬
Ġì°Į êº¼ê¸°
Ġê¹Ģìĺģ ëĤ¨
Ġëĵ¤ìĸ´ê°Ħ ëĭ¤ê³ł
Ġê¼´ ì°Į
Ġëĳ¥ ì§Ģ
Ġê¸Īê°ķ ìķ¼ì°¨
ĠíĦ¸ìĸ´ëĨ ¨
Ġì§Ģ ë©´
ĠìĿ¸ íĶĮ
ĠëĮĢ ë¯¸
ì§ §
ìĭľ ìĦ±
ĠìĦ¸ ìľ¨
Ġíĥ ¤
Ġê²° ë³Ħ
ĠíļĮ ìĥī
ë§¤ ìŀ¥
Ġë°ľëªħ ê°Ģ
ĠìĶĮ ìļ°
ĠëĦ¤ ë¹Ħ
ìĿ¼ ì¹ĺ
ĠíĨµ ìĪĺ
Ġë°ķ ì£¼ë¯¼
Ġìķł ëıĦ
Ġë¯¼ ì§Ģ
ĠìĭĿ ë¹Ħ
ĠìĤ¬íļĮ íķĻ
Ġëı¼ë²Ħ ë¦°
Ġìķłíĺ¸ ë°ķ
ĠìŀĲíĮĲ ê¸°
Ġê·¸ ìĥĪ
Ġê³ł íĿĲ
ĠëĮĢ ëıĦ
ê°Ģ ë¶Ħ
Ġë¶Ģ ì¹¨
Ġë¹Ħ ë£Į
Ġì²ľ ìĥģ
Ġì¹ĺ ë£¨
íĺĦ ìļ°
ĠíĦ° íĬ¸ë¦¬
ì£¼ë ³Ģ
ĠëĿ¼ìĿ¸ ìĹħ
ĠìĨĮíĻĶ ê¸°
ĠìĹ¿ ë³¼
Ġê±´ëĦ ¸
ĠìĿ¸ ìĦ¼íĭ°ë¸Į
ĠëĮĢ ëĤĺë¬´
Ġìľ¼ë ŀĢ
Ġìłķ ìĿĢ
ĠëĤ´ ëĭ¤ë³´
Ġë¶Ħ íĻĶ
Ġë¬´ ì³Ĳ
Ġì§Ħ ìĪĻ
ë¦´ ëĿ¼
Ġìĸĳ ì¡°
Ġìĺ¨ ëį°
ĠìĬ¤ëŁ¬ ìĽĢ
Ġê»´ ìķĪ
Ġë°ĶëĿ¼ë´ Ĳ
ĠìķĦ ë¡ľ
ĠìľĦ ìĿ¸
Ġë°© ìĭ¬
ìĨĮ ìĭł
ĠëıĻ ëĵ±
Ġë°° ìĽħ
Ġë°ķ ëĤĺëŀĺ
ì°¨ ê¸°
ĠëĮĢíĳľ ìŀĳ
ĠíĮĮ ìļ°
íĭ° ìĺ¤
Ġìłķìĥģ ê·¼
ĠíıĲ ë§ī
Ġê¹¨ ìĽĮ
Ġì¡¸ ë¦¬
ĠìĿ¸ê¶Į ë²ķ
Ġíķ´ì§Ģ ì§Ģ
Ġê°¤ ëŁ½
ëĤĺ ìĺģ
ĠêµĲ ìĹŃ
ì²Ń ì·¨
ĠíĮĮ ìĹ´
Ġìĸ¼ë ¦¬
ĠíĶĦë¡ľ ê·¸ëŀĺ
íĭ° ìĬĪ
ĠíĨł ëĭĪ
ĠëĬĺ ìĸ´ì§Ģ
ĠìĮĵ ìĺĢ
ëĮ Ī
ĠëĲĺëıĮ ëł¤
ĠìĪĺìłľ ë¹Ħ
Ġêµ¬ëıħ ìŀĲ
Ġìµľìĺģ ìĿ¼
in g
Ġê°Ģ ëĬĺ
ĠëĭĪ ëĿ¼
ĠëĤ¨ ê·¹
ëį ®
ĠíıŃ ìļ°
ìĻ¸ êµŃ
ĠëĤĺíĥĢ ëĤ©ëĭĪëĭ¤
Ġì§ĵ ë°Ł
Ġê°Ģë¥´ ì¼ľ
ĠëĤ´ìĦ¸ ìĽĮìĦľ
ĠìĬ¤íĥĢíĬ¸ ìĹħ
Ġìĺ¤ëĿ½ ê°ĢëĿ½
Ġìĥ¤ìĿ´ ëĭĪ
c t
Ġê°Ģ ë©´
ĠìĪĺ ëĤ©
Ġìłķ ìĿ´
ìĿ¸ ê°Ħ
ĠìĽĲ ìĨĮ
ìĨĮ ìŀ¥
Ġìµľ ìĦ±
Ġíı¬ ìľĦ
ĠíĪ¬ ìĭł
Ġë²Īíĺ¸ íĮĲ
Ġë©Ī ì·Ħ
ĠíĿĳ ë°±
ëĪĦêµ° ê°Ģ
ìļĶ ë¦¬
ĠìĤ¬ ìĥī
ëĤĺ ìĹ°
ìĤ¬ íļĮ
Ġìłľ ìĨĮ
Ġìĥģ ê¸ī
Ġì°¨ ëıĮ
Ġëĭ¨ íĸī
Ġê°ķ íĿ¬
ĠíĮĮ ê¸ī
ìŀħ ëĭĪê¹Į
Ġì²ł ê°ķ
ìķĦë¬´ ê²ĥ
ĠìķĦë¥´ íĹ¨íĭ°ëĤĺ
Ġì°° ëĸ¡
Ġê·¸ëĶ ´
ĠìĿ´ ê³Ħ
Ġê³ł ìĿĮ
ĠìĤ¬ ëĺĲ
ĠìļĶ ìĪĺ
ĠìłĦ íĻľ
Ġìľł ëĭĽ
ìķĪ ìłĦ
ĠíĻį ìĦ±
p l
ĠìķĦ ìĹ°
Ġë³´ ë°°
ìĸ´ ëĤ¸
ĠìĦ¸ ëª¨
Ġë§Ī ëĭĪìķĦ
Ġëĵľ ëŀĺëıĦ
ĠíĽĦ ë©´
ĠíĮĶ ì°Į
Ġì¶Ķ ëĮĢ
Ġíķ© íķĺ
ĠëĵŃëĭĪëĭ¤ ìĿ´
ĠìĿĺë£Į ë¹Ħ
Ġëĵ¤ìĸ´ìĻĢ ìķ¼
Ġë¦¼ íĶĦ
ì ¸°
Ġê·¸ ê¹Ł
Ġê³ł ê±´
ĠìľĦ ëĵľ
Ġê¹ ģ
Ġê¹Ģ ìĻĦ
Ġëį° íĶĦ
Ġë¶Ī ìĤ¬
ĠíĬ¹ ìĥī
ĠìĭĿ íĺĢ
Ġê·¼ ê°Ħ
Ġ201 4
Ġíĥķ ìķ½
Ġìłł ëįĶ
ĠìĭľëģĦëŁ¬ ìĽĮ
ê·¸ëĤĺ ìłĢëĤĺ
Ġìĺ¥íĥĳ ë°©
Ġë¯¸ ëĭ¬
Ġëĭ¨ ë§Ĳ
Ġëªħ ìļ´
ĠíĪ¬ ìĤ¬
ëĪ Į
ĠìĿĺìĤ¬ ìĨĮíĨµ
Ġì¹¼ë Ŀ¼
ĠìĪĺìĭĿ ìĸ´
Ġìĸ´ ë¦¼
ĠìĬµ ëıĦ
Ġêµ¬ ëł¤
ìĥģ ìĽĲ
ëĦ¤ ìŀĦ
ëĦ¤ ìĬ¤ì½Ķ
Ġìľ¡ ìĥģ
ĠìłĪ ìłķ
Ġìĭ¸ ìĽĮìķ¼
Ġê¸ī íķ´ìĦľ
Ġì°¾ìķĦ ê°Ī
Ġ3 1
Ġë½ĳ íŀĪ
Ġëģĵ ìĸ´
ĠìĭłìĥĿ ìķĦ
ĠìĹĲ ëĵĢ
Ġìľ¼ë¡ľ ìĦł
ĠìļĶ ëŁ¬
Ġê²½ ì°¨
ĠìĹ° íķĦ
íļĮ ìĽĲ
Ġë°° ëĤŃ
ĠëĪĦ ìĿ´
Ġë²Ħ ë¦¼
Ġëª¨ìŀĲ ëŀĢ
Ġìĭľì§ĳ ê°Ģ
Ġë¶Ģë¥¸ ëĭ¤
Ġìŀ¥ëĭ¨ ìłĲ
ĠìĤ¬ ìĭ¬
ĠìĽĲ ì£¼ë¯¼
ĠìĨį ìħĪ
Ġíį¼ ì¦Ĳ
íĭ° ìķĦ
ĠíĿĲ ë¦¬
ĠíĻĢ ê°Ģë¶Ħ
Ġë°Ķì§Ģ ëĿ½
ĠíĻ©ë³ĳ ìĦľ
ĠìŀĲ ìĿĢ
ĠìłĦ ì§ĢíĺĦ
Ġë¹Ħ ì§Ģ
ëĦ ¥
ĠëıĻ ë°©
ĠíķĻ ë¹Ħ
Ġë°° ìĦĿ
ëĳĲ ë£¨
ĠìĻ¸ ìĤ¼ì´Į
ĠíĮĲ ìĨĮë¦¬
Ġë¡ ¬
ĠëĪĦë¦¬ ê¾¼
íķĳ íģ¬
Ġê°Ģë¥´ ì³¤
ĠíŀĪ íĭĢëŁ¬
Ġì¤į ëĭĪê¹Į
ëĭ¹ë¶Ħ ê°Ħ
ìĸ´ ìĿ´
ĠìłĦ ëħĲ
ĠëĬĲ ìĬ¨
ê²° ê³¼
Ġì±ħ ë¬´
Ġë°¥ ìĨ¥
Ġìį¨ ëĿ¼
Ġìļ´ìłĦ ìĤ¬
Ġê·¸ëł¤ ì§Ģ
ĠíĨ¡íĨ¡ íŀĪ
ĠìĦ£ ë¶Īë¦¬
Ġê¸°ë§ī íŀĮ
Ġì ¬Ĳ
ĠìĤ¬ ì¹Ń
ìĬ¤ íı¬
íĻ© íĽĦ
ĠëĴ¤ íĿĶ
Ġíĥľ ìķĦ
ĠíĻį íķ©
íĮĢ ìŀ¥
Ġëĭ¤ íī
Ġìĭľ ì°¨
ĠëĲĺ ì§ļ
Ġê¹Į íİĺ
Ġì¤Ħ ê»ĺ
Ġíĺ¸ ê°Ģ
Ġìĸ¼ë§Ī íģ¼
ĠìĭľíĤ¨ ëĭ¤ëĬĶ
łĪ ìĿ´ëĵľ
Ġì§Ģ ê°Ħ
ë° ĳ
Ġìļ° ëĮĢ
Ġìĭł ì¶ķ
ĠëıĻ ì¹ĺë¯¸
íĺ¸ íĺ¸
Ġë³¸ ìĿĺ
Ġì¹ľ êµ°
ĠëĨĵ ì¹ł
ì´ ¬ìĺģ
Ġê·Ģ ì¶Ķ
ê²Ģ íĨł
Ġë¹Ħë°Ģ ë¦¬
ìĪ¨ ìĹĲ
ĠìĿĦ ëĿ¼
ê¹Į ë´Ĳ
ĠìĿ¸ ìĭł
Ġìłķ ëŀµ
Ġë¬´ ìĸ¼
Ġë¶ģ ìľłëŁ½
Ġì£¼ë Ĳľ
ê¹ į
íĺĦ ìŀ¥
ë³µ íĿ¬
Ġëª° ë¥´
ĠëĥĪ ìĹĪ
ĠìĭľíĤ¬ ëł¤ê³ł
ĠëĵĢ ìĺ¤
ĠëıĦ ìŀĲê¸°
Ġê±° ë³ĳ
ìĿ´ ë©ĶìĿ¼
ĠìļĶ ì¡°
Ġì§Ģê¸Ī ê»ı
Ġìĸ´ìļĶ ìĺ¤
Ġë¶Ħ íķĺ
ìĺ¤ ìłĦ
Ġë¯¸ ìĽĢ
Ġê¹Ģ ìĦĿ
ê·¼ ìĪĺ
ë§ī ìĿ´
Ġíĺ¼ íķ©
Ġë°Ģ ëł¸
ĠìĪ¨ ê¸´
ĠëĴ· ë©´
Ġê±¸ìĸ´ ìķ¼
Ġëĵ¤ìĿ´ ë°Ľ
ĠìłĦëĭ¨ ì§Ģ
s s
Ġê·¸ ìŀĲ
ìĿ´ ìĤ¬
Ġê¸° ë³´
Ġìłľ ë¹Ħ
ĠêµŃ ìĦł
Ġìŀ¬ íĻĶ
íĥľ íĽĦ
Ġë³¼ íĬ¸
Ġì´Ī ëĿ¼
Ġê¸Ī ê´´
Ġìŀł ê·¸
Ġì½Ķ ë©ĺíĬ¸
ĠíıŃ ìĬ¤
Ġìłĳ ìłĦ
ĠíĮ¬ íĭ°
ĠìłĢì§Ī ëŁ¬
ĠíĶĦë¦° íĦ°
ĠìĺĪ ìĤ¬
Ġë§Į ìĹ°
Ġìĺ¤ ìķĦ
ìķĦ ëĭĮ
Ġê²ł ìĸ´ìļĶ
ĠìłĦ ê°Ģ
Ġë§Ĳ ëģĶ
Ġëª¨ ì¹ľ
ëĿ¼ë ĳĲ
ĠíĬ¸ ìĿ¸
Ġë²Ķ ìĥģ
ë©Ķ ëī´
Ġìī¬ ìļ´ëį°
ĠëĤĺëĪł ìł¸
Ġê³µíķĻ ë¶Ģ
Ġì§ĢëĶĶ íĶ¼
Ġíķ´ ë¦¬
Ġìłķ íĻĺ
ì§ ¤
Ġìĺ¤ ì¢ħ
ĠìĹ¬ ê°Ģ
ìĹ¬ ìĦ±
ĠíĬ¹ ê³µ
ì¶ķ íķĺ
Ġë§¥ ìĬ¤
Ġìŀ¬ìĪĺ ìĤ¬
ĠëıĻìĦ± ìķł
ĠìłľìĪĺ ìĶ¨
2 5
Ġëĭ¤ ì¤ĳ
ĠìĪĺ êµ¬
ìĤ¬ ìĹħ
Ġë¶Ħ ë¶Ħ
Ġëħ¸ ëŀ«
Ġíı¬ ìĥģ
Ġë²Į ì»¥
Ġëª° ëł¸
ĠìĹĲìĬ¤ ìĺ¤
Ġê³¡ ë¬¼
íĹĪ ëĭĪ
íĮ¨ ìĬ¤
ëļ «
Ġë´īìĤ¬ ìŀĲ
Ġê°ģë³Ħ íŀĪ
ĠìķĦ ìĤ¬
ë¦¬ ëĤĺ
Ġê²Į ìľ¼ë
ë° ĭ
ìĶ ¸
Ġê°ľ íĳľ
Ġìļ´ íķŃ
Ġíİ¸ ì°®
Ġì±Ħ ìļ´
Ġì½Ķ íĶ¼
Ġìĸµ ë¥ĺ
ĠìłĦë¬¸ ìłĲ
ĠìĻķ ë³µ
ĠìŀĳìĹħ ìĭ¤
ĠìĬĪ ê°Ģ
Ġëĭ¤ëĦ¤ ìļĶ
êº¼ íĴĢ
ĠíĮ¨ê¶Į ì£¼ìĿĺ
Ġë©± ìĤ´
ĠìĿ´ ìľ¨
Ġê°Ģ ìŀĲ
ìĦľ ì¤Ģ
Ġì§Ģ ëĿ¼
ĠìĿĢ íıī
ê³ł ìĨį
ĠìĤ¬ ìĦ¸ìļĶ
Ġì£¼ ìłķ
ìŀĲ ìŀ¬
ìłķ ë³´
ìĿ¸ ìĥĿ
Ġë¶Ī íļ¨
ĠìĻ¸ ìĽĮ
ĠíĹĪ ë¸Ķ
Ġê·Ģ íĻĺ
ĠíĶ¼ë ł¥
ĠìĦĿ ìĹ°
ìĹĦ ë§Į
ìłł ëĭ¤
Ġê¼¬ ë§ī
Ġëģĵ ìĺĢ
Ġê³łëł¹ íĻĶ
ĠìķĦ ìŀĲ
Ġì§Ģ ìļ±
ĠìĿ¼ ìĤ¼
Ġë¹Ħ ìĪł
ĠìĤ´ ë¦°
Ġìłķì¹ĺ íķĻ
Ġë¹ł ëľ¨
ĠëĮ Ĳ
Ġëıķ ëĭĪëĭ¤
Ġê°ķê²½ íĻĶ
ĠìĿ¼ê¸° ìŀ¥
Ġíħľ íı¬
Ġìĸ´ ìĹ¬
ĠëĤĺ ìĦŃëĭĪëĭ¤
ĠëĿ¼ íĭ´
ĠëĤ´ ëª°
ĠëĲĲ ìľ¼ëĭĪ
ì¡° ë¬¼
ĠíĶĦ ëłĪìĬ¤
Ġë¦¬ ìļ°
Ġê¾¸ ë¯¼
Ġì£¼íĥĿ ê°Ģ
ĠëĤłìķĦ ìĺ¤
Ġëıħë¦½ìļ´ëıĻ ê°Ģ
ĠìĿ´íļ¨ ë¦¬
Ġëĭ¤ ìļĶ
ĠìĤ¬ ìĦĿ
Ġíķ´ ì»¤
Ġì² ¸
Ġìłľ íĬ¸
ë² Ĺ
ìĺģ ìŀ¥
Ġì¤Ħ ìĿ¸
ĠìĹŃ ëª¨
Ġì½Ķ ìķŀ
ĠëĨį ìĸ´
Ġë¯¼ë ³ĳ
Ġìķ¼ë ¬´
Ġë§ĪìĿ´íģ¬ë¡ľ ëĭ·
Ġì´ĪìĿĮ íĮĮ
ĠëĤ´ ìī¬
Ġì¹ µ
ìĿĺ ê¸Ī
Ġë°ĺ ë¯¸
Ġì¹ľ íĸĪ
Ġêµ° ê´Ģ
ìłĲ ìłĲ
Ġìłķì¹ĺ ëł¥
Ġë°Ģ ëł¤ìĦľ
ĠíĦ° ë¬´ëĭĪ
ĠìĪ¨ ê¸¸
Ġëª¨ìĬ¤íģ¬ ë°Ķ
ĠìķĦ ìłłëĭ¤
Ġìłķ ëŁī
ìķĦ ê¸°
Ġê²ł ìĸ´
ĠìĨĮ ìļ¸
Ġìĺģ ëıĻ
Ġë¶Ī ë¥´
ĠëĨĵ ìĿ´
Ġê·¸ëŀ ľëĵľ
íİ Ļ
Ġêµ¬ëĤĺ ìķĦ
Ġê·¸ë§Į ëĳĶ
ĠëłĪ ìĬ¨
ë¨¼ íĬ¸
ĠìĨĮê¸Ī ë¬¼
Ġë¶ĢìĦľ ì§Ģ
Ġë°ķì°¬ íĺ¸
Ġìħľ ë¡Ŀ
ĠìķĦìĿ´ìĸ¸ ë§¨
Ġìłķ ìļ´
ëıĦ ìłĦ
ê·¸ ëĿ¼
Ġë§Ī ëĤĺ
Ġì§ĳ ìĸ´
ĠìĻ¸ ê³ł
ë°Ķ íĢ´
íı¬ ì§Ħ
Ġíį¼ìĦ¼íĬ¸ íı¬ìĿ¸íĬ¸
ĠìłĢê¸° ìļĶ
ê·¸ëŁ¼ ìĹĲëıĦ
ĠìĻķ ìĦ±
Ġë°ĶìĿ´ íĤ¹
ĠëªħìĺĪ íĽ¼ìĨĲ
ĠìĬ¤ìľĦ ì¹ĺ
Ġìµľìĥģ ìľĦ
íĬĢ ê¹Ģ
Ġë§Īì°¬ê°Ģ ì§ĳëĭĪëĭ¤
ĠìŀĦì§Ħ ìĻľëŀĢ
¥ ëĭĪëĭ¤
Ġê°Ģ ë¶Ħ
Ġê±° ìħ¨
ĠëĤĺ ëĤł
ĠëįĶ ìļ¸
Ġë¬´ ìłľ
Ġëħ¸ ëĭĪ
Ġìµľ ì§ĢìĿĢ
Ġëĵ¤ìĸ´ ìĦ°
ĠíĬ¸ ëĿ¼
Ġë³Ħ ë£¨
Ġë´Ħ ì²ł
Ġê±°ëĵŃ ëĤĺ
Ġê¸°ìłĢ ê·Ģ
Ġê·¸ íķ´
ĠëĤĺ ìĹ´
Ġìĭľ ëįĶ
Ġê¸° ë§Į
Ġêµ¬ ìĭ¬
Ġì¡° ì²Ń
Ġê²½ ê³µ
Ġìĭ¤ ìĨĮ
Ġì°¨ ìĦ¸ëĮĢ
Ġë°ĺ ê°Ĵ
Ġì²ľ ì²´
Ġëĭ¨ ëıĦ
Ġê°ķ ìłģ
ĠìĹ´ ëŁī
ĠíĶĦ ëłĮ
Ġíı¬ ë§Įê°Ĳ
ĠëıĪ ëıħ
Ġìĺ¨ ëĤľ
ëŀĢ íĬ¸
ĠëĤ´ëł¤ ê°Ħ
Ġëª»íķľ ëĭ¤ë©´
ĠìĹĨìķ ¤
Ġì°» ìŀĶ
g v
Ġê°Ģ ëıĦ
ĠìĿĢ ì£¼
ĠëĮĢ ì§Ī
Ġì£¼ ìĽĲ
ĠìĦľ ìĭĿ
Ġëª¨ ìĦ±
Ġë¹Ħ ìļ´
Ġê°ľ ìĨĮ
Ġë°ľ ì¹µ
Ġëĭ¨ ëł¨
ĠíĬ¹ íĻĶ
ìĸĳ ìĿ´
Ġì¹ĺ ë¥¸
Ġë³Ģ íĥľ
ĠëĤľ ë¬´
ì½Ķ ìĬ¤íĦ°
ĠëĴ· ë°ĶëĿ¼ì§Ģ
ĠìĪĺëıĦ ê¶Į
Ġë¶ĢëŁ¬ ìļ´
ìłľ ëĮĢë¡ľ
Ġë©´ ì±ħ
ìłķ ìĥģ
ìĦ± ëıĻ
Ġê¹Ģ ìĺ¥
ë£¨ ìħĺ
ĠíķĦ ê¸°
Ġìĸĳ ëĮĢ
ìĦ¤ ìĿ¸ê·Ģ
ĠíĤ¤ ìľĦ
Ġë¹Ī ëıĦ
ĠìĹī íĦ°ë¦¬
ĠëĵľëĿ¼ êµ¬
Ġëĸ¨ìĸ´ìł¸ ìļĶ
ĠëĲĺëıĮ ìķĦ
ĠìĻĶëĭ¤ ê°Ķëĭ¤
ĠìĹ £
ìļ ĺ
Ġìĸ´ íľĺ
ì§Ģ íķĺ
Ġê±° ë¬¼
Ġíķ´ ì¤Ģëĭ¤
ĠìĪĺ ì¡±
ĠìĪĺ ëłĪ
Ġìłķ ìĹ°
Ġì£¼ ìĦł
ĠìłĦ ìŀħ
ĠìłĦ ë³ĳ
ĠìĦľ ë¹Ļ
ê·¸ ë¨¸ëĭĪ
Ġê±´ ë¦½
ĠìĹ° ëªħ
ĠìĽĲ ìĭľ
Ġë¶ģ ìłģ
íĶĦ ëĭĿ
ĠìĨį ìĹ¬
Ġë¦¬ ë²ł
ĠëĶĶ ë°Ķ
Ġìķħ ìĺģíĸ¥
ĠíĴį ë°ľ
Ġëģ¼ ëĭĪ
ĠëĿ¼ëĶĶìĺ¤ ìĬ¤íĥĢ
ĠëĤ± ë§Ĳ
o w
ĠëıĦ íĺĦ
ĠëıĦ ëĦĲëĵľ
ìĿ´ ë²ĦìĦ¯
ĠìĤ¬ ë¶Ģ
ĠëĤ´ ë¥Ļ
ìĪĺ ìĤ¬
Ġë¯¸ ë¹Ħ
Ġë°© ë¯¸
ĠëıĻ êµ¬
Ġë°ľ íĮĲ
ĠìĭľíĹĺ ì§Ģ
ĠíĶĦë¦¬ë¯¸ ìĹĦ
ĠíĽĹ ëĤł
Ł ¿
ĠìĹĲ ëĵľ
Ġê°Ģ ê¾¸
Ġê³ł ìķ¡
Ġíķľ ë¬¸
ĠìĿĺ ê¸°
ĠìĹ¬ ì¹ľ
Ġëĭ¹ ëªħ
Ġì§Ħ íĿĻ
ĠìĹ° ì´Ī
ĠëıĻ ìłĲ
Ġê±¸ ë£¨
Ġë°± ë³ĳ
ìķħ ìĤ°
ĠíĶ¼íķ´ ìķ¼
ìĿ¼ë Ł¿
ĠëıĦìĻĢ ëĵľë¦´ê¹ĮìļĶ
ĠìŀĲìĹ° ìĤ¬
Ġë¹Ľ ê¹Ķ
ĠìĿ¸ê³µ ìľĦìĦ±
Ġìľłìĺģ íķĺ
ĠìĹĲ ì½Ķ
Ġíķ´ ë°ĶëĿ¼ê¸°
Ġë³´ ë¹Ī
Ġìłľ ì¹ĺ
Ġëĭ¹ íĹĮ
ĠìĦ± ìĭ¬
Ġì°¨ ë¦´
ĠìķĦìĿ´ íı°
Ġê¸°ëĭ¤ ë¦°
ĠíĿĶ ì¹ĺ
Ġë§Ŀ ìĥģ
ĠíĺĪ íĿĶ
Ġë³´ìĥģ ê¸Ī
Ġë§ĪìħĶ ìļĶ
Ġìĭ±íģ¬ íĻĢ
Ġë¶ķìĸ´ ë¹µ
Ġìłķ ìĺ¥
ĠìĨĮ ëŁī
Ġëĭ¨ ìĸ¸
ëĿ¼ë ĶĶ
Ġì°¸ ê²¬
ĠíĻĺ ìŀ¥
ê¸´ ìŀ¥
Ġìĺ¤ëŀĺ ìĺ¤ëŀĺ
Ġë¹łìł¸ ëĵ¤
Ġê¹Ģì¢ħ íķĦ
Ġê°Ŀ ìĦĿ
Ġê±´ìĦ¤ ìĤ¬
ìĺĪìĺĪ ìĺĪ
Ġë°ĺê°Ģ ìĽĮ
Ġê³µëª¨ ìłĦ
ì§Ģ ìĹ°
ĠìŀĲ ë¯¼
ĠìĶ Ģ
ĠìĿ´ìķ¼ ê¹ģëĭĪëĭ¤
Ġì¶Ķ ìļ°
ĠìĪľ ìĪľíŀĪ
Ġíİĺ íĬ¸
Ġë» £
ĠìĪĺíķĻ ìĹ¬íĸī
Ġê¹Ģìĺģ íĻĺ
Ġì¡°íĺĦ ë¯¼
ĠíĹ¤ëĵľ ëĿ¼ìĿ¸
ĠìĿ´ ëĭ¨
Ġê³ł ëªħ
ĠìļĶ ê²©
ĠìĭŃ ìŀĲ
ë¶Ģ íĮ¨
ë¶Ħ íĪ¬
Ġìŀ¥ ë§Į
ĠìĤ´ íı¬
ìľł ê²½
ĠíĻĺ ìĨ¡
Ġì¯ §
ĠíıīíĻĶ ìĥģ
ĠëĵŃëĭĪëĭ¤ ìĺĪ
ĠìŀĳëħĦ ëıĦ
ĠìĤ¬ê¸° ì£Ħ
Ġê¹Ģìļ© ëĤ¨
ë¯¼ë ĮĢ
Ġê°Ģ ëĵľ
ĠìĤ¬ ë§Ī
Ġíķ´ íĶĦëĭĿ
ĳĲ ê·¼
ì£¼ ìĨĮ
ĠìĽĲ íķ´ìļĶ
ìŀ¬ íĮĲ
Ġë¶Ī ë¦´
Ġì²ľ ì£¼
ìľĦ ê¸°
Ġíİ¸ íĮĮ
Ġê¶ģ ê¶Ĳ
ĠìĬ¹ ë³µ
Ġìķī íŀĪ
Ġíĸ¥ ê¸ĭ
Ġì§Ģêµ¬ ëĮĢ
ĠìĬ¤íĥł ìĬ¤
Ġê°Ķëĭ¤ ìĺ¤
ĠíĥĦìĽĲ ìĦľ
ĠìĿ´íľĺ ìŀ¬
ĠëıĦ ë¯¸
Ġë¶Ģ ëł¸
Ġê²½ ìĦ±
ĠìĹ° ìŀĦ
Ġê¹Ģ ìĪľ
ĠìĹĦ ë°Ģ
ìłĪ ëĮĢë¡ľ
ê²¨ ìļ°
ĠëłĪ ì§Ģ
Ġì¦Ĳ ê²¼
Ġê³¼ë ¶Ģ
Ġíķ´ì¤ĺ ìļĶ
Ġë±Ģ íĮĮìĿ´ìĸ´
ĠìĹĲìĹĲ ìĹĲ
ĠíĬ¹ë¡Ģ ë²ķ
Ġì«Ħê¹ĥ ì«Ħê¹ĥ
Ġê°Ģ íĮĮ
Ġìĺ¤ ì¤Į
Ġë§Ī íĭ´
Ġë§Ī ê·¸ëĦ¤
Ġëį° ìĬ¤
Ġë¶Ī íı¬íĻĶ
Ġë´Ĳ ìĻĶ
ĠìĿĦê¹Į ëŀĢ
Ġê¿ į
ĠëĮĢìĥģ íı¬ì§Ħ
Ġë°ĽìķĦëĵ¤ ìĹ¬ìĦľ
ĠëĤ¸ ìĭľ
ĠìĹ¬ìŃ Ī
ê·¼ë ĳĲê·¼
íĬĢ ê¸°
ĠìĿ´ íĦ°
Ġíķĺ ìĺ¤
ĠìĿ¼ íĴĪ
ĠìĹ¬ ìĦĿ
Ġë¹Ħ ë¬¸
Ġìĭ¤ ê¸°
Ġìĭ¤ ë§Īë¦¬
Ġë°ĺ ìĿ¼
Ġë°± ìĿ¼
Ġì°¸ ìŀĳ
Ġê°Ī ìķĦì£¼
ë© §
Ġì¼ Ħ
Ġì¼ Ī
ĠíĿ¬ íĿ¬
ĠëĤ® ìŀł
ĠëĤ¨ëħĢ ëħ¸ìĨĮ
Ġì½ľë¡¬ ë¹ĦìķĦ
Ġëĭ Ĳ
Ġê³ł êµ°
ìł ¬ë§Ī
ĠìĪĺ ìĹ°
ê·¸ ëłĪ
ìĪĺ ì§Ģ
ë¶Ģ ì§Ħ
Ġë¹Ħ ìĮ
ĠíĻĶ ìĦĿ
Ġëŀ ¨
Ġíĸī êµ°
Ġì°¾ìķĦ ëĤ¸
ĠíıĲ íķ´
ĠìĨĶ ë£¨ìħĺ
Ġìĸ´ì§Ģ ê°Ħ
Ġëį°íĶĦ ì½ĺ
° ľ
Ġëĵ¤ ëĿ½
ĠìĿ¸ íĻĶ
ìŀ¥ ìĤ¬
ìĽ °
Ġê²½ ìĿĺ
Ġë¹Ħ ìĬ¤
ëıĻ ëĦ¤
ĠêµĲ íĸ¥
íħĮ ìĿ´
Ġë²ķ ê·ľ
Ġíĺķ ë²Į
ê¿ ¨
ĠìĪ¨ íĨµ
ë¯ Ģë¡ľ
ĠìĨĮë°© ìĦľ
Ġì¿¼ íĬ¸
ĠëĳĲë¦¬ ë²Ī
Ġìĸ´ ìĪĺ
ĠìĦľ íķĳ
ë¬´ ìĥĪ
ë¬´ íľ¼
ëıĻ ê°ķ
ĠêµĲ ë¯¼
Ġëĭ¨ ìĪ¨ìĹĲ
ĠìĪľ ì¡°
ĠìĤ° ìĪĺ
Ġì½Ķ ìĿ¸
ì¶© ë¶ĦíŀĪ
Ġíİĺ ìĿ¸íĬ¸
Ġëĥī ì²ł
ĠëıĦë§Ŀ ê°Ķ
Ġëĭ´ê²¨ ìł¸
Ġìŀ¥ìĦ± ë¯¼
Ġë°©ìľĦ ë¹Ħ
ĠíĴĭ íĴĭ
Ġìµľìŀ¬ ìĦ±
Ġë§Īì¹´ ë¡±
ë§ ĳ
Ġê¸° ìĥī
ĠìłĦ ìŀĳ
Ġë¹Ħ íĻĶ
ĠëĬĲ ë¦°
íĺľ ëł¨
Ġê°Ģì¡± ëł¥
ĠëĤ´ëł¤ ìĺ¬
ëŀľ ìĦľ
ĠìĦĿ ìĭ¤
Ġíķłê¹Į ë´Ĳ
ĠìłĦìĦ¸ ê¸Ī
ĠìłķìĪĺ ê¸°
Ġë²¼ë Ŀ½
ĠìĿ´ ìĸĳ
Ġê±° ëł¤
Ġê¸° ë°ľ
Ġìĺ¤ ìĺ¤
ĠìĹ° ê°ľ
ĠëĳĲ ê¸°
ĠëĬ ¬
Ġê±¸ ìĦ¸
Ġë°ķ ë¹Ļ
ê²½ ê¶ģ
Ġì¶Ķ ìĭłìĪĺ
ë°ķ ìĤ¬
Ġì« ĢëĵĿ
ĠìĹ¬íĸī ê°Ŀ
Ġ19 9
ìķ ±
ìĿ´ ìŀ¬
ìĿ´ ëĨĪ
ĠìĤ¬ ì¡°
Ġê²½ ë¶Ģ
Ġì°¨ ìļ©
Ġìŀ¬ ê²½
ìĺģ êµŃ
ĠíĨµ íķĻ
Ġë°ķ ìĿ¸
ĠìĨĲ ìĦĿíĿ¬
ëĶĶ ìķĦ
ĠìĤ° íĻĶ
ĠìĤ¬ìĿ´ íģ´
ĠíĨł ë¦¬
ë©Ķ ìĿ´
ê·ľ ëª¨
ĠíĸīìĤ¬ ìŀ¥
Ġìį¼ ìĹĪ
Ġì»¨ íħĮìĿ´ëĦĪ
ĠëĤ¼ë ł¤ê³ł
Ġê°Ģ ë³´
ê° ±
ìĺ ´
ìĥ ħìĿ´
ìĸ´ ëł¤
Ġë¶Ģ ì³Ĳ
Ġëª¨ ëª¨
ĠêµŃ ë¯¼ëĮĢ
Ġìĭ¤ ìłĲ
Ġìľł ë°°
ĠìĹ´ íĺĪ
Ġì¶ľ ëĭ¹
Ġì¶ľ íĺĦ
Ġíĺ¸ ìĬ¤
ì´ Ĳ
ë°Ķ ë¦¬
Ġê·¸ëŀ¬ ìŀĸìķĦ
Ġìª¼ëģ Ħ
ĠìĹ¼ ìĽĲ
Ġìĸ´ëł¤ìĽĮ íķĺ
Ġëª¨ìħĶ ìķ¼
ĠìŀĦì¢ħ íĹĮ
Ġê°ĸì¶° ìķ¼
Ġíĳľì°½ ìĽĲ
Ġëħ¸ë¥´ ìĽ¨ìĿ´
ĠìķĦ íĶķëĭĪëĭ¤
Ġë¬´ ìķĪ
íĹ ī
Ġë¬¼ íĥĢê¸°
Ġíĺ¸ ê°ķ
Ġì§Ī ëłĢ
ìĸ¸ ë¡ł
Ġìļ© ìĿĺ
ìĸ´ë ķĮ
ìĿ¼ë ¹Ħ
Ġê²¬ ë£¡
Ġ4 5
Ġíĺľ ìĭł
Ġì© į
ĠëĵĢ ìĹ£
ĠëĤ´ëĨĶ ìķ¼
ĠíĹ¹ ê¶Ī
ê·¸ëĿ¼ë ¯¸
Ġë° ĭ
Ġê·¸ëŁ ½ëĭĪê¹Į
ĠëĿ¼ ìŀĦ
ëıĦ ìŀ¥
ëĮĢ ìŀ¥
ĠìĦľ ë¦¬
ìĥģ ìĬ¤
ê°ģ ìŀĲ
ĠìľĦ ìĤ°
Ġìľł íĻĶ
ĠìĽĲ ë¹Ī
Ġê²° ìĨį
ìŀĳ ê°Ģ
ĠíķĦ ëĿ¼íħĮìĬ¤
ĠíĬ¸ ëŀľ
Ġíĥľ ê·¸
Ġë³µ ê·¼
Ġê³Ħíļį ìĦľ
ìķĦëĵ¤ ìĿ´
Ġë¹Ī íĭĪ
ĠíĴĪ ìłĪ
Ġê´´ ë¦¬
ĠìĪĺë©´ ìłľ
Ġìľłë¶Ģ ëĤ¨
ĠìķĦ ìĭł
ĠìŀĲ ìĦł
ĠìłĢ ë§Īëĭ¤
ĠìĦľ ëıħ
Ġìĭ¤ ë²Ħ
Ġìŀ¥ ìĺģìĭ¤
ĠëıĻ ìĦĿ
Ġë°° ìĹŃ
Ġíķ¨ ëĮĢ
ĠíĹĪ ìĦ¸
Ġë¹Į ëł¸
Ġë§ĺ ë§Ī
ĠëŃī ì³ĲìĦľ
ĠìĨĮë°© ì°¨
Ġëıĭ ë³´
ĠìŀĲìĿ´ ìĸ¸
ĠíĿĶì¾Į íŀĪ
Ġíķ´ ë´ħìĭľëĭ¤
Ġë©´ ëıĦ
ĠìļĶ íĬ¸
ĠëįĶ ë§Į
Ġëĸ ¤
íĶ¼ ê³¤
Ġì²´ ìĿ¸ì§Ģ
Ġì¹´ íħĮ
ĠìĹ¬ìŃ¤ ë´ĲëıĦ
Ġê³ģ ëĵ¤ìĹ¬
Ġìĭłëĭ¤ê³ł ìļĶ
Ġì´Īìĥģ íĻĶ
Ġíķĺ ìĤ¬
ĠìĪĺ ìŀĦ
ĠìłĦ ìĿ¸
Ġìŀ¥ ë³¸ìĿ¸
ĠíĻĺ ìĽĲ
ĠëĤĺìĻĢ ëĿ¼
Ġëħ¸ëıĻ ëł¥
Ġì¡¸ ìĿ´
Ġë¶Ģ íĶ¼
ìĭľ ìŀĳ
Ġìłľ ëĦ¤
ĠìĦľ íĺĦ
ëŀĺ ëĳĲ
Ġë°Ķ ìģł
ĠíĻĶ ìĽĲ
íĶĦ ëĿ¼ìĿ´
Ġì±Ħ ìĽł
ìķł ê¸°
ĠëłĪ ì½Ķëĵľ
ĠëĵľëĿ¼ë§Ī íĭ±
Ġìĸ´ìļ¸ ëł¤ìļĶ
Ġê½Ĥ íĺĢ
Ġëĭ¹ì²¨ ìŀĲ
Ġë°¸ ëŁ°ìĬ¤
Ġìĭ¤ë¦¬ ì½ĺ
ĠìĽĲìľł ì²ł
Ġìļ¸ë¦ī ëıĦ
u t
ëĭ¤ ëħĶ
Ġíķľ ë°Ķíĥķ
Ġìłķ ì°¨
Ġë¶Ģ ëĵĿ
ĠìķĪ ëĭ¤ëĬĶ
Ġë§Ĳ ëħĦ
Ġêµ¬ ë¯¼
Ġê³µ ë¡ľ
Ġìľ¼ ê¹¨
Ġíķľëĭ¤ êµ¬ìļĶ
ëĶĶ ëĭ¤
ĠëĪĪ ë¶Ģ
Ġë²¨ ê¸°ìĹĲ
Ġê³µìŀĳ ìĽĲ
ĠìŀĬìĸ´ë²Ħ ëł¸
Ġìµľì§Ħ ëħķ
Ġêµ´ëŁ¬ ê°Ģ
ëłĲ ëĿ¼
Ġìī¼ íĦ°
ĠìķĦ ìĦ¸
Ġìĺ¤ ëŀĳ
ìĦ± íķ¨
ĠëĳĲ ëĵľëł¤
Ġë°ķ ëŀĮíļĮ
Ġë´Ĳ ì¤Ħ
ì°¨ ê³¡
Ġë³Ģ ì§Ī
ĠíĶĦ ë¡ł
Ġë°Ģ íıĲ
Ġì§Ģì¼ľ ë³¸
ĠìķĦìļ° ë¥´
Ġê¸°ëħĲ ê´Ģ
Ġìĭ¹ ìĭ¹
ë©Ģ ë¦¬
Ġìłķì¤ĳ ë¶Ģ
Ġì§Ģ ëĦ¤
Ġíķľ ìĦ±
ĠìŀĲ ê¸´
ìĭľ ìĬ¤ì½Ķ
ĠìłĦ íķĻ
ĠìĿĮ ìĥī
ê·¸ ëĮĢ
ìĭĿ ëĭ¹
ìłĢ ê²Į
ĠìĦľìļ¸ ìĹŃ
ĠíıŃ ëĿ½
ì» ¹
ĠëĦĺìĸ´ ì¡Į
ì¤Ħ ê¸°
Ġëµ Į
Ġëį°ëł¤ ìĻĶ
ĠìĤŃ ê°Ĳ
ĠíĭĪ íĭĪ
ĠìķĦëĵľ ëĭĺ
Ġì²Ńìłķ ê¸°
Ġê´ĺ ìĶ¸
Ġìľłëª¨ ì°¨
ĵ° ë¦¬ì¦ĺ
ĠìĿ´ ëį°
ĠëĬĶ êµ¬ë§Į
ĠìķĦ ìľ¼
Ġì§Ģ ìĸ´ìķ¼
ĠìłĦ ìĹħ
Ġê²½ ì¾Į
ë¶Ģ ì¡±
Ġë¯¸ ìĸĢë§Ī
ìĺģ ì²ł
íģ ĺ
Ġê°Ħ ìĹ¼
Ġì¶Ķ ìĽĮìĦľ
ĠíķĦ ìĹ°
íĶĦ ëŀĳ
ĠìĬ¤íĬ¸ ë¦¬
ĠëĶ°ë¥¸ ëĭ¤
ĠëļĿ ë°°ê¸°
ĠíĶĮëłĪìĿ´ ìĸ´
ĠìĬ¤íİ ł
Ġë°©ìĤ¬ íı¬
Ġê¹Ģìŀ¬ ìĽĲ
ĠìĨĮëĤĺ ê¸°
Ġëľ¬ê¸Ī ìĹĨìĿ´
Ġìĭľì¹´ ê³ł
Ġê°Ģ ê°Ģ
Ġê°Ģ ì±Ħ
Ġë§Ī ë¡ľ
Ġëª¨ ë°ľ
Ġê±´ ë°°
Ġìľł ëĦ¤ìĬ¤ì½Ķ
Ġì°¸ ê´Ģ
ë°© ìĭĿ
Ġë§¤ íĺķ
Ġë³Ģ ë³Ħ
Ġì´Ī ëıĻ
Ġë²Į ìĸ´
Ġì²´ ê²©
ĠíıĲ ìľĦ
Ġê³łìĨĮ ìŀ¥
Ġë³´ëĤ¸ ëĭ¤
ì½ĺ ìĦľíĬ¸
íı´ ë¦¬
ĠìĿĮëŀĢ ë¬¼
ĠìĿ´ìķ¼ê¸´ ëį°
ĠëıĦ ë¦¬ìĸ´
Ġìĺ¤ ìĦł
Ġìĺ¤ ì²Ń
Ġì£¼ ìłĲ
ìŀĲ ë£¨
Ġìłģ ëĤĺëĿ¼
ĠìľĦ ì¤ĳ
Ġë¬´ ìĪĺ
Ġìľł ì±Ħ
ĠíĬ¹ ê³¼
Ġíı¬ íĻĶ
ĠíĥĢ ìĦĿ
ĠìĪľ ìłķ
ĠìķĮëł¤ ì¤Ģ
ĠíĻį ê¸¸ëıĻ
ĠìĮ Į
ĠíĹ¤ ìĸ´ìł¸
íļ¨ ê³¼
ĠìĿ´ìŀ¬ ë§Į
Ġë°ĺìĦ± ë¬¸
Ġê²łëĭ¤ ëĿ¼ëĬĶ
Ġìĺ¤íĤ¤ ëĤĺìĻĢ
2 00
o o
Ġê³ł íĿ¥
ĠìķĦ ìĤ°
ĠìķĦ ëĤĮ
Ġê³¼ ìĨį
ìĪĺ ìĽĲ
ĠíĮ ¡
ĠìľĦ ìķĦëŀĺ
Ġë°© ëĮĢ
ĠìŀĸìķĦ ëıĦ
ìĹħ ìĨĮ
Ġìĭ¬ ìĿ´
Ġíİĺ ëĨĢ
ê¶ģ ë³µ
ĠëĤ¸ ëĭ¤ëĬĶ
Ġê°Ģë¥´ ì¹ł
Ġë¬¼ìĸ´ ë´ĲëıĦ
ĠìĬ¤íĨł íĤ¹
Ġì© Ķ
ĠíĶ¼ë¡ľ ê°Ĳ
ĠíİĺìĿ´ íį¼
ĠíİĦ íİĦ
Ġìľ¤ì§Ģ ìĺ¤
ĠíĮ¨ëŁ´ ë¦¼íĶ½
Ġê³łêµ° ë¶ĦíĪ¬
ĠìŀĲ ê°ģ
ìĤ¬ ìĬ¤
ëıĦ ìĭľ
ìĿ¸ ë¬¼
ĠëĤ´ ëĿ¼
ëĭ¹ ì´Ī
Ġê°ľ ìĽĲ
ĠëĳĲ ê·¼ëĳĲê·¼
ëĬ¥ ëł¥
ĠìĻ¸ ì³¤
Ġëĭ´ ìŀ¥
ĠìĹ°ìĦ¤ ë¬¸
ĠíĶĦë¦¬ ëŀľìĦľ
ĠìĪŃ ìĭ¤
Ġíľ´ìłĦ ìĦł
íĻĪ íİĺìĿ´ì§Ģ
Ġíķĺìŀ¬ ê·¼
ĠíĽĦëĿ¼ìĿ´ íĮ¬
ĠìķĦ ìĹŃ
ëĤ Ħ
ìķĦ íĮĮ
ĠìĤ´ ë²Į
Ġì¤Ħ ë¦¬
Ġìĸĳ ê°Ģ
ĠìĻ¸ ë°ķ
Ġíĺ¸ íĤ¹
ĠìŀĦ ìŀĲ
ìĿ¼ë §ģ
Ġê³ł ê°Ī
ëĭ¤ ìĸĳ
Ġìĭľ íĸ¥
ĠìĺĪ ë¬¼
Ġê¸° ëŁī
ĠìļĶ ìĭĿ
ĠìĥĿ íģ¬ë¦¼
ĠëĳĲ ê·¼
Ġì²ĺ ì°¸
ĠíĬ¹ ëª©
Ġìķł íĥĢ
Ġëĭ¤ë¥¸ ëį°ìļĶ
Ġì§Ī ë¦¬
ëħ¸ ë¦ĩ
ĠìĿĮìķħ íļĮ
ëĥ Ħ
Ġì°© ì°©
Ġìľ¼ìħ¨ ê³ł
Ġë¶Ģìłķ ë¶ĢíĮ¨
ĠìĭľíĤ¨ ëĭ¤ê³ł
ì§ĢëĤľ íķ´
Ġë¬¼ë° ĳ
Ġëĭ¤ ëĩ¨
ĠìĺĪ ê¸°
Ġìłģ ìĥī
ë³ ¼ë
ëĮĢ ìĽĲ
Ġê³¼ ìĭĿ
ë¬´ ëĮĢ
Ġê²° ìĭ¤
ĠíĽĦ ìŀĲ
Ġìķŀ ê¸¸
ĠíĮĮ ìĿ¼ëŁ¿
ĠíĪ¬ êµ¬
Ġì»¤ ë¦¬
ĠìĬ¹ ìĬ¹
ëĬĲ ì§Ī
ê¶ ¤
ĠìħĢ ì¹´
Ġë»¥ íĬĢê¸°
ĠìłĦê²½ ëł¨
Ġë³´ëĿ¼ ìĥī
ĠíĬķ ê²¨
Ġë¶Īë©´ ì¦Ŀ
ĠëĮĢ ìĿĺìĽĲ
ĠìłĦ ê´Ģ
ìĨĮ ìĿ¸
ìŀ¬ ë¯¸
Ġì¤Ģ ìĪĺ
Ġíĺ¸ ëıĦ
Ġìŀ¡ ìķĦëĤ´
Ġê¸Ī ìĤ°
Ġì¢ħ ë¶Ģ
Ġë¦¬ ë³¸
Ġë¹ł ì§Ĳ
Ġë¯ Ģ
ë²ł ë¥´
Ġ200 0
ĠëĤĺìķĦ ê°Ī
Ġëĭī ëĦ¤ìŀĦ
Ġìļ°ëŁ¬ ëĤĺ
Ġì¡°ë¯¸ ë£Į
Ġìģ ĺ
Ġê±° íĬ¸
Ġë§Ĳ ë¦´
Ġêµ¬ ìĽĮìĦľ
êµ¬ ë¦Ħ
Ġë§Ī ë¦°
ë¶Ģ ëŀ´
ĠìĤ´ ëł¸
ĠìķĦìļĶ ìĺ¤
Ġì²ľ ëªħ
ë¬¼ ìĤ°
Ġìķ½ ì´Ī
ĠíķŃ ë³Ģ
ĠíĻ© íĿ¬
Ġëĭ¤ë¤Ħ ìķ¼
ĠìĬ¤ì½Ķ ìĸ´
ĠìķĦ ëĤł
ê³ł ìĸĳìĿ´
ìĿ´ ëª¨
Ġë©´ ì£Ħ
ĠìĺĪ ìĭĿ
ĠìłĦ ìŀ¥
Ġë§Ĳ ìį½
Ġê³¼ ìĿ¸
Ġìĥģ ë¥ĺ
ëŁ¬ ìĽĮìĦľ
ìĨĮ ìŀĲ
Ġë§ŀ ìĿĢíİ¸
ĠëĴ¤ ëıĮ
ê·¸ëŁ¬ ê³ł
ìķł ë¹Ħ
Ġìķħ ì·¨
Ġìłķíķ´ ì¡Į
Ġìķķë°ķ ê°Ĳ
Ġì¿ł ìħĺ
íĮ¬ ì§Ģ
a y
ĠìŀĲ ê´´
Ġìłķ ëĮĢ
Ġìļ° ìĻķ
Ġëª¨ ìĿĦ
Ġê°ľ ìŀ¥
ìĦł ë¯¸
Ġìĺ¬ ë¦°ëĭ¤
Ġë¬¼ ìĶ¬
ĠìĨĲ ìŀ¡ìĿ´
ĠìĪľ ì¢ħ
ìĬ¬ ë¦¬
ĠìµľìĦł íĿ¬
Ġëļ« ë¦¬
ĠìĪ¨ê²¨ ìł¸
Ġëĳ¥ ê¸Ģ
Ġë¨¸ë¬¼ë łĢ
ĠìĿ´ ìĽħ
ĠìķĦ ìŀĦ
ĠëĤ´ ë¯¼
ìĭł ë¶Ħ
ĠíĽĦ ê¶ģ
Ġì¹´ ë°Ķ
Ġë¹ł ë¥¼
Ġìĺ¬ëĿ¼ ê°Ħëĭ¤
Ġìĭľì¼ľ ìļĶ
ë©° ëĬĲë¦¬
ĠìĿ´ê²½ ê·ľ
ĠìĿĺìĦĿ ìĪĺ
Ġì°¨ê³¡ ì°¨ê³¡
ëĭĪ ìĬ¤íĬ¸
Ġìŀħ ìĨĮë¬¸
ìĻ Ī
ĠìĬ¤ ì¹ĺ
ĠíļĮ ë¶Ģ
íĻ© ìĥģ
Ġìĭľê°Ħ íĳľ
Ġëĵ± ì§Ģ
íı¬ íĬ¸
ĠëŁ¬ ë¸Ķë¦¬
Ġì²« ëĪĪ
Ġê°ģ ë³¸
Ġê¸°ìŀĲ ëĭ¨
Ġê·ľ ë²Ķ
Ġê¹ľ ì°į
ĠìĻĦìĦ± ëıĦ
ĠëĨĢìĿ´ ë°©
ĠëĬĲëĭĪ ëĿ¼
ìĿ´ ìľł
ĠìĤ¬ ìľ¡
ê°Ģ ê¹Į
Ġë¶Ģ íĮħ
ĠìļĶ ìĭł
ĠëĤ´ ìĹ°
Ġë¶Ħ ê³ĦìĦł
Ġë¹Ħ ìĹ¼
ìĸ Ħ
ĠìĹ° ìĹ°
Ġê¹Ģ êµŃ
Ġìĺģ ë¶ĢìĿ¸
ĠëıĻ ìĤ¬
ĠëĲľëĭ¤ êµ¬
Ġíİ¼ ì¹©ëĭĪëĭ¤
Ġê´´ ëĭ´
Ġê°ľê·¸ ìļ°ë¨¼
Ġíħį ìĬ¤íĬ¸
Ġìĺ¤ ìĤ°
Ġìĥģ ê¸°
Ġìľł ë¡Ģ
Ġê°Ĳ íļĮ
íĻ© ìłľ
ì²ľ íķĺ
ĠìłĦìŁģ íĦ°
ĠìĬ¬ ëĿ¼ìĿ´
ĠìĤ¼ìĦ± ë¬¼ìĤ°
ĠìĹ¿ ë³´
Ġìĥħ ìĥħìĿ´
Ġë°ķëªħ ìĪĺ
ĠëĦ¤ ìķ¼
ĠìĪĺ ìķĦ
ëĤĺ ë¨¸ì§Ģ
ìĥģ ëĭ¹íŀĪ
ĠêµŃ ëł¥
Ġìĭł ë³ĳ
ĠìĦ± ìĭľê²½
ìłĢ ëŁ¬
Ġê±¸ ì¹ĺ
Ġì°¨ ëıĦ
Ġë¶Ī ë¯¸
ê³µ ìĹ°
Ġì´Ī ìķĪ
ë°Ķ ëĢ
Ġì¦Ŀ ìĭĿ
ë» £
íĨ¡ ìĬ¤
Ġ201 3
Ġë¶Ģíĥģëĵľ ë¦¬
Ġëª¹ ìĭľ
íķĺìĿ´ ë¨¸
Ġlo ve
ìķ¼ ëĭ¹
Ġê¹Į ë§Ī
Ġìĭ¤ ëł¸
ĠìĹ´ ëł¬
ĠìłĲ ê±°
ĠìĻ¸ ìĹ°
Ġê¸¸ ëª©
Ġì½Ķ ë©Ķ
ĠëĶĶ ë¹Ħ
ê³¡ ëıĻ
Ġìķħ ë³´
ìĿ´ìĸ´ ìĦľ
ĠíķĺìĿ´ íĬ¼
Ġëª¨ë¥¼ ê¹Į
Ġì²Ńê³Ħ ì²ľ
Ġì£¼ë¬¼ë Ł¬
Ġë§Įìŀ¥ ìĿ¼ì¹ĺ
¡ ëĭĪëĭ¤
ĠëĬĶ ì»¤ëħķ
Ġìŀ °
ĠìķĦ ìĪĺ
ê°Ģ ìĭľ
Ġë¡ľ ì¦Ī
ĠìļĶ ìĻĢ
ĠìłĦ ê³¨
Ġìļ° ì¦Ī
Ġì¢Ģ ì²ĺëŁ¼
Ġêµ¬ íķ´ìķ¼
Ġì§Ħ ê³µ
Ġëªħ ëĤĺëĿ¼
Ġìĺ¬ ìĿ¸
ĠìķĦìĿ´ íĶ¼
Ġê°ĸ ì·Ħ
ĠìłĪ ëĭ¨
Ġíĭ° ìĬ¤
Ġë°¤ ëĤ®
ĠíĶ¼ë Ŀ¼ë
Ġìĸ´ìļ° ëŁ¬ì§Ģ
Ġëıħë¦½ ìĦ±
ë§¥ ì£¼
ĠëıĻë§¹ êµŃ
Ġê¹Ģì§Ģ íĺĦ
Ġìŀ¥ë§Ī ëĭ¹
Ġëĭ¹ì§ģ ìŀĲ
Ġíķĺ ëĭ¨
Ġê³ł ë¶Ģ
ĠìŀĲ ë£¨
ĠìŀĲ ê°Ŀ
ìĪĺ ëŁī
ëĤ´ ìļ©
Ġë°ľ ëĵ±
Ġìµľ ì¶©íĹĮ
ĠëĬĲ ëł¤
ëĤ¨ ëıĦ
Ġíģ¬ ëŁ¬
Ġì¹´ ëĦ¤
ĠëĬĲëĤ įëĭĪëĭ¤
Ġê°ģ ê³Ħ
ĠìķĮìķĦ ë´ħëĭĪëĭ¤
Ġê¸°ê´Ģ ì§Ģ
Ġë¹ħ íĨł
Ġê¿° ëļ«
ĠíİĮ íĶĦ
Ġê°Ģ ìķ¼
Ġíķ´ ë´ĲëĿ¼
Ġìłķ ìĺ¤
ìķĦ ì¹ĺ
Ġìļ° íģ¬
Ġì¡° ë¥´
Ġì¡° ìŀ¬íĺĦ
Ġíĥ Ń
ĠìĬ¤ ëª°
Ġëħ¸ ì¤ĳíĽĪ
Ġì²Ń ëł´
ĠìĿ¼ë ĵ±
Ġì¤Ħ ê±°ë¦¬
ĠìĪľ ê²½
íĺľ ìĦł
ĠëıĮìķĦ ë³¸ëĭ¤
íħ ģ
ĠëĤĻ ì°°
ìķĪëħķ íŀĪ
Ġêµ´ ëļĿ
ĠìļĶ ìĥģ
Ġë¶Ħ ê°Ģ
Ġìŀ¬ ê¸°
ĠíĨµ íķł
Ġëĭµ ìĤ¬
ĠëĤ´ëł¤ ëĭ¤
ĠíĥĿ íķľ
Ġíľĺ ëĳĲ
Ġíĺ¼ë ıĻ
Ġì¡°ê³Ħ ì¢ħ
ì²Ńì·¨ ìŀĲ
Ġìłľ ì²ľ
ìĪĺ ìŀħ
Ġë¹Ħ íĤ¤
ìĭł ê¸°
Ġìľł ìľł
ĠëĤ¨ ê¸¸
ĠëıĻ íĥľ
Ġìŀ¬ ìļ°
Ġë°ĺ ëĵ¯
ĠíĨµ ì¾Į
ìĺĪ ìĿĮ
Ġì± Į
ĠíķĦ ìĤ¬
ĠëŁ¬ ì§Ģ
ĠëıħìĿ¼ ìĸ´
ĠìĪĺíĸī ìĽĲ
Ġê±¸ë¦° ëĭ¤ê³ł
Ġê´ĳíķ´ êµ°
ĠìĿ´ìĦ¸ ëıĮ
ĠëĦĺëĤĺ ëĵ¤
ĠìĬ¤íħĶ ëĿ¼
ĠìŀĲ ì¼ĵ
Ġì£¼ ê¾¸ë¯¸
Ġìľł ë¦°
Ġì¹ľ ëª¨
ĠíķĦ ë¦½
ĠëıĮ ì§Ħ
ĠíĹĪ ê³µ
ëįĶ ë¯¸
ĠìºĲ ë¦¬
íĨ °
ìĽĥ ìĿĮ
Ġì°Į ì§Ī
Ġê³ģ ëĵ¤
Ġê²½ê³Ħ ìĦł
ĠìĦ¹ ìħĺ
Ġë¹ĦëĭĲ ë´ī
ĠìĬ¹ìĬ¹ ìŀ¥êµ¬
Ġíķĺ íĤ¤
Ġê±° ë¥´
Ġìĭľ ì°°
Ġìĭľ íĮĲ
Ġìłķ ì¢ħ
ĠìļĶ ì°¸
Ġíķł ë§¤
Ġë¹Ħ íıī
ë¹Ħ ì¹ĺ
Ġëĭ¨ ìĹ°
ĠëģĿ ëĤ¸
Ġì²´ ëĤ©
ĠìĽĮ ëĵľ
Ġë£¨ ìĿ´ìĬ¤
Ġê³ĦìĹĦ ëł¹
ĠíĥĲì§Ģ ê¸°
ĠìķĦ ì§Ģ
ĠëĦ ¨
Ġì£¼ ìĭ¬
Ġìļ° ëļĿ
Ġìľł íĪ¬
ĠëĳĲ ìļĶ
Ġìŀ¬ íļĮ
ĠíĹĪ ì¤Ģ
Ġì°½ ë¦½
Ġëħ¼ íķĺ
ì°¸ ìľ¼ë¡ľ
ĠíĥĿ íĸĪ
¼ëĤ ¯
Ġìĸĺê¸´ ì§Ģ
Ġëĭ¤ ê°ģ
ĠìŀĲ ìĪĻ
ĠìĿ¼ ìļ©
ì£¼ ëĭĪìĸ´
ĠìĦ± ê´Ģ
ĠëĤ¨ ì¡°ìĦł
Ġë°ķ ëıĻ
Ġë°ķ ë²Ķ
Ġê°ķ ìĤ°
Ġëĵ± ëĿ½
Ġíıī ìłĲ
Ġì´Ī ìĿ¸
Ġì´Ī ìĨĮ
ì¸ł íķĺìĿ´ë¨¸
Ġëħ¸ëıĻ ì¡°íķ©
Ġêµ´ ë³µ
ìĿ´ìĿĺ ë¯¼
Ġìŀ ½
ĠëıĦ ë°°
ĠìĤ¬ ê³Ħ
ĠìĺĪ ìĦľ
ìĥģ íĻ©
Ġë¬´ ìĦ±
Ġìŀ¥ ìĭ¤
Ġë°ľ ëĭ¨
Ġë°ľ ëģĿ
Ġë§ŀ ë¶Ļ
ĠíĨµ íĭĢ
ĠíĮĶ ëļĿ
Ġëĵ± ë¶Ħ
Ġë¬¼ íĭ°ìĬĪ
Ġê¸Ī ê¸°
ĠíĻ© ìŀĲ
Ġë²Ĺ ìĸ´ëĤ¬
ìłķë§Ĳ ë¡ľ
Ġìŀ¥ìķł ë¬¼
Ġíļį ìłķ
Ġì¶©ìĭ¤ íŀĪ
ĠìłľìĤ¼ ìŀĲ
ĠìĤ¬ ìĺ¨
Ġêµ ī
Ġê¸° ê³ł
ĠìĦľ ìĤ¬
Ġë¬¸ ìĸĳ
ĠìĦł ì²´
ëĭ¹ ëĤĺëĿ¼
Ġë¯¸ ëıĻ
ĠëĤ¨ ëĭ¤ë¥´
Ġìŀ¥ ìŀĲ
Ġìŀ¥ ëĮĢ
Ġë°ľ ê°Ħ
ìĺģ ìŀĲ
Ġë°ķ ìĭľ
Ġì²Ń ëĤĺëĿ¼
Ġëıħ íķ´
ĠìĤ¬ê³ł ë°©ìĭĿ
ĠìĤ½ ìŀħ
ĠìķĦë°Ķ ë§Īë§Ī
Ġë´Ĳìķ¼ê²ł ìĬµëĭĪëĭ¤
i g
Ġ #
Ġëĭ Į
Ġì§Ģ íĥ±
ĠìĥĿ ì¤ĳ
Ġê³µ ë³´
ĠìľĦ ìĹ¼
Ġê²° ë°±
ìŀĦ ìĥĪ
ĠìĻĶ ìľ¼ëĭĪ
ëŀĳ ì¹´
ê²¨ ìĽĮ
Ġë²Į ìĸ´ìł¸
ë© ¤ë²Ħ
Ġì§ľ ìŀĶ
Ġê±°ëŀĺ ìĨĮ
ĠìĥĿì¡´ ìŀĲ
ĠìĤ¬ì§ģ ìĦľ
Ġë¡¤ëŁ¬ ì½ĶìĬ¤íĦ°
ìĸ´ ëĳĲ
Ġëª¨ ì¢ħ
ìĹ¬ ìłĦíŀĪ
ìŀ¬ íĽĪ
Ġì°¨ ì£¼
Ġìŀ¬ ê²°
Ġë°± ìĦľ
Ġë°± ìĥī
Ġìŀħìŀ¥ ê¶Į
ëįĶ ìļ±
ĠëĵŃëĭĪëĭ¤ ê·¸
Ġë¹Ī ìŀĲë¦¬
Ġì¡°ê±´ ë¶Ģ
Ġìķ¼ë §Ŀ
Ġê³łìĤ¬ ë¦¬
Ġì°° ëĤĺ
Ġê³łëª¨ ë¶Ģ
Ġë¬´ì§Ģ ê°ľ
ĠìĬ¬ë¦¬ íį¼
Ġë»£ ë»£
Ġíķ´ ëĵľ
Ġìĺ¤ ê²½ìĪĺ
ë° ´
ì¹ ¼ë
Ġìĭł ìķ½
ĠìĦł ìłģ
Ġë°± ìĬ¹
Ġëĭ¬ ë¦´
íĨµ ìĿ¼
íĽĦ ìĹ°
Ġìŀ¡ ìĿĮ
Ġì´Ŀ ì§Ģë°°ìĿ¸
Ġë²Į ìĿ¼
ĠíĪ¬ ìĦ±ìĿ´
ĠíķŃ ìķĦë¦¬
ĠëĤĻ ëıĻê°ķ
Ġê½Ĥ íŀĪ
Ġë¥´ëĦ¤ ìĥģìĬ¤
ëĭ ¿
Ġë¶Ģ ë¥ĺ
ĠëĤ´ ê´Ģ
Ġìĥģ ìĹ¬
ìĸ¸ ìłł
Ġê°Ķ ìľ¼ë©´
Ġì¹´ ëĿ¼
Ġë¯ ¼ëĤ¯
ĠëĬĺ ëł¸
Ġìłĳ íĸĪ
Ġìľ¤ íĿ¬
ĠìĭľíĹĺ ìŀ¥
Ġê°ķìĦľ êµ¬
íĶĦëŀĳ ìĬ¤
ĠìĿ´ ëĭĪ
Ġê¸° ì²´
ĠìĪĺ ì£¼
ĠìĦ± íĻĶ
Ġê²° ìĤ°
ìĺģ ìĦł
ĠìķĦìĿ´ ë¦¬ìĬ¤
íĥľ ìĦŃ
Ġì²Ń ê°ģ
ĠìĭĿ ë³Ħ
ĠíĶ¼ ìĹł
ĠìĻ¸ ìłĦ
Ġì¦Ŀ ìĿ´
Ġëıħ ì£¼
ì½ ¥
Ġìľ¤ ìłķ
Ġê·Ģ ëĨį
Ġë¶ĪëŁ¬ ëıĦ
Ġíİľ ìĭ±
ĠìĹ½ ê¸°
Ġìļ°ì²´ êµŃ
Ġê°Ģ ì¶ķ
Ġê³ł íĺĦìłķ
Ġëĵ¤ ëģĵ
ĠëįĶ ëŀĺìļĶ
Ġì¡° ë§Ī
ĠìĦł ë¡Ģ
ĠìķĮ ì¸łíķĺìĿ´ë¨¸
Ġë°ľ ëģĪ
Ġë§ī ë°Ķì§Ģ
ĠìĻĦ ê³µ
ĠíĴĢ ë¦°
ĠëĦĺìĸ´ ìĺ¨
Ġë°ĳ ë°Ķëĭ¥
Ġìĸ´ì©Į êµ¬
ëĿ¼ìĿ¸ ëĵľ
Ġìĸ¸ìłł ê°Ħ
Ġëĸłëĵ¤ ìį©
ĠëĮĢëıĻ ê°ķ
Ġê°Ģì±Ħ ìłĲ
ĠìŀĲê´´ ê°Ĳ
Ġê°Ģ ëĳ¬
ëĭ¤ ìĭł
ĠìĿ¸ ìĭ¬
Ġë§Į ëħĦ
ĠìłĢ ê¸Ī
Ġìĺ¤ ëĮĢ
ĠìĥĿ ìľ¼ë¡ľ
Ġì¤ĳ ìŀ¥
ìĦ± íĽĪ
ĠëĶ ķ
Ġê´Ģ ìĤ¬
ìŀ¬ ìĽĲ
Ġì°¨ ìłľ
Ġë°° ì§±
Ġë°ķ íĺľ
Ġëĭ¬ ê¶Ī
Ġíı¬ ìĬ¤ì½Ķ
ĠëĪĪ ëıĻìŀĲ
ĠëģĿ ìĹĨìĿ´
Ġê¸°ì¤Ģ ì¹ĺ
ĠìĦłíĥĿ ì§Ģ
ĠíĺĪ ìĦ¸
Ġê²¨ ë£¨
Ġì°¬ ìļ°
ĠíļĮìĿĺ ìŀ¥
Ġê³µê²© ìĪĺ
Ġëª»íķľ ëĭ¤ëĬĶ
ë¦¬ìĬ¤ íĥĢ
Ġë¬µ ìĿ¸
ĠìĪĺë°± ë§Į
Ġê¹ĢìĽĲ ë´ī
Ġê²©íĪ¬ ê¸°
ĠìķĦëĤł ë¡ľê·¸
ĠìĺĪ ìĽĲ
Ġë¡ľ ìĿ´
Ġë¡ľ ë³´
ĠìĦ¸ ìĿ´ê±´
Ġëª¨ ë°©
íķĺ ê¸°
ĠìĦł ê¶Į
ĠìĹ° ìĤ°
Ġìľ¼ ìķĦ
Ġìŀ¥ ëıĦ
ìĭĿ êµ¬
Ġê²Ģ ìĿĢìĥī
Ġë§¤ ì§ģ
ĠìĿ´ìĥģ íĺķ
Ġë³´ìĹ¬ ì¤ĺ
ì°½ ë¯¼
Ġë¹Ī ëĮĢ
Ġìį° ëłģ
Ġë¬¸íĿ¬ ì¤Ģ
ĠìĹ°íıī ëıĦ
ĠëĮĢ ìľĦ
ĠìĦł ìłĲ
ĠìĤ¼ íĤ¤
ĠíĻĶ ëĤľ
Ġê°ķ íĥľ
Ġíĺ¸ íĶĦ
Ġë©Ķ ìĿ´ëĵľ
ìĺ¬ ë¡ľ
Ġì¹¨ íĮ¬ì§Ģ
Ġêº¼ ìķ¼
Ġì¡¸ ìĹ¬
ĠëĴ· ìŀĲë¦¬
Ġê´ĢëŀĮ ê°Ŀ
ĠìĮĪ ìŀ¥
ĠíĬ¸ëłĪìĿ´ ëĵľ
ĠìĦłëĮĢ ìľĦ
ĠíħĢ ë¸Ķ
ê·¸ëĿ¼ë ĵ¤
Ġì£¼ì¹ĺ ìĿĺ
ĠíķľëĿ¼ ìĤ°
ĠëĨįìĸ´ ì´Į
ĠìĿ´ ë´Ĳ
Ġê°Ģ íķľ
ĠìĿ¸ ëĵ¤
ëŀ ĸ
ĠëĤ´ ë¯¸
Ġì¤ĳ íķľ
ë¶Ģ ë¦¼
ê³¼ ìłĲ
Ġì°¬ ì°¬
ĠíĿĲ íĿĲ
Ġêµ´ ë¦¬
Ġì§Ħë³´ ëĭ¹
Ġíĥ¤ ëŁ°íĬ¸
Ġìĸ´ ìĬ¤
Ġëĭ¤ ìĤ°
Ġëĭ¤ ê³¤
Ġê±° ìĤ¬
ê¸° ëĬ¥
Ġêµ¬ ìĭ¤
ĠìĦľ íĪ´
ë§Į ìŀ¥
Ġìĭł ê²©
Ġíıī ìĺ¨
ĠíħĮ ëĳĲë¦¬
Ġì²ł ë¶Ħ
Ġì¡¸ ìĿĮ
ĠíĿĳ ìŀĲ
ëļľ ê¸°
Ġëĭ· ìĥĪ
Ġëħ¸ìĺģ ë¯¼
ĠìĬ¤íĬ¸ë¦¬ ë°į
Ġê° ł
Ġë§Į ìĿ´
ĠìłĦ êµ¬
ĠìĦł ëį°ìĿ´
Ġìĭ¤ ìĤ¬
ëĵľ ë¦Ħ
Ġë¶Ī ìĿĺ
Ġê°Ĳ ë¯¸
Ġìķŀ ë°Ķëĭ¤
ĠìĹŃ ë¥ĺ
Ġêµ° íķ¨
Ġì´Ī ì¤ĳ
Ġìĭ¸ ìĽĮìĦľ
Ġì§ľ ë¥´
Ġì¹¨ ìĪĺ
Ġë¹Ī ë²Ī
Ġíĥģ íĺĦë¯¼
Ġë¬¼ëŁ¬ ëĤ¬
Ġë¬´ë¦¬ ìĪĺ
Ġê¶ĮìľĦ ì£¼ìĿĺ
ĠíķĺëĤľ ëį°
¹ ëĭĪëĭ¤
Ġë©´ ëª©
ĠìŀĲ ë¦¿
ê·¸ ëŀĢ
ĠìĦ¸ ëĿ¼
Ġë§Ī ìļ°ìĬ¤
ë¶Ħ ë³Ħ
Ġì§Ħ ì¤ĳ
Ġë¯¸ ëģ¼
ĠëĤ¨ ìĸĳì£¼
Ġì²ĺ íĸĪ
ĠëıĻ ê·¸ëŀĹ
íĸī ê¸°
Ġëĭ¨ ë°ľ
Ġê°ķ ì²ł
ë²ķ ìĿ¸
ĠëĶ° ëģĶ
ĠíĮĶ ìķĦë¨¹
ĠíĻ© ê¸īíŀĪ
Ġëĸł ëĦĺê¸°
ë³Ģ íĺ¸ìĤ¬
íħ į
ĠìķĶ ìĦ¸íı¬
ëįĺ íĬ¸
Ġì£¼ë°© ìŀ¥
Ġë³¼ëŀĺ ìļĶ
ê¸°ëĭ¤ ëł¤
Ġìĭľë²ł ë¦¬ìķĦ
Ġì²Ńëĭ´ ëıĻ
ì Ł
ĠìĿĺ ë³ĳ
ĠìĪĺ ê°ĳ
íķ´ ì§Ħ
ĠêµŃ ì±Ħ
Ġìľł ëħĲ
íħĮ ìĬ¤íĬ¸
ĠëĪĦ ë¹Ħ
Ġì¹ĺ ë¤Ħ
Ġìĸĳ ì§Ī
ĠìĿ´ë¤Ħ ì§Ī
ĠìĤ´íİ´ë³¼ ê²ĮìļĶ
Ġíį¼ë łĪìĿ´ëĵľ
ĠëıĮìĿ´ íĤ¬
Ġì¡°ìĦ¸ íĺ¸
Ġê³łìĺģ íĥľ
ĠíĿĲíĬ¸ ëŁ¬
Ġê¸° ë¡ľ
ëŀ ı
ĠìĦľ ì°°
ĠìĦ¸ ëģ¼
ĠëĭĪ ìĬ¤
Ġë¬´ ìĸ´
Ġì§Ħ ëĭ¬ëŀĺ
ĠëıĻ ìĿ´
ĠêµĲ ëŀĢ
ĠìĪ ©ëĭĪëĭ¤
íĮĮ ëĭĪ
ĠìķĦê¹Į ìĽĮìĦľ
ĠíĹĪ ìĸ´
Ġì§Ħíĸī íķł
ĠìĨ¡ ëħĦ
ìĻĦ ìłĦíŀĪ
íļ¨ ì§Ħ
íĺĳ ìĥģ
Ġì°¨ëł¤ ìķ¼
Ġìĭłìļ© ì¹´ëĵľ
ĠíĶĦëĿ¼ìĿ´ íĮ¬
Ġë§Īìĭł ëĭ¤
Ġë³´ìĤ´ íİ´
ĠìĿ´ ê¶Į
Ġê±° ëĳĶ
ìĿ´ ìļ©
Ġë³´ ëĵ¬
ĠëĮĢ ê³µ
ĠìłĦ ê¶Į
Ġë§Ī ëıĻìĦĿ
ëĭ¹ ëĭ¹
ìłĦ êµŃ
Ġìħ¨ ìľ¼ëĭĪ
ëĦ¤ ìĿ´
Ġì¶Ķ ëıĦ
Ġì¶Ķ ì¢ħ
Ġìĭ¬ ëŀĢ
ë²Ħ ë¦´
Ġíĺ¸ ëª¨
ĠìķĦë¬´ ê°ľ
Ġëª© ëıĦë¦¬
Ġëıħ ê³ł
ĠíĻĺ ìłĦ
íĭ° ì¼ĵ
Ġë¹Ī ìĨĲ
Ġíħ ģ
ĠíĶĦëŀĳìĬ¤ ìĸ´
ĠìĿ´ìĬ¹ ìĽĲ
ĠëģĪ ì§Ī
ĠìĿ´ìĦł íĿ¬
ĠìĿ´ë¶Ģ ì§Ħ
Ġíķ į
ĠìŀĲ ëĭĪê¹Į
ĠìŀĲ íĥľ
Ġì°¨ ë¦°
Ġë°ķ ìĦł
Ġìĭ¬ íķł
Ġë³Ģ ìłľ
ĠíĬ¸ ì§ĳ
Ġì½Ķ ë¦¬ìķĪ
Ġìµľê³ł ìľĦ
ĠìĪĺìĺģ ë³µ
Ġë²¤ ì¸ł
ĠìĽħ ìŀ¥
Ġì£¼íĮĮ ìĪĺ
ĠìĤ¬ ìłĪ
ĠìĪĺ ì¤į
Ġë¶Ģ ìĿĳ
ìķĦ íĶĦ
ĠìļĶ ì§ģ
ìĿ¼ ì¢ħ
ìłĦ ê¸°
ĠëĤ¨ ì§Ħ
Ġë¶Ī íĽĦ
Ġê°Ħ ê°Ħ
Ġì¶Ķ ìĽł
ë§¤ ê¹Ģ
ĠíĻ© ìļ°
Ġìī¬ ìĽł
Ġëĭ¬ëĿ¼ ì§ĳëĭĪëĭ¤
ĠëĨĶ ëıĦ
Ġ20 20
íģ´ ë¦¬
ĠíĤ¬ ëŁ¬
Ġë°°ê³ł íĶĪ
Ġë§Īê·¸ëĦ¤ ìĬĺ
o m
ìĿ´ ìĻķ
ĠëĮĢ ìĬ¹
ĠìķĪ ìĸĳ
êµ¬ ë§¤
Ġë¶Ħ ë§Ĳ
ĠìĥĿê°ģ ëĤ¬
ĠìĨĮ ê´Ģ
Ġìĭ¤ ëŀĳìĿ´
Ġëĭ¨ êµ°
Ġë°ķ ê³¼
ĠíĮĮ íİ¸
ĠìĻĦ ì£¼
Ġì¹´ ë©Ķ
Ġë¿ ħ
Ġë²Ķ ë²ķ
ĠìŀĲë¦¬ ë§¤ê¹Ģ
Ġê¹¨ ë¬¼
Ġë¬¸íĻĶ ìľłìĤ°
Ġë¿Į ëł¤ìĦľ
ìķĦìĿ´ ëĶĶ
Ġì·¨ìĹħ ìŀĲ
ĠìħĢ ëŁ¬
Ġì«ĵê²¨ ëĤ¬
Ġëĭ¤ëĭĮ ëĭ¤
ĠìĿ¼ìľ¼ì¼ľ ìĦľ
ĠíĶ¼ëĿ¼ë ¯¸
Ġëĵ¤ ë¦½ëĭĪëĭ¤
ĠìĹ¬ ì£¼ìĿ¸ê³µ
ë¶Ģ ë¥¸
Ġë¬´ ìĭł
ê· ¤
ĠëĤ¨ ê¶ģ
ĠëĶ° ëŀĲ
Ġíıī íĮĲ
ĠìĤ¬íļĮ ìĥĿíĻľ
ĠìĽĶ ëĵ±
Ġë°ĿíĺĢ ìł¸ìķ¼
ĠëıĮëł¤ ë³´ëĤ´
Ġë§ģ ì»¨
Ġê¹¨ëĭ¬ ìĿĮ
ĠëģĦì§ĳ ìĸ´ëĤ´
ĠìķĦ ëł¨
ĠìĤ¬ ìĬ´
ĠìĿĺ ë¶ĵ
ĠìĪĺ ìĸµ
Ġë¶Ī ê¸°ìĨĮ
íħĮ ë¦¬
Ġëĭ¨ ë©´
ĠíĺĦ íĺ¹
ĠíĺĦ ë¹Ī
Ġë°ķ ì°½
ë°© íĥĦ
Ġìķł ìį¼
Ġì¤Ħ ê¹ĮìļĶ
Ġì§ģ ê³Ħ
ĠíĶ¼ ì¹´
Ġíİ¸ ì°¨
ë°ķ ìŀĲ
Ġê´Ģê³Ħ ìĹĨ
Ġìłľìŀĳ ìŀĲ
Ġíİ¼ ì¹ľ
Ġíľĺ ì²Ń
Ġíĥģ íĥģ
Ġì¡¸ìĹħ ìĭĿ
ĠëĤ´ëĨĶ ëĿ¼
ìłķíĻķ íŀĪ
Ġë§Īì°¬ê°Ģ ì§Ħ
Ġë¦¬ìĸ¼ë¦¬ íĭ°
íĶĦëĿ¼ìĿ´ ì¦Ī
Ġì§Ģ ê²¹
ĠíĻ §
ìĨĮ ëĿ¼
ĠíĨµ íĸĪ
Ġì¤Ħ ê³§
ĠëıĮ ë³Ģ
ĠíĮĮ ë³ĳ
Ġëª¸ ë¶Ģë¦¼
Ġì±ħìŀĦ ìł¸
Ġìłľìŀĳ ë¹Ħ
Ġì¶Ķì²ľ ìĦľ
Ġìĩ¼ íĮĮ
Ġê°Ģìłķ íıŃëł¥
ĠíĹ¬ ë©§
ĠìķłêµŃ ê°Ģ
íĶĦëŀĢ ìĭľìĬ¤ì½Ķ
ì§Ģ ë§Ī
ëĤĺ ìłĪ
ĠìķĪ ëıĦ
ìłķ ëħĦ
Ġì¡° ìļ°
Ġì¤ĳ ëŁī
ì§Ħ ëĭ¤ëĬĶ
Ġìľł ìĥģ
ì¶ľ íĺĪ
ìĦ¤ ëªħ
Ġê¶ģ ì¤ĳ
Ġê°ģ ê´ĳ
Ġê¿Ī ê¿¨
Ġë¹Ī íĺĪ
íľ´ ëĮĢ
ëįĺ ì§Ģ
ëĴ ·
Ġì°ľ ì°ľ
Ġê°Ģ ë¶Ģìŀ¥
Ġìĭľ ëŁ½
Ġêµ¬ ìĿ¼
Ġë¬´ ìĥī
Ġì°¨ íĽĦ
ĠëĶ° ìł¸ìĦľ
Ġì¹ĺ ëĭ«
Ġíķµ íıŃíĥĦ
ĠìĬ¹ ê°ķ
ĠìĽĥ ê²¼
ĠìĹ¬íĸī ìŀĲ
Ġë¸Ķ ëĿ¼ìĿ¸ëĵľ
ĠìĦľíķ´ ìķĪ
ë¶Ģë¥´ íģ¬
Ġëĭ¨ë§Ĳ ê¸°
ĠìķĦ ìĭ¸
ĠìĤ¬ ìĺ¤
ĠìĦ± ë¹Ħ
ĠíĻķ ìĹ°íŀĪ
ĠíĮĮ ìłĦ
ĠìĿ´ìĥģ ë¯¼
Ġìŀ¡ ëĭĪëĭ¤
ìħĶ ìĦľ
Ġë¸Ķ ë¡ľ
ĠìĿµ ìĦ±
Ġëľ¬ ëĭ¤
ìĿ´íķ´ ê³ł
Ġë³´ìĬ¤ íĦ´
Ġëħ¸ëŀ ©ëĭĪëĭ¤
¥ ëĭĪê¹Į
ê¸° êµ¬
Ġìłľ ê³ł
ëĮĢ êµ°
Ġëª¨ íıī
Ġìĭł ìŀ¬
Ġë¯¸ íĻĶ
Ġê´Ģ ìłľ
ĠëıĻ ê·¸ëĿ¼ë¯¸
ĠíĻĶ ëĤ¬
ĠëĤľ ê´Ģ
Ġì²´ íĺķ
ëĭ¬ ì½¤
ëĤĻ ëĿ½
Ġìĸ´ëĶ °
Ġì¤ĳìķĻ ëĭ¹
íĺĪ ê´Ģ
Ġê¸°íĥĢ ë¦¬ìĬ¤íĬ¸
ĠëĵĢ ìĬ¤
ĠìĿĮìĿĮìĿĮ ìĿĮ
Ġì§Ģ ì½Ķ
Ġíķľ ìĹĨìĿ´
Ġëĵ¤ ë¥´
Ġìĭľ ê°Ģ
ĠìĺĪ ì°¬
ì° Ŀ
Ġëª¨ ë³ĳìłľ
Ġì§Ħ ìĦľ
íĬ¸ ëĿ¼
ì§Ħ ìĭ¬
ì§Ħ íĸī
Ġê°ľ ì²ľ
Ġì¤Ħ ëŀĺìļĶ
Ġì¢ħ ëĮĢ
Ġì±Ħ ì°į
Ġì»¤ ë¦¬ìĸ´
Ġê´ĳ ë¶Ģ
Ġë²ł ëĵľ
Ġêµ¬ì¡° ë¬¼
ĠìĺĪìĪł ìĿ¸
ì»¬ ëłĪìĿ´íĦ°
ĠíĨµìĭł ë¹Ħ
ìĺ¬ë¡ľ ê¸°
Ġë©´ ë©´
ëĤĺ ìģľ
Ġë§Į íļĮ
Ġë§Ĳ ëŀĳ
ĠìĦ¸ íĽĪ
Ġì¹ ¢
ë¶Ģ ëĶĶ
ĠìľĦ ì¸µ
Ġëħ¸ ëł¸
ĠíĬ¹ ìłĦ
Ġë¯¼ ìĺģíĻĶ
Ġìľ¡ ìŀĲ
Ġíĺ¸ êµ¬
Ġê·ľ ë¦¬
ì¹ľ ìłĪ
Ġì¢Į íĳľ
Ġì¢Į íıī
Ġíĺľ ë¦¼
Ġìĭ¤íĹĺ ìĭ¤
Ġì°° ìĬ¤
ê³Ħìķ½ ìĦľ
ī ìĬ¤
Ġê°Ģ íĸĪ
ìķĦ ìī½
Ġê³µ ë¦½
ĠìĨĮ ìłķ
ë³´ ë¦¬
ĠíĮĶ ëł¤
ê°ľ ìŀ¥
Ġë¯¼ íĺģ
ĠíĶ¼ íĸĪ
ìŀĦ ëįķ
íĺĦ íĿ¬
Ġê¼ Ī
Ġëĭ´ ë±ĥ
Ġìĭ¸ ê°Ģì§Ģ
Ġìķķ ìĬ¹
ĠëĤĺê°Ķ ìĹĪ
Ġì¡°ëªħ ê·ł
Ġë§Īìĭ¤ ëŀĺ
Ġíħį ìĤ¬ìĬ¤
Ġìŀ¥ëħĦ ì¸µ
ĠìĿ´ëį° ìĺ¬ë¡ľê¸°
ĠìķĦ ìĿ¼
ìķ µ
ì§Ģ ëĤĺ
Ġë³´ ìłķ
Ġìłķ ê¸Ģ
ìĭľ ì²ŃìŀĲ
Ġìłľ ìľ¡
Ġêµ¬ ê±¸
ĠìĹ° ìķĦ
ĠìĤ¬ìĿ´ ìĸ¸ìĬ¤
ĠëĶĶ ëĶĶ
Ġëľ¨ ëģĪ
Ġëª¨ìķĦ ìķ¼
Ġë¬¼ë¦¬ ì¹ĺ
ĠìłķìĦ¸ íĺĦ
ĠìĬ¤íİĺìĿ¸ ìĸ´
ê²½ê¸° ìŀ¥
ëĮĵ ë§Ĳ
Ġë¯¸ì§Ģ ê·¼
Ġì§Ģ ê°Ģ
ĠìĪĺ ëª¨
Ġìĺ¤ ëįĶ
Ġë¶Ģ íĿ¥
Ġê²ł ëĭ¤ëĬĶ
ĠëĿ¼ë ²
Ġê³µ ìłĦ
ëıĻ ìĦ±
Ġìĭ¤ ì¡´
ĠìĬ¤ íĥĪ
Ġëħ¸ ìĿĦ
Ġìķł ëĵľ
ĠìĹŃ ëıĦ
Ġëª° ìķĦì£¼
ĠíĥĪ ì·¨
ĠìĦ±íĺķ ìĻ¸ê³¼
Ġì§ĦíĨµ ìłľ
Ġíķĺ ë¦¼
Ġê³ł ì³¤
ĠìŀĲ ë¥¸
ĠìķĪ êµ¬
ëıĦ ê·¸
Ġì¡° ìĿ¸ìĦ±
Ġëĵľ ë¦½
íķĺ ì¤Ģ
Ġë¬´ ë¶Ħë³Ħ
ë§Ī ëĭ¹
Ġë°© ìĤ°
ìĹ° êµ¬
Ġì°¨ ëĵ±
Ġì²ľ íĥľ
ĠìĭĿ ê¸°
ĠìĦ¤ íĺĦ
Ġìŀ¡ íĺĢìĦľ
Ġê³¡ ìĦł
Ġì´ī ë°ķ
êµĲ ì°¨
Ġì²Ń ìĪľ
ĠëıĮ ê³łëŀĺ
ĠìħĶ ëĳĲ
Ġíĭ° ê²©
ì°© ìĺ¤
ĠìĿ´ìĸ´ íı°
Ġì²Ļ ì²Ļ
Ġê³§ ìŀ¥
Ġì¶ķêµ¬ ìŀ¥
Ġê¹Ģìļ© ê·ł
Ġì¤ĳìŀ¬ ìŀĲ
Ġê¹¡ íĨµ
Ġì¹ĺëŁ¬ ìķ¼
ĠìłĦëħĦ ëıĦ
íĢ ĺ
Ġê³µì²Ń íļĮ
Ġê³ł ìķ½
ìĭ ¯
ë§Į ëĳĲ
ëıĻ ë§¥
ìĶ Į
Ġê°Ĳ ìª½
Ġëĭ¬ íĮ½ìĿ´
ĠíĶ¼ ì§Ģ
ìĹĲ ìĿ´íĦ°
Ġíģ° ëį°
Ġíĭ° ìĹł
Ġìĸ´ì°Į íķĺ
Ġì¤ĳê°Ħ ê³łìĤ¬
Ġë³¼ë Ŀ¼ê³ł
Ġê¹Ģíĥľ íĺĦ
Ġë¬´ëĦĪ ëľ¨
ĠíĽĦë°ĺ ê¸°
Ġë¹Ĺ ëĮĢ
Ġë©Īì¶° ìĦľ
ĠìĪĺ ì»·
ĠìļĶ ëª©
Ġê¹Ģ ê±´
Ġìŀ¥ ë³´
ëĵľ ë¡¬
ĠìĹ´ ëĵ±
Ġë§ī ìķĦëĤ´
Ġì¶Ķ ëıĮ
Ġì§ģ íķ¨
ĠìĪľ ê¸Ī
Ġíĥľ ìĺģ
Ġì¼ °
ĠíĨł ìĸĳ
Ġê¸ī íķ´
ĠìĦ¸ê³Ħ ìĤ¬
ĠìĹĲìĿ´ ë¹Ħ
ìµľ ê³ł
Ġëĭ¬ëł¤ ìĻĢ
Ġë°°ìĭł ìŀĲ
Ġì½§ ë¬¼
Ġíķĺ ìłķìļ°
ĠìĪĺ íĶĦ
Ġê²½ ìŀ¥
ĠìĽĲ ê¸Ī
ĠëĳĲ íĶ¼
Ġì°¸ ì¡°
Ġëª© ëıĻ
ê²¬ ìłģ
ë°° ìĥģ
ĠëĶ¸ ìķĦìĿ´
Ġëĭµ ëĭĪê¹Į
ĠëłĪ ìŀĦëįķ
ĠëĬ¥ ìĪĻ
Ġëħ¹ ëĳĲ
Ġë¬´ìĭľ ë¬´ìĭľ
Ġíķı ë¬¼
ĠìķĦ ì£¼ë²Ħëĭĺ
Ġë©´ ë°ĢíŀĪ
Ġì£¼ ì¤ĳ
Ġìļ° ë£¨
ĠìĥĿ ëħĦ
ëĮĢ ê°Ĳ
ĠëįĶ êµ°
Ġê²½ ë¯¸
Ġê°ľ ê´Ģ
ĠìĹĦ ëĳĲ
Ġíı¬ êµ¬
ĠíĥĢ íĪ¬
Ġìŀ¡ ê³¡
Ġìŀł ìĺ·
Ġíģ¬ ëłĪ
ĠíĥĪ íĶ¼
Ġìĸĺê¸´ ê°ĢìļĶ
Ġë²Ħëł¤ ì§Ħ
ëĪĪ ë¬¼
ĠìħĢ ëłĪ
Ġìķ¼ë ĮĢ
Ġë°ķì§Ģ ìĦ±
Ġìĺ¤ì§Ģ ëŀĸ
ĠíĿ¬íĿ¬ ëĤĻëĿ½
ĠìĿ´ ë°ľ
ìķ ¤
Ġë¶Ģ ìĦ¸
ëŁ° ì¹ĺ
ë§Į íĮĮ
ìĦ¸ ìĽĶ
Ġë³¸ ë¡ł
Ġì¹ľ ì¡±
ĠíĹĪ ë§Ŀ
Ġëĭ´ ê¶Ī
Ġíį¼ ì¡Į
Ġíĥľ ìļ´
ĠëĤ´ëł¤ ëĭ¤ë³´
Ġíķ©ìĿĺ ìĦľ
Ġë¬» ìĸ´ëĤĺ
Ġë°ĶìĿ´ ëĵł
ĠíĺĦëĮĢ ì°¨
ìķĦë§Ī ëıĦ
Ġëħ¸ë¦ĩ ëħ¸ë¦ĩ
Ġìłł íĭĢ
ĠìĹ°ìĪĺ ìĽĲ
Ġê°¤ ëŁ¬ë¦¬
Ġìĭľê³µ ìĤ¬
Ġì¡°ìĪĺ ìĦĿ
Ġë²Ļ ì»¤
ĠìĤ¬ëªħ ê°Ĳ
Ġê°Ħë³ĳ ìĿ¸
Ġë°ķë¯¸ ìĦł
Ġëĭ¤ ì³Ĳ
ĠìĿĢ ë©Ķëĭ¬
ĠëĦ¤ ëĭ¤ìĦ¯
ĠìłĦ íıŃ
Ġìľ¼ ìĭŃìĭľìĺ¤
Ġë°ĺ ìĹ´
Ġë°ķ ì²ł
Ġëĭ¬ êµ¬
Ġì²Ń ë¶Ģ
Ġíķ´ìļĶ ìĸ´
Ġì§Ī ìĪĺë¡Ŀ
Ġëĵł ëĭ¤ëĬĶ
ĠíĹĪ ëĭĪ
ê·¸ëŁ¬ ëĭĪê¹Ĳ
ĠëıĮìķĦ ëĭ¤ëħĢ
Ġëĭµ ìķĪ
ĠëłĪ ìĬ¤
ĠìķĶ íĸī
Ġëģ¼ ì³¤
ë²ł ìĿ´
ĠëĬĲê»´ ìĦľ
ĠíĿ¡ ìĤ¬
Ġm bc
Ġíĺ¼ë ıĪ
ĠìĨĮíĻĶ ìłľ
Ġc gv
Ġìĺ®ê²¨ ìĦľ
Ġê¹ĢëıĻ íĺĦ
Ġê°ĲìĹ¼ ìŀĲ
Ġê³½ ìĥģ
Ġë¯¸ìĬ¤ íħĮë¦¬
Ġëĭ¤ëĭ¹ ìłľ
Ġì§Ģ íıī
Ġíķľ ìĿĺìĤ¬
ĠìŀĲ ë¦´
ĠìĹĨ ëĭ¤
Ġë¯¸ ìĹ°
Ġê°ľ ì²´
Ġìĺģ ë³µ
Ġì°¨ ë¡ľ
ĠëĲł ìĪĺë¡Ŀ
Ġì§ĳ ì§ĳ
Ġíĺ¸ ìĬ¤íĬ¸
Ġì´Ŀ ìķ¡
ĠíĿ¬ ìĹ´
Ġë°¥ ê·¸ë¦ĩ
ĠìĨ¡ ë¶Ģ
ĠíĶĮ ëłĪìĿ¸
Ġì§ł ë§Ľ
ëłĽ ëĮĢ
ĠìĿį ìĭľëĭ¤
Ġë°ķíĥĪ ê°Ĳ
ìª¼ë ¡Ŀ
Ġëĭ¤ ìļ°
ĠìķĪ ê¸°
Ġê°Ĳ ëıĦ
ĠëĪĦ ëł¸
ĠìĹ´ ë°Ľ
Ġê°Ħ ìĨĮ
Ġíĺ¸ íĻĶ
ĠëģĮ ë¦¬
Ġìŀ¥ìķł ìĿ¸
Ġëķ¡ íģĲ
ĠëĤĺìķĦ ì¡Į
Ġìĺ¬ë°Ķ ë¥´
Ġëģĵìĸ´ ìĺ¤ë¥´
ìĤ¬ ìľĦ
ëĮĢ ëĭ¨
ê±° ì§ĵ
ĠëįĶ ìĽł
Ġìľł ì±ħ
ìłĢ ëŀĺ
ìĹ° ëĮĢ
ìľł ëªħ
Ġë¹ ķ
Ġì½Ķ ìĸ´
ĠìĻķ ëŀĺ
ĠìĪĻ ì§Ģ
ìľ¤ ì£¼
ĠìĻĦë²½ íŀĪ
ĳ¥ ìĿ´
ì¿ł ë²Ħ
ĠíİĢ ì¹ĺ
ĠëĤĺìķĦ ì§Ī
ĠìĿ¼íĮĮ ë§ĮíĮĮ
Ŀ ëĭĪê¹Į
ìłľ ì£¼ëıĦ
Ġíķ´ ë¶Ģ
Ġë³´ ìĺ¨
ìĸ´ ìĤ¬
Ġë¹Ħ ë¦°
Ġê±´ ëĵľëł¤
Ġìĺģ ì±Ħ
Ġëį° ìĿ¼ë¦¬
Ġëģ Ļ
Ġë°° ìĭ¬
Ġì¹ĺ ìļķ
ĠíĶ¼ ì²ĺ
ë°ľ ëł¥
Ġë³Ģ êµŃ
Ġìłĳ íķľ
Ġìĺ¤ëŀĺ ê°Ħë§Į
Ġê²¬ ê³ł
ĠìĪĺì¹ĺ ìĭ¬
ĠìĽĲëıĻ ëł¥
ĠìĿ´ íĨłë¡Ŀ
Ġì§Ģ ëłĽëĮĢ
ê³ł ê°ľ
Ġìľł ê³¨
ĠëĤ¨ ìŀĶ
ĠëıĻ ë©Ķëĭ¬
ĠìĤ´ ìĥģ
Ġëĵ± íĮĲ
Ġíķ© ì¹ľ
Ġì´Ŀ ê²©
Ġë³µ ìŀĲ
ĠíĻ© íĺ¼
ì¶© ìłľ
Ġëĵľë¦° ëĭ¤ê³ł
ĠëĮĢëªħ ìĤ¬
í ĵ°ë¦¬ì¦ĺ
Ġê±° ìłľ
ĠëĦ¤ ìŀĦ
Ġë³´ ìĬµ
ĠëĮĢ ìŀĳ
ìĤ¬ ëĤ´
Ġë¶Ģ ìĹħ
íķ´ ëıĦ
Ġë¬¸ ëŀĢ
Ġë¬´ ìŀĲ
Ġìĺģ ì¡°
ĠêµĲ ì§ģ
Ġìŀ¬ ë³´
ĠíĥĢ ìĺ¬
ëĤł ë¦¬
Ġëıħ ëĭ¨
Ġëĸ¨ ëł¤
ĠëĬĲê»´ ìł¸ìļĶ
ì¢Į ìĻķ
Ġë¬´ìĦľ ìļ¸
Ġs bs
ìĸ´ì© ľ
ĠìĭľëģĦëŁ¬ ìļ´
ĠëĳĲë£¨ ëĳĲë£¨
Ġì²ľì£¼ êµĲ
Ġê°Ģ ëĶĶ
Ġê³ł ëĩĮ
ĠìĺĪ ëĭ¹
Ġìłķ ë§¥
ĠëĭĪ ê»ĺ
Ġì¡° ëģĶ
Ġê¹Į ì§ĳëĭĪëĭ¤
ĠìĻĢ íķ´
Ġìľł ë§Ŀ
Ġëĭ¬ íĸĪ
Ġì»¤ íĬ¼
Ġì¡´ ëĮĵë§Ĳ
Ġë¹Į ë¦´
ë²ł ìĬ¤
Ġë¹Ī ìĨĮ
Ġê²°íĺ¼ìĭĿ ìŀ¥
ĠìĪĺìĭŃ ë§Į
Ġë°Ķëĭ· ë¬¼
ĠëĦ¤ ìĺĪ
ĠëĲĺ ëıĦë¡Ŀ
Ġêµ¬ íĨł
ĠìĦ¸ ìĺģ
ĠìĦ± ì§Ģ
ìĿĢ ìĺģ
ë²Ī ìĹŃ
ĠìĥĪ ê¸°
ĠíĶĦ ëŀŃ
ĠíĮ¨ ìĨĮ
ĠìĿ¸ê°Ģ ëĿ¼ëĬĶ
Ġìª ¼ë
Ġê³¼íķĻ ê´Ģ
ĠêµŃìłľ ë²ķ
Ġíĺľ ìĽĲ
ĠëĿ Ī
Ġëįľ ì»¥
ĠìłģìłĪ íŀĪ
ĠìĹĳìĬ¤ ëłĪìĿ´
ìĬ¤ì½Ķ ë¦¬ìķĦ
Ġíľ©ìĭ¸ ìĺĢ
Ġì¶Ķì§ķ ê¸Ī
Ġê±° ëĵ±
ĠìĹ¬ ëĬĲ
Ġë§Ĳ ëŀĲ
ĠìĦľ íĶĦëĿ¼ìĿ´ì¦Ī
Ġìĭł ëĵľë¡¬
Ġë°Ķ ëĬĲì§Ī
íĬ¸ ëŁ¼íĶĦ
ìĨĮ ìĨį
ĠëıĻ ëĸ¨
ĠíĻĶ ëª©
Ġë¬¼ ìĤ°
Ġê¶Į ìĦ±ëıĻ
Ġì¶ķ ìĤ°
ëįķ ìĪĺ
ĠëĵŃëĭĪëĭ¤ ìĸ´
ĠëĴ· ì¢ĮìĦĿ
ĠìĨĮìľł ì£¼
ĠìķĻ ìĥģ
ĠíĹ·ê°Ī ëł¤
ĠìĥĮ íĶĦëŀĢìĭľìĬ¤ì½Ķ
Ġì¶©ìĭ¤ íķĺ
ëĿ¼ìĿ´ìĸ´ íĭ°
Ġê·¸ ì¼Ģ
Ġìłģ ìŀĦìŀĲ
ĠìĦľ ì§Ħ
ĠìĦł êµ°
Ġìŀ¥ íĦ°
ë§Ĳ ëŀŃìĿ´
Ġíķľëĭ¤ ê¸°
Ġì§Ī ëł¤
ĠíĥĢ êµ¬
Ġë´Ĳìķ¼ ì£ł
Ġì»¤ ëħķ
ĠìĽĮ ì¦Ī
Ġìķħ ëĭ¹
ĠíĭĢ ë¦´
Ġì§Ģì¼ľ ì¤Ħ
ĠíĹ¤ ëĶ©
ĠëģĬ ê²¼
Ġìĺ¥ ìĭľ
Ġtv n
ĠìķĪíĥĢê¹Į ìĽł
ĠìĦ±ëĤ¨ ìĭľ
ĠíĭĪíĭĪ ìĿ´
ĠëıĦ ëĤľ
ë§ ·
ê°Ģ ìļ´
ĠìĪĺ íı¬
Ġìłľ ìŀ¥
ĠëĤ´ ê³¼
ê·¸ ëł¤
Ġì¡° ê¹ħ
Ġìŀĺ ëŀĲ
ë¹Ħ ìķĪ
Ġë°ľ íĨ±
ĠíĺĦ ìĦĿ
Ġì¶Ķ ìļ¸
Ġê¸Ī ëŀĢ
Ġìĺ¨ ìĭ¤
ĠìĿ´ë¯¸ ìĦł
Ġì¶ķ ìĤ¬
ĠëĨį ì§Ģ
ĠíĶĮ ë£¨
Ġì¦Ŀê±° ìĿ¸
ĠëĨĢëĿ¼ ìĽĢ
ë¡ľê·¸ ìĿ¸
Ġêº¾ ìĿ´
Ġìĵ¸ëį° ìĹĨìĿ´
Ġv ip
Ġê¸īìĨį ëıĦ
ĠíĬ¹ëª© ê³ł
Ġê·¸ëŁ¬ ìĭ¤
Ġë§Ī ì°¨
Ġìĺ¬ ê¹ĮìļĶ
ê¾¸ ëĿ¼ì§Ģ
Ġëĸł ëıĦ
ë´ī ê·¼
ĠíĿĲ ë¥¸
ĠëĴ¤ì§ĳìĸ´ ìĵ°
Ġë©´ì£Ħ ë¶Ģ
Ġíķĺ ì§Ħ
ĠìŀĲ íķ´
ë¡ľ ìĬ¤
Ġê±¸ ìĬ¤
ĠêµĲ íĻĶ
ĠíļĮ ë¡ľ
Ġë°ķ ìĦ¸
ëĿ¼ë ©
ĠíĶ¼ íĮĮ
ëģ Ļ
íĨł ë§Ī
ĠëĶĶ ìĺ¤
Ġìľ¤ ëıĻì£¼
ĠíĦ° ìł¸ìĦľ
ĠìķĪìłĦ ë§Ŀ
ĠëĴ· ë¶Ģë¶Ħ
ĠíĤ µ
ĠíĬ¹ìłķ ìĿ¸
ì· Į
Ġìķ½íĺ¼ ìĭĿ
ĠìĿ´ ëĵ¬
Ġíķĺ ìļ°
ìĦľ ë²Ħ
Ġê²Į ìĿĦ
ĠìĿ¼ ê³¼
Ġê´Ģ ìĦ±
Ġìĺģ ëıĦ
Ġìĺģ ìĿ¸
Ġìµľ ëĭ¨
ê³¼ ìĿ´
Ġì¹ĺ ë§¥
ĠíĥĢ ê¹ĥ
ĠíĤ¤ ì¹ľ
Ġíĺ¼ ìĤ¬
Ġìľ¤ ìĭł
Ġëĭ¤ëĭĪ ê¹Ĳ
ĠíĿĶ ìĿ´
Ġì°¬ ìĤ¬
Ġëĭ¬ëł¤ ìĻĶ
Ġëį°ë·Ķ ìŀĳ
Ġê±´ëĦĪ íİ¸
Ġë§¤ì¶ľ ìķ¡
ĠíĽĦë°ĺ ë¶Ģ
íĬ¸ë¡ľ íĶ¼
Ġíı¬ë¥´ íĪ¬
Ġìĸ´ìĪĺ ìĦł
ĠìķĪ íķ¨
ĠìļĶ ìĹ°
ìĪĺ ê²½
Ġê²½ ìĪĺ
ìłĦ ìĭľ
ìĨĮ ê°ľ
ìŀ¬ ë£Į
Ġë¶Ī íĻ©
Ġëĭ¨ ì¸µ
ìĦĿ ì§Ħ
ĠìĭĿ íĽĦ
Ġê¸Ī íĥľìĦŃ
ĠíĬ¸ ëŀĺ
Ġë¦¬ ë¹ĦìķĦ
ĠíıŃ ì£¼
Ġìĸ¼ íģ°
ĠíĿ¬ ìĪĺ
Ġê½ĥ ê²Į
ĠëĨ¨ ê¸°
ĠìĥĿê¸´ ëĭ¤ê³ł
Ġì·¨ìŀĦ ìĭĿ
ê²°íĺ¼ ìĭĿ
Ġë¯¸ìĥĿ ë¬¼
i d
Ġê³ł ì°½
ĠìķĦ íĨł
Ġë§ ·
ĠëıĦ ìłķ
ìĪĺ ìĹħ
Ġëª¨ ìĿ¼
ë¶Ģ ëĵ¤
Ġìĭ¤ ê³¼
Ġë¯¸ ìĤ¬
ĠëĳĲ íĨµ
Ġìŀ¬ ì´ī
Ġë³Ģ íĻĺ
ĠìĨĲ ëĮĢ
Ġíı¬ ìĦĿ
Ġì´Ŀ ìĺģ
Ġì²ł ìĹĨ
ĠëłĪ ìĬ¬ë§ģ
ìľ¤ ìĦĿ
Ġêº¼ ì§Ħ
Ġê²© íķĺ
ìĬ¬ ëĿ¼
Ġìĸ´ëķł ìĿĦê¹Į
Ġê½Ī ë¦¬
Ġíķľëĭ¤ëįĺ ê°Ģ
Ġì¡°ëł¥ ìŀĲ
Ġìłķì£¼ ìĺģ
ĠìķĦìĪĺ ëĿ¼
Ġë³´ ëĶĶ
ĠìĨĮ ìĭľì§Ģ
Ġë¬´ ëĵľ
Ġë¯¸ ìłģ
Ġìŀ¥ ëĤ´
ĠêµĲ ë¦¬
ĠíĬ Ī
Ġë¬¼ ê°Ĳ
ĠìĪľ ë°ľëł¥
ëĤ¨ ë¶ģ
Ġìļ´ìłĦ ëĮĢ
ĠìĿ´ìĤ¬ íļĮ
íģĲ ë¦¬
ĠëŁ° ì§Ģ
Ġì§¤ ë§ī
Ġë°ķìĺģ ìĪĺ
ĠíĶĦëŀĢ ì²´
Ġì¡°ë¬¼ ì¡°ë¬¼
6 0
ĠëĮĢ ìļ©
ĠìłĦ ë¦½
ĠìĦľ ê¸Ģ
ĠëĿ¼ë ĵł
Ġê²½ íĽĪ
Ġë°ĺ ë°Ķì§Ģ
Ġìĺ¬ ë¦½ëĭĪëĭ¤
ĠëĪĦ ìļ°
Ġê°Ħ ëĮĢ
ĠëĴ¤ íİ¸
Ġìľ¤ ê³½
Ġê·Ģ ê±¸ìĿ´
Ġì°¾ìķĦ ëĥĪ
ĠìĿ´ìŀ¬ íĻĶ
ĠëĬĲê»´ ìļĶ
Ġëıħë¦½ ìĺģíĻĶ
ĠëĭŃ ê°Īë¹Ħ
Ġê³µíķĻ ìŀĲ
Ġê°ĪëĿ¼ ìĦľ
ĠìĿ´ëł¥ ìĦľ
Ġëħ¸ëŀ« ë§Ĳ
ĠìħĢëłĪ ëĬĦ
ĥ ë¶Ī
Ġìĸ´ ìĽĮëĵľ
ìĿ´ ëĶĶ
ĠìļĶ ìª½
Ġëª¨ ê°ľ
Ġì¤ĳ ìĭĿ
ìĭł íĺ¸
ìĨĮ ìĪĺ
Ġìŀ¥ ëĭĺ
ĠìĬ¤ íĭ±
Ġë³¼ ê»ĺ
ĠëĤł ë¦°
Ġíı¬ ìĦŃ
Ġíı¬ ì¼ĵ
Ġíı¬ íĵ°ë¦¬ì¦ĺ
ĠëĪĪ ê°Ģ
Ġë²Į ìĹ¬
Ġì¦Ŀ ìķ¡
ĠìĹ°êµ¬ ìĭ¤
ĠìºĲ ë¦¬ìĸ´
Ġê¸°ìĪł ëł¥
Ġë©Ķëª¨ ë¦¬
Ġì°½ìĿĺ ëł¥
Ġê·¸ëĿ¼ ìļ´ëĵľ
ĠìªĦ ìĦľ
Ġê±´ëĵľ ëł¸
Ġê³ł ì§Ħ
ĠìĤ¬ íĥĲ
ìĭľ íĹĺ
ĠìķĪ ëĵľë¡ľ
ĠëĤ´ ì¤Ħ
ĠêµŃ ìĺģ
ë³´ ëıĦ
ĠíĽĦ ë°©
ìĦĿ ë°©
íĥľ ê²©
ìĽĶ ìĿ¼
ĠìĦ¤ ëłģ
Ġíı¬ ê·¼
Ġë©Ķ ìĭľ
ìĥĪ ìļ°
ĠìĤ¬ìļ© ë²ķ
Ġê³Ħìĭł ëĭ¤
ë¸Ķ ëŀĻ
ĠëĬĲê»´ ì§Ħëĭ¤
ĠëıĮëł¤ ë³´
ĠëĤĺê°Ħ ëĭ¤ëĬĶ
ĠìĽĲíķľ ëĭ¤ë©´
ĠëĲ ¬
ê³ł ì§ľ
Ġìĭľ ì»¤
Ġìĥģ ëĤ©
ĠìĹ° ëª»
ê±´ ê±´
ĠëĥĲ ë©°
Ġë°ĺ ê³µ
Ġë§ŀ ëĭ¿
ĠíĮĶ íĮĶ
ì§ľ ê³łì§ľ
ĠìĹĦë§Ī ìķ¼
ĠìłĪ ìĿ¸
ĠíĻĺ íķľ
íĨł ëĭĮ
ëįĶ ìĬ¤
ĠíıĲ ê²½
ë§ŀ ì¶¤
Ġíİĺ ìĸ´
Ġë¬´ìĦľ ìĽĮíķĺ
ĠìĽĥìĿĮ ë°Ķëĭ¤
ëª° ëĿ¼
ëģĪ ìłģ
Ġìĸ´ë§Ī ë§Īë§Ī
ĠìĿ´ìłķ ëł¬
ĠëŃī ì¹ľ
ĠíĹĺ ëĤľ
Ġëĭ Ļ
ĠìĺĪ ë²ķ
ĠìŀĲ ëĳĲ
ĠìĹ¬ ì£¼
Ġìłľ íľ´
ìĿ¸ ìłķ
ĠêµŃ ìĻ¸
Ġìĭł íĥģ
Ġë¶Ī ë¶Ħëªħ
ĠíĶ¼ íĭ°
ĠìĨ¡ ìłķìķł
Ġê¹¨ ìł¸
ê¿ ĭ
Ġê°Ĳëıħ ìĽĲ
ĠíĥĢìŀĦ ìĬ¤
ĠëĤ´ìĦ¸ ìļ¸
Ġíķĺ ìĺ¤ëĤĺ
ĠìĤ¬ íı¬
Ġë§Į ë¥ĺ
ĠìĦ¸ ì²Ļ
Ġìķ¼ ìĤ°
Ġìľł ê¸ī
Ġê¹Ģ ëĳĲ
ëĵľ ëŀĺê³¤
Ġê°ķ ëıĻìĽĲ
Ġíıī íıī
ĠíĶ¼ íĶ¼
Ġìĸĳ íĿ¬
Ġì¶ľ ì¤ĳ
Ġê°Ī ëŀĺìļĶ
Ġíĥľ ì£¼
ĠìķĮìķĦ ì°¨
ë§ŀ ìĿ´
ĠëıĦë§Ŀ ê°Ī
ĠìŃ Ĳ
ĠìĪĺì²ľ ë§Į
Ġìłķ ìĬ¹
Ġëĵľ ëĿ¼ëıĦ
Ġëįĺ ìł¸ìĦľ
íķĺ ìŀ¥
Ġìĭ¤ íģ¬
Ġê±¸ ìŀĳ
Ġì§ĳ ê²°
Ġë°ķ íķĺ
Ġë²Ħ ëĿ¼ìĿ´ìĸ´íĭ°
ĠëĮĢíķĻ ê°Ģ
ĠëĬĺ ëł¤ìĦľ
ĠíĥĦ ëĭ¤
Ġê·¹ ëªħ
Ġë½ĳ íĺĶ
Ġì¦Ŀê±° ë¬¼
ĠíĿ© ìĸ´ìł¸
ĠìĿ´ ëĵľ
Ġê°Ģ êµ°
ĠëĦ ¬
ĠìĿĺ ìĿĺ
ĠìķĪ ìŀ¬ìļ±
ĠëĤ´ ì¤¬
ê·¸ ëĨĪ
ĠìĦ¸ ê´Ģ
ë¯¼ ìĪĺ
Ġëħ¸ ëª¨
Ġë°° íĬ¸
Ġë§¤ ì¹Ń
ĠìĻ¸ ëŀĺ
ë°ĺ íķĺìŀ¥
ĠíĨł íķ´
Ġì»µ ëĿ¼ë©´
Ġëıĭ ë³´ê¸°
Ġl i
Ġìĸĳìľ¡ ê¶Į
ĠìĭłìĦ¸ ê³Ħ
Ġë¶Ħëĭ´ ê¸Ī
ë°©íĥĦ ìĨĮëħĦëĭ¨
Ġë³´ ëĦĪìĬ¤
ĠìŀĲ ìĭľ
Ġì£¼ ì¶ķ
ĠìķĪ ë´īê·¼
ëıĦ ëĳĳ
ĠëķĮ ë©Ķ
ìĽĲ ì§Ģ
Ġëª¨ ëįĺ
Ġë¬´ ë§ĲëŀŃìĿ´
ĠìĤ¼ ìĿ¼
ĠëĥĲ ëĭĪê¹Į
Ġì²ľ ë¦¬
ĠíĻĶ ë³ĳ
Ġìŀł ê¸°
ë°Ķ ìľĦ
Ġê´ĳ ëĮĢ
íĻķ ìĭ¤íŀĪ
Ġê°Ĳëıħ ê´Ģ
ĠíĹ·ê°Ī ë¦´
Ġìĩł ê³łê¸°
ĠëıĻìĬ¹ ìŀĲ
Ī Ī
Ġìĸ´ ìĿ¸
ĠëıĦ ë´ī
ĠìĨĮ ì§Ī
Ġë°Ķ ì³Ĳ
ëĵ¤ ê°ĳ
Ġì¹ľ ëĶ¸
Ġìĸĳ íıī
ĠìĨį ìĿ¼
ĠìĻ¸ íĺķ
Ġê¸Ī ì¹ĺ
Ġëª° ìķĦëĤ´
ĠíħĮ ëĦĪ
íĽ Į
ĠìļĶêµ¬ ë¥´íĬ¸
ì»¤ íĬ¸
ëĶ° ëģĪ
ìĸ¼ ìĿĮ
Ġíıīì°½ ëıĻ
ê³łì¶Ķ ìŀ¥
ĠìľłìĿĺ ë¯¸
Ġìļ°ìĻķ ì¢ĮìĻķ
ĠìłĢ íĿ°
Ġìŀħ ìĦ±
ĠìĹ° íļĮ
ĠìĦ± íĴĪ
ĠëĤ¨ ë°©
Ġê°Ĳ ë³Ħ
ĠëĶ° ìł¸ìķ¼
ĠíĶ¼ ìķĮ
ĠëĨĵ ì³Ĳ
ë¦½ ëĭĪê¹Į
Ġë³ĳ ëıĻ
ĠìĤ° ë§¥
ĠìĿĳ ëĮĢ
Ġë°ĶëĢ ĿëĭĪëĭ¤
ìĿ¼ë ł¤ê³ł
Ġìĭłë¬¸ ì§Ģ
Ġëĭ¬ìķĦ ëĤĺ
ĠìĸĦ ë¯¸
ĠìĿ´ ê´Ģ
Ġê³ł ìŀ¬
Ġê³ł ì¸µ
Ġì§Ģ íį¼
ĠìĪĺ íį¼
Ġìłķ ì¤Ģ
ë³´ ê°Ĳ
Ġíı¬ ìĪĺ
ë°° ê³ł
Ġë³µ ìĹŃ
Ġëıħ ìĦ¤
Ġìļ© ìĪĺ
ì°½ ìĭĿ
ĠìĪĻ ìĿĺ
Ġê±· ìĸ´
Ġê±¸ìĸ´ ìĺ¨ëĭ¤
ĠìĨĮë¬¸ ëĤľ
Ġ15 0
Ġë¸Ķë£¨ ë²łë¦¬
Ġê¹Ģìĸĳ ê±´
êµ³ ìĿ´
Ġìŀ¬ê²° íķ©
ĠìĿĢ ìĿ¸
ê²Į íĬ¸
ĠìŀĲ ê·¸ë§Ī
Ġìłķ ëªħ
ìĥ ·
Ġìĺ¤ ë¦Ħ
ĠìĥĿ ì²´
Ġêµ¬ ê²¨
íĶ¼ íķ´
ĠëĶ°ëĿ¼ ìŀ¡
Ġëĸł ë°Ģ
Ġê¸ī ëĵ±
íĦ´ íĬ¸
ĠëĵŃëĭĪëĭ¤ ê·¸ëŀĺìĦľ
ĠìĭľìĦ¤ ë¬¼
ĠìĥĿìĤ° ëŁī
Ġì§Ŀ íīģ
ĠìĶ¬ ëį°
Ġíĸīì§Ħ ê³¡
Ġëĭ´ìķĦ ëĤ¸
ĠìĪĺíĻĶ ê¸°
Ġì½Ķë©Ķ ëĶĶ
ê°Ģ ëĭĪ
ĠìķĪ ìĥī
Ġë¶Ħ ì¶ľ
Ġê²½ ìĿ¸
ìĿ¼ ìłĦ
Ġë¯¸ ìĵ°
Ġì§ģ ê¸ī
ĠìĦ¤ íĻĶ
Ġíķ© íķ´ìĦľ
Ġì¦Ŀ ìĦľ
ìĬ¹ ìĽĲ
Ġê¶ģ ë¦¬
íĽ ¼
íĥĦ ëĳĲ
ì¿ł ë¥´
Ġê´´ë¡ľ ìĽĢ
ĠëĦĺëĤĺ ëĵľ
ĠíĻįìĦĿ ì²ľ
Ġë¶ĢëĵĿ ìĿ´
Ġíĭ°ê²© íĥľê²©
Ġìł Ń
ìĿ´ ì¡°
ëıĦ ìĽĢ
Ġë¶Ħ ìĭł
Ġìķ¼ ìŀĲ
Ġê´Ģ ìĬµ
ĠêµĲ ì£¼
Ġëĭ¨ ì´Ī
ĠíĮĮ ë©´
Ġëĭ´ ìŀĲ
Ġëıħ ìĪĺë¦¬
Ġìłķìĭł ë³ĳ
Ġìļ¸ ë¶Ħ
Ġì°¬ ë°ĶëŀĮ
Ġëŀĺ ë©´
ĠìĹĺ ìĿ´ëĶĶ
Ġìĵ´ ë§Ľ
ĠìĪĺíķĻ ìŀĲ
Ġë¶ĢìĤ° ëĮĢ
Ġì¹Ń ìĨ¡
Ġê¸°ë¶Ģ ê¸Ī
Ġìĸ¹ íĺĢ
ĠíĴĭ ê³łì¶Ķ
ĠëĤ´ë³´ ëĥĪ
Ġìµľë¯¼ ìĪĺ
ĠìĿ¼ìĸ´ ëĤ©ëĭĪëĭ¤
Ġì°Ŀ ì°Ŀ
© Ķ
ĠìķĦ ìĦł
ĠìĺĪ ìĹ´
Ġë¶Ģ ê¸Ģ
ëıĦ ë¥´
Ġìļ° ëĳĲ
ìĬ¤ ëŁ°
Ġë§Ī ì§Ģ
íĦ° ì¹´
Ġë°© ê·Ģ
ì¡° ë§Ī
Ġë¹ł ëĵ¯
Ġëª¸ ê°Ĵ
Ġë¨¸ ê¸Ī
Ġìľ¤ ìķĦ
ĠìĬ¹ ì§Ģ
Ġì¹¨ ìĭ¤
ĠëĩĮ ì¶ľíĺĪ
Ġì»¨ ëĮĢ
ĠìĬ¤íı¬ íĬ¸
Ġìĭłíĺ¸ ëĵ±
ĠìĭłëıĻ ì§Ħ
Ġê³łê¹ĥ ì§ĳ
ĠëĬĶ ëĮĢìļĶ
ĠëĦ¤ ìĤ¬
ìĤ¬ íĥľ
Ġë¶Ģ ë¦´
ê·¸ ë§£
êµ¬ ìłķ
Ġì¤ĳ ë°©
Ġë¹Ħ ì¶ķ
ĠìĦł ë´ī
ĠìĹ° ëĭ¤
ìłĢ ëłĩê²Į
Ġë°ķ ëĮĢ
ĠìĦ¤ íĿ¬
Ġë¹¨ ëł¤
Ġì°½ íĿ¬
ëķĮ ë¡ľ
Ġë§Ŀ ê°ģ
Ġë¸Ķ ëĿ¼ëĶĶ
ĠëĨ¨ ìĿĦ
ĠìĥĿê¸´ ëĭ¤ëĬĶ
ĠìľłìĬ¹ ì¤Ģ
ĠíķĺìĿ´ íŀĲ
Ġìĭ¤ë§Ŀ ê°Ĳ
Ġê°Ħíĺ¸ íķĻ
Ġëĭ¥ ì³Ĳ
ĠìĿ´ê²¨ ëĤ¼
ĠëģĦëįķ ìĿ´
Ġë·Ķ íİĺ
Ġê²½ê³µ ëª¨
ĠìĿ´ íĭ°
Ġíķľ ëĤ¨
Ġê±° ìĦ¼
ĠìŀĲ ë¹ł
ìĸ´ ë¦´
Ġë§Ī ì§Ħ
Ġê±´ ëĭ¤
Ġê´Ģ ìķĦ
Ġê´Ģ ì§ģ
íļĮ ìĭĿ
Ġìŀĳ ëĳĲ
ĠëıĮ íĴį
Ġìļ© ìĥģ
ĠíıĲ ì£¼
Ġìľ¼ìħ¨ ëĭ¤ê³ł
Ġìĭłëĭ¤ êµ¬ìļĶ
Ġíŀĺëĵľ ìĭ¤
ĠìĤ¬ìŀĲ ìĦ±ìĸ´
Ġë¬´íķľ ëıĦìłĦ
Ġëª°ìķĦ ëĦ£
ĠìķĦ íĽĦ
Ġëĭ¤ ë¹Ī
ĠëĮĢ íķł
ĠìĺĪ íķĺ
ĠìļĶ ìĦľ
ìĬ¤ íĶ¼
ìĭ¤ ìĿĢ
Ġëª¨ ë¦¬
ĠìĦ± ìĹŃ
Ġì°¨ ë¹Ħ
Ġìµľ ìłĦ
íħĮ ìĿ¸
Ġì¤Ģ ìļ©
Ġíĸī íĮ¨
ĠìķĦê¹Į ìĽĮ
Ġë¨¸ íģĲë¦¬
Ġì¡°ìĦł ìĿ¸
ĠìĮĵ ìĹ¬ìĦľ
Ġê°Ģë¥´ íĤ¤
ĠìĺĪë»Ĳ ìĦľ
ìĸ´ì© Ĳ
ĠìķłêµŃ ìĭ¬
íĥ± íģ¬
ê·¸ì¹ĺ ë§Į
Ġì¹µ íħĮìĿ¼
Ġê°Ģ íķł
ĠìĺĪ ìĭł
ìĽĲ ìĭĿ
ìĥģ ê°Ģ
êµ¬ ìĿ´
Ġë¯¸ ëŁ¬
ĠìĦ± ê·ľ
ë¹Ħ ìļ©
Ġë³¸ ìĦ±
ê°Ĳ íŀĪ
ĠìĨĲ ì§ĵ
Ġíı¬ íĥĪ
Ġê°Ī ì¦Ŀ
Ġëª© ì¤Ħ
Ġíľ´ ìĹħ
Ġì°¬ ë°¥
ĠìĪĻ ì·¨
Ġëħ¹ ìĿ´
ê·Ģ ìĤ¬
Ġë¶ĪìķĪ íķ´íķĺ
Ġì¤ĳìķĻ ìĦł
Ġìķ¡ ìŀĲ
Ġìľ¼ëł¤ ëĤĺ
Ġíľ´ê°Ģ ì²ł
Ġê¹Ģì§Ħ íĳľ
ĠíĹĺ ì§Ģ
Ġìĸ´ì§Ģ ëŁ¼
ëĿ¼ìļ° ëĵľ
íĬ¹ë³Ħ íŀĪ
ìĿ´ ëıĻ
ìĸ´ ì£¼
Ġìĺ¤ ëĭ¬
Ġê³µ ë§¤
Ġë°Ķ ê¸Ģ
ë§Ī ëĭĺ
Ġë¯¸ ìĬ¤ì½Ķë¦¬ìķĦ
Ġì°¨ ìĿµ
ìľł ìłķ
Ġëªħ íķĺ
ëĿ¼ë ²Į
íĺĦ ì¤Ģ
Ġë³Ģ ìĿ¸
Ġì´Ŀ ëıĻìĽĲ
ĠìĤ° ê³¨
Ġì±Ħ ëıĻìļ±
ĠìĤ¬ìļ© ëŁī
ĠíĥĦ ëĳĲ
Ġê¹¨ ìĨĮê¸Ī
ĠìĦłìĸ¸ ë¬¸
ë¨¹ ìĿ´
íĳ¸ ëĵľ
Ġì§Ģëªħ ìŀĲ
ĠìĿ´ìĤ° íĻĶ
Ġê°Īë¹Ħ ì°ľ
ĠìĿ´ëĮĢ íĺ¸
Ġê±°ì¹¨ ìĹĨìĿ´
o l
ĠìĹĲ ë²Ħ
ì§Ģ íľĺ
Ġê¸° ë¦½
ìĸ´ ì§¸
Ġìĺ¤ ëıĦ
Ġìĺ¤ ë¡¯
Ġë¶Ģ ìŀĦ
ëĿ¼ ìĿ´ìĬ¤
ĠìĥĿ ëª¨
Ġì¹ ¡
ĠìķĮ ê³łë¦¬
ì§Ħ ìłķ
ĠìĽĲ ìĭ¬
ì²´ ìĿ¸
Ġë°± ë¯¸
ĠìłĲ íį¼
Ġêµ° ë¬´
Ġì¹ĺ ìĺģ
Ġëª© ìĦ±
Ġëª° ë¦°
Ġìłĳ ëĭĪëĭ¤
ĠíĺĲ íķľ
Ġëĸ¨ìĸ´ì§Ħ ëĭ¤ê³ł
ĠìĨĮëħĦ ë²ķ
Ġë§ĮíĻĶ ì±ħ
Ġê¹ĢëıĻ ìĦ±
ĠìĬ¬íį¼ íķĺ
ĠìķĪìĵ° ëŁ½
Ġëį°ìĿ´ë¹Ħ ëĵľ
Ġìĺ¤ìķĦ ìĭľìĬ¤
ĠìĿ´ëĵ¬ íķ´
ĠìłĦë¦½ ìĦł
1 3
Ġì§Ģ ìĽł
Ġì§Ģ íĥĦ
ê°Ģ ëĤ´
Ġìłģ ë°ĺíķĺìŀ¥
ĠìĦľ ì±ħ
Ġìĥģ ìļ©
Ġë¯¸ ë£°
Ġë³¼ ìĪĺë¡Ŀ
Ġìķ½ íķ´ìĦľ
Ġë¯¼ íıĲ
Ġë¶ģíķľ ìĤ°
Ġì´Ī ëĭ¹
íĺķ ìĪĺ
ĠíĬ¸ ë£¨
Ġë³ĳ ìĥģ
ĠíĿ¬ ìĨĮ
ìĪĻ ìĨĮ
Ġë³ĳìĽĲ ìŀ¥
ĠìŀĶ ë¥ĺ
Ġëĵ¤ìĸ´ê°Ħ ëĭ¤ëĬĶ
ĠìĺĪë°© ë²ķ
ĠíķĻê¸° ìłľ
Ġìĸ¼ìĿĮ ë¬¼
Ġê±°ë¶ģ ìĿ´
ĠëĿ¼ëįĶ ëĭĪ
¼ë °ľ
ĠëıĦ ìļ©
ì§Ģ ê·¼
Ġê³ Ī
Ġìĭł ë´ī
Ġê´Ģ ìĽĲ
ĠëĳĲ ëĳĶ
Ġë§ŀ ëĭ¥
ĠíķĦ ë¡ľ
ìĽĶ ëĵľ
Ġíĸī ìĿ¸
Ġì¹´ íĥĢë¥´
Ġì°½ ê±´
ĠíĦ° ìłĦ
ë¨¸ ìĬ¤
ĠëĬĻ ìĿĢìĿ´
ĠíĪ ´
íģ° ìĿ¼
Ġê°ĸì¶° ìł¸
ĠëıĻíĻĶ ì±ħ
ĠìĬ¤íĶĦ ëłĪìĿ´
Ġê¾¹ ê¾¹
Ġìĸ´ë²Ħ ìĿ´
Ġíģ¬ë¦¬ ìĹĲìĿ´íĦ°
Ġ~ '
ĠìĿĢ ìĿĢ
Ġë¶ ĳëĭĪëĭ¤
Ġìłķ ë³ĳ
ĠìĿ¼ ê°ľ
Ġë¹Ħ ìĺ¤
ĠìĦł ë¯¸
ë£ ½
ìĹ° ê¸°
ĠíĮĮ íĤ¤ìĬ¤íĥĦ
ĠëĨĢ ëŀĢëĭ¤
ĠëĤ´ëł¤ ì§Ħ
ĠíĺĪ ì¤ĳ
ĠìĬ¤íĨł ì»¤
Ġê¹ĢíĺĦ íĿ¬
Ġê³łë¬´ ì¤Ħ
ëıĹ ê°ľ
ĠìķĦ ëĳĲ
Ġëĭ¤ ì§ľê³łì§ľ
Ġëª¨ íĨł
Ġë¯¸ ê°ģ
Ġëħ¸ ê³ł
Ġìķł ë¦¬
Ġìĭ¬ ì¦Ŀ
Ġë¦¬ ìķĦ
ĠìĹĶ íĬ¸ë¡ľíĶ¼
Ġìļ´ëıĻ íĻĶ
ë¶Ī ëªħ
Ġë°¥ ê°Ĵ
Ġìĺ¥ ë¥ĺ
ĠìĨĮìĨ¡ ë²ķ
Ġë¬´ë¦ ħ
Ġëĵ¤ìĿ´ ëĭ¥
Ġìĸ´ëł¤ìĽł ìĿĦ
ĠìĸĳëıĦ ìĦ¸
Ġì¤ĳê³µ ìĹħ
Ġì°¬ì°¬ íŀĪ
¶ ĵ
Ġê°Ģ ìĦĿë°©
ê°Ģ ëĶĶ
Ġìĺ¤ ìłķ
Ġì£¼ ê±°ì§Ģ
Ġê²½ ìĬ¹
ëĵľ ëĿ¼
Ġë°ķ íŀĮ
ĠìķĦìĿ´ ë¹Ħ
Ġë¶ģ ìĸ´
Ġë©Ķ ê¸°
ĠíĶĮ ëŀĢíĬ¸
ì¶© ëıĮ
Ġê·¸ë¦¼ ì±ħ
ìĤ¼ ìĦ±
Ġìĭ±íģ¬ ëĮĢ
Ġìĭľíģ¬ ë¦¿
ĠìĪ± íķľ
Ġë¬¼ëĨĢ ìĿ´
ĠìĿ¸ ê°Ĳ
Ġì¤ ı
ĠìłĦ ìĸ¸
ëĮĢ ëŀµ
Ġìĸ¼ë ł¤
Ġëª© ë§Ī
ĠìĿ´ìĥģ ëĵĿ
ĠìĪĺìĤ¬ ëĮĢ
ĠíıŃ ìĭĿ
íĻķ ìĭ¤
ĠìĨ¡ ê°Ģ
ĠíĶ¼ë §Ŀ
ĠëĮĢíĻĶ ë°©
ĠìĨĮìĭĿ íĨµ
Ġë¹łìł¸ ìļĶ
ëĭĲ ëĿ¼
Ġìĩ¼íķĳ ë°±
Ġê³¨íĶĦ ì±Ħ
Ġp pl
Ġë°±ì§Ģ ìĺģ
ìĭłë¶Ħ ì¦Ŀ
ĠìĿ´ ëıĦ
ĠìĿ´ ëŁ¼
ĠìĿ¸ ë¨¼
ë¬ ¼ë¦¬
Ġìłķ ê±°
ĠìļĶ ìĥĮ
ëıĦ ìļ°
ĠìĦľ ìĦ±ìĿ´
Ġë¬¸ ìłĦ
ëŀĺ ëĵľ
Ġë°ľ íĺĦ
Ġìĺ¬ ê»ĺìļĶ
Ġíŀĺ ì°¬
Ġíĳľ íĸĪ
Ġê¸Ī ì²ľ
Ġì²´ ë¶Ī
Ġìļ© ê±´
Ġì¶ķ ê°Ģ
Ġìĭľì¼ľ ëĿ¼
Ġ00 1
ìĿ´ëŁ¬ ëĭ¤
Ġo n
Ġë°ķë³ĳ íĺ¸
ĠìĿ´ ëģĪ
ìĿ įëĭĪëĭ¤
ĠìĿĺ ëĭ¹
Ġíķ´ ìłģ
ĠìĺĪ ë»¤
êµ ½
ĠìŀĲ ìĨĲ
ĠìķĪ ìĭľìĦ±
Ġê²½ ê´Ģ
ĠìĨĮ ìłĪ
Ġì§Ħ ê²½
ìĿĢ ì¡°
Ġëħ¸ ëł¨
Ġê°Ĳ ìłĲ
Ġëł¤ ëĭĪê¹Į
ĠíĮĲ ëªħ
Ġë²Į ì¹Ļ
ĠíĹĪ íĥĪ
ĠíĮ¨ ìŀĲ
Ġë¹ĦìĬ· ë¹ĦìĬ·
Ġê³µìłķ ìľĦ
ĠìĦ¸ìĽĮ ì§Ħ
íį¼ë Ł°
Ġë°Ķê¾¼ ëĭ¤
Ġì¾Į ìłģ
Ġê¹Ģì£¼ íĺģ
Ġìĸ´ë¨¸ë¨¸ ë¨¸
ìľĦìĽĲ íļĮ
ëĮĢì¤ĳ ìĥģ
7 0
Ġíķľ ìłģ
ĠìĪĺ ìĦ±
ĠìĪĺ ìĹŃ
ìķĦ íĶĪ
Ġìŀħ ê°Ģ
ë¬´ ìĤ¬
Ġì¡° ëª©
Ġì¹ĺ ì¤ĳ
Ġíİ¸ ì¹ĺ
Ġê¸°ë³¸ ë²ķ
ĠìĿĦì§Ģ ë¡ľ
Ġíļį ìĿ¼
ĠìŀĳìĤ¬ ê°Ģ
íīģ ìĿ´
íľ´ëĮĢ íı°
ĠìĿĺ ëħĢ
Ġë³´ íĹ¤
Ġêµ¬ íĥĢ
Ġìĥģ ë¶Ģ
Ġìĥģ ë¯¸
ĠëĿ¼ë ¯¸
Ġë²Ī ë²Ī
ìłĦ ë¬¸
Ġê°ľ ëŁī
Ġëį° ì³ĲìĦľ
Ġìŀ¬ ì°¨
ĠíļĮ ê¸°
Ġì§ģ ê²©
Ġìĸĳ ëıĻ
Ġíĺ¸ ëĵ¤ê°ĳ
ì¸ Ħ
ë¶Ī íĺ¸
Ġê·Ģ ë¹Ħ
ĠëĬ¥ ê°Ģ
Ġì¢Į ìĥģ
Ġì¡°ì§ģ ìĽĲ
ĠíŀĪ ìĬ¤íĨłë¦¬
Ġìķ¤ ëĶĶ
ĠíĿī ìķħ
Ġì§Ŀ ì§Ŀ
Ġëļ« ëł¤
Ġë°Ģë¦¬ ë¯¸íĦ°
Ġíį¼ë ¶ĵ
Ġã Ģ
Ġ18 0
ĠìĽĮíģ¬ ìĪį
e s
Ġëĭ¤ ëĭĻëĭĪëĭ¤
ĠìĤ¬ ëŃĩ
ìĸ´ ìĬ¤
ĠìķĪ ìĿ¼
ëıĦ ìĻĢ
êµ¬ ìĹŃ
Ġìĭł íĻį
ĠìĦł ìĦľ
Ġì²ľ êµ°
ĠìķĦëĭ ´
ë²Ħ ë¦ĩ
Ġíı¬ ë§·
Ġëĵł ê°ĢìļĶ
ëĤł ëĵľ
Ġê¸Ī ìĦ±
ĠëĤľ ìŀ¥
Ġë¦¬ ë²Ħ
ĠíĭĢ ëĭĪ
ê¹Ģ ì¢ħ
ĠìĿ¼ê°Ħ ì§Ģ
ìĿ¼ëª¨ ì§ģ
ĠíİĺíĬ¸ ë³ĳ
Ġë°ķë²Ķ ê³Ħ
Ġìĸ´ì§ĢëŁ¼ ì¦Ŀ
Ġì§Ģ ê·¸
Ġê±° ìĹŃ
Ġê±° ë¨¸
Ġëį «
ĠìķĪ ëĭ¬
ĠìĦľ ì§Ģ
ĠìĦ¸ ëĦ¤
ëª¨ íĨł
Ġë¯¼ ìĨį
Ġìľ¡ ì¦Ļ
ĠíĥĢ ì§Ģ
íķ© ê²©
Ġì¶© ë§Į
ĠëŁ¬ ìĭľ
Ġëħ¼ ê°Ŀ
ĠëłĪ ìłĢ
Ġìļ¸ ëł¸
ĠëĤĺíĥĢ ëĥĪ
ì¶© ìĪĺ
íģ´ ë¦°
Ġë§ĪìĿ´ ëĦĪ
ĠëĳĶ ê¸°
Ġìĭľíĸī ì°©ìĺ¤
ĠëĪĦêµ´ ê¹ĮìļĶ
ĠíĶĦë¦° íĬ¸
ìŁ ¤
ĠìķĮê³łë¦¬ ì¦ĺ
í į½
ìłľ ëª©
ĠìĿ¸ ëĮĢ
Ġìĺ¤ ë¯¸ìŀĲ
ë¡ľ ìĽĮ
ë² Ļ
Ġêµ¬ ê°ķ
ĠìĦľ ìĬ´
ë¬´ ê°ĢëĤ´
ĠìĨĮ íĶĦ
ë§Ī ëĭĪ
Ġê³Ħ ìŀ¥
Ġê°ľ ëªħ
ë¯¼ íĺ¸
ĠìĤ´ ëŀĺ
Ġëªħ ìĤ¬
Ġíĺķ ê´ĳ
ê°Ĳ ê¸°
ĠíķĻêµĲ ìŀ¥
Ġê´ĳ ìĨį
ĠìĬ¹ íĮ¨
Ġ5 000
ĠìĹł ë§Ī
Ġëŀĺ ìĦľ
ĠíĿĶëĵ¤ ë¦¼
ĠëĭŃ ë°ľ
Ġê°ķìłľ ìĦ±
ĠìĤ¬ìľł ë¦¬
ĠìĤ¬ìĤ¬ ê±´ê±´
ĪĪ ë¬¼
ĠëĮĢ ëĵ¤
Ġìĭľ íķ´
Ġìŀ¥ ì¶©
Ġë¶Ī íĥľ
íĥĢ ìŀĦ
Ġì¢ħ ë§Ĳ
ëĶ §
Ġë¸Į ëłĪìĿ¸
ĠëĤĻ ìĦľ
Ġë¶Ģìĥģ ìŀĲ
ì« Į
ĠìĬĪíį¼ ì£¼ëĭĪìĸ´
ĠìļĶê±¸ ë¡ľ
Ġë¶Ģì§ĢëŁ° íŀĪ
Ġê°Ģ ìļ´
Ġëĵ¤ ëł¤ìĦľ
Ġë³´ íķĦ
ĠëĤĺ êµ°
Ġêµ¬ íķ´ìĦľ
íķľ ë§ĪëĶĶ
Ġëª¨ ìĿįëĭĪëĭ¤
Ġê²½ ìĭľ
Ġìĭł ì´Į
ëĭ¹ ê¸°
Ġìĭ¤ ìĻ¸
Ġê°ľ ìļĶ
Ġê¹Ģ ìĿ¸
Ġê²ģ ë¨¹
ĠìĹŃ ìłģ
ĠíĶ¼ ì¼ĵ
Ġì§Ī ê°Ĳ
ì¶ľ ëıĻ
Ġë¦¬ ëĶ©
ë°Ķ ë¥¸
ĠëĨĴ ìĹ¬ìĦľ
Ġê¿ ĭ
ĠìĻķ ê¶ģ
ĠìĦ¼ íĬ¸
ĠëĨĶ ëĴĢ
ĠëĪĮ ë¥´
ĠíĽĦë°ĺ ìłĦ
ĠëłĮ íĦ°ì¹´
ĠìłĦìļ© ê¸°
Ġì¶©ë¬´ ë¡ľ
ĠìĥģìĹ¬ ê¸Ī
ĠëģĻ ëģĻ
Ġì ¾ħ
Ġê³ł ì§Ī
ĠìķĦ ë¢°
Ġì§Ģ ìĿ´
ĠìĿ¸ íĮĮ
ëĤĺ ê°Ī
ĠìķĪ ê¸°ë¶Ģ
ĠìĹ¬ ê²¼
ĠìĹ¬ ìŀĺ
ĠëĤ´ ìĥī
Ġë§Ī ìĬ¤
ĠêµŃ ë¡ł
Ġê´Ģ ìļ©
ĠëıĻ ëıĻ
Ġìŀ¬ ìĿ¸
ĠíĺĦ ì¤Ģ
Ġê°ķ ìŀ¬ìļ±
ĠíĬ¹ ëĭ¨
Ġíŀĺ ê²¹
Ġë²Į ìĸ´ëĵ¤
ì·¨ ìĹħ
ĠìĨ¡ ëıĦ
ĠíĴį íĨł
¼ëĤ ĺ
Ġë¥ĺ ìĦ±ë£¡
Ġë¬¼ëŁ¬ ëĤľ
Ġê°ķìĽĲ ëŀľëĵľ
ĠíĨ± ìĬ¤íĥĢ
ĠìĪĺìĨĮ ë¬¸
Ġê³łìĿĺ ë¡ľ
Ġìĥģíĥ łëį°
Ġìŀīê¸Ģ ëŀľëĵľ
Ġëĭ¤ë¹Ī ì¹ĺ
ëĭ¤ íĪ¼
ĠìķĦ ìķħ
ĠìĤ¬ êµĲ
ĠìŀĲ ëĿ½
ìĺ ĩ
ĠìĹ¬ ê²½
ĠìĨĮ ê·ľëª¨
Ġê³Ħ íĶ¼
ĠìĽĲ ì²Ń
íĸī ìĭľ
Ġìŀ¬ ë¹¨ë¦¬
Ġì²ľ ìĿ¼
Ġìķł ì¹Ń
Ġì¹ľ ê¶Į
ĠìĿĳ íķ´
Ġíĥľ ë°±
íĨł ëģ¼
ĠìĹĲìĬ¤ ì»¬ëłĪìĿ´íĦ°
ĠíĥĿ ì§Ģ
Ġë¬¼ëŁ¬ ëĤł
Ġíķ« ëıĦê·¸
ëłī ìħĺ
Ġë¹Ĺ ë¬¼
ìĿ¼ë¶Ģ ëŁ¬
Ġëĵ¤ìĹ¬ëĭ¤ ë³¼
ĠìĿ´ìĪĺ íĺĦ
ĠìĿ´ìľ¤ íĥĿ
Ġë¯¸ëª¨ ìĤ¬
ĠìĿ¼ì£¼ ìĿ¼
ĠìĥĿëħĦ ìĽĶìĿ¼
Ġì§Ģ ìķķ
Ġê±° ëįĺ
ĠìĿ¸ ìłĳ
ĠìłĢ ì¡°
ĠìļĶ ê°ľ
Ġìŀħ ìłĲ
Ġë°Ķ ê²ĮíĬ¸
Ġìĭ¤ ìĥĿíĻľ
ĠìĶ¨ ìķĮ
ĠëĲľëĭ¤ ëĵłì§Ģ
ĠìĻ¸ ë²½
Ġë©Ķ ì¹´
ĠíĻĺ ìĬ¹
ĠíħĮ ìĬ¬ëĿ¼
ĠìĬ¹ ì£¼
íĹĪ ê°Ģ
ĠìłĦíķ´ ìł¸
Ġê¸°ëĭ¤ëł¤ ìļĶ
Ġê¹Ģíĥľ ìļ©
ĠìĿ´ìĪĺ ìłķ
ĠíĮĮê³ł ëĵ¤
ĠëĤ ©ëĭĪê¹Į
Ġì§Ģ ìĺĪ
ĠìłĢ ì©Į
ĠëĿ¼ ìļ´
ĠëĿ¼ ì¼ĵ
Ġìłľ ìĿ¼ëª¨ì§ģ
Ġë§Ĳ ë¬¸
ê±° ì§Ħ
ìĬ¤ íĥĦ
Ġë§Ī ìĭŃ
Ġê²½ ê°Ĳ
Ġëĭ¹ ë¬´
ëĭ¹ íĻ©
Ġì§Ħ ë²Ķ
Ġê¹Ģ ì²ł
Ġê²° ë¡Ģ
Ġë°ķ ê´ĳ
ĠíĶ¼ ìĽł
Ġë¦¬ íĭĢ
Ġì§ľ ìŀ¥
Ġíĺľ ê²½ê¶ģ
ĠëıĦìłĦ ìŀĲ
Ġëį°ëł¤ ìĺ¨
Ġì¢ħêµĲ ìĿ¸
Ġëļ« ë¦°
Ġêµ½ íŀĪ
ĠíļĮê³Ħ ìĤ¬
Ġëª°ìķĦ ë¶ĻìĿ´
Ġë²Ħíħ ¼
Ġíķ´ìĻĶ ìĹĪ
Ġê°Ĳìª½ ê°ĻìĿ´
Ġê¿ĭ ê¿ĭ
ĠëıĦ ë£¨
ì§Ģ ê¸ĭ
ĠìĤ¬ ê³¨
Ġë§Į íĸī
ĠëĿ¼ë §Ī
ë§Į ë¦¬
ĠìĨĮ ì¹ĺ
ĠìķĮ ì°¨
ĠíĨµ ìłĦ
Ġìľ¡ ìĤ¬
íİ¸ íķĺ
íĶ¼ ëĭĪ
ĠëĴ¤ ëį®
ëª» íķ´
ĠìĥģëĮĢ íİ¸
Ġë½ĳ ìķĦëĤ´
Ġë±ħ íĤ¹
ĠìĽ¨ìĿ´ ë¸Į
ĠìĿ¼ìĦĿ ìĿ´ì¡°
Ġì¡°ë§Ī ì¡°ë§Ī
ĠìķĦ ëĭ¤
Ġìĺ Ĳ
ëį° ìĬ¤
ĠìŀĲ ìŀ¥ë©´
ĠìŀĲ ëĿ¼ëĤĺ
ì§ ¢
Ġë¡ľ ìĽł
Ġìļ° ë°©
Ġë§Ĳ ëł¤ìĦľ
ĠìĥĿ ìĥī
ìĪĺ ìĿ¼
ìĿĢ ìĪĻ
ĠìĽĲ íķł
ĠìĤ¼ ì²Ļ
Ġìĺģ ê³µ
ê²½ ìĺģ
Ġìľ¡ ìķĪ
Ġíĸī ìĹ¬
ĠìŀĦ ì°½
ë§Ŀ ì¦Ŀ
ê·¸ëŁ¬ ëĭ¤ê°Ģ
ĠíĻį ìĥģìĪĺ
Ġìłĳ ê²½
ĠëĶ°ë¡ľ ëĶ°ë¡ľ
ĠíĿĲ ëł¤
Ġ4 00
Ġê³¤ ëĳĲ
Ġê¸°ë¦Ħ ì§Ħ
ĠíĻĢ ëĮĢ
Ġë¬ĺ ìĨĮ
Ġìŀĩ ëĶ°ë¥´
Ġëĭ¤ëįĺ ì§Ģ
ĠìĦľëĳĺëŁ¬ ìĦľ
ëį© ìĸ´ë¦¬
ĠëıĮìķĦëĭ¤ ëħĶ
Ġë°ķë³´ ê²Ģ
ĠëģĪìłģ ëģĪìłģ
ĠìĿ´ ìĦľ
Ġìĸ´ ìĸ´ìĸ´
Ġìĺ¤ íĺķ
Ġì£¼ íľ´
Ġêµ¬ ìļ¸
ìĥģ ìļ°
Ġì§Ħ ëıĹê°ľ
Ġë¯¸ ëĶĶ
ë¹Ħ íĸīê¸°
ĠêµĲ ìĿµ
ì¤ĳ ìķĻ
ĠíĮĶ ê¿Īì¹ĺ
Ġìĺ¬ëĿ¼ íĥĢ
ĠìĽĮ ì¹ĺ
Ġë´ī íĻĶ
ì£¼ë ¦¬
ĠìĥĿê²¼ ìĸ´ìļĶ
Ġê°Ģë§Į ìŀĪ
Ġì½© ì¿łë¥´
Ġê·¸ëł¤ ì§Ħ
Ġíı´ ë¦¬ìĬ¤
ĠíĬ¸ë¡ľ íĶ¼
ê·¸ê±¸ ë¡ľ
Ġíķ©ì°½ ëĭ¨
Ġì°¨ëıĮ ë°ķìĿ´
ĠíĶ¼ëĿ¼ë¯¸ ëĵľ
Ġê³ł ë¡ľ
Ġê³ł íķ¨
ëĿ¼ êµ¬
Ġê²½ ì¶ķ
Ġì¤ĳ íķĺ
Ġê³µ íĹĪ
ĠìĻĢ ìķĦ
ĠëĳĲ ë¦ħ
Ġìŀ¥ ìłķ
Ġëħ¸ ê°Ģ
Ġë¶Ī ìĭĿ
íħĮ ë¥´
Ġëĭ¨ ë²Ī
Ġì± Ī
Ġê°Ĳ ëĤ´
ĠíĺĦ ìļ°
ĠìĹ´ ì°½
ìĽĮ ì¦Ī
Ġë²Ħ ê·¸
ĠëĤľ ìĿ´
Ġì¶ķ ìĿĺê¸Ī
Ġêµ³ ìĸ´ì§Ģ
Ġê²© íĻĶ
ĠëĿ¼ìĿ´ ìĸ¸
Ġ00 2
Ġp op
Ġi n
ĠëĮĢìĹ¬ ìĦ¯
Ġë´¬ ìļĶ
ì¢ħìĿ¼ ê´Ģ
ĠíħĢë¸Ķ ëŁ¬
¥ ł
Ġíķĺ ëĤ©ëĭĪëĭ¤
Ġëĵ¤ ìį©
ĠìĬ ´
ĠëĤĺ ìĺĪ
ĠìŀĲ íĸī
Ġìĺ¤ ëĿ¼
Ġë¶Ģ ì´Ŀìŀ¥
ĠìķĪ íĭ°
Ġëª¨ ìħĺ
Ġë¬´ ìĬ¤
ìĦł íĥĿ
ê²½ ìĥī
Ġìŀĳ ìķĦì§Ģ
Ġë²Ħ ëŁŃ
ëĶĶ ìĹĺ
Ġíİ¸ ëıĦ
Ġì´Ŀ ê²½
ĠíĻ© ì¹ĺìĹ´
ĠíĻį ì¢ħ
ĠëĤ® ì¶ľ
íĶĮ ëłĽ
Ġë¶Ģëĭ´ ê¸Ī
Ġì³Ĳ ëĿ¼
Ġë°ĶíĢ´ ë²ĮëłĪ
Ġê²½íĸ¥ ìĭłë¬¸
ĠìĭłìĦ± ìĿ¼
ìłľìŀĳ ì§Ħ
Ġë¸Ķë¡Ŀ ì²´ìĿ¸
Ġë§Īíı¬ êµ¬
Ġíķ´ ìł¸ìķ¼
ĠëĮĢ ìķ¼
ĠìĿ¼ íĦ°
Ġë¶Ģ ìĭĿ
ĠëĤ´ ì§Ħ
ĠìĭŃ ìĤ¬
Ġì¤ĳ ì²ľ
Ġìĭł ë¯¼
ĠìĦł ì°©
Ġê±´ ëĭ¬
Ġê¹Į ì§ĵ
Ġìŀĸ ìĹ¬
Ġê²° ìĹ°
ìŀ¬ ë²Ķ
ê³¼ ìĿ¼
ĠíĽĦ ì§Ģ
Ġìķŀ ì¹ĺë§Ī
Ġì¹ľ ìŀĲ
ĠìĹĦ íķĺ
Ġë²Ħ ìłĵ
ì²ľ ë§Į
ĠíĨł íĨł
ìĭŃ ìŀĲ
ĠëłĪ íĦ°
Ġê¸°ìĹħ ê°Ģ
Ġíľ´ íķĻ
ĠíĶ¼ë ĪĪë¬¼
Ġê°Ģê¹Į ìĽł
Ġíĩ´ ì¹ĺ
Ġìĭłê²½ ì§Ī
Ġì¶ĺ íĸ¥
Ġìĸ½ íŀĪ
Ġìĺ¤ ìĹĲìĬ¤
ëĮĢ ì§Ħ
Ġìŀħ ê¹Ģ
ë¬´ ëĬ¬
Ġì¤ĳ ê¸°
ìĻ łì§Ģ
ìĿ¼ ì°į
ĠìĦł íķľ
íĬ¸ ë¦°
ëĦ¤ ëĶĶ
Ġë°ĺ ëĶĶ
ĠíĮĲ êµĲ
Ġëĸł ìķĪ
Ġë¨¸ ëŃĩ
Ġë§Ŀ ìłķ
Ġíİ¼ì³Ĳ ìł¸
ĠìłĦìŀĲ íĮĮ
ĠíĿĺëŁ¬ ëĤĺ
ĠìĿ´ìĬ¹ ì²ł
Ġì¶©ìĦ± ìĭ¬
ĠìķĦë©Ķ ë¦¬
ë¦ħ ëĭĪê¹Į
Ġê¹Įëĭ¤ ë¡ľìļ´
Ġëľ»ë°ĸ ìĹĲ
íĹ¬ ìĬ¤
ĠìĿĺ ê±°
ĠëĤĺ ë¥¸
ĠìĿ¸ ê³Ħ
Ġìłķ ìłľìĽĲ
ìĤ¬ ê±´
Ġëı Ĺ
Ġë§Ī ëª¨
ìļ° ì¹ĺ
Ġê²½ ìĨĶ
ë¶Ħ ìľĦê¸°
Ġìĭ¤ ë¡Ŀ
ĠëĤ¨ ìļ°
ëĵľ ê¸°
ĠíĽĦ ëĭ¤ëĭ¥
Ġë§ī ë¬´ê°ĢëĤ´
ì°¨ ìĽĲ
ê°Ĳ ìŀĲ
ĠìĤ° ìłģ
Ġì¦Ŀ ê°ķ
Ġë¹¨ ëŀĲ
Ġê²¨ ëĵľ
ĠíĿ¥ ìĽĲ
ĠíĴĪ ì¢ħ
ìĩ¼ íķĳ
ĠëĤłìķĦ ê°Ī
ĠìĨĲìĪĺ ê±´
ê°ĢëĶĶ ìĬĪ
Ġìĸ´ìĸ´ìĸ´ ìĸ´
1 7
Ġìķ °
ĠìĿĦ ê»ĺìļĶ
Ġì§Ģ ëĵľëŀĺê³¤
ê³ł ìĿĢ
Ġê¸° ëĿ¼
ìłķ ìĽĲ
ĠìĦ¸ ë¦¬
ìĥĿ ë¯¼
Ġê¹Ģ ê°ķ
ĠìĤ´ ì°Į
ìĦ¸ ìļ°
ĠíĬ¹ ê°Ģ
ìĹĲ ë¯¸
ĠëĬĶëĭ¤ êµ¬
Ġìĥī ëĭ¤ë¥´
ĠìķĦëĭĲ ì§Ģ
Ġê¼¬ ìĹ¬
Ġìķµ ë¬´ìĥĪ
Ġê³łìĬ¤ íĨ±
Ġê¹ľë¹¡ íĸĪ
ĠìĿĢë°Ģ íŀĪ
Ġë¬´ìĭ¬ ì½Ķ
ĠìŀĲê°Ģ ìļ©
Ġê¹ĢêµŃ ì§Ħ
Ħ ëŁ¬ë¯¸
ĠìĿ´ ë³Ģ
Ġê·¸ ëĭ¥
ĠëĤĺ ìķĺ
ĠìĿ¸ ì§Ħ
Ġê¸° ìļ©
ìŀ¥ ì¹ĺ
Ġìĺ¤ ë¹Ħ
Ġë¶Ģ ëĵ¤
ĠìļĶ ìŀħ
ë¡ľ ëĿ¼
ĠëĤ´ ì¡°
íķĺ ìĺ¤ëĤĺ
ìĺ¤ íķ´
ĠìĹ° ë¯¼
ĠìĹ° íĸī
Ġìŀ¥ ì¡°ë¦¼
ë§Ĳ ìĥĿ
Ġì°¨ ì¸°
ìľł ì§Ħ
Ġë¶Ī ë°ľ
Ġì£¼ë ¡Ģ
ì¡° ë§Įê°Ħ
Ġì§ģ ê°Ĳ
Ġì¹ĺ ëĬĶ
ĠëıĮ ëıĮ
Ġë²Ħ ê¸Ī
ĠìĺĢ ìĸ´ìļĶ
Ġíĺ¸ ëĸ¡
Ġë³µ ê³ł
Ġëıħ ì°½
ì¼Ģ ìĿ´íģ¬
Ġì°½ ë²ķ
Ġë¸Ķ ëĿ¼
ĠíĥĲ ë°©
ĠìĦ±ìĭ¤ íŀĪ
Ġìĸ¼ë§Į ëį°
ë¯¼ì£¼ ì£¼ìĿĺ
Ġìĸ´ëľ ©
Ġë³´íĹ¤ ë¯¸ìķĪ
¶ Ī
ĠìĹĲ íľ´
ĠëĤĺ ìģ¨
Ġìĭľ êµ¬
ëĮĢ ë¦¬
Ġì¤ĳ ëŀĳ
Ġìľł ë¯¸
ĠêµĲ ë¶Ģ
Ġê°Ħ ìķĶ
ì¡° ê°ģ
ì¤ĳ ì§Ģ
ëĳĲ ê³ł
Ġëĸł ëĵľ
ĠíĨł ë¡Ŀ
ĠìĦĿ ê¸°
Ġëĥī ë°©
Ġëĵ¤ìľ¼ ëĭĪ
ìĹĺ ëĿ¼
Ġë§ĮëĤľ ëĭ¤
ĠëĳĶ ëĭ¤
ìĬ¤íĥĢ ë¦¬ì¹´
ĠíĿł ë»ĳ
Ġê½ģ ì¹ĺ
ĠìĥģìĦ¸ íŀĪ
Ġê°Ķëĭ¤ ìĻĶ
ĠìĿ´íĺľ íĽĪ
ĠìĿ´ ëĤ¨
ëĭ¤ ìĿ´
ĠëıĦ ì§Ģ
ë¦¬ ì§Ģ
ĠìĦł ìĺģ
Ġìľł ë¶Īë¦¬
ĠíļĮ ë¹Ħ
Ġë°° ìĦ¤
ê·¸ëŀĺ ê·¸ëŀĺ
ìķħ ëĭ¨
ĠìĿ¼ë³¸ ìĭĿ
Ġê¶ģ ì§Ģ
ĠëĤ´ëł¤ ì§Ģ
Ġê¸°ìĹħ ì²´
ĠíĭĢ ìĸ´ì§Ģ
ĠíĴį ìĨį
ìľ¤ ìķĦ
Ġë¹Ļ íķĺ
Ġ19 8
Ġê±°ì£¼ ì§Ģ
ĠìĬ¤íĮĮìĿ´ ëįĶ
Ġë²ķì¹ĺ ì£¼ìĿĺ
Ġëħ¼ìĦ¤ ìľĦìĽĲ
Ġë§Ļ ìĭľëĭ¤
ĠìķĦíĨł íĶ¼
ĠìĤ¼ìĿ¼ ìłĪ
Ġë¬´ë¦ħ ìĵ°
Ġê²Į ëĿ¼ëıĦ
Ġì£¼ ìĺģ
Ġë¶Ģ ëŀ´
Ġì¡° ìĬ¹
Ġê²½ ìłķ
Ġë¨¹ ìĺĢ
Ġëĭ¨ ì£Ħ
Ġë§¤ ë£Į
Ġì§Ī ì§Ģ
ĠìĤ° ìĤ¼
Ġì²ł íıĲ
Ġíģ´ ëĿ¼
ĠìĦ¬ ëľ©
ĠìľłìĤ¬ ìĭľ
Ġëª¨ìħĶ ëĭ¤
ĠìĻ¸ë¡ľ ìĽĮ
ê¹ľ ë¹¡
Ġë°ķì¢ħ ì§Ħ
ìĥģ ìłķ
Ġë¬¸ ì±ħ
Ġìĭł ìłķ
ĠìĤ¼ ì§Ħ
Ġê²° ìĦĿ
ìĤ ¼ë
ĠìĪ į
ĠëĶ° ëĵ¯
Ġì¹ĺ ì¼ľ
Ġìŀ¡ ìĬ¤
Ġì´Ŀ ìĤ´
Ġì¢ħ ìĸĳ
Ġì½Ķ ëłĪ
ĠíĿ¬ ë¯¸
ĠíĺĪ ë¥ĺ
Ġê²½íĹĺ ëĭ´
Ġëģ¼ ì¹ľ
Ġì¡¸ ëĿ¼
Ġìĭ± ê²ģ
ĠíĶ¼ë¶Ģ ê³¼
ĠìĥĿê²¨ ëĤľ
Ġ% ,
ĠìłĦë°ĺ ìłĦ
ĠìĨĲíķ´ ë°°ìĥģ
Ġê¶ Ī
Ġëĭ¤ë¥¼ ê¹Į
Ġìľ¤ì°½ ì¤ĳ
Ġê³ł ê³µ
Ġê³ ¶
ĠìĪĺ ìķ¡
ĠìłĢ ìĦľ
Ġë² ¡
ĠìļĶ ë¬´
ĠìłĦ ìħĭ
ĠëĤ´ ëĭ¬
ĠëĭĪ ì¦ĺ
Ġëª¨ ìĦ¸
ìĿĺ ë¯¸
ĠëıĻ ë¬´
ìĪ ²
ĠíĺĦ ê¸°
Ġë¯¼ ìļĶ
íĺķ ë¶Ģ
Ġì´Ŀ ì¶ľëıĻ
Ġì¼Ģ ëĦ¤ëĶĶ
ë¸Ķ ë£¨
ì»¤ ëĭĪ
ĠíŀĪ ëĵł
ĠìĪĺë¦¬ ë¹Ħ
ĠìĨĲê¼½ íŀĪ
ĠìķĶíĸī ìĸ´ìĤ¬
Ġê°Ģ ìĦ±
Ġìłķ ê°Ģ
Ġê¹Į ì¹ĺ
ĠìĹ° ìĭł
Ġìŀ¬ íĤ·
Ġêµ° ì¹¨
ĠíĮĮ êµŃ
ìłģ ìĸ´ëıĦ
Ġíĺ¸ ë¶Īíĺ¸
ì§ĳ ìķĪ
Ġíİ¸ ì°¬
Ġì·¨ ìĤ¬
ĠìĹĲìĬ¤ ìĹĲìĬ¤
ë°± ìłľ
Ġë¸Į ëĿ¼ìĿ´ìĸ¸
Ġë¸Į ëŁ°ì¹ĺ
ĠëĬ¥ ëıĻ
ĠìĿµ ìĬ¤
Ġëĭ¬ëł¤ ìĺ¨
Ġë¬µ ìĭľ
Ġê²½ìĺģ ì§Ħ
ì²© ìŀ¥
Ġìĭłëĭ¤ë©´ ìĦľìļĶ
Ġê¹Ģìļ© íĥľ
Ġêµ°ë¶Ģ ëĮĢ
Ġëª¨ìļ© ë³´
Ġìŀ¬ëŀĺ ìĭĿ
ĠìĹĺíĶ¼ ì§Ģ
Ġìłķ ë¡Ģ
Ġë¡ľ ëĿ¼
Ġë¶Ģ ìĸ´ìĦľ
Ġìļ° ë²Ħ
Ġë§Ī ìĿ¼
ĠìĬ¤ íĤ¬
ìĹ° ìłķ
Ġì²ľ ëĳ¥
ĠìĹŃ ìĬµ
Ġì¶ľ ìŀĲ
ĠíĻ© ë£¡
Ġíķµ íĥĦëĳĲ
Ġì°½ ìĦ¤
ĠìĨ¡ íİ¸
êº ½
Ġëĵ¤ìľ¼ë©´ ìĿĢ
Ġ201 9
ĠìĶ¹ ëĭĪëĭ¤
Ġê°Īë¹Ħ ë¼Ī
aa a
Ġì½¤ ë¹Ħ
Ġìĸ´ ê°Ģ
ĠìĪĺ ìľ¡
Ġìĺ¤ ìŀĳ
ĠìĥĿ ê¹Ģ
ëĦ¤ ìĿ´íĦ°
Ġë²Ħ ë¬´ë¦¬
Ġíı¬ ëĮĢ
ĠíķĻìĥĿ íļĮ
Ġë§Ŀ ë§ī
ĠìĪĻ ìĹ¬
Ġê²¬ ì£¼
ĠëĩĮ ê²½ìĥī
íļ¨ ìĥģ
Ġìĺ¥ ì¤ĳ
ĠíĥĲ ìłķ
ĠíĥĲ ìļķ
ĠìĪĺìĭŃ ìĸµ
Ġë¶ĢëģĦëŁ¬ ìĽĢ
Ġê°Īë¦´ ëłĪìĺ¤
Ġì§Ģ ì²Ń
Ġê±° ëĳĺ
Ġíķ´ ë§ĳ
ĠìĺĪ ëħĦ
ĠìŀĲ ëĭ¤
ĠëķĮ ìļ°
ĠìĦł ëŁī
Ġê±´ ë§Ŀì¦Ŀ
Ġìħ Į
ĠìķĮ ì°¬
ĠìĽĲ íķľëĭ¤
ìķĪ íĥĢ
ëĿ¼ë ¯¸
ê²° ìĬ¹
ĠíĻį ìĹŃ
ë°± ë°±
Ġë°Ģ ëłĪ
ĠìĻķ ì°½
Ġìļ°ìĬ¹ ìŀĲ
ì¯ Ķ
Ġë¹¨ê°ľ ì§Ģ
ĠëĶ°ëģĪ ëĶ°ëģĪ
Ġê¸°ë§Ĳ ê³łìĤ¬
Ġìłķê±° ìŀ¥
ĠìĿĺ ë¡Ģ
ĠìĺĪ ìĦ±
ëĤĺ ê°Ķ
Ġìłģ ìŀ¬
ĠìĥĿ ìĹħ
ìĥģ íĴĪ
Ġìľł ìĿĢíĺľ
Ġëħ¸ ëł¹
Ġëĭ¤ê°Ģ ìĦľ
Ġêµ° ë§Ī
Ġì½ °
Ġë©° ëĬĲëĭĺ
ĠìħĶ íĭĢ
ĠíĨł ìĬ¤íĬ¸
ĠëıĦìĻĢ ì¤ĺ
Ġê» ı
ë¦¬íı¬ íĦ°
Ġíľĺë§Ĳ ë¦¬
ĠìºĦ ë³´
ĠíĺĦì¶© ìĽĲ
íĨłë§Ī íĨł
ìĦ ŀ
ĠìĪĺ ìľł
Ġìłķ ìĺĪ
ê¸Ī ì£¼
ĠìĿ¼ ìłĪ
ĠìĿ¼ ê¹¨
ìĤ¬ ê¸°
ĠëķĮ ë¡ł
ĠìĽĲ íķ´ìĦľ
Ġì£¼ë §Ī
Ġì¶Ķ ë¬¸
Ġêµ° ë§ī
Ġíĸī ìķĪ
ê¸ī íķľ
ĠìĻ¸ ì³Ĳ
Ġëĸł ëĤ©ëĭĪëĭ¤
ìŀ¡ ëĭĪëĭ¤
Ġìĸ» ìĸ´
Ġëħ¹ ë§Ĳ
ĠìĹł íĭ°
Ġë§ŀì¶° ìł¸
ĠìĹ°íķ© êµ°
Ġê³łìĨĮ ìĿ¸
Ġs h
Ġìĭłëį° ëłĲëĿ¼
Ġíļį ê´Ģ
ĠëĤĺìķĦ ìļĶ
Ġê¹Ģìľ¤ ìĺ¥
ĠìĬ¤íĥĪ ë¦°
Ġíķĺ ëªħ
ëĭĪ ìĸ¸
Ġê³ł ë¬¼
ĠìĿĺ ê´Ģ
Ġë³´ ìŀħëĭĪê¹Į
Ġê¸° ìĦĿ
Ġíĸ Ĳ
ìĸ´ ëł¸
Ġêµ¬ ìĹ¬
Ġë°ľ ë°ľ
Ġë°ĺ ì¶ľ
Ġë´Ĳ ëĳĲ
ĠëıĮ ê²©
Ġìķķ êµ¬ìłķ
ĠëĵľëŁ¬ ëĤ¼
ĠëĨ¨ ìĹĪ
Ġì£¼ë¨¹ ë°¥
ìĦľìļ¸ ìĭľ
Ġëªħëªħ ë°±ë°±
1 6
ĠìĿ´ ì¶ĺ
ĠìłĢ ë§Įì¹ĺ
ĠìļĶ ë°°
íķ´ ê²°
ĠìĨĮ ìŀĦ
Ġë¹Ħ ìĸ´
ìĿ¼ êµŃ
Ġë¬´ ìĹĲ
ĠìĹ° ìĭĿ
Ġê¹Ģ ê·¼
Ġìŀ¥ íĮĲ
ìłĢ íķĺ
ĠëĴ¤ ë°ĶëĢ
ĠìĤ° ë¬¼
ĠíĻ© ê°Ģ
Ġê·ľ ìľ¨
Ġìłĳ íķ´
ĠìĿ¸ìĤ¬ ìĿ´ëĵľ
ê²Ģ ìĥī
Ġìķħ ìĸ´
ĠìĤ´ìķĦ ëĤł
Ġíķ¸ëĵľ ë°±
ĠìĹĺë¦¬ ìŀĲ
Ġì§¤ ë¦¬
Ġë§¤íĬ¸ ë¦¬ìĬ¤
Ġf c
ĠìĹĲ ë¸Įë¦¬
Ġëĭ¤ ëĭ¤
ĠëıĦ ë§¤
ĠìĤ¬ ìĿĢ
Ġë§Ĳ ìĹĨìĿ´
Ġë°± ëıĦ
Ġì§Ģì§Ģ ë¶Ģì§Ħ
ëĬĲ ìĿ´
ĠìĿ´ìŀ¬ ìłķ
Ġë¥ĺ ìĬ¹
ĠìĽ¬ ìĪĺ
Ġëį°ëł¤ ê°Ķ
Ġê¹Ģì¢ħ ëĮĢ
Ġë¬ĺ ë¯¸
ĠíĿ¬ìĥĿ ìĸĳ
Ġë³´ìľ¡ ìĽĲ
ĠìĬ¤íħĶ ìĬ¤
Ġê°ķê¸° ìłķ
Ġê±°ëĵ± ìļĶ
Ī ħ
ĠìĿĺ ìĪł
ĠìĪĺ ëħĢ
ìŀĲ ëĿ½
Ġìļ° ë¨¼
Ġìĭł íĿ¥
Ġê·¸ë¦¬ ìļ´
ìĹ° ìĬµ
Ġìŀ¬ ê°Ģ
Ġìŀ¬ ì¹ĺ
ĠíļĮ ì¶ĺ
ĠìłĲ ì§Ħ
Ġìķ½ ì§Ħ
ĠìĭĿ íŀĪ
Ġëª© ìĦł
Ġì´Ŀ ëŁī
ĠíĹĪ ê¸°
Ġì±Ħ ìłĲ
Ġê¶ģ ë³µ
ĠëĬĺ ìĸ´
ì¦Ī ìĿĮ
ëħ¸ ëıĻ
ìĸ´ëĸ ł
ĠëĩĮ íĺĪê´Ģ
ĠíĻĶìŀ¥ ëĮĢ
ĠëįĶìļ± ìĿ´
Ġê±¸ìĸ´ ê°Ħëĭ¤
Ġëĭ« íŀĪ
Ġì§Ģíķĺì²ł ìĹŃ
Ġìļ± ìĿ¼ê¸°
Ġê³ĦìħĶ ìķ¼
ĠëĤ®ì¶° ìĦľ
Ġë¹¼ëıĮ ë¦°
Ġì¹´íħĮ ê³łë¦¬
ĠìĿ´ ìĹ°
Ġìĸ´ ê¸´
Ġê¸° ë³Ħ
ĠìļĶ ë¶Ī
ĠëĭĪ íĬ¸
ë§Į íģ¼
Ġìĭł íķ´
ëĤ´ ë¶Ģ
Ġë°© ìĪĺ
Ġê¹Ģ ìĥĿë¯¼
ë¹Ħ ë¡Ŀ
ĠìĬ¤ ë¬¼ë
Ġìµľ ë©´
Ġê°ķ íķ´ìĦľ
ĠëĶ° ë¦Ħ
ë¡ł ìĿĦ
ĠíĹĪ ìĭ¬
Ġë³Ħ ìĦ¸
ê·¸ëŁ¬ ì§Ģ
ëıħ ë¶Ģ
Ġìĵ¸ ëł¤ê³ł
ì°¸ ê³ł
ĠìĪĺìĪł ìĭ¤
Ġë²½ íĻĶ
Ġc m
ĠìķĻ ê¸Ī
Ġê°Ģë¡ľ ìĪĺ
Ġíį¼ë ¶Ģ
Ġì«ĵìķĦ ìĺ¤
ê³łêµ¬ ë§Ī
Ġìĸ´ìļ°ëŁ¬ ìł¸
Ġíĸ¥ìĭł ë£Į
Ġìª¼ëģĦ ë§Į
Ħ ·
Ġìľ ½
ĠìĹ¬ ë¶Ħ
Ġìŀħ ëĭ¨
Ġìĭł ìĺĪ
Ġë°ľ ë¦¬
Ġìĸ¸ ìĬ¤
Ġìĵ° ëĭ¤ëĵ¬
Ġë³ĳ ìķĦë¦¬
ëĶ Ľ
Ġê´ĳ ìļ´
ĠíĶ¼ë ¦¬
íĥĦ íļĮ
Ġëĸ¨ìĸ´ íĬ¸ë¦¬
ĠìĦĿ ë©´
ìĭľìķĦ ëĭĮ
Ġê²© íķľ
Ġëª°ëŀĲ ìĹĪ
ĠëĤĻ íĥĢ
Ġë§¥ ìķĦ
Ġë©ĺ ë¶ķ
ëľ¨ ë¬¼
ĠìīĲ íĶĦ
ìľ½ ê³ł
ëº Į
ĠìĤ¬ìĿ´ì½Ķ íĮ¨ìĬ¤
ĠìĿ´ ìĹĲìĬ¤
Ġê°Ģ ìĿ¸
Ġê°Ģ ëĿ½
Ġìĸ´ ë¶Ģ
ĠìķĦ êµ¬
Ġëĵ¤ ìĿ¼
Ġìłķ ëĤ¨
Ġë¡ľ ìłľ
Ġë¹Ħ ìķ½
Ġìĭ¤ ì±ħ
Ġìľł ìĸ´
Ġìŀĸ ìĸ´
Ġê±¸ ìŃī
Ġì½ ±
ĠíĥĢ ê°ľ
ĠëŃĶ ê°Ī
Ġë¸Į ë¦¿
Ġë§Ŀ ì³Ĳ
Ġìľłëªħ ìĦ¸
Ġê²½ìĺģ ìŀĲ
ë²¤ ìħĺ
Ġíı¬ìŀ¥ ë§Īì°¨
Ġìŀ¡íĺĢ ê°Ģ
ĠìĪĺë¹Ħ ìĪĺ
Ġìĭľëĭ¬ ëł¸
Ġë¶Ħê¸° ìłĲ
Ġë¯¸ëģĦëŁ¬ ì§Ģ
Ġë³´íĥ ¬
ĠíĬ¹ê³µ ëĮĢ
ë¡łìĿĦ ë°ķ
Ġì§Ģ ìĺģ
Ġìĭľ ëĵľ
Ġê¸° ëĥ¥
Ġìĺ¤ ìĿ¸
Ġë¶Ģ ìĭ¬
ĠìĹ¬ ëĿ¼
Ġìŀħ íŀĮ
Ġê²½ íĻ©
Ġì¤ĳ ë§¤
Ġì¤ĳ ì¶Ķ
ĠëĲľ ëĭµëĭĪëĭ¤
ĠëĤ¨ ëĮĢë¬¸
ĠìĹ´ ëĿ
Ġê°Ħ ê³¡
ĠìłĲ ìŀ¥
ĠìĭĿ íĺľ
ĠíĮĮ íĺ¼
ë°Ķ ìģĺ
Ġì¤ĳêµŃ ì§ĳ
Ġê±°ëŀĺ ì²ĺ
Ġíĺ¼ë ¡Ģ
ĠìĬ¹ë¶Ģ ìĪĺ
íį¼ë ĵľ
ĠìĿ´ë¬¸ ìĦ¸
ĠìĿ´ë¤Ħì§Ģ ì§Ģ
Ġìĸ´ìļ°ëŁ¬ ì§Ħ
Ġìłķíĺ¸ ìĦ±
Ġë©ľëĿ¼ ëĭĪìķĦ
Ġë¶ĦíĻį ìĥī
Ġìĺ¥ë¥ĺ ê´Ģ
Ġë¶Ģ ëĤ¨
ĠìĦ¸ ë¶Ħ
Ġë°Ķ ë£¨
Ġë°Ķ ë»Ĳ
ĠìĦł ëħĢ
ĠìĽĲ ì°¬
ìŀ¬ ì¤Ģ
ì¡° ëª©
Ġíıī íĸī
Ġì¶ľ ìĤ¬
ĠìĻ¸ ê´Ģ
ĠíĥĢ ìĿ´ê±°
Ġê¸Ī ìĥģ
Ġì¢ħ ìļ©
ĠëĤ´ìļ© ë¬¼
Ġê°ĳ ë¡łìĿĦë°ķ
ĠìķĮëł¤ ì¤ĺ
Ġê´ĳ ë¬¼
Ġìĸµ ëĮĢ
ĠíĻį íĮ¨
ĠìĻķ ìĻķ
ĠëĤ´ë¶Ģ ìŀĲ
ĠìłĦíĻĺ ìłĲ
Ġë²½ ì§Ģ
ĠìĿ´ëŀ¬ ìĹĪ
Ġê³łìľĦ ì¸µ
Ġìĺ¹ ì£¼
ë§ĲëĿ¼ ìķ¼
Ġë¶Ģëŀ´ ë¶Ģëŀ´
ĠëĮĢ ëĤ´
Ġìļ° ëıĦ
ìĿ¸ ê³Ħ
ê³¼ íķĻ
ê¸ī ìĭĿ
ĠìłĪ íĺ¸
Ġíį¼ ìĦ¼
Ġëĸ¨ ë¦¼
Ġê·¼ íĺĦ
ĠíħĮ ìĬ¤
Ġìľ¤ ëıĦíĺĦ
ĠíĿ¬ ë°ķ
Ġê¸°ê°Ħ ìłľ
ĠëĤĺëĪł ìķ¼
ĠìĬ¬ ê·¸ë¨¸ëĭĪ
Ġê¹Ģíĺľ ì§Ģ
ĠìŃĪ ìļ±
Ġë¹¼ëıĮ ë¦¬
ĠìķĻìĥģ ë¸Ķ
t er
ì§Ģ ê°Ħ
Ġìĭľ ì¢ħìĿ¼ê´Ģ
Ġìĸ´ë ¯¼
ĠìļĶ ê¸´
ĠëĤ´ ë¦½ëĭĪëĭ¤
Ġì¤ĳ ìĭł
ê±´ ë¬¼
Ġë§ŀ íĺĶ
ĠíĻĶ ìŀĲ
Ġìĸ¸ ì§¢
ĠëĤł ë²¼ëĿ½
Ġëª© ëıĪ
Ġë³´ëĤ´ ìĻĶ
Ġìľ¤ íķĺ
ĠìĹĲìĿ´ íķĳíģ¬
Ġë§Ŀ íķ´
Ġê°Ģê¹Į ìļ°
íĤ¨ ìĬ¤
ĠìĥĿëªħ ëł¥
Ġê³µê³µ ìĹ°
ĠìĥĿê²¨ ëĤ¬
ĠíķŃê³µ íİ¸
ĠìĮį ìļ©
Ġ00 6
ĠìłĢì§Ģ ë¥¼
Ġíĥķ íıī
ĠíĶĦëłĪ ëĶĶ
ĠìĤĲ ëļ¤
ĠìĿ´ìĽĥ ì§ĳ
Ġê¸°ìłķ ìĤ¬ìĭ¤
Ġê³°ê³° ìĿ´
¯ Ģë¡ľ
ĠëĮĢ ëĵ±
ĠìķĪ ì°©
ĠìĹ¬ ìĭ¬
Ġê·¸ëŀĺ ê·¸ëŀĺ
Ġë¬´ ì¹ĺ
Ġê¹Ģ ê°ĳ
Ġë°ĺ íĸĪ
Ġë§ī íŀĲ
Ġì¶Ķ ìĽĶ
íĶĦ ìĬ¤
ê´ĳ ìĪĺ
ĠìĮ ī
Ġëħ¹ ë¡Ŀ
ìĿ´ìłľ ìķ¼
Ġë°ĿíĺĢ ìĦľ
Ġì¤ĳìķĻ ì§Ģ
ĠíĿ° ìŀĲ
Ġíķłëł¤ êµ¬
Ġê¹ĢìĹ° ìŀĲ
ĠíĶ½ ìĹħ
Ġë²ħ ìĬ¤
Ġê°ĦíĨµ ì£Ħ
Ġë¹łì§Ĳ ìĹĨìĿ´
Ġë ®
Ġíķĺ ê°Ŀ
ĠëŃĲ ëŃĲ
Ġë§Ĳ ëĭ¤íĪ¼
ëĮĢ ìĥģ
Ġë§Ī ìĻķ
Ġë°© ê´Ģ
Ġì²ĺ íķł
ĠíĨµ ê´Ģ
Ġë°ķ ìĤ´
ĠëĶ° ì¡Į
ĠëĪĪ ê°Ĳ
Ġë§Ľ ë³¼
ĠíĪ¬ ìłķ
íİ Ĳ
ìĥĪ ëģ¼
ĠìŀĲìľł ì£¼ìĿĺ
ĠìĪł ìĪł
ì£¼ë °©
Ġëķħ ê°Ĵ
Ġìĸ´ëĶ ¥ëĭĪê¹Į
Ġë§¥ ëıĦ
ĠëĴ· ì¡°ìĤ¬
ìĿ´ê±¸ ë¡ľ
ĠìĤ¬ìĺ¨ ëį°
Ġê³ł ìķ¼
ìĦľ ëıĦ
ì§Ģ ë¶Ģì§Ģ
ê¸° íļį
Ġë³´ ìĮĪ
ĠìĿ¸ ì£¼
Ġìłķ ê°ķ
Ġìĥģ ìļ°
Ġì¡° ëģ¼
Ġê³Ħ ë³´
Ġë°© ì½ķ
Ġìŀ¥ ë¡±
ĠìĬ¤ íħĲ
ĠìĤ´ ì¶©ìłľ
Ġìµľ ëªħ
Ġë°° ë³Ģ
Ġë°° ë¶Ģë¥´
ĠìĹĦ ë°ĢíŀĪ
Ġë²Ħ íĤ·
Ġíı¬ íĥĦ
ĠìĻĦ ê°ķ
ì²ĺ ëħĢ
Ġìº ¥
íĪ¬ ìŀĲ
ĠìĻķ ìĦ¸ìŀĲ
ĠíĥĲ ë¬¸
Ġíļ ĥë¶Ī
Ġíķ¸ëĵľ ë³¼
ĠìĬ¤íĥ ĳ
ĠëĮĢëĮĢ ìŀ¥
ĠíĿ© ìĸ´ì§Ģ
ĠìķĦë°Ķ íĥĢ
Ġê·¸ìłľ ìĦľìķ¼
ĠìĿ´ ë´ĲìļĶ
ĠëĤĺ ì§Ħ
ĠìĪĺ ìĸĳ
ĠìĿ¼ ê°Ĳ
Ġë¶Ģ ë¦°
ĠìļĶ ìĦ±
ĠìłĦ íķ©ëĭĪëĭ¤
ĠìĦ¸ ìķĪ
Ġë¶Ħ ë°ľ
ë¶Ģ ê¸Ģ
Ġê³µ ìĦĿ
Ġë°ľ ëºĮ
Ġì±ħ ìŀ¥
Ġì§Ī ê¸°
Ġë°ĸ ìĹĶ
Ġì¶© ìĭł
Ġìĺ¨ ê¸°
ëįĶ ëŁ¬
Ġì°¾ìķĦ ëĤ¼
ĠìĤ¬ìļ© ë£Į
ĠíļĮëĭ´ ìŀ¥
Ġê¸°ë³¸ ìĨĮëĵĿ
Ġìĥī ìĭľ
ĠëĤĻ íĽĦ
Ġì»¨ ë²¤ìħĺ
Ġì¢ĭìķĦ íķľëĭ¤
ë¹¨ ê°Ħ
Ġíķį ë°ķ
Ġë²Ħìłĵ ìĿ´
Ġì§Ģ ë³ĳ
Ġì§Ģ ì³¤
Ġê¸° ìĿ¸
Ġê¸° ë»¤
Ġë¶Ģ ìĹ°
ĠìłĦ ìľł
ìĿĮ ì§ģ
Ġëª¨ íĥľ
ê°Ħ ìłĳ
ì§ģ ìŀĲ
ĠìĹ´ ë¦°ëĭ¤
Ġíģ° ëĶ¸
ĠíĮ¨ ëĵľ
ĠìĿ´ìļ© ì£¼
Ġë¸Į ëĿ¼ë
ĠìĬ¤íĥĢ ìĽĮì¦Ī
Ġê³¼ë ¯¼
Ġìľłì¹ĺ ìŀ¥
ĠëĶ´ ì§Ģ
Ġì°¢ ìĸ´ì§Ħ
ĠìĿ´ìĪĺ ê·¼
ĠëĤĻíĥľ ì£Ħ
Ġìļ°ìĬ¤ ê°¯
ĠìĽĢì¼ľ ì¥Ĳ
Ġíĭ¸ ëŁ¬
Ġë²Įìĸ´ ì§ĳëĭĪëĭ¤
ĠìĨĮíĶĦ ëĿ¼ëħ¸
Ġê°Ģ ë¬¼
ĠìĿĢ ìĺģ
Ġìłķ ë¯¼
ĠìļĶ íģ¬
Ġìłľ ë¦¬
Ġìĥģ ìĨĮ
Ġê²½ ì§Ģ
Ġëĵľ ìĭŃëĭĪê¹Į
ë³´ ìĹ¬
Ġìĺģ ìĭĿ
Ġë°ĺ ê²½
Ġíıī ë©´
Ġì¤Ħ ëĦĺê¸°
Ġìľ¡ ê°ľìŀ¥
Ġê²Ģ ë¬¸
ĠëıĮ ì¶ľ
Ġíİ¸ íķ´ìļĶ
ĠëĤľ íıŃ
ĠìĶ© ìĶ©
Ġêº ½
ìĿµ ìĬ¤íĶ¼
Ġíľ´ ë¨¼
Ġíıīìĸĳ ìĦ±
Ġë¬¼ìĸ´ ë´ĲìļĶ
Ġm e
Ġìĺģìĸĳ ê°Ģ
Ġëĭ« íĺĢ
Ġê°ķëĤ¨ ìĹŃ
ì½ĺ íħĲì¸ł
Ġëª°ëł¤ ëĵ¤
ë¦¼ë ıĻ
ĠëĳĲêº¼ ìĽĮ
Ġêµ¬ë¯¸ íĺ¸
Ġê°Īë¦´ ëłĪìĿ´
Ġë¶ĪìĿ´ ìĿµ
ë£½ ì§Ģ
ìĿµìĬ¤íĶ¼ ìĸ´
ĠìłĢ ìļ¸
ĠìłĦ ìĥĿ
ĠìĦ± íĻ©
Ġìľł ìĭ¤
Ġë¶Ī ëĺ¥
Ġìķł ê²¬
ì¼ Ħ
Ġë§¤ ê²¨
Ġì¢Į íļĮìłĦ
Ġê³¼ë ¡ľ
Ġëįķ ëª©
ĠëĤĻ ìĥģ
Ġê¹ĢìĪĺ ë¯¼
ĠìłľêµŃ ì£¼ìĿĺ
Ġíķ´ìĪĺ ë¶Ģ
ĠíĻ©ìłķ ë¯¼
Ġê½Īë¦¬ ê³łì¶Ķ
ĠíĹĪìĭ¬ íĥĦíļĮ
ì§Ģ ìĹŃ
ĠëĤ´ êµŃ
Ġì¡° ìĹ¬
Ġëª¨ ë¡ľ
ĠìĶ¨ ìĬ¤íĥĢ
ĠíĺĦ ì°°
Ġê°ķ ìĭł
Ġì£¼ë Īħ
Ġìŀĳ ë³Ħ
ĠìĪľ íĥĦ
Ġíģ¬ ëĿ¼
Ġíĥľ ìķĪ
ë³Ħ ë¡ľ
Ġê¶ģ ëħĢ
ĠíĿĲ ì§Ģë¶Ģì§Ģ
Ġë¹Ī ë¶Ģ
Ġ00 4
ĠëĤĺìĦł ëĭ¤
Ġì°Ķ ë¦¬
Ġíľĺëĳĺ ë¦¬
ĠìķĦë©Ķë¦¬ ì¹¸
i l
Ġê·¸ë ¯Ħ
ĠìĿĢ ìłķ
Ġíķ´ ìĿ´
ĠìĿ¸ ì¤Ģ
ĠìĺĪ ëªħ
ìĬ¤ ë§ĪíĬ¸
Ġì¤ĳ ê¸ĪìĨį
ì£¼ íĺĦ
Ġìĭł ëªħ
Ġë¯¸ ìłķ
ëĤ´ ë¯¸
Ġëħ¸ ìĬ¤
Ġë¶Ī ëĬ¥
Ġê°Ĳ ìĹ¼ë³ĳ
ìĤ° ëį°
Ġë³¸ ìłĦ
Ġë§ī ì¤ĳ
Ġìķł íĻĺ
Ġë¯¼ ìĿĺ
ĠíĶ¼ ìĽĮ
Ġë³Ħ ê´Ģ
ĠíĻĺ ëĮĢ
ĠìķĮëł¤ ìł¸ìĦľ
ĠíĴĢ ìĸ´ëĨĵ
Ġì²ł íĮĲ
íĽ ¨
Ġì¢Į ì²ľ
Ġê½ĥ ê¸¸
Ġê¹ľ ë°ķ
íľ´ ê°Ģ
Ġíĭ īëĭĪëĭ¤
Ġê²¸ íĹĪ
Ġì¡± êµ¬
Ġíļ¡ íı¬
ĠíĹĲ ë¦¬ìļ°ëĵľ
[...]
