{"<unk>":0,"<s>":1,"</s>":2,"<pad>":3,"<mask>":4,"<nl>":5,"!":6,"\"":7,"#":8,"$":9,"%":10,"&":11,"'":12,"(":13,")":14,"*":15,"+":16,",":17,"-":18,".":19,"/":20,"0":21,"1":22,"2":23,"3":24,"4":25,"5":26,"6":27,"7":28,"8":29,"9":30,":":31,";":32,"<":33,"=":34,">":35,"?":36,"@":37,"A":38,"B":39,"C":40,"D":41,"E":42,"F":43,"G":44,"H":45,"I":46,"J":47,"K":48,"L":49,"M":50,"N":51,"O":52,"P":53,"Q":54,"R":55,"S":56,"T":57,"U":58,"V":59,"W":60,"X":61,"Y":62,"Z":63,"[":64,"\\":65,"]":66,"^":67,"_":68,"`":69,"a":70,"b":71,"c":72,"d":73,"e":74,"f":75,"g":76,"h":77,"i":78,"j":79,"k":80,"l":81,"m":82,"n":83,"o":84,"p":85,"q":86,"r":87,"s":88,"t":89,"u":90,"v":91,"w":92,"x":93,"y":94,"z":95,"{":96,"|":97,"}":98,"~":99,"¡":100,"¢":101,"£":102,"¤":103,"¥":104,"¦":105,"§":106,"¨":107,"©":108,"ª":109,"«":110,"¬":111,"®":112,"¯":113,"°":114,"±":115,"²":116,"³":117,"´":118,"µ":119,"¶":120,"·":121,"¸":122,"¹":123,"º":124,"»":125,"¼":126,"½":127,"¾":128,"¿":129,"À":130,"Á":131,"Â":132,"Ã":133,"Ä":134,"Å":135,"Æ":136,"Ç":137,"È":138,"É":139,"Ê":140,"Ë":141,"Ì":142,"Í":143,"Î":144,"Ï":145,"Ð":146,"Ñ":147,"Ò":148,"Ó":149,"Ô":150,"Õ":151,"Ö":152,"×":153,"Ø":154,"Ù":155,"Ú":156,"Û":157,"Ü":158,"Ý":159,"Þ":160,"ß":161,"à":162,"á":163,"â":164,"ã":165,"ä":166,"å":167,"æ":168,"ç":169,"è":170,"é":171,"ê":172,"ë":173,"ì":174,"í":175,"î":176,"ï":177,"ð":178,"ñ":179,"ò":180,"ó":181,"ô":182,"õ":183,"ö":184,"÷":185,"ø":186,"ù":187,"ú":188,"û":189,"ü":190,"ý":191,"þ":192,"ÿ":193,"Ā":194,"ā":195,"Ă":196,"ă":197,"Ą":198,"ą":199,"Ć":200,"ć":201,"Ĉ":202,"ĉ":203,"Ċ":204,"ċ":205,"Č":206,"č":207,"Ď":208,"ď":209,"Đ":210,"đ":211,"Ē":212,"ē":213,"Ĕ":214,"ĕ":215,"Ė":216,"ė":217,"Ę":218,"ę":219,"Ě":220,"ě":221,"Ĝ":222,"ĝ":223,"Ğ":224,"ğ":225,"Ġ":226,"ġ":227,"Ģ":228,"ģ":229,"Ĥ":230,"ĥ":231,"Ħ":232,"ħ":233,"Ĩ":234,"ĩ":235,"Ī":236,"ī":237,"Ĭ":238,"ĭ":239,"Į":240,"į":241,"İ":242,"ı":243,"Ĳ":244,"ĳ":245,"Ĵ":246,"ĵ":247,"Ķ":248,"ķ":249,"ĸ":250,"Ĺ":251,"ĺ":252,"Ļ":253,"ļ":254,"Ľ":255,"ľ":256,"Ŀ":257,"ŀ":258,"Ł":259,"ł":260,"Ń":261,"Ġì":262,"Ġë":263,"Ġê":264,"ĠìĿ":265,"Ġí":266,"ĠìĿ´":267,"Ġíķ":268,"ëĭ":269,"ĠìĹ":270,"ĬĶ":271,"Ġê°":272,"Ġìķ":273,"·¸":274,"ĠëĬĶ":275,"Ġìŀ":276,"Ġê·¸":277,"³ł":278,"ĠìĹĲ":279,"ìļ":280,"ìĦ":281,"ĸ´":282,"Ġëĭ":283,"§Ģ":284,"Ġìł":285,"Ġê°Ģ":286,"Ġíķĺ":287,"Ġê²":288,"ëĭĪ":289,"ìļĶ":290,"ìĿ":291,"ĠìĿĦ":292,"Ġê³ł":293,"Ġìĸ´":294,"ìĦľ":295,"ìł":296,"ëĭ¤":297,"ĠìķĦ":298,"Ġê·¸ë":299,"Ġë§":300,"Ġìĭ":301,"¼ë":302,"ıĦ":303,"¸°":304,"Ġìĺ":305,"Ġëĭ¤":306,"Ġëĵ":307,"ĠëĤ":308,"ĠìŀĪ":309,"ê°":310,"ìŀ":311,"¡ľ":312,"Ġ~":313,"Ĥ¬":314,"Ġê±":315,"ê²":316,"Ġì§Ģ":317,"Ġìľ":318,"ë¦":319,"ëĭĪëĭ¤":320,"ĠìĿĢ":321,"į°":322,"©´":323,"Ġë³":324,"ìķ":325,"Ġë°":326,"Ġíķľ":327,"ìĭ":328,"íķ":329,"Ġë¥":330,"Ġë¥¼":331,"ĠëıĦ":332,"ĠëĦ":333,"ĮĢ":334,"¹Į":335,"Ġëĵ¤":336,"Ġ?":337,"ëł":338,"ì§Ģ":339,"ĠìĦ":340,"Ġê±°":341,"Ġì£":342,"ĠëĲ":343,"ë¦¬":344,"ĠìĬ":345,"ê³ł":346,"ëį°":347,"ìĿ´":348,"ìłľ":349,"ĠìĤ¬":350,"ê²Į":351,"ëĤ":352,"Ġìļ":353,"Ġë¶":354,"ê¸°":355,"ĠìĿĺ":356,"Ġíķ´":357,"ê¹Į":358,"Īĺ":359,"ĠëĦ¤":360,"Ġêµ":361,"Ġë³´":362,"ĠìĬµ":363,"Ġê³":364,"Ŀ¼":365,"ëŁ":366,"Ġê·¸ëŁ":367,"ĠëĤĺ":368,"Ġë©´":369,"ĠìĿ¸":370,"ë§":371,"ĠëĮĢ":372,"Ġìĭľ":373,"Ġê²Į":374,"ĠìĺĪ":375,"êµ":376,"Ġê¸°":377,"Ġìĥ":378,"Ġìľ¼ë":379,"ĠìĬµëĭĪëĭ¤":380,"ê¸":381,"ëŀ":382,"ë¬":383,"ìĹ":384,"ê°Ģ":385,"Ġëª":386,"Ġì¢":387,"ĠìĪĺ":388,"ĠìŀĲ":389,"ĠëŃ":390,"ëĵ":391,"ìŀ¥":392,"ĠìĹĲìĦľ":393,"Ġìłķ":394,"Ġìľ¼ë¡ľ":395,"Ġíĸ":396,"Ġë¬":397,"ĠëĲĺ":398,"ê¸Ī":399,"Ġê²ĥ":400,"Ġëį":401,"ê±":402,"ë¶":403,"ìĽ":404,"ìĺ":405,"Ġì§":406,"ĠëŃĲ":407,"ìĥ":408,"ì§":409,"ĠëĬĶëį°":410,"ëĤĺ":411,"ĠìĻ":412,"ĠìĿ¼":413,"Ġìĸ´ë":414,"ìĬ":415,"Ġë§Į":416,"ìĸ´":417,"ķĮ":418,"Ġìĸ":419,"ĠíĸĪ":420,"ĠìłĢ":421,"Ġìĺ¤":422,"Ġì£ł":423,"ìĤ¬":424,"ëĭĪê¹Į":425,"Ġì¤":426,"ĠëĿ¼":427,"Ġë¡ľ":428,"Ġì²":429,"Ġì£¼":430,"ìŀĲ":431,"Ġë²":432,"Ġë¶Ģ":433,"ìĭľ":434,"ìķĦ":435,"ĠìķĪ":436,"Ġìłģ":437,"Ġê²ł":438,"ìķ¼":439,"ĠìļĶ":440,"ëıĦ":441,"ë¡ľ":442,"Ġëı":443,"ĩê²Į":444,"Ġ,":445,"íŀ":446,"Ġê°Ļ":447,"ĠëķĮ":448,"ĠìłĦ":449,"íĺ":450,"íĻ":451,"Ġê·¸ëŁ°":452,"íŀĪ":453,"ë°":454,"ĠìĹ¬":455,"Ġìļ°":456,"íķ´":457,"Ġìłľ":458,"ŀĺ":459,"ìłķ":460,"ëŁ°":461,"Ġë§Ĳ":462,"ĠìĿ´ìłľ":463,"ë¥":464,"ìĨ":465,"ĠìĨ":466,"¹Ħ":467,"Ġíĺ":468,"ìĿ¸":469,"ĠìĿĮ":470,"Ġíķł":471,"Ġì§Ģê¸Ī":472,"Ġì°":473,"Ġì¢Ģ":474,"ĠìĹĪ":475,"ê³":476,"ìľ":477,"ĠëĤ´":478,"Ŀ¼ë":479,"ĠìķĦëĭĪ":480,"ë²":481,"ëĿ¼":482,"Ġëĺ":483,"ë³":484,"¡°":485,"Ġëħ":486,"ì²":487,"ĠìĥĿ":488,"ìĽĲ":489,"ĠìĹĨ":490,"ĠìĤ":491,"ì¹":492,"Ġìĸ´ëĸ":493,"ĠíĻ":494,"Ġìĸ´ìļĶ":495,"ĠëĺĲ":496,"Ġêµ¬":497,"ĠìĭŃ":498,"ëĮĢ":499,"ê±°":500,"¯¸":501,"Ġê·¸ëŀĺ":502,"ĠìĿ´ëŁ°":503,"ëłĩê²Į":504,"ĠìķĬ":505,"Ġê³¼":506,"ë©´":507,"ĠìĦľ":508,"Ġìļ°ë¦¬":509,"Ġê·¸ëŁ¬":510,"ê·¸":511,"ìĥģ":512,"ë¬¸":513,"ĠëįĶ":514,"íķľ":515,"Ġìŀħ":516,"Ġê·¸ëł":517,"ìĬ¤":518,"êµ¬":519,"ëª":520,"Ġë§İ":521,"´Ģ":522,"Ġìĥģ":523,"ĠìĦ¸":524,"ì£":525,"ĠëĿ¼ê³ł":526,"ê°ģ":527,"ĠìĿ´ëłĩê²Į":528,"êµŃ":529,"Ġì¹":530,"ì°":531,"ë¬´":532,"ĠëĭĪ":533,"ìĪĺ":534,"ìĭ¤":535,"ëł¤":536,"Ġë¶Ħ":537,"Ġê·":538,"ìĿĮ":539,"Ġë§Ī":540,"Ĩµ":541,"ĠìĤ¬ëŀ":542,"ļĮ":543,"ĠìĽ":544,"Ġì¡°":545,"ĠëĿ¼ë":546,"ëŁ¬":547,"ë§Į":548,"íĥ":549,"ìļ°":550,"Ġëª¨":551,"Ġê²½":552,"Ġì¤ĳ":553,"ëĵł":554,"ë¶Ģ":555,"ê°Ħ":556,"Ġë¬¸":557,"Ġìķ¼":558,"ë¶Ħ":559,"¯¼":560,"ĠíĮ":561,"ëĬ":562,"ëĬĶ":563,"ĳĲ":564,"ĠìĤ¬ëŀĮ":565,"Ġëĵľ":566,"ëı":567,"Ġëįĺ":568,"ĠìĥĿê°ģ":569,"Ġê³µ":570,"íķĺ":571,"ĥĲ":572,"¦¬":573,"Ġìĸĺ":574,"Ĭ¸":575,"Ġì¢ĭ":576,"ì¹ĺ":577,"ĠìľĦ":578,"ì£¼":579,"ĠêµŃ":580,"Ġìĭł":581,"ìĺ¤":582,"©ëĭĪëĭ¤":583,"ĠìĨĮ":584,"ìĻ":585,"Ġëĭ¹":586,"Ġë¹Ħ":587,"Ġê·¸ëŀĺìĦľ":588,"Ġëĭĺ":589,"ìĿ¼":590,"ëŀĺ":591,"Ġë´":592,"íĻĶ":593,"Ġë°Ķ":594,"ĠìĦł":595,"Ġì¶":596,"Ġê¹":597,"Ġê±´":598,"ìĭł":599,"Ġê¹Į":600,"íĸ":601,"ĠìĶ":602,"ë¡":603,"Ġê°Ģì§Ģ":604,"Ġìĸĺê¸°":605,"Ġê¸":606,"Ġë¬´":607,"ë§Ī":608,"Ġíķ´ìĦľ":609,"ëĭ¹":610,"Ħ°":611,"ĠëĲľ":612,"Ġì§Ħ":613,"Ġë¨":614,"ĠìĻĢ":615,"Ġìħ":616,"ëĦ":617,"íķ´ìĦľ":618,"Ġë²Ī":619,"ĠëĭĪê¹Į":620,"Ġíı":621,"Ġìŀĺ":622,"ĠìķĮ":623,"ìłĦ":624,"ĠìĿ¸ìłľ":625,"Ġê³Ħ":626,"íĬ¸":627,"Ġê·¸ëłĩ":628,"Ġê¹Įì§Ģ":629,"ëıĻ":630,"ìĦ±":631,"íĦ°":632,"Ġìĭ¤":633,"Ġ!":634,"ìĸ":635,"ëħ":636,"Ġë¯¸":637,"ìĥĿ":638,"ëĭ¨":639,"ĠëĶ":640,"íĿ":641,"ë¥´":642,"ìĿĺ":643,"ĠìĹ°":644,"ĠëķĮë¬¸":645,"ĠëĿ¼ëĬĶ":646,"Ġê´Ģ":647,"ĠìĦ±":648,"ĳľ":649,"ì§Ħ":650,"Ġëĭ¤ê³ł":651,"Ġìĸ´ëĸ¤":652,"ìĶ":653,"ë³´":654,"ĠëĮĢí":655,"Ġìľł":656,"¼ëį°":657,"ìĿĢ":658,"ìļ©":659,"ĠìĤ¬ìĭ¤":660,"ĠëĨ":661,"ê·":662,"Ġê°ľ":663,"ĠìŀħëĭĪëĭ¤":664,"ĠìĽĲ":665,"ëĤ´":666,"ĠíĶ":667,"ĠëĳĲ":668,"ì¤":669,"ĠìĶ¨":670,"ĠëĬ":671,"Ġë©´ìĦľ":672,"ë¯¼":673,"ëĵ¤":674,"Ġìķĺ":675,"Ġê±°ëĵł":676,"Ġë°Ľ":677,"Ġê·¸ë¦¬":678,"Ġë§İìĿ´":679,"Ġë°©":680,"Ġíĥ":681,"ĠëħĦ":682,"Ġìŀĸ":683,"ìĨĮ":684,"ĠëĦĪ":685,"Ġíķ©ëĭĪëĭ¤":686,"ìĦł":687,"ĠìĿ´ê²Į":688,"Ġê¹Ģ":689,"íļĮ":690,"ìķĪ":691,"Ġìľ¼":692,"ë¹Ħ":693,"ê±´":694,"ĽĦ":695,"Ġê±°ëĵłìļĶ":696,"Ġê·¼ëį°":697,"ĠìĤ¼":698,"Ġìĺģ":699,"ë£":700,"ĠìĻľ":701,"ĠëĪ":702,"ĠëĤ¨":703,"Ġê·¸ë¦¬ê³ł":704,"ìĹ¬":705,"Ġê²°":706,"íĿ¬":707,"ìļ´":708,"Ġì²ĺ":709,"Ġìŀ¥":710,"Ġìĸ´ëĸ»":711,"ìĭĿ":712,"íĶ":713,"ĠìĬ¤":714,"ħĮ":715,"ì²´":716,"íĮ":717,"ëªħ":718,"ë¯¸":719,"Ġì§Ģë§Į":720,"ìŀ¬":721,"ì¶":722,"Ġëª»":723,"ëĬĺ":724,"ĠëıĻ":725,"ë§Ĳ":726,"ĠëĥĲ":727,"Ġë¬¸ìłľ":728,"ìłĢ":729,"Ġê±¸":730,"ìĤ":731,"ëĵľ":732,"ĠìĺĪìļĶ":733,"ìĹ°":734,"ìĭ¬":735,"Ġìħ¨":736,"Ġì°¨":737,"ê³Ħ":738,"ë¥¸":739,"íĸī":740,"ĠìĤ´":741,"Ġëħ¸":742,"Ġë©":743,"ĠìķĦìļĶ":744,"Ġëį°":745,"ìĨį":746,"ëł¥":747,"ìľł":748,"Ġë¶Ī":749,"Ġëĭ¤ëĬĶ":750,"ĠëĲł":751,"Ġëı¼":752,"ĠíķĻ":753,"µľ":754,"ìĶĢ":755,"Ġë¹":756,"ĠìŀĸìķĦ":757,"íķĻ":758,"Ġë§ĲìĶĢ":759,"Ġë¨¹":760,"Ġë°ľ":761,"ĠëĲĲ":762,"ìĦ¸":763,"»ĺ":764,"¶Į":765,"ĠêµĲ":766,"ëĦ¤":767,"īìŀ¥":768,"ê´Ģ":769,"Ġìĭ¶":770,"Ġì§ĳ":771,"Ġìŀ¬":772,"Ġì´":773,"ëł¹":774,"Ġìµľ":775,"ĠìłķëıĦ":776,"ĠìĦ¸ìļĶ":777,"Ġë°ĺ":778,"ë²Ī":779,"íħĮ":780,"ì¡":781,"Ġëĭ¤ìĿĮ":782,"Ġìľ¼ë©´":783,"ĠìĬµëĭĪê¹Į":784,"ĶĶ":785,"Ġëģ":786,"Ġêµīìŀ¥":787,"Ġì²ľ":788,"Ġìĸ´ìĦľ":789,"Ġë§ŀ":790,"ìĺģ":791,"Ġêµīìŀ¥íŀĪ":792,"ì§ģ":793,"Ġìĺ¤ëĬĺ":794,"Ġë°±":795,"Ġëĭ¨":796,"Ġíģ":797,"Ġê·¸ëłĩê²Į":798,"ĠíĻĶ":799,"ì¦":800,"ĠíĨµ":801,"ĠëĬĲ":802,"ê²ĥ":803,"Ġëªħ":804,"Ġë¶Ģë¶Ħ":805,"ëĤľ":806,"ĠíļĮ":807,"ìĪ":808,"ìĺĪ":809,"Ġíķ´ìķ¼":810,"ĠíĬ":811,"Ġìĸ´ëĸ»ê²Į":812,"Ġì±":813,"Ġê·¸ëŁ°ëį°":814,"ë¬¼":815,"ĠìĪ":816,"ĠìĿ´ê±°":817,"Ġê°Ĳ":818,"Ġëĵ¤ìĸ´":819,"ĠëĦĪë¬´":820,"Ġë°°":821,"Ġìłķë§Ĳ":822,"ìľĦ":823,"ĥ¥":824,"ê³¼":825,"ĠìĿ¸ëį°":826,"ĠìŀĸìķĦìļĶ":827,"İ¸":828,"ĠíĺĦ":829,"ĠìķĦëĭ":830,"Ġë°ķ":831,"ìĤ°":832,"íĺ¸":833,"Ġê²½ìļ°":834,"ĠíķľíħĮ":835,"ìĹħ":836,"Ġëĭ¬":837,"ëŁ¼":838,"ĠëĬĶëį°ìļĶ":839,"êµĲ":840,"Ġê°ķ":841,"Ġê·¸ëŁ¬ëĭĪê¹Į":842,"íĻ©":843,"Ġìĺ¬":844,"Ġë³¸":845,"ìŀĳ":846,"ìĻĢ":847,"ĠíĬ¹":848,"ê²½":849,"ĠìĹ¬ê¸°":850,"ĠëĪĦ":851,"ëĬ¥":852,"Ĩµëł¹":853,"íģ":854,"ĠëĦ¤ìļĶ":855,"ĠíķĺëĤĺ":856,"ĠíĽĦ":857,"Ġë´Ĳ":858,"Ġíķľëĭ¤":859,"ĠëĮĢíĨµëł¹":860,"ëĿ¼ë":861,"Ġëł":862,"Ġê·¸ëĥ¥":863,"ĠìķĦìĿ´":864,"ĠëĮĢíķľ":865,"Ġì°¸":866,"ĠìĹ´":867,"ĠëĮĢíķ´ìĦľ":868,"ª½":869,"Ġìĭľê°Ħ":870,"ĠìĹĲìļĶ":871,"Ġë¶ģ":872,"Ġê°Ħ":873,"Ġë¶ĢíĦ°":874,"ëĥĲ":875,"ìļ¸":876,"ĠìĹĲê²Į":877,"ĠìłĢíĿ¬":878,"ĠíĻķ":879,"ë°©":880,"ê±¸":881,"ĠíĿ":882,"Ġë§ī":883,"Ġì£¼ë":884,"ĠìĿ´ìķ¼":885,"íı":886,"Ġëŀ":887,"ë²ķ":888,"ìĦĿ":889,"Ġìķł":890,"ĠëĤĺìĺ¤":891,"íĥľ":892,"Ġë©´ìĿĢ":893,"Ġìĵ":894,"ê¹ĮìļĶ":895,"ì¡°":896,"ĠìłĲ":897,"ë¡Ŀ":898,"Ġì²Ń":899,"ĠíĹ":900,"Ġìŀĳ":901,"ê·¼":902,"ì¤ĳ":903,"Ĥ¤":904,"ĠìĿ¼ë":905,"ĠìĥģíĻ©":906,"íĹ":907,"ĠëĶ°":908,"ì¼":909,"Ġë³¼":910,"ĠíĮĶ":911,"ë¦°":912,"Ġëĭ¤ê°Ģ":913,"Ġìķŀ":914,"Ġì¹ľ":915,"ĠìĹ¬ëŁ¬":916,"Ġëĵ±":917,"Ġìķ½":918,"ìĽĮ":919,"ĠìĿ´ìķ¼ê¸°":920,"Ġê³łìļĶ":921,"ê²©":922,"ëª¨":923,"íĴ":924,"ì§ľ":925,"Ġíıī":926,"ìĨ¡":927,"Ġì¤Ħ":928,"Ġê²ģ":929,"Ġê·¸ëŁ¼":930,"ë¦Ħ":931,"ì²Ń":932,"ìķ½":933,"Ġë´¤":934,"ê¹":935,"Ġê·¸ê²Į":936,"ĠìĹŃ":937,"Ġì¶Ķ":938,"¨¸":939,"Ġëĭ¤ë¥¸":940,"ê°ľ":941,"ìł¸":942,"Ġìĸ¸":943,"ĠìĥĪ":944,"Ġíķ¨":945,"Ġì§ģ":946,"ĠìĹĦ":947,"Ġì¡°ê¸Ī":948,"Ġë²ķ":949,"Ġë¯¼":950,"ĠìĿ´ëĤĺ":951,"ìħ":952,"Ġì¤Ģ":953,"Ġëĭ¤ìĭľ":954,"Ġë¬¼":955,"ĠëĤł":956,"ĠìĭĿ":957,"Ġêµ¬ìļĶ":958,"ì¢":959,"Ġìĭ¬":960,"Ġìľ¡":961,"ìĸĳ":962,"ìĹŃ":963,"Ġëĸ":964,"Ġë§Įëĵ¤":965,"ì°°":966,"ë£¨":967,"Ġêµ°":968,"ëĳĲ":969,"Ġê²Ģ":970,"Ġì¹ĺ":971,"ĠíĶ¼":972,"íĥĢ":973,"Ġë³´ëĭ¤":974,"ëł¨":975,"ìłĲ":976,"ìŀĦ":977,"ĠíķĦ":978,"ë¹":979,"ĠëıĮ":980,"ì§Ī":981,"ë¦´":982,"ìĽĶ":983,"Ġê³ĦìĨį":984,"íĨµ":985,"ë¡ł":986,"ë²Ħ":987,"âĢ":988,"íĺĦ":989,"ĠëĲľëĭ¤":990,"ìĬ¨":991,"ì°¨":992,"ĠìĿĺìĽĲ":993,"ĠëĮĢíĳľ":994,"Ġê´":995,"ê³µ":996,"Ġíĸī":997,"§Ī":998,"ĠìĿ´ë²Ī":999,"Ġ'":1000,"ë£Į":1001,"Ġìĸĳ":1002,"ìĹĲ":1003,"Ġê·¸ê±°":1004,"Ġì¦":1005,"ĭ°":1006,"Ġê·¸ëĭĪê¹Į":1007,"Ġë¶ģíķľ":1008,"Ġì¶ľ":1009,"ìĹĪ":1010,"ë°ľ":1011,"Ġê¶Į":1012,"Ġíĺķ":1013,"ëį":1014,"Ġë§¤":1015,"ëħĦ":1016,"ê²°":1017,"Ġë³Ģ":1018,"Ġê±°ê¸°":1019,"ëł¸":1020,"ĠìĦ¤":1021,"Ġëĵľë¦¬":1022,"Ġë²Ħ":1023,"ĠêµŃë¯¼":1024,"Ġëł¤":1025,"ĠíĮĮ":1026,"ê°Ĳ":1027,"ì¤Ģ":1028,"Ġê°ĢëĬ¥":1029,"ìłģ":1030,"ĠâĢ":1031,"íĴĪ":1032,"ĠìĿĢëį°":1033,"Ġìļ´":1034,"ĠëĬĶì§Ģ":1035,"Ġìĵ°":1036,"íĶĦ":1037,"ĠìŀĲê¸°":1038,"Ġì¹ł":1039,"·¨":1040,"ĠíĶĦ":1041,"ìĬµ":1042,"Ġê°ĸ":1043,"Ġê»ĺ":1044,"Ġì§Ħì§ľ":1045,"Ġìłķì¹ĺ":1046,"Ġì²ĺëŁ¼":1047,"ĠìĨĲ":1048,"Ġë°Ķë¡ľ":1049,"ìĻĶ":1050,"Ġê°ĻìĿ´":1051,"Ġíķ´ìļĶ":1052,"ëģ":1053,"į¼":1054,"Ĩł":1055,"Ġë¬´ìĬ¨":1056,"Ġì°¾":1057,"Ġê²ģëĭĪëĭ¤":1058,"íĽĦ":1059,"ê»ĺ":1060,"ĠíķĦìļĶ":1061,"ëĭ´":1062,"Ġì±ħ":1063,"ê¸ī":1064,"ĠìĨį":1065,"ĠìĻ¸":1066,"ĠëĤĺìļĶ":1067,"Ġëª¨ë¥´":1068,"Ī¬":1069,"Ŀ½":1070,"Ġíŀĺ":1071,"ĠìĺĢ":1072,"ĠëĲ©ëĭĪëĭ¤":1073,"ìŀħ":1074,"ì±":1075,"ĠìĿ¼ëĭ¨":1076,"Ġì½":1077,"Ġìĸ¼ë":1078,"ì¢ħ":1079,"Ġíĺ¸":1080,"Ġíı¬":1081,"Ġì§Ī":1082,"Ġê·¸ëŁ¬ë©´":1083,"íĳľ":1084,"ê¶Į":1085,"Ġê°Ī":1086,"ëĿ½":1087,"Ġê¼":1088,"íİ¸":1089,"ĠíĮĲ":1090,"Ġíĳľ":1091,"íĹĺ":1092,"ĠíķľêµŃ":1093,"ì¡±":1094,"Ġì¤ĳìļĶ":1095,"ëłĪ":1096,"Ġíģ°":1097,"ëĶĶ":1098,"Ġëĵł":1099,"ĠëĴ":1100,"ĠìĻĶ":1101,"Ġê·¸ëķĮ":1102,"ĠìķĦëĭĮ":1103,"Ġê°Ģìŀ¥":1104,"ĠëıĪ":1105,"ĠëĨĵ":1106,"íģ¬":1107,"Ġìĭľìŀĳ":1108,"ĠíĥĢ":1109,"ĠëįĶëĿ¼":1110,"Ġì´Ī":1111,"ĠìķĦë¬´":1112,"ĠëĤĺëĿ¼":1113,"Ġì»":1114,"Ġëª©":1115,"íĮĲ":1116,"íĮĮ":1117,"Ġë§ĪìĿĮ":1118,"ì¶ľ":1119,"ë³µ":1120,"íĺķ":1121,"ĠìķĦì£¼":1122,"ë°ĺ":1123,"ìĸ¸":1124,"ìĺ¨":1125,"ì§ĳ":1126,"Ġíķ©":1127,"ĠëĪĪ":1128,"êµ°":1129,"íĤ¤":1130,"Ġìľ¼ëĭĪê¹Į":1131,"Ġê¸´":1132,"ì²ľ":1133,"Ġê·¸ê²ĥ":1134,"ĠëģĿ":1135,"ëĤł":1136,"ĠìķĦìĦľ":1137,"Ġíķ¨ê»ĺ":1138,"Ġìłķë¶Ģ":1139,"ĠìĿ´ìĥģ":1140,"ìłĪ":1141,"Ġë°ĸ":1142,"ì´":1143,"Ġë©°":1144,"ĠëŃĶ":1145,"Ġíİ¸":1146,"Ġìĸ¼ë§Ī":1147,"Ġìŀ¡":1148,"Ġë¯¸êµŃ":1149,"ëŀĳ":1150,"Ġê¸¸":1151,"ĠìħĶ":1152,"ìľ¡":1153,"Ġë¨¼":1154,"ê²¨":1155,"Ġê´Ģëł¨":1156,"Ġë§Ľ":1157,"ìĪł":1158,"ĠëĦĺ":1159,"ë°ķ":1160,"ëĦĪ":1161,"ĠìĪľ":1162,"ĠìŀĦ":1163,"Ġìĸ´ëĶĶ":1164,"ê°ķ":1165,"Ġì¸":1166,"ĠíĻľ":1167,"íĶ¼":1168,"ê·¸ëŀĺ":1169,"ĠìľĦíķ´ìĦľ":1170,"Ġìŀħìŀ¥":1171,"Ġê¸Ī":1172,"ĠëĤľ":1173,"Ġ1":1174,"ìª½":1175,"Ġì´Ŀ":1176,"Ġì¢ħ":1177,"Ġìª½":1178,"ĠíĴ":1179,"ĠëıĦë¡Ŀ":1180,"ĠìķĦê¹Į":1181,"Ł¬":1182,"íĺ¼":1183,"Ġìŀł":1184,"ĠìĺģíĻĶ":1185,"Ġì¡":1186,"Ġê·¸ëŀ":1187,"ë¦½":1188,"íĸ¥":1189,"Ġë²Į":1190,"Ġì²ĺìĿĮ":1191,"ĠëĴ¤":1192,"ĠíĬ¸":1193,"íĺĢ":1194,"ì±ħ":1195,"ĠëĬĲëĥĲ":1196,"ĠìľĦìĽĲ":1197,"Ġì²´":1198,"ë§Ŀ":1199,"ĠìĤ¬ê±´":1200,"ì³":1201,"ìĦ¤":1202,"Ġì·¨":1203,"ĠìĦłìĥĿ":1204,"ê°ĢìļĶ":1205,"ìĸµ":1206,"ĠìķĦë§Ī":1207,"ĠìĹĦë§Ī":1208,"Ġê»ĺìĦľ":1209,"Ġê·¸ê±¸":1210,"ĠíķĻìĥĿ":1211,"Ġìī":1212,"Ġì§¸":1213,"ëĤ¨":1214,"Ġê²°êµŃ":1215,"íķ©":1216,"ì¡Į":1217,"ĠëĤĺê°Ģ":1218,"Ġìĸ´ì":1219,"Ġëĵ¤ìĸ´ê°Ģ":1220,"ĠìłĪ":1221,"ĠíĶĦë¡ľ":1222,"ĠíĹĪ":1223,"Ġë¬¼ë":1224,"Ġì§ĢëĤľ":1225,"Ġëªĩ":1226,"ĠìĿ´ê²ĥ":1227,"Ġëĭ¤ë©´":1228,"Ġì¤Ģë¹Ħ":1229,"Ġì¹ľêµ¬":1230,"Ġë³ĳ":1231,"Ġë¦¬":1232,"Ġìĸ´ìķ¼":1233,"Ġë³´ëĤ´":1234,"¾¸":1235,"ĠëĤ´ìļ©":1236,"Ġëĭ´":1237,"Ġë³Ħ":1238,"ĠìĹĶ":1239,"ĠìĻĦ":1240,"ë°Ķ":1241,"ìłĳ":1242,"Ġë³´ìĿ´":1243,"Ġì¶©":1244,"ĠëĦ£":1245,"ĠìĤ°":1246,"į¨":1247,"ĠíĪ¬":1248,"ĠìĿĳ":1249,"¸Į":1250,"ĠìĦľìļ¸":1251,"ë¹ł":1252,"íķł":1253,"Ġíģ¬":1254,"ĠíĻķìĿ¸":1255,"Ġê·¸ëŀ¬":1256,"ì¦Ŀ":1257,"íı¬":1258,"¨¸ëĭĪ":1259,"Ġë¨¼ìłĢ":1260,"³¸":1261,"Ġëŀĳ":1262,"ĠìĤ¬íļĮ":1263,"Ġë°©ìĨ¡":1264,"ë§¤":1265,"Ġê°Ķ":1266,"ê²¬":1267,"Ġìĺ¨":1268,"Ġëª¨ìĬµ":1269,"Ġë³¸ìĿ¸":1270,"Ġìķ½ê°Ħ":1271,"Ġíį¼":1272,"Ġì£½":1273,"¶ģ":1274,"Ġìĥģëĭ¹":1275,"ĠëĨĴ":1276,"Ġëª°":1277,"ĠëĤĺìĻĶ":1278,"Ġì¦Ŀ":1279,"¡ł":1280,"Ġë³´ìĹ¬":1281,"ĵł":1282,"Ġíĥľ":1283,"ĠìķĦì§ģ":1284,"ë°°":1285,"ê²ĮìļĶ":1286,"Ġëĳ":1287,"Ġê±´ëį°":1288,"Ġì¹´":1289,"Ġíĺ¹":1290,"ĠíĽ":1291,"ìĽĢ":1292,"Ġë³µ":1293,"íĺľ":1294,"ĠìĿ´ìľł":1295,"ĠìĿĦê¹Į":1296,"ë§ī":1297,"ë©":1298,"Ġë©Ķ":1299,"Ġë§ĮëĤĺ":1300,"ëłĩ":1301,"ì¸":1302,"ĠíĽĦë³´":1303,"Ġëĵľë¦´":1304,"Ġê´Ģê³Ħ":1305,"ì¦ĺ":1306,"ëŀĢ":1307,"ëĵ±":1308,"íĬ":1309,"Ġëľ":1310,"ĠëĶ±":1311,"ê·¸ëŁ¬":1312,"Ġë¿":1313,"ë´":1314,"ì¼ľ":1315,"Ġê±°ëĤĺ":1316,"ê¸¸":1317,"ĠëıĮìķĦ":1318,"Ġ2":1319,"Ġë¹ł":1320,"ëĭ¬":1321,"íĻĺ":1322,"ĬĲ":1323,"íİ":1324,"Ġëıħ":1325,"Ġë¯¼ì£¼":1326,"Ġë¹¨":1327,"ë³Ħ":1328,"Ġìĸ´ëĬĲ":1329,"Ġíĭ°":1330,"Łģ":1331,"ë¶ģ":1332,"ìķħ":1333,"Ġê³³":1334,"ĠêµŃíļĮ":1335,"Ġì¡°ìĤ¬":1336,"ĠëĮĢë¡ľ":1337,"Ġìĭ¤ìłľ":1338,"ĠìķĦëĭĻ":1339,"Ġëĭ¹ìĭľ":1340,"Ġìļ©":1341,"ëĪ":1342,"ì¶Ķ":1343,"Ġì±Ħ":1344,"íĥĿ":1345,"ĠìĽĶ":1346,"ĠëŃĶê°Ģ":1347,"Ġëł¤ê³ł":1348,"ĠëįĶëĿ¼ê³ł":1349,"ëĭ¤ê³ł":1350,"ìŀĪ":1351,"ë¥ĺ":1352,"ĠíĻĺ":1353,"ĠìĿ¼ë³¸":1354,"ĠíķŃ":1355,"ìĦ¼":1356,"ĠìĿ´ëŁ¬":1357,"ì²ł":1358,"ĠëĶ°ëĿ¼":1359,"ìĬ¹":1360,"Ġëħ¸ëŀĺ":1361,"ìģ":1362,"ĠëıĻìķĪ":1363,"ħĲ":1364,"ĠìŀĲì²´":1365,"ĠíĤ¤":1366,"ĠëĲĺê²Į":1367,"Ġëı¼ìļĶ":1368,"ĠìĿ´ë¯¸":1369,"ĠìĤ¬ìĿ´":1370,"ì½":1371,"ìĥī":1372,"Ġì¼":1373,"ìĦ¸ìļĶ":1374,"Ġíĺĳ":1375,"Ġì¤ĳêµŃ":1376,"ĠëĮĢíķĻ":1377,"Ġì¤ĺ":1378,"ëŁī":1379,"ì°®":1380,"ĠìŀĲìĭł":1381,"Ġì½Ķ":1382,"ì³Ĳ":1383,"ì²ĺ":1384,"Ġê°ĳ":1385,"ĠíķĻêµĲ":1386,"Ġëĵ£":1387,"ĠëŁ¬":1388,"íĸĪ":1389,"Ġê¼Ń":1390,"ëĮĢë¡ľ":1391,"ê·¸ëŀĺìĦľ":1392,"ê¹Ĳ":1393,"ĠìĪĺìĤ¬":1394,"ëıħ":1395,"Ġê´ľ":1396,"Ġìĥģëĭ¹íŀĪ":1397,"Ġíķĺê³ł":1398,"ìĦ¼íĬ¸":1399,"ë²Ħì§Ģ":1400,"ê¾¸":1401,"Ġì²«":1402,"ìĪľ":1403,"Ġì¸¡":1404,"íĨł":1405,"Ġíİ":1406,"ìĸ´ë":1407,"Ġíį¼ìĦ¼íĬ¸":1408,"ëª©":1409,"ëŁ½":1410,"Ġê²½ì°°":1411,"ìŁģ":1412,"¶Ģ":1413,"ĠíıŃ":1414,"ìĺ¬":1415,"ê°Ī":1416,"ĠìĿ¸ì§Ģ":1417,"ļ¨":1418,"íĥģ":1419,"ëħĢ":1420,"Ġëĸ¨":1421,"ë³¸":1422,"Ġëª¨ëĵł":1423,"ĠìĻľëĥĲ":1424,"ìĻ¸":1425,"ĠâĢĻ":1426,"ìĶ¨":1427,"ì¹¨":1428,"íĭ°":1429,"ë¡Ģ":1430,"ĠëĶĶ":1431,"Ġì§ģìłĳ":1432,"ì¼Ģ":1433,"ĠìĿ´ê±¸":1434,"ĠìļĶì¦ĺ":1435,"ĠëĤĺìĻĢ":1436,"ĠìķĮëł¤":1437,"ĠêµĲìľ¡":1438,"Ġëķ":1439,"ĠëĨĢ":1440,"Ġê²½ìłľ":1441,"ī´":1442,"Ġê·¼":1443,"ĠíĺĦìŀ¬":1444,"ĠëŀĢ":1445,"ĠìĹ¬ëŁ¬ë¶Ħ":1446,"Ġë°ĸìĹĲ":1447,"ìĸ´ì§Ģ":1448,"Ġë¯":1449,"ì°¬":1450,"íģ¼":1451,"ĠíħĮ":1452,"ëĭĺ":1453,"ë¦¼":1454,"Ġê³¼ìłķ":1455,"ìķł":1456,"ĠìĿ´ê±´":1457,"Ġê·¸ëŀĺìļĶ":1458,"Ġê¶ģ":1459,"Ġëĥ":1460,"ĠìĹĲìĬ¤":1461,"Ġë°Ŀ":1462,"ĠëĬĲëĤ":1463,"Ġëĳĺ":1464,"ĠêµĲìĪĺ":1465,"ĠíĬ¹íŀĪ":1466,"ĠíĻ©":1467,"Ġë²Ķ":1468,"Ġê±°ìĿĺ":1469,"ĠíĸĪìĹĪ":1470,"Ġì§ĢìĹŃ":1471,"Ġìĸ´ëł¤":1472,"ĠìĤ¬ëŀĳ":1473,"ëª»":1474,"ë³ĳ":1475,"ê¸´":1476,"ĠìĦłìĪĺ":1477,"ĠëĪĦêµ¬":1478,"ĠíĨµíķ´ìĦľ":1479,"ì£Ħ":1480,"ê´":1481,"Ġê²Ģì°°":1482,"Ġíķµ":1483,"Ġíķ´ëıĦ":1484,"ĠìłĦíĻĶ":1485,"Ġì§Ħíĸī":1486,"Ġìĥģíĥľ":1487,"ìĦ¯":1488,"Ġëĵ¯":1489,"Ġëĸł":1490,"Ġìĺ¬ëĿ¼":1491,"ëĿ¼ëıĦ":1492,"ĠëĥĲë©´":1493,"ëĶ":1494,"ĠíĨł":1495,"Ġì¼Ģ":1496,"ĠëĦ¤ëĦ¤":1497,"Ġê¸Ģ":1498,"Ġë´Ĳìķ¼":1499,"ĠìĿĦê¹ĮìļĶ":1500,"ĠìŀĲë¦¬":1501,"ĠìĶ©":1502,"ĠíĶ¼íķ´":1503,"ì¹´":1504,"ìĿĳ":1505,"ì»":1506,"Ġê°ģ":1507,"Ġíĺ¹ìĭľ":1508,"Ġê´ľì°®":1509,"Ġì«":1510,"ĠâĢĺ":1511,"ħëĭĪëĭ¤":1512,"Ġê¸°ìĸµ":1513,"ĠëĿ¼ëıĦ":1514,"Ġìĸ¼ë§ĪëĤĺ":1515,"Ġìĸ¼":1516,"Ġëª¸":1517,"ĠëįĶëĿ¼ê³łìļĶ":1518,"ĠêµŃê°Ģ":1519,"Ġê¸°ìŀĲ":1520,"Ġë¨¸":1521,"ĠìĹ¬ìŀĲ":1522,"Ġì»¤":1523,"Ġê·¸ëŀĺëıĦ":1524,"Ġìļ´ëıĻ":1525,"íĻľ":1526,"ê·¸ëŁ°":1527,"ĠìĿ´íĽĦ":1528,"ĠìĨĮë¦¬":1529,"êµ´":1530,"ê·¹":1531,"ĠìĭŃëĭĪê¹Į":1532,"ĠëĬĺ":1533,"Ġê·¸ê±´":1534,"ìħ¨":1535,"íķŃ":1536,"ëĭ¤ëĬĶ":1537,"¨Į":1538,"ĠìĹ°ëĿ½":1539,"Ġê´ĳ":1540,"ĠìĹ¬ìĦ±":1541,"ĠìĦłê±°":1542,"Ġìŀĺëª»":1543,"ëĵĿ":1544,"Ġë§Įìķ½":1545,"ĠíħĲ":1546,"ĠìĹħ":1547,"ĠìĿ´íķ´":1548,"Ġíľ":1549,"ĠíĻľëıĻ":1550,"Ġìĸµ":1551,"Ġê²°íĺ¼":1552,"Ġê²°ê³¼":1553,"ìĬ¤íĬ¸":1554,"±ìłķ":1555,"Ġêµ¬ëĤĺ":1556,"ìĸ´ëĤĺ":1557,"Ġíĺ¼":1558,"Ġë°©ë²ķ":1559,"ĭĢ":1560,"ëħķ":1561,"ĠëįĶëĭĪ":1562,"µëĭĪëĭ¤":1563,"ëŀĮ":1564,"ë²Į":1565,"ĠìłľìĿ¼":1566,"ĠìĿ´ë¦Ħ":1567,"ë¶Ī":1568,"Ġë¬¼ë¡ł":1569,"ëĨ":1570,"Ġë¹¨ë¦¬":1571,"Ġë¿Ĳ":1572,"Ġìĭ¸":1573,"íĺ¹":1574,"ĠìĹĨìĿ´":1575,"ĠíĻį":1576,"ê°Ķ":1577,"ë²Ķ":1578,"ĠìĭľíĤ¤":1579,"ĠëŃĺ":1580,"ĠìĿ¸ëį°ìļĶ":1581,"Ġê°Ģì¡±":1582,"ì´Ī":1583,"ì§Ģë§Į":1584,"ĠìĥĪë¡ľ":1585,"ì§Ģê¸Ī":1586,"ìľ¼":1587,"íĻķ":1588,"ì¦Ī":1589,"Ġìĸ´ì¨Į":1590,"Ġë¬¸ìŀ¬":1591,"ì§Ģë§ī":1592,"Ġê·ľ":1593,"Ġì£¼ìŀ¥":1594,"êµ¬ìļĶ":1595,"íŀĪëł¤":1596,"Ġêµ°ìļĶ":1597,"Ġê½":1598,"Ġê±±ìłķ":1599,"ĠíħĲëį°":1600,"ĠëĤĺìĺ¨":1601,"Ġê³µê°ľ":1602,"ĠëĤ¨ìŀĲ":1603,"Ġìłĳ":1604,"ĠìĿĺë¯¸":1605,"ĠìĤ¬ì§Ħ":1606,"Ġìĸ¸ìłľ":1607,"ìĥĪ":1608,"ĠëĬĲëĤĮ":1609,"ĠíĴĢ":1610,"Ġëī´":1611,"Ġëĭ¹ìĭł":1612,"Ġìĺ¤íŀĪëł¤":1613,"Ġë³Ģíĺ¸":1614,"ĠíļĮìĤ¬":1615,"ë¸Į":1616,"¸Ķ":1617,"Ġìľ¤":1618,"ëħĲ":1619,"ìŀĲê¸°":1620,"Ġê·Ģ":1621,"§Į":1622,"Ġê·¸ëŁ´":1623,"Ġê¸ī":1624,"Ġìº":1625,"Ġëħ¼ë":1626,"ĠìĬ¹":1627,"ĠìĦ¸ê³Ħ":1628,"ëįĶ":1629,"Ġíŀĺëĵ¤":1630,"Ġìī½":1631,"Ġê¹Ģìłķ":1632,"ĠíĿ¬":1633,"Ġíķľëį°":1634,"ĠìķĦë²Ħì§Ģ":1635,"ì°½":1636,"Ġë§Īì§Ģë§ī":1637,"Ġê¶ģê¸Ī":1638,"ìĹĨ":1639,"Ġìĸ´ì¨Įëĵł":1640,"ĠìłĢê¸°":1641,"Ġìĸ´ìłľ":1642,"ĠìĦ¤ëªħ":1643,"ĠìķĦìķ¼":1644,"ìĹ´":1645,"ĠëĿ¼ë©´":1646,"ê·¸ëłĩ":1647,"Ġë°¥":1648,"Ġìľ¼ìĭľ":1649,"Ġê·¸ê¹Į":1650,"Ġë§ĽìŀĪ":1651,"Ġê²°ìłķ":1652,"Ġì²ł":1653,"ëĭµ":1654,"ĠìķłìļĶ":1655,"ĠëĤĺëĪ":1656,"Ġìłķìĥģ":1657,"ëŃ":1658,"Ġìĭ¤ìłľë¡ľ":1659,"Ġê¿":1660,"Ġìµľê·¼":1661,"ĠìĦľë¡ľ":1662,"Ġì±ħìŀĦ":1663,"ĠëĤ¨íİ¸":1664,"Ġíļ¨":1665,"ļį":1666,"ĠíĳľíĺĦ":1667,"Ġê°ĲìĤ¬":1668,"ĠëĶ¸":1669,"Ġê´Ģìĭ¬":1670,"ê·¼íĺľ":1671,"Ġëª¨ëĳĲ":1672,"Ġì£Ħ":1673,"Ġê²½ê¸°":1674,"ĠìķĦëĭĻëĭĪê¹Į":1675,"ëĤ¬":1676,"ĠíĮ¨":1677,"Ġì°¾ìķĦ":1678,"Ġë¶Ģíĥģ":1679,"ĠìĿ¸ê°Ģ":1680,"ĠìŀĲìľł":1681,"ĠìķĦëĭĮê°Ģ":1682,"Ġìłķì±ħ":1683,"Ġì¤¬":1684,"Ġìķī":1685,"Ġëĵľëł¸":1686,"Ġë°ķê·¼íĺľ":1687,"Ġì§ĢìĽĲ":1688,"ìľ¨":1689,"ìĤ´":1690,"ìį¨":1691,"Ġë¶Ļ":1692,"ìŀĸ":1693,"ĠìĿ´ëĿ¼ë":1694,"ìĻĢëĮĢ":1695,"ì§Ŀ":1696,"ĠìĽĲëŀĺ":1697,"ê·¸ëŁ¼":1698,"ĠìķĦëĵ¤":1699,"ĠëĪĦê°Ģ":1700,"íķĺë©´":1701,"Ġë°°ìļ°":1702,"ĩ´":1703,"Ġì°½":1704,"ĠìĿ¸ìĤ¬":1705,"Ġì°į":1706,"Ġíĸ¥":1707,"Ġëĭ¹ìĹ°":1708,"Ġì²ŃìĻĢëĮĢ":1709,"ìħĺ":1710,"ĠìĤ¬ìļ©":1711,"Ġê°ľìĿ¸":1712,"ëŀĲ":1713,"Ġëª»íķĺ":1714,"Ġíķľë²Ī":1715,"Ġì§Ģì§Ģ":1716,"ë°±":1717,"Ġìĭľìŀ¥":1718,"ĠìłĦë¬¸":1719,"Ġëĭµ":1720,"Ġìĸ¼êµ´":1721,"ëłµ":1722,"Ġë³´íĨµ":1723,"Ġê¸°ëĭ¤":1724,"Ġì¶ķ":1725,"ĠíĮĢ":1726,"ĠëįĶëĿ¼ëıĦ":1727,"Ġê³¡":1728,"ë³Ģ":1729,"Ġìŀ¥ê´Ģ":1730,"ĠìłľëĮĢë¡ľ":1731,"Ġê·¸ë§Į":1732,"ëĭ¤ê°Ģ":1733,"Ġìĸ´ë¨¸ëĭĪ":1734,"ìłĦíŀĪ":1735,"Ġë¯¿":1736,"Ġê±´ê°ķ":1737,"ĠìĿ´ëŀĳ":1738,"Ġëħ¼":1739,"íĤ":1740,"Ġë³Ģíĺ¸ìĤ¬":1741,"Ġê¸°ëĮĢ":1742,"Ġë²ł":1743,"íħ":1744,"ê°Ŀ":1745,"ĠìĿ¼ë°":1746,"ìļĶìĿ¼":1747,"ĠìĥĿíĻľ":1748,"Ġê³¨":1749,"Ġëĭ¤ëĭĪ":1750,"Ġëĺĳ":1751,"ëħ¸":1752,"ĠíĥĦ":1753,"Ġíķľëĭ¤ê³ł":1754,"ĵłì§Ģ":1755,"xx":1756,"ĠìľĦìĽĲìŀ¥":1757,"Ġ3":1758,"ĠìĹŃìĭľ":1759,"Ġìĸ¸ë¡ł":1760,"Ġëı¼ìĦľ":1761,"ĠìĹĦì²Ń":1762,"ìĿĦ":1763,"ëģ¼":1764,"ĠìĤ¬ê³ł":1765,"Ġíıīê°Ģ":1766,"Ġë¯¼ì£¼ëĭ¹":1767,"Ġì§Īë¬¸":1768,"ĠìĨĮê°ľ":1769,"íļį":1770,"Ġìį¨":1771,"Ġì§ĢëĤĺ":1772,"Ġíķ´ê²°":1773,"ì£ł":1774,"Ġë´ħëĭĪëĭ¤":1775,"ìļ°ë¦¬":1776,"Ġìłķë³´":1777,"ĠëĤ´ëł¤":1778,"ê¸Ģ":1779,"Ġìª":1780,"Ġê°ĳìŀĲê¸°":1781,"Ġê±¸ë¡ľ":1782,"ĠìĪł":1783,"Ġêº":1784,"Ġì¡´":1785,"ìĭŃ":1786,"ëĳ":1787,"ĠìĹŃíķł":1788,"ĠëĨį":1789,"ĠíĬ¹ë³Ħ":1790,"ĠìĿ½":1791,"Ġíķĺë£¨":1792,"ì¹ľ":1793,"ê°Ļ":1794,"ĠìĽĮ":1795,"ĠìĽĥ":1796,"ĠíıĲ":1797,"ê·¸ë¦¬":1798,"Ġë°Ģ":1799,"ĠíļĮëĭ´":1800,"íķ¨":1801,"ĠìĻľëĥĲíķĺë©´":1802,"ìħĶ":1803,"íĬ¼":1804,"ĠëłĪ":1805,"ì·¨":1806,"ìľ¼ë":1807,"Ġë¶Ħëªħ":1808,"Ġê·¹":1809,"Ġëĵľë¦´ê²ĮìļĶ":1810,"ê²Ģ":1811,"Ġê°Ģìł¸":1812,"Ġê³¼ìĹ°":1813,"ĠìĨ¡":1814,"00":1815,"ĠìļĶìĸ´":1816,"ŀĢ":1817,"Ġë£":1818,"ĠìĿĮìĭĿ":1819,"ĠìĿ´ìļ©":1820,"ĠíĮĲëĭ¨":1821,"ĠìĹ°êµ¬":1822,"Ġë°¤":1823,"Ġê´Ģë¦¬":1824,"ì°©":1825,"ê²¼":1826,"Ġë³´ëıĦ":1827,"ìĺĢ":1828,"Ġìķ¼ëĭ¹":1829,"ë©Ķ":1830,"ìĽł":1831,"ĠìĥĪë¡ľìļ´":1832,"Ġìĭ«":1833,"ëĭ¤ë©´":1834,"ë°Ģ":1835,"Ġìĸ´ëłµ":1836,"ĠìĭľëĮĢ":1837,"íĽ":1838,"ĠëĤĺì¤ĳ":1839,"Ġê¹¨":1840,"ê·¼ëį°":1841,"ĠìľĦíķľ":1842,"ë¦½ëĭĪëĭ¤":1843,"ìĪĻ":1844,"ĵłê°Ģ":1845,"Ġê·¸ëĮĢ":1846,"Ġê³¼ê±°":1847,"Ġíĺ¼ìŀĲ":1848,"ĠíĥĪ":1849,"ëķĮ":1850,"ĠìłĦíĺĢ":1851,"ĠìĺĨ":1852,"ĠëĤĺìĿ´":1853,"Ġë²Ħë¦¬":1854,"ê´ĳ":1855,"ĠìļĶëĦ¤":1856,"ĠìķĦë¹ł":1857,"ĠìĿ¼ë°ĺ":1858,"Ġê¸°ìĹħ":1859,"ĠìĿ¼ë¶Ģ":1860,"ëŀĺëıĦ":1861,"Ġê³Ħìĭľ":1862,"Ġìŀłê¹Ĳ":1863,"íİĺ":1864,"ĠìĦ¸ìĥģ":1865,"Ġëī´ìĬ¤":1866,"Ġê·¸ë¦":1867,"Ġìµľê³ł":1868,"ĠìĿ¸íĦ°":1869,"ë¨":1870,"Ġê³µë¶Ģ":1871,"ĠíĦ°":1872,"Ġë§Įíģ¼":1873,"Ġë°ľíĳľ":1874,"Ġìĸ´ì©":1875,"ĠìĹ¬íĸī":1876,"Ġë´ĲìļĶ":1877,"ĠìķĦíķĺ":1878,"ìĨĮë¦¬":1879,"Ġìŀ¬íĮĲ":1880,"Ġë¶Ģëª¨":1881,"Ġì¶©ë¶Ħ":1882,"Ġê³łë¯¼":1883,"ìĹĩ":1884,"ì°Į":1885,"ĠìŀĲê¾¸":1886,"ìĭ¬íŀĪ":1887,"Ġë¸Į":1888,"ĠìĻĢìĦľ":1889,"Ġíĭ°ë¹Ħ":1890,"Ġìĭľì¼ľ":1891,"įëĭĪëĭ¤":1892,"ê·¸ëŀ":1893,"ëŃĲ":1894,"ĠìħĶìķ¼":1895,"Ġë³ĳìĽĲ":1896,"Ġëľ»":1897,"ĠìĬ¤íĥĢ":1898,"Ġë°ĺëĮĢ":1899,"ìĿµ":1900,"ĠíĶĮ":1901,"Ġê·¼ë":1902,"Ġë§Īëĭ¤":1903,"ìĬ·":1904,"Ġë¬¸ìŀ¬ìĿ¸":1905,"ì¡´":1906,"ĠëĦĺìĸ´":1907,"ê³¡":1908,"ĠëĮ":1909,"Ġíķľëĭ¤ëĬĶ":1910,"ì¹ł":1911,"Ġë¬¸íĻĶ":1912,"ĠìĿĮìķħ":1913,"ĠêµŃìłķ":1914,"ì½Ķ":1915,"ê·¸ë¦¬ê³ł":1916,"íĪ¬":1917,"ĠíķŃìĥģ":1918,"ĠëĬĶê°Ģ":1919,"ĠìĮ":1920,"Ġíľ´":1921,"ĠìŀĶ":1922,"Ġë°ľìĥĿ":1923,"íĽĪ":1924,"ĠëĲľëĭ¤ê³ł":1925,"ĠìķĪëħķ":1926,"ëŀľ":1927,"Ġìĸ´ë¨¸":1928,"ĠìĿ´ë£¨":1929,"ëĢ":1930,"Ġì§ľ":1931,"ĠíĿĶ":1932,"ë¨¸":1933,"ëŀµ":1934,"ë´ī":1935,"ĠìķĦì¹¨":1936,"Ġëħ¸ëł¥":1937,"ĠëıĦìĽĢ":1938,"ĠìłĦì²´":1939,"ĠíļĮìŀ¥":1940,"Ġê¸°ë³¸":1941,"Ġë°ĶëĢ":1942,"ĠìĿ´ë¶Ħ":1943,"ĠìĹŃìĤ¬":1944,"Ġë¬´ìĹĩ":1945,"Ġê·¸ëĮĢë¡ľ":1946,"¬¸":1947,"Ġë¹ĦìĬ·":1948,"ĠìĻķ":1949,"ê°ĳ":1950,"ĠìĿ¸ìłķ":1951,"ë¶ĢíĦ°":1952,"Ġìķķ":1953,"Ġë§¡":1954,"ê»":1955,"ëĥ":1956,"Ġìłķë¦¬":1957,"ìģĺ":1958,"íľ":1959,"ìĶ¬":1960,"ĠìľĦíķ´":1961,"Ġì«Į":1962,"ĠìłķíĻķ":1963,"Ġìłķëĭ¹":1964,"Ġìķħ":1965,"ĠíĶ¼ë":1966,"ìķĮ":1967,"ĠìħĶìĦľ":1968,"ĠíĺĦìŀ¥":1969,"íĥĦ":1970,"ëĿ¼ë§Ī":1971,"ê¿":1972,"ë¥¼":1973,"íĺģ":1974,"ĠëĤ¬":1975,"ĠëĬĶëĭ¤":1976,"ìŀ¡":1977,"Ġìĸ´ëıĦ":1978,"Ġìī¬":1979,"Ġë¨¸ë¦¬":1980,"Ġì¯":1981,"Ġëĺĳê°Ļ":1982,"Ġê¹ĢìłķìĿĢ":1983,"Ġìłķìĭł":1984,"Ġëĵ¤ìĸ´ìĺ¤":1985,"ĠìĺĽ":1986,"Ġì¼ĢìĿ´":1987,"Ġê°ĢìļĶ":1988,"Ġìĺ¤ëŀĺ":1989,"Ġìļ¸":1990,"ĠëģĮ":1991,"ĠìĹ´ìĭ¬íŀĪ":1992,"ë¯¼êµŃ":1993,"Ġê¸°ì¤Ģ":1994,"Ġìľ¼ìĭł":1995,"Ġëĭ¹ìĹ°íŀĪ":1996,"Ġëĭ¤ë¥´":1997,"ĠìĥĿê¸°":1998,"ĠìĦłíĥĿ":1999,"ĠëĶ°ëĿ¼ìĦľ":2000,"ĠìĤ¬ìĹħ":2001,"ĠìĥģëĮĢ":2002,"ê·¸ëŀ¨":2003,"Ġê¸°ìĤ¬":2004,"Ġì§Ģë°©":2005,"ĠìĺĪìĺĪ":2006,"ĠìŀĳíĴĪ":2007,"ìļ´ëį°":2008,"ì¶ķ":2009,"ëıĮ":2010,"Ġë½":2011,"ĠíĭĢ":2012,"ìĺ¤ëĬĺ":2013,"ëľ":2014,"ĠìĪ¨":2015,"ĠëĮĢíķľë¯¼êµŃ":2016,"ĠìĹĲìĿ´":2017,"ìĿ¼ë":2018,"Ġì°¨ìĿ´":2019,"Ġì¯¤":2020,"íĦ":2021,"Ġìı":2022,"Ġëħ¼ëŀĢ":2023,"ĠëĤĺíĥĢ":2024,"ëĺ":2025,"Ġë¶ĦìľĦ":2026,"Ġëĭ¤ìĸĳ":2027,"ĠìĺĪìłĦ":2028,"Ġë§Ŀ":2029,"Ġê¿Ī":2030,"ĠíĺĪ":2031,"Ġìľłëªħ":2032,"ĠìĿĺê²¬":2033,"ĠëĤ®":2034,"ĠëĽ":2035,"ìļ±":2036,"Ġìĥī":2037,"Ġëĭ¤ìĦ¯":2038,"ĠíĽ¨":2039,"ì¶°":2040,"íĶĮ":2041,"ĠëĤ´ìĿ¼":2042,"Ġê³¼íķĻ":2043,"Ġë¬¸ìŀĲ":2044,"Ġì¹¨":2045,"ìģľ":2046,"Ġê²¨":2047,"ĠíĹĮ":2048,"ë²½":2049,"Ġì§Ģì¼ľ":2050,"Ġíķ©ìĿĺ":2051,"ĠëĤĺìĺ¬":2052,"ë·":2053,"ĠíĽ¨ìĶ¬":2054,"ìĿ´íĬ¸":2055,"Ġëĸ¨ìĸ´":2056,"ëģĶ":2057,"ĠìŀħëĭĪê¹Į":2058,"§Ĳ":2059,"Ġìĩ":2060,"Ġìĺ·":2061,"íĹĪ":2062,"ê·ľ":2063,"Ġíķĺì§Ģë§Į":2064,"ìŀĸìķĦ":2065,"ĠìĹ°ê²°":2066,"Ġì¦Ĳ":2067,"Ġë¡":2068,"Ġìļ°ìĦł":2069,"Ġê±´ê°ĢìļĶ":2070,"Ġê°Ĳëıħ":2071,"ĠìķĦëĤ´":2072,"ê·ł":2073,"ĠìĦ¼":2074,"Ġìĭľë¯¼":2075,"ĠìĽĢ":2076,"ĠìłľëıĦ":2077,"Ġì¡Į":2078,"ĠìĨĶ":2079,"Ġë´ī":2080,"Ġìĺģíĸ¥":2081,"ĠíĶĦë¡ľê·¸ëŀ¨":2082,"³Ģ":2083,"Ġë¡ľìĦľ":2084,"ĠëĤ¨ë¶ģ":2085,"Ġì°¸ìĹ¬":2086,"ì¸ł":2087,"ĠìļĶêµ¬":2088,"ĠìĿĢëį°ìļĶ":2089,"Ġì¤ĺìķ¼":2090,"Ġíķľëĭ¤ë©´":2091,"Ġìĸ»":2092,"ê·¸ëŁ°ëį°":2093,"ĠìĺĽëĤł":2094,"ĠëĺĲëĬĶ":2095,"Ġë°ľìĸ¸":2096,"ĠëĮĢíĻĶ":2097,"ĠëĽ°":2098,"Ġíļ¨ê³¼":2099,"ê¼":2100,"ë°Į":2101,"Ġë³´ìĪĺ":2102,"ĠìķĦë¬´ëŀĺëıĦ":2103,"Ġëĵ±ê¸ī":2104,"Ġìĺģìĥģ":2105,"ì§ķ":2106,"ĠëĬ¥":2107,"ĠìŀĲìĦ¸":2108,"ł¤":2109,"Ġìłķê¶Į":2110,"Ġëĵłì§Ģ":2111,"¶Ħ":2112,"Ġê²ģëĭĪê¹Į":2113,"Ġë¶ĦìľĦê¸°":2114,"ĠìĬ¤ëŁ½":2115,"ĠìķĦëĭĻëĭĪëĭ¤":2116,"ĠìķĮìķĦ":2117,"ìķ¡":2118,"ĠìĤ¶":2119,"ë¶Ģë¶Ħ":2120,"ĠìĪľê°Ħ":2121,"Ġìŀ¬ë°Į":2122,"Ġì§ĵ":2123,"íıī":2124,"ê³³":2125,"Ġë§Īìĭľ":2126,"ëŁ¼íĶĦ":2127,"Ġì°¬":2128,"íĮ¨":2129,"íĺĶ":2130,"Ġê²ĢìĤ¬":2131,"Ġë§Įëĵľ":2132,"Ġëħ¸ëıĻ":2133,"ĠìłľíĴĪ":2134,"Ġëľ¨":2135,"Ġì£¼ë³Ģ":2136,"Ġê·¸ë¶Ħ":2137,"Ġì¶©ë¶ĦíŀĪ":2138,"ĠìĺĪìłķ":2139,"Ġê³Ħíļį":2140,"Ġê°ľìĽĶ":2141,"ĠëĵľëĿ¼ë§Ī":2142,"ì¸¡":2143,"Ġë¹¼":2144,"ĠìĪĻ":2145,"ŃëĭĪëĭ¤":2146,"Ġì¸µ":2147,"ëĥĪ":2148,"Ġê¸°ë¡Ŀ":2149,"ĠìĦĿ":2150,"Ġíĺģ":2151,"Ġíĸīë³µ":2152,"ĠìĦłë¬¼":2153,"Ġëĭ¬ëĿ¼":2154,"ĠëĵľëŁ¬":2155,"ĠìķĦíĮĮ":2156,"Ġëħ¹":2157,"¥¸":2158,"Ġë¹ĦíĮĲ":2159,"Ġë¯¸ëŀĺ":2160,"ĠëıĮìķĦê°Ģ":2161,"Ġë³Ħë¡ľ":2162,"ë´Ĳ":2163,"Ġìł¸":2164,"Ġì£¼ìĿ¸":2165,"ĠíĬ¸ëŁ¼íĶĦ":2166,"ĠìķĦëĭĪë©´":2167,"íı°":2168,"ıĻ":2169,"ĠìłĬ":2170,"Ġìłľìŀĳ":2171,"Ġë°ĶëŀĮ":2172,"ĠìĹĲëĭ¤ê°Ģ":2173,"Ġxx":2174,"Ġìĺ¬íķ´":2175,"ĠìķĶ":2176,"Ġì¡°ìĦł":2177,"Ġìĺ¤ë¹ł":2178,"ĠëĮĢìĥģ":2179,"Ġìĸ¸ëĭĪ":2180,"Ġë¶Īêµ¬":2181,"Ġê¸°íļĮ":2182,"ĠìłĪëĮĢ":2183,"Ġëĵ¯ìĿ´":2184,"Ġë²Ķì£Ħ":2185,"ĠìĹ¬ë¡ł":2186,"ì£¼ë":2187,"ĠíĻķìĭ¤":2188,"ĠìļĶë¦¬":2189,"ĠìĬ¤ëŁ¬":2190,"íĮħ":2191,"ĠìļĶìĺĪ":2192,"ĠëĬ¦":2193,"ê·¸ëŁ¬ëĭĪê¹Į":2194,"Ġê°Ģê¹Į":2195,"ĠìĿĺìĤ¬":2196,"Ġì¸¡ë©´":2197,"Ġë¸Ķ":2198,"ĠìĤ¬ìŀ¥":2199,"ìĨĲ":2200,"ĠìłĦíĺķ":2201,"ĠíĺĦìĭ¤":2202,"ĠìĿ¸ê°Ħ":2203,"Ġëª©ìĨĮë¦¬":2204,"ë§ŀ":2205,"ì¶©":2206,"Ġìļķ":2207,"Ġë¶ĦëªħíŀĪ":2208,"Ġë£¨":2209,"ëĤĻ":2210,"ĠìĽĢì§ģ":2211,"ëįķ":2212,"Ġìŀĳê°Ģ":2213,"Ġë§Įëĵł":2214,"ĠìºĲ":2215,"ëŁ´":2216,"ĠìĿ¼ìĸ´ëĤĺ":2217,"ĠíĶ¼íķ´ìŀĲ":2218,"Ġìĸ´ëł¤ìļ´":2219,"Ġ5":2220,"Ġíŀ":2221,"ĠëĮĢë¶Ģë¶Ħ":2222,"Ġê¸°ë¶Ħ":2223,"ê°Ģì§Ģ":2224,"ê¹Ģ":2225,"ĠëĨĪ":2226,"Ġë¶ĦìĦĿ":2227,"³´":2228,"Ġë¶ĪëŁ¬":2229,"ĠëıĦìĻĢ":2230,"ìĹĦ":2231,"ĠíĹ¤":2232,"ĠìĨĮìĭĿ":2233,"ìĬ¤ë¡ľ":2234,"Ġê·¸ëŁ¬ëĤĺ":2235,"ëł¤ê³ł":2236,"íķĦ":2237,"Ġë°ĶëĢĮ":2238,"Ġë°Ķê¿":2239,"ĠíĴį":2240,"ì£¼ìĿĺ":2241,"Ńī":2242,"ĠìĹ°ê¸°":2243,"ĠëĮĢëĭ¨":2244,"ĠìľĦíĹĺ":2245,"Ġê¸°ê°Ħ":2246,"Ġì¶Ķì²ľ":2247,"Ġìĵ¸":2248,"ĩĮ":2249,"Ġìļ´ìĺģ":2250,"íĤ¨":2251,"ĠëĪĦë¦¬":2252,"íİ´":2253,"ĠìĻľëĥĲë©´":2254,"ĠìĿ¼ìłķ":2255,"ìĭľìĺ¤":2256,"ĠëĮĢíķ´":2257,"Ġëĵľë¦½ëĭĪëĭ¤":2258,"ĠìĿĺíĺ¹":2259,"Ġë¶Ģë¥´":2260,"ĠìĦ±ìłģ":2261,"Ġì³":2262,"ìĭľìķĦ":2263,"íĥķ":2264,"ĠìĻĦìłĦíŀĪ":2265,"Ġë§¨":2266,"ĠëĲľëĭ¤ëĬĶ":2267,"Ġë³ĢíĻĶ":2268,"Ġìĸ´ë¦°":2269,"Ġë°©ìĭĿ":2270,"ìĬĪ":2271,"ì°¸":2272,"ĠìĿ´ìĸ´":2273,"ĠíĸīëıĻ":2274,"Ġì±Ļ":2275,"ĠìĹł":2276,"ìĸ´ëĸ":2277,"ĠíĮ¬":2278,"íķĻêµĲ":2279,"ì±Ħ":2280,"ĠìĬ¤ìĬ¤ë¡ľ":2281,"ĠíķĻëħĦ":2282,"Ġêµ¬ì¡°":2283,"Ġìĺģìĸ´":2284,"ì²łìĪĺ":2285,"ìī":2286,"Ġê³Ħìĭł":2287,"ĠëģĬ":2288,"Ġê²¬":2289,"Ġê°Ģìļ´ëį°":2290,"íķµ":2291,"ĠìłĢëŁ°":2292,"Ġê²½íĹĺ":2293,"Ġì£ĦìĨ¡":2294,"Ġìĭľì²Ń":2295,"Ġê¹Ĭ":2296,"ĠëĬĲëģ¼":2297,"Ġíģ´":2298,"Ġíĳ":2299,"Ġëŀĺ":2300,"Ġìļ´ìłĦ":2301,"ĠìĤ´íİ´":2302,"Ġìľ¼ë©´ìĦľ":2303,"ĠìķĦëĭĲ":2304,"ĠìĿ´ëŀĺ":2305,"Ġì²ĺë²Į":2306,"Ġì§ĢëıĦ":2307,"ĠíĺĲ":2308,"Ġìľłì§Ģ":2309,"ê±°ë¦¬":2310,"ìĻķ":2311,"ĠíļĮìĿĺ":2312,"Ġì°©":2313,"Ġëģ¼":2314,"ë¨¸ëĭĪ":2315,"Ġëĵľë¦°":2316,"Ġê¸°ê´Ģ":2317,"Ġì§ĢìļĶ":2318,"ì§ĵ":2319,"Ġìľ¼ë¡ľìĦľ":2320,"Ġìŀ¥ë©´":2321,"ª©":2322,"ëħģ":2323,"Ġì£¼ë¯¼":2324,"ìķĦëĭĪ":2325,"Ġì¤ĳìĭ¬":2326,"íĨ":2327,"ĠìŀĲìĹ°":2328,"Ġì£¼ë¬¸":2329,"Ġì¶Ķê°Ģ":2330,"ĠìłĦë¶Ģ":2331,"ĠìĿ¸ìĥĿ":2332,"Ġë½ĳ":2333,"ĠìłĦìŁģ":2334,"Ġìŀ¬ë¯¸":2335,"ìķĦëĵ¤":2336,"ĠìķĪì²łìĪĺ":2337,"ĠìŀĲë£Į":2338,"ëł¤ìĦľ":2339,"Ġë°ľê²¬":2340,"ĠìļĶëłĩê²Į":2341,"ĠìłĦíķ´":2342,"ìľ¼ë©´":2343,"ĠìĿ¸ê°ĢìļĶ":2344,"ĠíĸīìĤ¬":2345,"ĠìłĦëŀµ":2346,"ëłĪìĿ´":2347,"ìĸ´ìļĶ":2348,"Ġê·¸ëıĻ":2349,"Ġê·¸ëıĻìķĪ":2350,"ìłĢíĿ¬":2351,"ĠìŀĲë©´":2352,"Ġë²Įìį¨":2353,"ìŀĸìķĦìļĶ":2354,"ĠìĪĺì¤Ģ":2355,"ìĻĦ":2356,"Ġë°ĳ":2357,"ĠìĦ±ê³µ":2358,"Ġìĺ¬ëĿ¼ê°Ģ":2359,"Ġìłľê¸°":2360,"ì¹Ļ":2361,"Ġë¹Į":2362,"Ġê¸°ìĪł":2363,"¢°":2364,"Ġíĩ´":2365,"Ġíİĺ":2366,"Ġì¶ľìĹ°":2367,"Ġì²ĺë¦¬":2368,"ĠëĬ¥ëł¥":2369,"ĠìłĦë¬¸ê°Ģ":2370,"ĠëĤĺëĪł":2371,"ĠíĨµíķ´":2372,"ĠëĤ¨ìĦ±":2373,"ì³¤":2374,"íĭĢ":2375,"ìķĻ":2376,"ĠìŀĲìĭĿ":2377,"ìĻľ":2378,"ìĹ¼":2379,"ĠìĽĲëĤ´":2380,"Ġëª°ëĿ¼":2381,"Ġìĸ´ì°Į":2382,"Ġë¶Ģì¡±":2383,"ĠíĥĿ":2384,"ĠìĪĺìĦĿ":2385,"Ġì¢Į":2386,"ë¢°":2387,"Ġë°Ķëŀ":2388,"Ġìĭłì²Ń":2389,"Ġê±°ë¦¬":2390,"ĠìĭľìłĪ":2391,"Ġìį¼":2392,"Ġìľ¼ìĦ¸ìļĶ":2393,"ĠìĿµ":2394,"ë¸Ķ":2395,"ìĦŃ":2396,"ìĹĨìĿ´":2397,"Ġëĭ¨ê³Ħ":2398,"Ġê°Ĳìłķ":2399,"ĠëĮĢìĦł":2400,"ê·Ģ":2401,"Ġìĭłê²½":2402,"ĠíıīíĻĶ":2403,"ìĺµëĭĪëĭ¤":2404,"Ġë¬»":2405,"Ġë¶Ģëĭ´":2406,"ĠíĽĪ":2407,"Ġìĥģëĭ´":2408,"Ġê³µìĹ°":2409,"ë¨¼":2410,"Ġêµ¬ì²´":2411,"ĠêµŃëĤ´":2412,"ì»¤":2413,"Ġê°ľíĺģ":2414,"©°":2415,"ĠêµĲê³¼":2416,"Ġìĩ¼":2417,"Ġì§ģìĽĲ":2418,"ĠìĿ´ëĿ¼ëĵłì§Ģ":2419,"Ġì¦Ŀê±°":2420,"Ġì§ĳì¤ĳ":2421,"ĠëĿ¼ìĦľ":2422,"ëį°ìļĶ":2423,"Ġê°Ģê²©":2424,"ĠìľĦìĽĲíļĮ":2425,"ĠìŃī":2426,"Ġì§ķ":2427,"ĠëĶ°ë¡ľ":2428,"ì´Ŀ":2429,"ĠëĮĢì²´":2430,"Ġë²ķìĽĲ":2431,"ĠíĿĲ":2432,"¼ë¦¬":2433,"ĠìķĪìłĦ":2434,"ĠëĮĢìĭł":2435,"Ġê³Ħìķ½":2436,"µ¸":2437,"Ġì§Ģìłģ":2438,"ĠìĬ¬":2439,"ĠìłĢëħģ":2440,"Ġë°ĺìĿĳ":2441,"Ġê±´ì§Ģ":2442,"İĦ":2443,"ëĥ¥":2444,"Ġë»":2445,"Ġìŀłìĭľ":2446,"Ġë§Īì°¬":2447,"ĠìĻ¸êµŃ":2448,"ĠëıĦìĭľ":2449,"Ġìĸ´ëĸł":2450,"ĠìĺĪìĥģ":2451,"ìľ¤":2452,"ĠìĽĮëĤĻ":2453,"ë³¼":2454,"ĠëĩĮ":2455,"Ġê³µê²©":2456,"íĩ´":2457,"Ġë§Īì¹ĺ":2458,"Ġë©Ģ":2459,"Ġëĵľëł¤":2460,"íĹĮ":2461,"ê·¸ëŁ¬ë©´":2462,"Ġìľ¼ìħ¨":2463,"Ġê·¸ë¦¼":2464,"Ġë¶Ģë¶Ģ":2465,"Ġëļ":2466,"ĠìļĶê±°":2467,"ëłĪìĬ¤":2468,"Ġë¯¸ë¦¬":2469,"ëĨĵ":2470,"ĠìĻ¸êµĲ":2471,"Ġë³´íĺ¸":2472,"ĠìĤ¬ê³¼":2473,"Ġëĭ¨ì²´":2474,"Ġëķħ":2475,"Ġêµ°ìĤ¬":2476,"¼ëģ":2477,"Ġìĭłê³ł":2478,"ìĹ¬ê¸°":2479,"ĠêµŃìłľ":2480,"Ġìĺ¬ë¦¬":2481,"Ġê³łëĵ±":2482,"ë·°":2483,"ĠëįĶëĿ¼êµ¬ìļĶ":2484,"Ġê¾¸":2485,"Ġê·¸ëĤ":2486,"ëĮĢì²´":2487,"ĠìĹĺ":2488,"Ġëħ¼ìĿĺ":2489,"Ġíķµìĭ¬":2490,"Ġê·¸ë£":2491,"ĠìĿ¸ê¸°":2492,"ĠìĹ¬ë¦Ħ":2493,"Ġë©ĭ":2494,"Ġëª»íĸĪ":2495,"ëĺĲ":2496,"Ġì¤ĳê°Ħ":2497,"íķĳ":2498,"ëĶ°":2499,"íŀĮ":2500,"Ġê¸°ëĭ¤ë¦¬":2501,"ĠëĲłê¹ĮìļĶ":2502,"Ġíı¬íķ¨":2503,"ì¸µ":2504,"Ġë²Ĺ":2505,"íĦ´":2506,"Ġê°ľë°ľ":2507,"Ġëª¨ìĸĳ":2508,"Ġìĵ´":2509,"Ġ4":2510,"Ġêµ³":2511,"ìĽĮìĦľ":2512,"ìķķ":2513,"ĠìĭŃìĭľìĺ¤":2514,"íĭ":2515,"Ġìª¼ëģ":2516,"ì§¸":2517,"Ġì¡´ìŀ¬":2518,"Ġêµ¬ìĨį":2519,"®¤":2520,"íĬ¹":2521,"ĠìłĦíķĺ":2522,"Ġíķ´ëĭ¹":2523,"íĴį":2524,"ĠëĤ´ë¶Ģ":2525,"ĠëĵŃëĭĪëĭ¤":2526,"Ġêº¼":2527,"ĠíĻĺê²½":2528,"ĠëĪĦêµ°":2529,"Ġê²©":2530,"íį¼":2531,"ëĶĶìĸ´":2532,"ĠìķĦìĺĪ":2533,"ĠëĭĪê¹ĮìļĶ":2534,"Ġë¶ĢìĿ¸":2535,"Ġë§Īì°¬ê°Ģì§Ģ":2536,"ĠëĿ¼ëĵłì§Ģ":2537,"ìłł":2538,"ê¶ģ":2539,"ĠíĺĲìĿĺ":2540,"ì¶ĺ":2541,"ĠìŀĲì£¼":2542,"ĠíĻĺìŀĲ":2543,"ĠìĹ¬ìĦ¯":2544,"Ġê¼¬":2545,"ĠìĹ¬ëĭ¹":2546,"Ġì¡°ì¹ĺ":2547,"Ġë°©íĸ¥":2548,"ìĬ´":2549,"Ġì°¨ìĽĲ":2550,"ìĭ¸":2551,"ĠìĿ´ìĬĪ":2552,"Ġìª¼ëģĶ":2553,"Ġì´Ŀë¦¬":2554,"Ġê·¸ë£¹":2555,"íĶĪ":2556,"Ġëĸ¨ìĸ´ì§Ģ":2557,"ì¤Ħ":2558,"ĠëĮĢìļĶ":2559,"Ġëģĵ":2560,"Ġìĭľê¸°":2561,"íĥĪ":2562,"Ġë¯¸ìķĪ":2563,"ĠìĥĿê²¼":2564,"Ġê½ĥ":2565,"íĤ¬":2566,"Ġë²Īíĺ¸":2567,"ìµľ":2568,"ĠíĪ¬ìŀĲ":2569,"ĠíĻĶìŀ¥":2570,"ĠìĦ¸ëĮĢ":2571,"ĠìĿ¸íĦ°ë·°":2572,"ëĬĲ":2573,"ĠìĿ´ì¼Ģ":2574,"Ġê²½ìŁģ":2575,"ìŀĲë¦¬":2576,"ê»´":2577,"Ġíķłë¨¸ëĭĪ":2578,"ĠìĦ¸ëł¥":2579,"ê³±":2580,"Ġëĭ¹ìŀ¥":2581,"ê³¨":2582,"ĠìŀĳìĹħ":2583,"ĠìłĢëłĩê²Į":2584,"Ġëł¤ë©´":2585,"ë¬´ë¦¬":2586,"¬´":2587,"Ġì³Ĳ":2588,"Ġ10":2589,"íıŃ":2590,"Ġë°ĶëŀįëĭĪëĭ¤":2591,"ìĿ´ìłľ":2592,"Ġëĭ¤ëħĢ":2593,"ìĿ´ë²Ī":2594,"ë²ł":2595,"Ġìŀĥ":2596,"Ġìĸ´ìļ°":2597,"íļ¨":2598,"Ġê°ĢìĪĺ":2599,"Ġëª°ëŀĲ":2600,"Ġë°±ë§Į":2601,"Ġì¹ĺë£Į":2602,"ĠìŀĳëħĦ":2603,"ìĺ¥":2604,"Ġë¿Į":2605,"Ġíķ´ìĦĿ":2606,"Ġë°ĽìķĦëĵ¤":2607,"Ġê³¼ë":2608,"ĠíĿ¥":2609,"íĿł":2610,"ëĦĲ":2611,"ĠíĻľìļ©":2612,"ëĵľìĭľ":2613,"Ġê¶Įëł¥":2614,"Ġìĭ¤ìŀ¥":2615,"Ġì£¼ìłľ":2616,"ĠíĿĺ":2617,"Ġê³µê°Ħ":2618,"ĠìķĦíĮĮíĬ¸":2619,"ĠìĿ´ìĤ¬":2620,"ĠìĿ´ëłĩ":2621,"ìİĦ":2622,"Ġë°ĿíĺĢ":2623,"ĠìŀĲëıĻ":2624,"Ġëįķ":2625,"Ġì¹´ëĵľ":2626,"Ġëĭ¤ë§Į":2627,"Ġê¹ľ":2628,"Ġë°©ë¬¸":2629,"ĠìķŀìĦľ":2630,"ĠêµŃëĭ¹":2631,"ĠìĿ´ëĿ¼ëĵłê°Ģ":2632,"ĠìĿ¸ë¬¼":2633,"ĠìĭľíĹĺ":2634,"Ġë¦":2635,"ĠìĨĶì§ģ":2636,"Ġìĭ¬ê°ģ":2637,"Ġëı¼ìķ¼":2638,"ĠìĹĲìĦł":2639,"ĠìĤ´ìķĦ":2640,"Ġì²´ìłľ":2641,"ĠìĨĮìľĦ":2642,"ĠìµľëĮĢ":2643,"ĠìĪĺíķĻ":2644,"ëĭ¥":2645,"ĠëĸłëĤĺ":2646,"Ġê·¼ê¹Į":2647,"Ġíķłê¹ĮìļĶ":2648,"ĠìĬ¤íĬ¸":2649,"ĠëĤĺìĻĢìĦľ":2650,"Ġìĺ¤íĽĦ":2651,"ìķĦë²Ħì§Ģ":2652,"Ġë°ľìłĦ":2653,"ĠìĤ¬ë¬´":2654,"ĠìķĦíĶĦ":2655,"ĠìĤ¬íķŃ":2656,"ë°¥":2657,"Ġì¶ľìĭł":2658,"ĠìŀĬ":2659,"Ġë¹ĦìĦľ":2660,"íıĲ":2661,"Ġìĸĺê¸¸":2662,"ìµ¸":2663,"Ġì£¼ë¡ľ":2664,"¼ëĤ":2665,"ìĩ":2666,"Ġëĵ±ìŀ¥":2667,"Ġë¹łìł¸":2668,"ë¥ł":2669,"Ġê¸į":2670,"ĠìķĪíĥĢ":2671,"ĠíĦ":2672,"Ġì§§":2673,"Ġìĸ´ëĸ¡":2674,"Ġì¡°ì§ģ":2675,"ëŀĻ":2676,"ìļķ":2677,"ĠìĿĮìĿĮ":2678,"¬ìĺģ":2679,"Ġëĥī":2680,"Ġìķ½ìĨį":2681,"Ġíĺľ":2682,"ëĤ¸":2683,"ĠìĤ¼ìĦ±":2684,"Ġê°Ħëĭ¨":2685,"ĠëĿ¼ëĵłê°Ģ":2686,"Ġë¹ĦêµĲ":2687,"íĺĳ":2688,"íĶ½":2689,"ëĪĦ":2690,"Ġìłģê·¹":2691,"ëĿ¼ê³ł":2692,"Ġê·¸ëŁ¬ë©´ìĿĢ":2693,"ë¡Ń":2694,"Ġíĳľìłķ":2695,"Ġë°ĺëĵľìĭľ":2696,"Ġ-":2697,"Ġìĸ´ì©Į":2698,"íħľ":2699,"Ġì°¨ëŁī":2700,"ê²ģ":2701,"Ġëª»íķľ":2702,"ĠìķĦë¬´ë¦¬":2703,"ĠìĿ´íĺ¼":2704,"íħĶ":2705,"Ġíİ¼":2706,"Ġê°Ģìłķ":2707,"Ġíķ©ëĭĪê¹Į":2708,"Ġìľ¼ëĭĪ":2709,"ĠìĿ´ìŀ¬":2710,"ĠëĤ¸":2711,"ĠìĦłìĸ¸":2712,"ĠëĨĶ":2713,"ĠìĺĪìĸ´":2714,"Ġì¦ī":2715,"ìĬ¬":2716,"ê³¤":2717,"Ġë¹Ī":2718,"Ġê±°ì§ĵ":2719,"ĶĶìĺ¤":2720,"ĠíĮĲê²°":2721,"Ġë§ĺ":2722,"ë¦Ń":2723,"ìĿ´íĦ°":2724,"Ġë§Īëł¨":2725,"ĠëĿ":2726,"Ġíķ´ìĻ¸":2727,"ìĤ¼":2728,"ĠìĪĺëĬ¥":2729,"Ġíŀĺëĵł":2730,"ĠìĺµëĭĪëĭ¤":2731,"ĠíĴĪ":2732,"Ġì´¬ìĺģ":2733,"ĠëĦĺìĸ´ê°Ģ":2734,"ĠíĿ¬ë§Ŀ":2735,"Ġì²Ļ":2736,"ĠëĿ¼ëĶĶìĺ¤":2737,"ĠìĦ±ìŀ¥":2738,"ìĤ¬ìĭ¤":2739,"Ġë¬´ëĮĢ":2740,"Ġì§ĢìĤ¬":2741,"ĠìĿĦì§Ģ":2742,"Ġë°ĿíĺĶ":2743,"Ġìĸ´ëĶ":2744,"Ġë§ŀì¶°":2745,"ĠìķĦìľł":2746,"ĠìĤ¬ìĹ°":2747,"Ġë³´ê³ł":2748,"Ġì¹¼":2749,"ĠìķĦëĥĲ":2750,"Ġì²ŃìĨĮ":2751,"ìŀħëĭĪëĭ¤":2752,"Ġë¡ł":2753,"ĠìĤ¬ë§Ŀ":2754,"ìĹĶ":2755,"ĠëĨ¨":2756,"Ġê²ª":2757,"ĠìĿ´ìłĦ":2758,"ĠìĤ´ì§Ŀ":2759,"Ġì£¼íĥĿ":2760,"ĠëıĦëĮĢì²´":2761,"Ġê°ĢìĬ´":2762,"Ġìª¼":2763,"ĠíĨ":2764,"ìĹ¬ìĦľ":2765,"Ġê°Īëĵ±":2766,"ĠìĿ¼ê³±":2767,"ĠíĸīìľĦ":2768,"Ġë°ķìĤ¬":2769,"ë§Ľ":2770,"Ġk":2771,"ĠëıĻìĿĺ":2772,"Ġìľ¼íĿł":2773,"ĠëĶ°ë¥´":2774,"Ġë°Ķê¿Ķ":2775,"Ġê³§":2776,"ëĦ·":2777,"Ġê³łê¸°":2778,"Ġê³µëıĻ":2779,"Ġì¡¸":2780,"Ġë§ĮëĤ¬":2781,"ĠìŀĲê³ł":2782,"ëıĪ":2783,"Ġê»":2784,"ìĿ´ìĸ´":2785,"ĠëıĻìĥĿ":2786,"ĠìĿĺìĭ¬":2787,"Ġê³¤":2788,"Ġëµ":2789,"Ġì½ĺ":2790,"Ġìĸ´ëķĮ":2791,"Ġê¸ĢìİĦ":2792,"ìĿĺìĽĲ":2793,"Ġë¹Ħìļ©":2794,"ĠëĮĢì±ħ":2795,"Ġê°Ģì¹ĺ":2796,"Ġíĺ¹ìĿĢ":2797,"ĠëĤĻ":2798,"Ġì¿":2799,"ĠëĦ¤ìĸ´":2800,"ĠìĤ¬ë¡Ģ":2801,"Ġ20":2802,"Ġì²ŃëħĦ":2803,"ĠëĮĢíļĮ":2804,"ĠìĿ´ëŁ´":2805,"Ġt":2806,"ĠëĬĲê»´":2807,"Ġë°ĶëĿ¼":2808,"Ġì¡°ìłķ":2809,"Ġì¶©ê²©":2810,"bs":2811,"ì©":2812,"ì°į":2813,"Ġë¶Īíİ¸":2814,"Ġê³µìĭĿ":2815,"ĠëıĻë¬¼":2816,"Ġê³µê°Ĳ":2817,"Ġì¡°ìĭ¬":2818,"ĠìĻĦìłĦ":2819,"Ġìĺ¥":2820,"Ġê±´ëį°ìļĶ":2821,"ìĸ´ì§Ħ":2822,"Ġìļ°ëł¤":2823,"Ġì¡°êµŃ":2824,"ĠìłķìĿĺ":2825,"Ġì§Ĳ":2826,"ë§Ļ":2827,"Ġì²ľë§Į":2828,"ĠìĺĪìĤ°":2829,"ìĭľì§Ģ":2830,"Ġê½¤":2831,"ĠìłĲìłĲ":2832,"Ġì§ĢíĤ¤":2833,"Ġìĭ±":2834,"ëĦĪì§Ģ":2835,"Ġë¶Ģìłķ":2836,"Ġë¶ĪìķĪ":2837,"Ġì¤ĳìķĻ":2838,"ì¼°":2839,"ĠìĽĲìĿ¸":2840,"ëģĦ":2841,"Ġìĥģê´Ģ":2842,"ĠíĥĲ":2843,"ĠìĦ±ê²©":2844,"Ġê·¸ìµ¸":2845,"¥´":2846,"ĠëĥĪ":2847,"ĠìłĦêµŃ":2848,"Ġë´Ħ":2849,"ìĿ¸íĬ¸":2850,"Ġë§¤ìĿ¼":2851,"ìĻĢìĦľ":2852,"Ġíķłê²ĮìļĶ":2853,"Ġìľ¼ë©´ìĿĢ":2854,"ĠìĿ´ëªħ":2855,"ĠìĽĲìŀ¥":2856,"ë©°":2857,"Ġë§¥":2858,"ĠìĦľìļ¸ìĭľ":2859,"Ġíı¬ê¸°":2860,"ëłĢ":2861,"©ëĭĪê¹Į":2862,"Ġê³łìĦľ":2863,"ĠíĨłë¡ł":2864,"ĠìĮĵ":2865,"ĠëĨĢëĿ¼":2866,"ĠìķĦìī":2867,"ìĸ´ëĤľ":2868,"ë¹ĦìĬ¤":2869,"ëľ»":2870,"Ġíĺĳìĥģ":2871,"Ġë°ĶëĿ¼ë":2872,"ê±°ìļ´":2873,"ĠìĿ´ìª½":2874,"íľ´":2875,"ĠìĦłë°°":2876,"ĠìĤ°ìĹħ":2877,"Ġëįĺëį°":2878,"Ġìķ¡":2879,"Ġë®¤":2880,"Ġê±´ë¬¼":2881,"ì¢Į":2882,"Ġë³¼ê¹ĮìļĶ":2883,"Ġë§ĪëĬĶ":2884,"Ġì»¨":2885,"Ġê²¨ìļ¸":2886,"ĠíķĺìĹ¬":2887,"ĠìĹ°íķ©":2888,"Ġì¢ħíķ©":2889,"ìķĶ":2890,"Ġë¶ĢìĤ°":2891,"ĠìĿ¸ìĥģ":2892,"ĠëĥĲê³ł":2893,"ë°Ľ":2894,"Ġë°Ķê¾¸":2895,"Ġê²ĮìŀĦ":2896,"ë¦¼íĶ½":2897,"ì§Ģìĸ´":2898,"Ġìĺ¤ëŀľ":2899,"ĠëĤ³":2900,"ĠìĦ¸ìĽĶ":2901,"Ġê·¸ìª½":2902,"ĠìĹħì²´":2903,"ìĿ´ê²Į":2904,"ĠìľĦê¸°":2905,"ĠëĮĢìĿĳ":2906,"Ġëł¤ëĬĶ":2907,"ìķĦìĿ´":2908,"ĠìŀĦê¸Ī":2909,"ĠìĺĪìķ½":2910,"ëĤ¼":2911,"Ġì¢ĭìķĦ":2912,"ĠìĿ´ëķĮ":2913,"¼ë§Ĳ":2914,"ĠëĥĦ":2915,"Ġëĭ¨ìĪľ":2916,"Ġê°Ģì§Ħ":2917,"Ġê·¸ë§Įíģ¼":2918,"ì§ĳëĭĪëĭ¤":2919,"ĩ¨":2920,"ĠìĨĮìĨ¡":2921,"Ġíĸīìłķ":2922,"Ġëģ¼ë¦¬":2923,"ĠêµĲíĨµ":2924,"Ġê±¸ë¦¬":2925,"¼ë§Ĳë¡ľ":2926,"Ġì²Ńì·¨":2927,"Ġë³´ìŀħëĭĪëĭ¤":2928,"Ġë©Ķìĭľì§Ģ":2929,"ìĵ":2930,"íĺ¹ìĭľ":2931,"ìĿ´íģ¬":2932,"ĠëķĲ":2933,"Ġê°Ģë¥´":2934,"ëįĺ":2935,"ĠëĤĺë¦Ħ":2936,"Ġê³łëł¤":2937,"Ġì»¤íĶ¼":2938,"Ġêµ¬ìĦ±":2939,"ëĤĺëĿ¼":2940,"ĠìĭľìĬ¤":2941,"ĠìłĦëĭ¬":2942,"ĠìĿ¸íĦ°ëĦ·":2943,"ĠìĥģíĴĪ":2944,"Ġë§Īë¬´ë¦¬":2945,"íľĺ":2946,"ëįŁ":2947,"ĠíĹĮë²ķ":2948,"ĠíĻĶë©´":2949,"ĠëĤĺëĪĦ":2950,"ĠëĲ©ëĭĪê¹Į":2951,"Ġë³´íĹĺ":2952,"ĠíĪ¬íĳľ":2953,"ĠëĤĺìģľ":2954,"Ġê´´":2955,"íħĲ":2956,"ĠíĹĪë¦¬":2957,"Ġëº":2958,"ĠëĴ·":2959,"Ġìĺ¬ëł¤":2960,"ĠëĤ´ë¦¬":2961,"Ġìļ°ì£¼":2962,"Ġëĭ¹íķĺ":2963,"ĠìĹ¬ìķ¼":2964,"ì¡°ê±´":2965,"Ġíĳ¸":2966,"ĠìĬµëĭĪ":2967,"ĠìķĦëĤĺ":2968,"Ġíķ´ëĿ¼":2969,"ĠìĹ¬ìłĦíŀĪ":2970,"ë¤":2971,"Ġëĵ¤ìĸ´ê°Ķ":2972,"ìŃ":2973,"ìķĪëħķ":2974,"Ġìŀ¬ìĤ°":2975,"ĠìķĦìļ°":2976,"ĠìķĪìłķ":2977,"Ġì´ĿìĦł":2978,"ĠìŀĲëĬĶ":2979,"ĠìĬ¤ëŁ¬ìļ´":2980,"ìĬ¤íģ¬":2981,"ê³łê¸°":2982,"ĠìĻĦìĦ±":2983,"Ġìĭ¬ì§Ģìĸ´":2984,"ĠìļĶì²Ń":2985,"Ġëĭ¤íĸī":2986,"ĠìĹ¬ëįŁ":2987,"Ġìĺ¬ë¦¼íĶ½":2988,"Ġìłģìļ©":2989,"ĠíĻĪ":2990,"ĠíĨµê³¼":2991,"ĠíĤ¤ìĽĮ":2992,"Ġì¥":2993,"Ġì´Ŀìŀ¥":2994,"Ġìłľëª©":2995,"ĠìĤ¬íĥľ":2996,"ĠëģĿëĤĺ":2997,"Ġë¶Ħìķ¼":2998,"ê¹Ŀ":2999,"ì³ĲìĦľ":3000,"ĠìĭľìĽĲ":3001,"ħĢ":3002,"ĠëĤĺíĥĢëĤĺ":3003,"ĠìķĦë¦Ħ":3004,"Ġì½ľ":3005,"Ġê´ĳê³ł":3006,"Ġë¹Ħë°Ģ":3007,"Ġìĭłë¬¸":3008,"Ġì»´":3009,"ĠìĪĺìĹħ":3010,"Ġë¥ł":3011,"ë»":3012,"ì¿":3013,"ëĮĢíĳľ":3014,"ì´Į":3015,"ìĭľëĭ¤":3016,"ìķĦì§Ģ":3017,"ĠíĺĦìĥģ":3018,"ĠíĨµíķ©":3019,"ĠëĤ´ëħĦ":3020,"Ġëª©ìłģ":3021,"ìĪĺë¡Ŀ":3022,"ĠíĤ¤ìļ°":3023,"Ġëįľ":3024,"ìĿ´ëłĩê²Į":3025,"ë§ĪëĬĶ":3026,"Ġëĭ¤ë¦¬":3027,"ĠìĭľìĬ¤íħľ":3028,"ìĽĥ":3029,"ĠìĤ¬ëĿ¼":3030,"ĠíĽĪëł¨":3031,"Ġíĺķíĥľ":3032,"ĠìĦŃ":3033,"Ġì¡°ê±´":3034,"ĠìĿ¸ìĭĿ":3035,"ë¨¹":3036,"ĠìĿĺì§Ģ":3037,"ìļ´ìĦľ":3038,"Ġê³łëĵ±íķĻêµĲ":3039,"ë²Ħëĭĺ":3040,"Ģ´":3041,"ì£½":3042,"íĬľ":3043,"ĠìĹħë¬´":3044,"ëŀ«":3045,"Ġê±°ì§ĵë§Ĳ":3046,"Ġê·¸ì£ł":3047,"ê¹Ķ":3048,"Ġìĭľì²ŃìŀĲ":3049,"íĻī":3050,"Ġê°Ģë§Į":3051,"ĠìĭľìłĲ":3052,"ĠìķĦëĤĺìļ´ìĦľ":3053,"ìŀĶ":3054,"ĠìĦľë¹ĦìĬ¤":3055,"êµ¬ëĤĺ":3056,"ĠìĦ¼íĦ°":3057,"ĠìĹ°ìĺĪ":3058,"Ġë´ĲëıĦ":3059,"Ġë²ĦìĬ¤":3060,"ĠëĤ©":3061,"ĠìĬĪ":3062,"Ġë¬¼ê±´":3063,"ĠìµľìłĢ":3064,"Ġë¬´ìĦľ":3065,"ĠìĿ´ëªħë°ķ":3066,"Ġê¹Ķ":3067,"Ġíķłì§Ģ":3068,"Ġì£¼ìĿ¼":3069,"Ġë¶Īë²ķ":3070,"Ġì§ļ":3071,"ĠëŁ":3072,"ĠëıĻëĦ¤":3073,"ĠìķĦíĻī":3074,"ĠìĿĺìĭĿ":3075,"Ġìĭ¬ë¦¬":3076,"Ġì²Ńë¬¸":3077,"ĠëĦĮ":3078,"ĠëįĶìļ±":3079,"ĠëĮĵ":3080,"ë¨¸ì§Ģ":3081,"ĠëĤĺê°Ī":3082,"ë¬´ìĽĲ":3083,"ĠìĦ¬":3084,"Ġëª¨ìĭľ":3085,"ĠìĿ´ë¥´":3086,"Ġê¸°ëĭ¤ëł¤":3087,"Ġë¬´ì¡°ê±´":3088,"ĠíĤ":3089,"ĠìĬ¤íĥĢìĿ¼":3090,"ìŀĺ":3091,"ëĦĪë¬´":3092,"ĠìłĢê±°":3093,"ìĿ´ì§Ģ":3094,"ìł¸ìĦľ":3095,"ìĪ¨":3096,"ĠíŀĪ":3097,"Ġì¶ķêµ¬":3098,"ĠìĹĲëĭ¤":3099,"Ġìľłë¦¬":3100,"Ġë¹Ľ":3101,"Ġë§¤ìļ°":3102,"ĠìķĦëĭĮëį°":3103,"Ġì§Ģì§Ģìľ¨":3104,"ë¹Ī":3105,"ĠìĦŀ":3106,"ĠìĿ´ë¥¸":3107,"Ġìľ¼ëł¤":3108,"ĠëĲłì§Ģ":3109,"ĠìķĮìķĦë³´":3110,"Ġë°Ķë¥¸":3111,"Ġì·¨ìŀ¬":3112,"ĠìļĶìķĦ":3113,"ĠêµŃíļĮìĿĺìĽĲ":3114,"ë°ĺëıĦ":3115,"Ġíı¬ìĿ¸íĬ¸":3116,"ĠìŀĲëıĻì°¨":3117,"ĠëĤĺìĦľ":3118,"ìĿ´ìĬ¤":3119,"Ġë³¶":3120,"ĠìĿĺëıĦ":3121,"Ġëĭ¬ë¦¬":3122,"Ġê³łë§Ļ":3123,"ĠìĪĺìĪł":3124,"Ġì§ĢëĤ´":3125,"ĠìĹ¼":3126,"Ġì£¼ëª©":3127,"ìĿ´ê±°":3128,"ìĹĦë§Ī":3129,"ê·¸ê²Į":3130,"ĠëıĦìłĦ":3131,"ĠìĹ¬ìŃ":3132,"ĠëĪĪë¬¼":3133,"ìĸ´ëĵ¤":3134,"ëī´":3135,"ĠìķĦëıĦ":3136,"Ġíıīìĸĳ":3137,"Ġëª©íĳľ":3138,"ĠëĪĦêµ°ê°Ģ":3139,"ìĿ´ëŁ°":3140,"Ġì£¼ìĿ¸ê³µ":3141,"Ġë³¼ê²ĮìļĶ":3142,"ĠíĬ¹ê²Ģ":3143,"Ġê·ľëª¨":3144,"ĠíıīìĨĮ":3145,"Ġëĭ¤ë©´ìĦľ":3146,"ĠëĦĪë¬´ëĤĺ":3147,"Ġì°¨ë¡Ģ":3148,"ĠëįĶë¶Ī":3149,"ĠìķĪë³´":3150,"Ġìķ¨":3151,"Ġìĭ¤ì§Ī":3152,"ĠíıŃíĸī":3153,"Ġë²Ħëł¸":3154,"ìłķë§Ĳ":3155,"Ġê¸°ëĬ¥":3156,"Ġê³łìĥĿ":3157,"ĠìĭľìĦ¤":3158,"Ġëĵ¤ìľ¼":3159,"ëĩ¨":3160,"Ġëĵ±ë¡Ŀ":3161,"ĠëĤĺë¨¸ì§Ģ":3162,"ĠìĺĪìĪł":3163,"Ġë¡Ń":3164,"Ġëħ¸ë¬´":3165,"ĠëĤĺë¬´":3166,"ëĭ¤ë¥¸":3167,"Ġêµ³ìĿ´":3168,"ë¦¬ìĬ¤":3169,"ĠêµŃìłķìĽĲ":3170,"Ġíķľë°ĺëıĦ":3171,"Ġê·¸ëĤł":3172,"ĠëĮĢíķĻêµĲ":3173,"Ġê³µì²ľ":3174,"Ġì§ģìŀ¥":3175,"Ġì±Ļê²¨":3176,"Ġê¸°ì¡´":3177,"ĠìĥĿê¸´":3178,"ì²Ļ":3179,"Ġíĺģìĭł":3180,"Ġíķłê¹Į":3181,"Ġê°ľëħĲ":3182,"ĠëıĻìĭľ":3183,"Ġê¹ľì§Ŀ":3184,"ĠëĤ¼":3185,"Ġê³µìŀ¥":3186,"Ġìĺ®":3187,"Ġê°ķíĻĶ":3188,"Ġìĸ´ìĦľìļĶ":3189,"Ġëıħë¦½":3190,"Ġëĭ¬ëł¤":3191,"ĠìĿ´ë¯¸ì§Ģ":3192,"ìĿ¼ëĭ¨":3193,"ĠíĨµìĿ¼":3194,"ĠìĨĮë¹Ħ":3195,"Ġëĭ´ëĭ¹":3196,"Ġì¶ľë°ľ":3197,"Ġê³łê°Ŀ":3198,"Ġìŀ¬ë£Į":3199,"ĠìĥĿëªħ":3200,"ĠìĨĮìĦ¤":3201,"ì»¬":3202,"Ġë¹łì§Ģ":3203,"ĠëıĦì°©":3204,"ìķ¼ë§Ĳë¡ľ":3205,"Ġìłķì¹ĺìĿ¸":3206,"ìĸ¼":3207,"ĠëĿ¼êµ¬":3208,"ĠìĿ¼ì¢ħ":3209,"ê·¸ëłĩê²Į":3210,"ĠìĤ¬ìķĪ":3211,"ĠëĮĵê¸Ģ":3212,"Ġë¹µ":3213,"Ġì£¼ë§Ĳ":3214,"Ġíľĺ":3215,"Ġìĸ´ë¥¸":3216,"ĠìĨĮëĵĿ":3217,"ĠìĨĮíĨµ":3218,"ê·¸ëĥ¥":3219,"Ġê³ĦìĤ°":3220,"ìĤ¬ìĿ¼":3221,"Ġë°©ê¸Ī":3222,"¨ë¦¬":3223,"ĠíĮĲìĤ¬":3224,"ë§ģ":3225,"ĠìĿĺíķ´ìĦľ":3226,"Ġì«ĵ":3227,"ìŀł":3228,"Ġìľ¼ìĭ¤":3229,"Ġë¡ľë¶ĢíĦ°":3230,"Ġì§ģìĹħ":3231,"Ġìŀ¥ìķł":3232,"Ġì´Īëĵ±":3233,"ĠìħĶëıĦ":3234,"ĠëıĦë¡ľ":3235,"ĠìłĪì°¨":3236,"Ġê°ķëł¥":3237,"Ġìĸ´ëĸ¨":3238,"ë¦¬ìķĦ":3239,"Ġê²Ģìĥī":3240,"Ġìļ°ìĻĢ":3241,"ĠìĿ´ê³³":3242,"Ġê°ķì¡°":3243,"Ġëį°ë¦¬":3244,"ĠìĤ¬ìĭ¤ìĥģ":3245,"Ġë¹Ħíĸī":3246,"ĠêµĲìĤ¬":3247,"ĠëĤĺê°Ķ":3248,"Ġtv":3249,"ë§¨":3250,"ëį¸":3251,"Ġêµ´":3252,"ëļ":3253,"ĠìĨĮìĨį":3254,"Ġë§¤ëł¥":3255,"Ġì§Ħìĭ¤":3256,"Ġê¹Ģì¹ĺ":3257,"ĠëĥĦìĥĪ":3258,"ĠìłľìķĪ":3259,"ĠìļĶìĥĪ":3260,"Ġìĺ¤ë¥¸":3261,"Ġë¶Ģìŀ¥":3262,"Ġê¸°ë¦Ħ":3263,"ë¡¯":3264,"ĠìĨĶì§ģíŀĪ":3265,"ĠìĭľëıĦ":3266,"Ġìĸ¸ê¸ī":3267,"Ġìŀ¥ìĨĮ":3268,"Ġì£¼ëıĦ":3269,"Ġê·¸ëħĢ":3270,"Ġìľłì¹ĺ":3271,"ì¼ĵ":3272,"ìķĦê°Ģ":3273,"ìĸ´ëĤ¬":3274,"Ġíıīê·ł":3275,"ĠëıĮëł¤":3276,"ê¹¨":3277,"Ġê·ł":3278,"ëĿ¼ìĿ´":3279,"Ġìĭľê°ģ":3280,"Ġìĺ¤ìłĦ":3281,"Ġê°ľìĦł":3282,"ĠìĿ¼ê¹ĮìļĶ":3283,"Ġëĸ¼":3284,"ì¹Ń":3285,"Ġìĸ´ì©Ķ":3286,"ë§İ":3287,"Ġëħ¸ë¬´íĺĦ":3288,"íķĻìĥĿ":3289,"ĠìĿ¼ìľ¼":3290,"Ġìĺģìŀ¥":3291,"Ġìĥģìĥģ":3292,"ë¦°ëĭ¤":3293,"ĠëĭĪê¹Ĳ":3294,"Ġíķ¸":3295,"ĠíĨµíĻĶ":3296,"¤ë²Ħ":3297,"Ġê¸´ìŀ¥":3298,"Ġìį":3299,"ĠëĮĢìĤ¬":3300,"Ġë§ĪìĿĦ":3301,"Ġê±·":3302,"Ġëª¨ìķĦ":3303,"Ġë³µì§Ģ":3304,"Ġë»Ķ":3305,"Ġì²Ńë¬¸íļĮ":3306,"ĠëĤ´ëĨĵ":3307,"Ġì§ĢëĤľë²Ī":3308,"Ġê°Ģìĭľ":3309,"Ġì§ĦìĪł":3310,"Ġê°ĢëģĶ":3311,"ĠìĨĮìŀ¥":3312,"Ġìłľìŀ¬":3313,"Ġê²°ë¡ł":3314,"ĠìĭľíĤ¬":3315,"Ġì°Į":3316,"Ġì§Ħë³´":3317,"ĠìĿ´ëıĻ":3318,"ĠëĶ°ëľ»":3319,"Ġíĥģ":3320,"Ġë¥ĺ":3321,"Ġê³µìĤ¬":3322,"ĠëĮĢì¤ĳ":3323,"¼ëĤ´":3324,"Ġë´ĲìĦľ":3325,"ĠêµŃë°©":3326,"ëĸ":3327,"ĠìĿĢíĸī":3328,"íĿ¥":3329,"ĠìµľìĨĮ":3330,"Ġìĭ¤íĹĺ":3331,"Ġkbs":3332,"Ġë¯¸ìĤ¬ìĿ¼":3333,"Ġíķ´ìķ¼ì§Ģ":3334,"ĠìĥĪë²½":3335,"Ġê¹Ģìĺģ":3336,"Ġìĭłë¢°":3337,"ĠìľĦì¹ĺ":3338,"ĠëĮĢë²ķ":3339,"ë§¹":3340,"Ġíķłëł¤ê³ł":3341,"Ġì¢ħë¥ĺ":3342,"Ġê³łìĨĮ":3343,"Ġìĺµ":3344,"ĠìĺģêµŃ":3345,"ĠíĸĪìŀĸìķĦìļĶ":3346,"ìĹĲëıĦ":3347,"Ġì£¼ìĿĺ":3348,"ĠëĮĢë³Ģ":3349,"ĠëĦ¤ëĦ¤ëĦ¤":3350,"ĠìĪĺìĥģ":3351,"ì°¨íĶ¼":3352,"Ġëĭ¹ìĦł":3353,"ëıĻìķĪ":3354,"Ġì¥Ĳ":3355,"Ġê·ľìłķ":3356,"Ġìĥģì²ĺ":3357,"Ġê±°ëŀĺ":3358,"Ġìĭ¤íĮ¨":3359,"ĠìĹ°ìĬµ":3360,"ĠëĿ¼ìĿ´":3361,"ĠìĿĺë£Į":3362,"Ġê³łìŀĲ":3363,"Ġìķ¼êµ¬":3364,"ĠìĨįëıĦ":3365,"ĠìĽĢì§ģìĿ´":3366,"Ġìķ±":3367,"Ġìĭľì¼°":3368,"ĠìĭĿìĤ¬":3369,"Ġì§Ģë§ĪëĬĶ":3370,"ĠìĦ¤ì¹ĺ":3371,"ëĿ¼ìĿ¸":3372,"ĠìĽĲëĤ´ëĮĢíĳľ":3373,"Ġë¶ĢëıĻ":3374,"Ġì²Ńì·¨ìŀĲ":3375,"Ġê·¼ë¬´":3376,"ĠìµľìĪľ":3377,"Ġìķ¨ë²Ķ":3378,"ĠìĤ´ìĿ¸":3379,"Ġë°ĺìĺģ":3380,"Ġìľ¨":3381,"Ġìĭ¸ìĽĢ":3382,"Ġì§ľë¦¬":3383,"Ġ6":3384,"ëŀ¬":3385,"ĠìĽĲì¹Ļ":3386,"Ġìĭ¤ìĪĺ":3387,"ìĸ´ëĸ¤":3388,"ĠìĬ¤íĬ¸ëłĪìĬ¤":3389,"Ġëĭ¨ìĸ´":3390,"íĨ¡":3391,"ĠìĦľë¥ĺ":3392,"ëģĮ":3393,"ĠëŁ¬ìĭľìķĦ":3394,"Ġë©¤ë²Ħ":3395,"Ġê¸°íļį":3396,"ĠìĤ¬ë²ķ":3397,"ì¼ĢìĿ´":3398,"Ġìħĭ":3399,"ĠìĹ¬ìŃ¤":3400,"ĠìĿĳìĽĲ":3401,"Ġê³µë¬´ìĽĲ":3402,"ĠíĬ¹ìłķ":3403,"ë¤Ħ":3404,"Ġë°ĶìĿ´":3405,"Ġìĸ´ë¨¸ëĭĺ":3406,"ĠìĤ´íİ´ë³´":3407,"ìĸ´ë¨¸ëĭĪ":3408,"Ġì§ĳìķĪ":3409,"ĠëĦĵ":3410,"Ġëĵ¤ìĹ¬":3411,"ìłĢìĶ¨":3412,"ĠíĮĮìķħ":3413,"Ġìµľì´Ī":3414,"Ġê¸Īë°©":3415,"ĠìķĦëĭĲê¹Į":3416,"ĠëĺĲíķľ":3417,"ĠëıħìĿ¼":3418,"ĠìļĶëŁ°":3419,"ĠíĮ©":3420,"ìĹł":3421,"ë¹Ľ":3422,"ĠíĮĲë§¤":3423,"ĠìķĦë²Ħëĭĺ":3424,"íĺĪ":3425,"ĠëĮĢì¶ľ":3426,"Ġíħ":3427,"ĠíĿĶëĵ¤":3428,"ĠíıŃëł¥":3429,"Ġì½©":3430,"Ġë°ĶëĿ¼ë³´":3431,"ĠíĥĿìĭľ":3432,"ĠìĿ¼ìŀĲë¦¬":3433,"Ġë¯¸íĦ°":3434,"ëĶ©":3435,"ĠëĳĺëŁ¬":3436,"Ġìłľê³µ":3437,"ĠíĬĢ":3438,"Ġëĵ¤ìĸ´ê°Ħ":3439,"ĠìĭŃëĭĪëĭ¤":3440,"ĠíķĺëĬĺ":3441,"ĠëĮĢë¹Ħ":3442,"ĠíĶ¼ë¶Ģ":3443,"Ġì§Ħìłķ":3444,"ĠíĦ¸":3445,"Ġìį°":3446,"ĠìĹĦì²ŃëĤľ":3447,"Ġìĸ´ìļ¸":3448,"Ġê´Ģíķľ":3449,"ĠìĤ¬ìłĦ":3450,"ĠëŀĦ":3451,"Ġì¶Ķì§Ħ":3452,"ĠìłĦê¸°":3453,"ĠëĶĶìŀĲ":3454,"íĤ¹":3455,"ĠíĻķë³´":3456,"Ġì·¨ìĨĮ":3457,"ëł¬":3458,"Ġë³´ìĺĢ":3459,"¡ëĭĪê¹Į":3460,"¾¼":3461,"Ġê±°ë¶Ģ":3462,"Ġìłķëĭµ":3463,"Ġë³¸ê²©":3464,"ĠëĤłìĶ¨":3465,"ĠìĸĳëħĲ":3466,"Ġì§Ģêµ¬":3467,"Ġê³Ħê¸°":3468,"Ġë¬´ê¸°":3469,"Ġê´Ģê´ĳ":3470,"ĠíķĺìĹ¬íĬ¼":3471,"Ġëĵ¤ìĸ´ìĺ¨":3472,"ĠìĽ¬":3473,"Ġëį°ëł¤":3474,"ĠìĿ¸ê¶Į":3475,"ĠíĥĦíķµ":3476,"Ġê²ĮìļĶ":3477,"ë¦¿":3478,"Ġëĭ¤ìķĦ":3479,"¾Į":3480,"ĠìĹ´ë¦¬":3481,"Ġê·¸ëŁ¼ìĹĲëıĦ":3482,"Ġëª¨ëį¸":3483,"ĠìĹĲëĦĪì§Ģ":3484,"ĠëĭŃ":3485,"ĠëŃ¡ëĭĪê¹Į":3486,"ì¦Į":3487,"Ġëĭ¤êµ¬":3488,"Ġê°ķíķĺ":3489,"Ġê°Ģê¹ĮìĿ´":3490,"ĠìĪ«":3491,"Ġìłĳê·¼":3492,"ĠëĲľëĭ¤ë©´":3493,"Ġ7":3494,"Ġìŀ¥ê¸°":3495,"ĠëĪĦëĤĺ":3496,"Ġê°Ħëĭ¤":3497,"Ġìłķíķ´":3498,"ê°ĢëĿ½":3499,"ĠìłĲìĪĺ":3500,"Ġë¶Īë¦¬":3501,"ĠìĦ±ë¶Ħ":3502,"ĠìĭľíĤ¨":3503,"Ġë³´ëĥĪ":3504,"Ġê³µê³µ":3505,"Ġì§Ģìĭľ":3506,"íĻį":3507,"Ġê²ĢíĨł":3508,"ë¬´ìĦ±":3509,"Ġê·¸ëłĩì§Ģë§Į":3510,"ëŁ¬ìĬ¤":3511,"Ġíĭ":3512,"Ġë¶ģë¯¸":3513,"ĠìĿ´ìĿµ":3514,"Ġë¶ĢëıĻìĤ°":3515,"Ġìĺ¤ë¥´":3516,"ì¤Į":3517,"Ġìª¼ê¸Ī":3518,"Ġê±¸ìĸ´":3519,"Ġìĺ¤íķ´":3520,"ëĶĶìĺ¤":3521,"ĠìŀĲê¸Ī":3522,"Ġë°Ķëĭ¤":3523,"ĠìıŁ":3524,"Ġê·¼ë¡ľ":3525,"íķµíĻĶ":3526,"Ġë³µìŀ¡":3527,"Ġìŀ¬ë¯¸ìŀĪ":3528,"Ġë²Įìĸ´ì§Ģ":3529,"Ġíĺ¸íħĶ":3530,"íģ´":3531,"ĠìĤ¬ìłķ":3532,"Ġìĭ¸ìļ°":3533,"ëĵłì§Ģ":3534,"Ġë¹ĦíķµíĻĶ":3535,"Ġìĥīê¹Ķ":3536,"Ġë¹łë¥´":3537,"Ġê·¸ìķ¼ë§Ĳë¡ľ":3538,"Ġì²Ńêµ¬":3539,"ĠìĭĿëĭ¹":3540,"Ġì£¼ìļĶ":3541,"ĠìĪĺìŀħ":3542,"ĠíĻĢ":3543,"Ġë°ĿíŀĪ":3544,"Ġê¹Ģì¢ħ":3545,"Ġê³ĦìĭŃ":3546,"ĠìĹī":3547,"ĠìĿ´ë¥¸ë°Ķ":3548,"Ġë¬µ":3549,"Ġêµ¬ë§¤":3550,"ëª¬":3551,"ëĳĺ":3552,"Ġë¯¸ìĦ¸":3553,"Ġì§Ģíķĺ":3554,"Ġìłľìĭľ":3555,"Ġë¹Ħë¡¯":3556,"Ġëĭ¤ìĭľíĶ¼":3557,"Ġë¸ĶëŀĻ":3558,"ëĳ¥":3559,"ĠëĤ«":3560,"ĠìķĦìĿ´ê³ł":3561,"ĠëŃĶì§Ģ":3562,"Ġë©Ī":3563,"ĠìĺĪë°©":3564,"Ġê¸įìłķ":3565,"Ġíİ¸íķĺ":3566,"Ġì¶¤":3567,"ĠíĻįë³´":3568,"ĠëĶ´":3569,"Ġë©°ì¹ł":3570,"Ġìľ¼ë¡ľìį¨":3571,"ĠìĪ«ìŀĲ":3572,"ê´´":3573,"Ġë³´ìŀ¥":3574,"Ġì°¸ìĦĿ":3575,"Ġëĸ¡":3576,"Ġíĺ¸ëĤ¨":3577,"Ġëĵ¤ìĸ´ìĻĶ":3578,"ĠëĿĦ":3579,"ĠíĻĶìłľ":3580,"Ġê³łíĨµ":3581,"ĠìĿ¸íķ´ìĦľ":3582,"ìĹĲìĬ¤":3583,"ĠëĮĢëĭµ":3584,"ĠìĦ¸ê¸Ī":3585,"Ġê¸°ëħĲ":3586,"Ġë¬¼ì§Ī":3587,"ĠìĿ¼ìĥģ":3588,"ĠìĹ°ê¸Ī":3589,"ìĽħ":3590,"ë¶Ģëª¨":3591,"ëĭĲ":3592,"ìĭľê°Ħ":3593,"ì¢ĭ":3594,"ë°Ķë¡ľ":3595,"ëĭ¤ëĭĪ":3596,"Ġë¬¼ëŁ¬":3597,"Ġë§ĪìĦ¸ìļĶ":3598,"Ġë±":3599,"Ġíľ´ëĮĢ":3600,"ìķŀ":3601,"ì´ī":3602,"Ġê³łë§Ī":3603,"ì§ĢëĤľ":3604,"ìĭ±":3605,"ĠìĬ¤íı¬":3606,"Ġê·¼ê±°":3607,"ĠëĬĶêµ¬ëĤĺ":3608,"ĠìĤ¬ê¸°":3609,"ĠíĻķëĮĢ":3610,"ĠíıīìĥĿ":3611,"ĠìĤ¬ìĺµëĭĪëĭ¤":3612,"ĠìĭľìĦł":3613,"Ġê°Ģê¹Įìļ´":3614,"Ġëĭµë³Ģ":3615,"ĠëĤĺê°Ħ":3616,"ĠíĺĦëĮĢ":3617,"ĠíĥľëıĦ":3618,"ĠëĬĶëĭ¤ê³ł":3619,"ĠìķĦìłĢìĶ¨":3620,"ìĸ´ëıĦ":3621,"ĠìĺģìĹŃ":3622,"ĠìķĦë¬´ê²ĥ":3623,"ìĬ¤íĦ°":3624,"Ġ0":3625,"Ġêµ°ëĮĢ":3626,"Ġì½ĶëĦĪ":3627,"ĠìŀĲëħĢ":3628,"ĠìĥĿìĤ°":3629,"ĠìĬ¤ë¬¼":3630,"Ġë³´ìĿ¸":3631,"ë§ĪëĶĶ":3632,"ĠìķĦëŀĺ":3633,"ĠìŀĲëĦ¤":3634,"ĠìĨĮê¸Ī":3635,"Ġê°ĢìĤ¬":3636,"ê±°ëĤĺ":3637,"ĠìĿ´ê¸°":3638,"Ġë³¼ë":3639,"Ġìĸ´ì°¨íĶ¼":3640,"ĠìľłëŁ½":3641,"ĠìłĢê²Į":3642,"êº":3643,"Ġëįĺì§Ģ":3644,"ìĸ´ëĸ»":3645,"Ġëħ¼ë¦¬":3646,"ĵ¨":3647,"ĠíĻķìĭ¤íŀĪ":3648,"Ġì°¾ìķĦê°Ģ":3649,"ĠíĶĦëŀĳ":3650,"ĠìŀĲê²©":3651,"Ġê±¸ê¹ĮìļĶ":3652,"Ġëª¨ë¥¸":3653,"ìĹĺ":3654,"Ġë§ĮëĤľ":3655,"Ġë³¸ëĭ¤":3656,"Ġì¤įëĭĪëĭ¤":3657,"Ġë§Īë§Ī":3658,"Ġê¹Ģë¬´ìĦ±":3659,"ĠìĻĦë²½":3660,"ĠìĿ´ëģĮ":3661,"Ġê³łì¶Ķ":3662,"Ġì¡°ìļ©":3663,"Ġê°ĢìĿĦ":3664,"Ġë¯¼ìłķ":3665,"Ġì¶ľë§Ī":3666,"ĠíĶ¼ëĶĶ":3667,"ĠëıĮìķĦìĺ¤":3668,"ĠìķĦìī¬":3669,"Ġíļ":3670,"ë¦ħëĭĪëĭ¤":3671,"ĠëĿ¼ìĿ¸":3672,"ĠìĹ°ìķł":3673,"ĠíĽĮ":3674,"Ġíķľëį°ìļĶ":3675,"ì²ľíŀĪ":3676,"Ġëĭ¹íĸĪ":3677,"ĠìľłìĬ¹":3678,"Ġë³Ģê²½":3679,"ĠìĹ¬ë¶Ģ":3680,"Ġë°°ëĭ¬":3681,"Ġëĵ¤ìľ¼ë©´":3682,"ĠìĥĿê²¨":3683,"Ġê·¸ëŀĺìķ¼":3684,"Ġì·¨ì§Ģ":3685,"Ġë©ĶìĿ¼":3686,"ëĬĲë¦¬":3687,"ĠíķłìķĦë²Ħì§Ģ":3688,"Ġëħ¸ìĿ¸":3689,"ìĿĺìŀĲ":3690,"Ġìºł":3691,"Ġìłķë§Ĳë¡ľ":3692,"Ġë°ĺë³µ":3693,"Ġì§ĢìĨį":3694,"ĠìłĦë§Ŀ":3695,"Ġêº¼ëĤ´":3696,"ëŀľëĵľ":3697,"ĠìĿ´ë£¨ìĸ´ì§Ģ":3698,"ĠëĭĪëĭ¤":3699,"Ġê·¸ëł¤":3700,"Ġëķľ":3701,"ĠìķĪíĥĢê¹Į":3702,"ĠëĨĴìĿ´":3703,"Ġì²´íģ¬":3704,"Ġê²Ģì¦Ŀ":3705,"ĠìŀĲëŀĳ":3706,"Ġë¬ĺ":3707,"ĠëıĦë§Ŀ":3708,"Ġê°Ĵ":3709,"Ġë¬´ë¦¬":3710,"Ġê°ķìłľ":3711,"ĠìĹ°ìĺĪìĿ¸":3712,"Ġa":3713,"ĠíĺķìĤ¬":3714,"ĠìĿ¼ì°į":3715,"Ġìµľì¢ħ":3716,"ê·¸ê±°":3717,"Ĥĺ":3718,"Ġë²ķë¥ł":3719,"Ġì£¼ë¶Ģ":3720,"Ġê¸Īìķ¡":3721,"ë£¡":3722,"Ġì§ĳëĭ¨":3723,"Ġë²ķìķĪ":3724,"Ġìĺ¤ëŀľë§Į":3725,"ìĽĮìļĶ":3726,"Ġìĸĺê¸´":3727,"Ġë¬¼ë¦¬":3728,"ĠìŀĲë§Ī":3729,"Ġìŀ¥ëĤľ":3730,"Ġë²Ķíĸī":3731,"Ġë²Ħë¦°":3732,"ĠìŀĳìĦ±":3733,"Ġì¡°ì°¨":3734,"ëĶ±":3735,"ëģĹ":3736,"Ġê°ľìłķ":3737,"Ġì§ĢëĤľíķ´":3738,"Ġìĸ¼ë¥¸":3739,"ĠìĽĲíķĺ":3740,"ëĭ¤ìĿĮ":3741,"ĠìĦłê³ł":3742,"Ġë¹ħ":3743,"Ġì§Ħëĭ¨":3744,"ĠëĦĲ":3745,"ëĭ¹ìĭł":3746,"ĠìĦ¤ëĵĿ":3747,"ĠìŀĲë§ĪìŀĲ":3748,"Ġë§ĪëĬĺ":3749,"íĿ¡":3750,"Ġë¹Ħíĸīê¸°":3751,"Ġëĵ¤ëł¤":3752,"Ġê¹Ģê²½":3753,"Ġ8":3754,"ë¦ŃíĦ°":3755,"Ġê°ľìŀħ":3756,"ĠíĬ¹ìĪĺ":3757,"ĠëĭµëĭĪëĭ¤":3758,"ĠìłĦíĨµ":3759,"ìľµ":3760,"Ġ%":3761,"ĠìĪĺëıĦ":3762,"ëĭĮ":3763,"Ġíķľë§ĪëĶĶ":3764,"Ġê¸°ìĨĮ":3765,"ĠìłĦê³µ":3766,"ĠìľĦë°ĺ":3767,"Ġìľ¼ë©°":3768,"ĠìĬ¤íı¬ì¸ł":3769,"Ġì¢ĭìķĦíķĺ":3770,"Ġê³łìļ©":3771,"ë»Ĳ":3772,"ĠëĲĲìĹĪ":3773,"ĠìłĦë°ĺ":3774,"ì¤Įë§Ī":3775,"Ġë§ĪìĿ´":3776,"Ġëĵ¤ìĸ´ê°Ī":3777,"ĠìķĦíĶĪ":3778,"ĠëĴ¤ì§ĳ":3779,"ĠìĮĢ":3780,"ĠìĺĪìģĺ":3781,"ĠìĿĺë¬´":3782,"Ġë¹ļ":3783,"ĠìŀĲìĦ¸íŀĪ":3784,"Ġë®¤ì§Ģ":3785,"ĠëĮĢë¶ģ":3786,"Ġìŀ¥êµ°":3787,"ĠíĶĦëŀĳìĬ¤":3788,"ëĨĪ":3789,"ĠìŀĦëĮĢ":3790,"Ġìĸµìļ¸":3791,"Ġëĭ®":3792,"ê°Ģë£¨":3793,"ĠìºĲë¦ŃíĦ°":3794,"ĠìĽĥìĿĮ":3795,"ĠíĤ¹":3796,"ìĦ°":3797,"Ġìķķë°ķ":3798,"ìłĢíŀĪ":3799,"ĠìŀĦëªħ":3800,"ĠíĥĢìĿ´":3801,"ĠìĹĳ":3802,"Ġë³¸ë¶Ģ":3803,"ëĭĿ":3804,"ìĸ´ì¡Į":3805,"ĠìķĦë¦Ħëĭ¤":3806,"ĠíĻĶìŀ¥ìĭ¤":3807,"Ġê´ĳì£¼":3808,"Ġê°ķíķľ":3809,"Ġë³¼ê¹Į":3810,"Ġê·¼ì²ĺ":3811,"Ġìķ¤":3812,"Ġìĸ´ë¦°ìĿ´":3813,"ĠíĮĢìŀ¥":3814,"Ġìĥĺ":3815,"Ġìľ¼ë¡ľë¶ĢíĦ°":3816,"Ġì§ĪíĻĺ":3817,"ëķ":3818,"ëłĮ":3819,"ĠìķŀëĳĲ":3820,"Ġë¯¼ê°Ħ":3821,"ìķĦë¬´":3822,"Ġíķľíİ¸":3823,"ĠíĿ¡":3824,"Ġëĭµëĭµ":3825,"êµ°ìļĶ":3826,"Ġê³µíķŃ":3827,"Ġê°ĲëıĻ":3828,"Ġíĺģëªħ":3829,"Ġê·¼ìľ¡":3830,"ĠëĶĶìŀĲìĿ¸":3831,"Ġê¼´":3832,"Ġìĭ¤ëł¥":3833,"ëł´":3834,"ĠìµľëĮĢíķľ":3835,"ĠìĹĪìŀĸ":3836,"ì§Ħì§ľ":3837,"ĠëĳĶ":3838,"Ġìľłì¹ĺìĽĲ":3839,"Ġë¹Ħíķ´ìĦľ":3840,"ĠíĿĶíŀĪ":3841,"ģëĭĪëĭ¤":3842,"Ġìĸ´ëĸ¨ê¹Į":3843,"Ġë§ĮëĤł":3844,"Ġìľ¼ìħĶ":3845,"ĠëĬĶëĭ¤ëĬĶ":3846,"íĿĶ":3847,"ìĸ¼ë":3848,"ĠìĹ¬ë³´":3849,"ëĿ¼ë¦¬":3850,"Ġëį®":3851,"ĠíıĲíķĺ":3852,"Ġì°¨ì§Ģ":3853,"ë¬¼ë":3854,"ì»¨":3855,"ĠëµĻ":3856,"ĠìĹĦì²ŃëĤĺ":3857,"Ġë¶Ħëħ¸":3858,"Ġíķ¸ëĵľ":3859,"Ġì¶Ķìĸµ":3860,"Ġì´ī":3861,"Ġíķ´ëªħ":3862,"ĠêµŃìĸ´":3863,"ĠëĪĪì¹ĺ":3864,"ê¶":3865,"ĠìĿ´ìĸ´ì§Ģ":3866,"Ġê¸Īì§Ģ":3867,"Ġë¬´ìĭľ":3868,"ĠíĤ¬":3869,"Ġìĭ¬ìĤ¬":3870,"Ġë§º":3871,"ĠìķĦë¬´íĬ¼":3872,"ĠìĤ¬ìĽĶ":3873,"Ġê²½ìĺģ":3874,"Ġë§Īë¦¬":3875,"Ġì¹´íİĺ":3876,"Ġë¹Ħìľ¨":3877,"Ġìĭľíĸī":3878,"Ġì¹Ń":3879,"Ġëĭ¤ìĿ´ìĸ´":3880,"ë²¨":3881,"Ġíİ¼ì³Ĳ":3882,"ĠìĿĺë¬¸":3883,"ĠìľĦíĺĳ":3884,"ë©ĶëĿ¼":3885,"Ġê¶Įíķľ":3886,"ĠëıĻìķĦ":3887,"Ġë°°ê²½":3888,"Ġëĺĳê°ĻìĿ´":3889,"Ġìĸ´ëł¸":3890,"Ġê²¸":3891,"ì§Ĳ":3892,"Ġê°ĳëĭĪëĭ¤":3893,"Ġëª©ìĪ¨":3894,"ĠìĹĲíĶĦ":3895,"ë·Ķ":3896,"ĠìĹĪìĹĪ":3897,"íĵ¨":3898,"ìĭ¼":3899,"ĠìĿ¸ëıĦ":3900,"ĠêµĲì²´":3901,"Ġì¿ł":3902,"Ġê¸Īìľµ":3903,"ĠëĶ°ì§Ģ":3904,"ĠìĬ¹ë¦¬":3905,"ĠìłĢëłĩ":3906,"ĠíĬ¹ë³ĦíŀĪ":3907,"Ġë²ķë¬´":3908,"Ġê°Ģê²Į":3909,"ĠìĿĺìŀ¥":3910,"ĠìľłìĬ¹ë¯¼":3911,"ĠìľłìĽĶ":3912,"ì§ĢìĽĲ":3913,"ĠíļĮê²¬":3914,"ĠìĦ±ê³¼":3915,"Ġìłľì¶ľ":3916,"Ġë¬¼ìĸ´":3917,"Ġì§ĢëĤĺê°Ģ":3918,"Ġë¿Įë¦¬":3919,"Ġm":3920,"ì²©":3921,"ìĤ¬ëŀĮ":3922,"Ġê°Ŀ":3923,"Ġë©Ķëī´":3924,"ĠëĮĢë²ķìĽĲ":3925,"Ġìĭłê¸°":3926,"íĵ¨íĦ°":3927,"ĠìĹ¬ìĤ¬":3928,"ĠíħĲëį°ìļĶ":3929,"Ġëĵ¤ìĸ´ìĻĢ":3930,"ĠìłĲìĭ¬":3931,"ĠìĬ¤íĨł":3932,"Ġê³µìłķ":3933,"Ġì¡¸ìĹħ":3934,"Ġì§ĳíĸī":3935,"ĠëĤĺìĺµëĭĪëĭ¤":3936,"ê»ĺìļĶ":3937,"íĴĢ":3938,"ĠìĨĲíķ´":3939,"Ġì²ŃìĨĮëħĦ":3940,"Ġíĺ¼ë":3941,"ĠìķĪëĤ´":3942,"Ġíĺĳëł¥":3943,"íĪ":3944,"íĦ¸":3945,"Ġìłľíķľ":3946,"Ġë°°ì¹ĺ":3947,"ĠíĺĳìĿĺ":3948,"ê½":3949,"Ġë°ķìĪĺ":3950,"Ġì¦Ŀìĥģ":3951,"Ġë¶ĢëĮĢ":3952,"Ġê±Ķ":3953,"Ġìĺģìĸĳ":3954,"Ġê³µê¸°":3955,"ĠìĻĢìĿ´":3956,"ĠìĹ°ëĮĢ":3957,"ĠìĤ¼ìĽĶ":3958,"ĠìĭĿíĴĪ":3959,"Ġê¹ĢìĦ±":3960,"ĠìķĦëĭĮê°ĢìļĶ":3961,"Ġì¶Ķìłķ":3962,"Ġê³¼ëª©":3963,"Ġê¸°ê³Ħ":3964,"Ġíķ©ê²©":3965,"Ġê¹¨ëģĹ":3966,"ìĹ½":3967,"Ġìŀĳìļ©":3968,"Ġë§Īì£¼":3969,"ëª°":3970,"ë¡ľëĤĺ":3971,"ĠìĭľìĤ¬":3972,"ĠìłķíĻķíŀĪ":3973,"ĠìľłìĹĶ":3974,"ĠíķŃê³µ":3975,"Ġíİ¸ì§Ģ":3976,"ĠìłģìłĪ":3977,"ìĺ¤ë¥´":3978,"Ġìķ¼ê¶Į":3979,"Ġê¼¼":3980,"ìĩĦ":3981,"Ġë´īìĤ¬":3982,"Ġìłķì²´":3983,"ĠíĹ¬":3984,"Ġëĵ¤ë¦¬":3985,"ĠëıĦìŀħ":3986,"Ġì¦Ŀê°Ģ":3987,"Ġë¡ľìļ´":3988,"Ġ30":3989,"ĠìļĶìĨĮ":3990,"ĠìĤ¬íĩ´":3991,"ë´Ĳìķ¼":3992,"ĠíĻ©êµĲ":3993,"ĠëªħíĻķ":3994,"ĠìŁģ":3995,"¼Ī":3996,"Ġë¹ĦëĤľ":3997,"ĠìĿ´ìĸ´ìĦľ":3998,"ëĭĪê¹Ĳ":3999,"Ġê°Ģìŀħ":4000,"Ġë§¨ëĤł":4001,"Ġì¤ĺìļĶ":4002,"ĠíļĮë³µ":4003,"Ġì£¼ì°¨":4004,"Ġìĸ´ìķ¼ì§Ģ":4005,"ĠëĤ´ì§Ģ":4006,"ì¢Ģ":4007,"Ġê´Ģê³ĦìŀĲ":4008,"Ġì§Ģì¼ľë³´":4009,"Ġë¹Ħë¦¬":4010,"Ġëª¨ìŀĲ":4011,"Ġê°ĢëĵĿ":4012,"ĠìĪĺìĭľ":4013,"Ġìĺ¤ìĽĶ":4014,"Ġë¹łë¥¸":4015,"ì¼ĢìĿ¸":4016,"ëĴ":4017,"ê°Ĵ":4018,"Ġê°Ģë°©":4019,"íļĮìŀ¥":4020,"Ġëĭ¤ìĿ´ìĸ´íĬ¸":4021,"Ġì·¨ìĹħ":4022,"ìĹ°íŀĪ":4023,"ĠìłĦìŀĲ":4024,"Ġë¬´ëł¤":4025,"Ġëį°ë·Ķ":4026,"Ġê·ľìłľ":4027,"ĠìĺĪì¸¡":4028,"Ġì»´íĵ¨íĦ°":4029,"Ġì¶ľê·¼":4030,"ì¾Į":4031,"ĠìłĦíĻĺ":4032,"Ġê³µê¸ī":4033,"Ġê²°ìłľ":4034,"ĠíĨµê³Ħ":4035,"Ġìĸ¸ìĸ´":4036,"ĠìµľìĦł":4037,"Ġê´Ģê°Ŀ":4038,"Ġëĭ«":4039,"Ġê°ķìķĦì§Ģ":4040,"Ġìłľê±°":4041,"Ġìŀħìĭľ":4042,"Ġë§ŀì¶Ķ":4043,"ĠëĬĺìĸ´ëĤĺ":4044,"Ġìıĺ":4045,"Ġë©´ìłĳ":4046,"Ġê³µìĽĲ":4047,"Ġìĺ³":4048,"Ġìłģìĸ´ëıĦ":4049,"ì§Ħëĭ¤":4050,"ë¶Ļ":4051,"Ġë¯¸ì¹ĺ":4052,"Ġìħ¨ìŀĸìķĦìļĶ":4053,"ĠíĿī":4054,"ĠíĻķìłķ":4055,"ìĸ´ìĦľ":4056,"ĠìĨĮíĻĶ":4057,"íĮĶ":4058,"ê·¸ëķĮ":4059,"ĠíĺĪê´Ģ":4060,"ëģĦëŁ¬":4061,"ĠíĻ©êµĲìķĪ":4062,"Ġë©°ëĬĲë¦¬":4063,"Ġë²½":4064,"ëŀĺìļĶ":4065,"ĠëĮĢëª©":4066,"ĠëĦ¤ìĿ´":4067,"ĠìĹ°ìŀ¥":4068,"ìĹĲìĿ´":4069,"Ġì²ľì²ľíŀĪ":4070,"ĠìĶ»":4071,"ĠëĤĺìģĺ":4072,"ë¦¬ì¹´":4073,"íģĲ":4074,"Ġë¦¬ëįĶ":4075,"ëĭ¤ë³´":4076,"ĠëĮĢêµ¬":4077,"Ġìľ¼ëŁ¬":4078,"ĠêµŃë¬´":4079,"ë§ĪíĬ¸":4080,"ĠíĿĳ":4081,"ëĮ":4082,"Ġê°ľíĹĮ":4083,"Ġì°¸ê³ł":4084,"Ġë©ĺ":4085,"Ġëı¼ì§Ģ":4086,"ë¦ĩ":4087,"ĠìĦ¸ê¸°":4088,"½ëĭĪëĭ¤":4089,"ìĿ´ëĵľ":4090,"ĠìĦłë³´":4091,"Ġìĭ¬íķĺ":4092,"ĠìĨĮë¬¸":4093,"ìĸ´ëĤł":4094,"Ġë°ĽìķĦëĵ¤ìĿ´":4095,"ëł¤ë©´":4096,"Ġíıīë¡ł":4097,"ĠëĤľë¦¬":4098,"Ġë©ĭìŀĪ":4099,"ìļĶì¦ĺ":4100,"Ġì§ĳê¶Į":4101,"Ġì¹´ë©ĶëĿ¼":4102,"ĠëĮĢë³ĢìĿ¸":4103,"Ġì§Ģê¸ī":4104,"ìº":4105,"ĠíĨµìĭł":4106,"Ġìŀĩ":4107,"ë¥Ń":4108,"Ġê³µìľł":4109,"Ġê´ĢìłĲ":4110,"íķĺëĤĺ":4111,"Ġë³¸ëĭ¤ë©´":4112,"íĥĢë¯¼":4113,"Ġì²¨":4114,"ĠëĪĮ":4115,"Ġê°ľìĦ±":4116,"ĠíĬ¹ì§ķ":4117,"ĠìĻ¸ë¶Ģ":4118,"ĠíĹĪë¦¬ì¼ĢìĿ¸":4119,"Ŀ¼ê³ł":4120,"Ġë©Ģë¦¬":4121,"ê±°ê¸°":4122,"ĠëħĢ":4123,"ê°ĳëĭĪëĭ¤":4124,"ĠëĥĲë©´ìĿĢ":4125,"ë¬´ìĬ¨":4126,"Ġíķľì§Ģ":4127,"ĠìĭľìĿ¸":4128,"ĠëĿ¼ë©°":4129,"Ġê¶Įë¦¬":4130,"Ġë¬´ë¦":4131,"ëª¨ëĭĺ":4132,"ìĽ¨":4133,"£¨":4134,"ĠëĤłì§ľ":4135,"ë¯":4136,"ĠìĹĨìķł":4137,"ĠëĤŃ":4138,"ĠìĺĪëĬ¥":4139,"Ġê³łêµ¬":4140,"Ġë³´ëĤ¸":4141,"Ġê°Ģì§ľ":4142,"íŀĲ":4143,"Ġë¯¼ì£¼ì£¼ìĿĺ":4144,"Ġs":4145,"ê·¸ê²ĥ":4146,"ĠëģĦ":4147,"Ġê°Ģë§ĮíŀĪ":4148,"ĠìĦľë¥¸":4149,"ĠìķĮëł¤ìł¸":4150,"Ġëľ¨ê±°ìļ´":4151,"ĠëģĿëĤ´":4152,"ĠìķĦë¥´":4153,"Ġê±´ìĦ¤":4154,"Ġê°ģìŀĲ":4155,"íĬ¹íŀĪ":4156,"ëģĪ":4157,"ĠìķĦì¤Įë§Ī":4158,"Ġëĭ¤ëĭĪê¹Į":4159,"Ġìĭ¬ìŀ¥":4160,"ìķĦì§ģ":4161,"ĠìĥģìĬ¹":4162,"Ġìĭ¹":4163,"ĠìķķìĪĺ":4164,"ĠíĽĮë¥Ń":4165,"ĠìĿ´íķĺ":4166,"ì½©":4167,"¼ë²":4168,"ĠëĵľëŁ¬ëĤĺ":4169,"ĠëĮĢë¦¬":4170,"ĠìļĶê¸Ī":4171,"Ġëĭ¤ê³łìļĶ":4172,"ì½¤":4173,"Ġì£½ìĿĮ":4174,"ìł¸ìķ¼":4175,"ë§¥":4176,"Ġì¹ĺë§¤":4177,"ìĬ¤íĥĢ":4178,"ĠìĦ±íıŃ":4179,"Ġì¤ĺìĦľ":4180,"Ġìĥģì§ķ":4181,"Ġëķ¡":4182,"Ġëĭ¹íķľ":4183,"íħĲì¸ł":4184,"ìĤ¬ìŀĲ":4185,"ĠìĮį":4186,"ë²¤":4187,"ĠêµŃë¬¼":4188,"ĠìĦ¸ìļ°":4189,"ĠíĤ¤ìĽĮëĵľ":4190,"Ġê³ĦìĦ¸ìļĶ":4191,"Ġê°ķëĤ¨":4192,"Ġëį°ìĿ´íĦ°":4193,"Ġì§ķìĹŃ":4194,"ìĸ´ëĸ»ê²Į":4195,"ìłĢê¸°":4196,"ê»ı":4197,"ĠìĸĳíĮĮ":4198,"Ġëĵľë¦´ê¹ĮìļĶ":4199,"Ġë¹ĦíĥĢë¯¼":4200,"ĠìŀĲê·¹":4201,"ĠëĵľëĿ¼":4202,"ĠìĤ¬ìĿ´íĬ¸":4203,"Ġ9":4204,"ĠìļĶë²Ī":4205,"Ġë¬´ë£Į":4206,"ë¹Ļ":4207,"ëĨ¨":4208,"Ġë¹ĦìĶ¨":4209,"Ġê³Ħìħ¨":4210,"Ġíķ«":4211,"ĠìĿ¼ë¶ĢëŁ¬":4212,"Ġë°ľìĤ¬":4213,"Ġë§ģ":4214,"Ġì¤ĦìĿ´":4215,"Ġê±°ëĿ¼":4216,"íĬľë¸Į":4217,"Ġì°¾ìķĦë³´":4218,"ĠíĢ´":4219,"ĠìĽĶìļĶìĿ¼":4220,"Ġê³łë°ľ":4221,"Ġìĸ´ëķĮìļĶ":4222,"ê·¸ëŀĺëıĦ":4223,"Ġìĺ¤ëŀ«":4224,"Ġëĭ¨ìĿ¼":4225,"ĠìĹ¬ìľł":4226,"ĠìĿ´ëŀ¬":4227,"Ġì°¨ë³Ħ":4228,"ìĺģìĥģ":4229,"Ġêµ¬ìĽĶ":4230,"Ġê¹ĢëĮĢ":4231,"ë¨¼ì§Ģ":4232,"ĠìĺĪìĺĪìĺĪ":4233,"ĠëĳĲëł¤":4234,"ìĵ°":4235,"Ġê¸¸ëŀĺ":4236,"Ġëħ¸ëıĻìŀĲ":4237,"įĺ":4238,"Ġìķµ":4239,"ĠìĥģìĭĿ":4240,"Ġ00":4241,"ĠìķĦê¸°":4242,"Ġìłľë°ľ":4243,"Ġê³µìķ½":4244,"ĠìĪĺìłķ":4245,"ê°Ģì¡±":4246,"ĠíķĻê³¼":4247,"íİĺìĿ´ì§Ģ":4248,"ĠìĿ´ë¡ł":4249,"Ġì±ĦìĨĮ":4250,"ĠëĮĦ":4251,"ëłģ":4252,"âĢĺ":4253,"ĠëĤ¨ê²¨":4254,"ĠíķľëĳĲ":4255,"ĠìĹ°ê´Ģ":4256,"Ġë¶Īë§Į":4257,"ĠìķĦë§ĪëıĦ":4258,"Ġë¬¸ê±´":4259,"Ġëª¨ìħ¨":4260,"ĠìĦłìłķ":4261,"ĠëĮĢëĭ¨íŀĪ":4262,"íĭ±":4263,"ê¼Ī":4264,"ĠìľłìĿ¼":4265,"ĠìµľìĨĮíķľ":4266,"Ġì°¬ìĦ±":4267,"ë¡±":4268,"ĠëĿ¼ëĭĪ":4269,"ëĤ©":4270,"ĠìĿ¸ì²ľ":4271,"íķĺì§Ģë§Į":4272,"Ġêµ¬íķĺ":4273,"Ġìĸ´ë§Ī":4274,"Ġê°ķìĿĺ":4275,"Ġì¦Ĳê¸°":4276,"Ġê°Ģíķ´":4277,"Ġì§Ħìĺģ":4278,"Ġê³łìĸĳ":4279,"Ġë°ķìłķ":4280,"Ġì¤ĳëĭ¨":4281,"Ġë²Ħëł¤":4282,"Ġìŀ¥ìĤ¬":4283,"Ġë°°ìĨ¡":4284,"Ġë°ĺìĦ±":4285,"Ġë¬´ë¦İ":4286,"Ġì¶ķíķĺ":4287,"Ġìĺ¤ëŀ«ëıĻìķĪ":4288,"Ġëĭ¹êµŃ":4289,"Ġì§ĢìĭĿ":4290,"Ġë¯Ħ":4291,"Ġë¹Ħìĭ¸":4292,"ĠíķĻìĽĲ":4293,"ĠíĿĺëŁ¬":4294,"Ġê°ļ":4295,"Ġê°Ģìł¸ê°Ģ":4296,"ĠìĿ´ëĶ°":4297,"Ġìĸ´íĹĪ":4298,"ĠëĮĢìŀ¥":4299,"ĠìĿ´íĭĢ":4300,"Ġëĭ¦":4301,"Ġë§¹":4302,"Ġëįķë¶Ħ":4303,"Ġë§ĪëĶĶ":4304,"Ġíıīë¡łê°Ģ":4305,"Ġë¯¸ìĦ¸ë¨¼ì§Ģ":4306,"Ġìĩ¼íķĳ":4307,"Ġìĸ´ëł¤ìĽĢ":4308,"ĠìĪĺìĺģ":4309,"Ġìĺ¬ëĿ¼ìĺ¤":4310,"ì£¼ëıĦ":4311,"Ġë²ĪìĹŃ":4312,"ĠìĨĮìľł":4313,"Ġì¤Ģëĭ¤":4314,"ì¤ĺ":4315,"Ġë³´ìĥģ":4316,"ĠëĤĺìĻĢìļĶ":4317,"ĠìĥĿìĿ¼":4318,"ĠìĨĮìĬ¤":4319,"ĳ¥":4320,"ĠìĹ¼ë":4321,"ĠìľłíĬľë¸Į":4322,"ĠíķĻìĬµ":4323,"Ġíķľìª½":4324,"Ġê³łìľĦ":4325,"Ġìĺ¬ëŀĲ":4326,"Ġë§Įì¡±":4327,"ĠìłĦìĭľ":4328,"Ġëĸ¨ìĸ´ìł¸":4329,"ĠìĿ´ìłķ":4330,"ĠíĿĲë¦Ħ":4331,"Ġê±´ê°Ģ":4332,"Ġíķ¸ëĵľíı°":4333,"Ġìĸ´ë¥´":4334,"íĳ":4335,"Ġê¹ĢìłķìĿ¼":4336,"¼ìĨĲ":4337,"Ġë°Ķëĭ¥":4338,"ĠìĭĿêµ¬":4339,"ĠìĹ°ì£¼":4340,"Ġì´Īë°ĺ":4341,"Ġëª¨ìŀĦ":4342,"Ġíķ©ë¦¬":4343,"Ġì¡°ìŀĳ":4344,"Ġë¯¼ìĭ¬":4345,"Ġì´Īê¸°":4346,"Ġìĭłë¶Ħ":4347,"ĠíķĻê¸°":4348,"ĠìĪľìĦľ":4349,"Ġìĭľì¦Į":4350,"Ġìĺ¤ìĿ´":4351,"ìĮ":4352,"Ġì§Ŀ":4353,"ĠêµĲê³¼ìĦľ":4354,"Ġíľ´ê°Ģ":4355,"ĠìĬ¤ë§ĪíĬ¸":4356,"ĠìķĦê°Ģ":4357,"ĠëıĮë¦¬":4358,"Ġê´ľíŀĪ":4359,"ĠëĩĮë¬¼":4360,"Ġíı¼":4361,"ĠëĮĢê¸°":4362,"Ġë¬¸íķĻ":4363,"ĠìĪĺì¹ĺ":4364,"Ġì§Ħìĭ¬":4365,"ĠëĤ´ëł¤ê°Ģ":4366,"ĠìĭľìľĦ":4367,"íĻĢ":4368,"ìĨĶ":4369,"Ġê°Ħìŀ¥":4370,"ĠìĥĿê¸¸":4371,"ĠìĺĪê³ł":4372,"Ġì§ĳíļĮ":4373,"Ġìĺ¤ë§Į":4374,"ĠìķĺìĹĪ":4375,"Ġë®¤ì§Ģì»¬":4376,"Ġê·¸ëĤĺ":4377,"Ġë¶Īê³¼":4378,"Ġê¸ĪìļĶìĿ¼":4379,"ë©ĶìĿ¼":4380,"Ġê³¼ìĿ¼":4381,"ëĲ":4382,"ĠìĤ¬ìľł":4383,"Ġë¹ĦëĮĢ":4384,"ĠíĥĪëĭ¹":4385,"Ġë¯¼ì¡±":4386,"ĠìĿ¸êµ¬":4387,"Ġìŀ¬ë²Į":4388,"Ġëĭ¤ë£¨":4389,"ĠìĦ¤íĥķ":4390,"Ġê·¼ë³¸":4391,"ĠíķĻë¶Ģëª¨":4392,"ĠìĥĪë¡Ń":4393,"ìľ¼ëĭĪ":4394,"Ġê³¼ìŀ¥":4395,"ë¬µ":4396,"Ġë°ı":4397,"Ġìľ¼ë¡ł":4398,"ëĵłê°Ģ":4399,"ĠìĪĺíĸī":4400,"ĠìķĦìĿ´ëĶĶìĸ´":4401,"Ġìĸ´ëĿ¼":4402,"ĵľ":4403,"ĠìĤŃ":4404,"ĠëĤ´ìĭł":4405,"Ġë²ķìłķ":4406,"ĠëªħìĺĪ":4407,"Ġë°©ìķĪ":4408,"ĠíĬ¹ìĿ´":4409,"Ġê°Ģêµ¬":4410,"Ġíİ¸ìķĪ":4411,"Ġíı´":4412,"ĠìķĮë¦¬":4413,"Ġë¶Ģëĵľ":4414,"Ġíķľë¯¸":4415,"Ġì°¨ëĿ¼ë¦¬":4416,"Ġìľłíĸī":4417,"Ġë°ĺë°ľ":4418,"Ġìľ¼ëł¤ê³ł":4419,"Ġíķĳ":4420,"Ġëĵľëł¤ìļĶ":4421,"Ġëª°ëĿ¼ìļĶ":4422,"Ġëª¨ìĹ¬":4423,"Ġì¦Ŀìĸ¸":4424,"ĠíĮĿ":4425,"Ġê¾¸ì¤Ģ":4426,"Ġê¹Ģíĥľ":4427,"ĠìłĢì§Ģ":4428,"Ġëĭ¤ë©°":4429,"Ġì²łíķĻ":4430,"Ġëĭ¤ëĦ¤":4431,"Ġì²´ìľ¡":4432,"Ġì²´ê³Ħ":4433,"Ġìĸ´ë¥´ìĭł":4434,"ĠìĶ¨ìĶ¨":4435,"ĠìķĪíĥĢê¹Ŀ":4436,"ĠíĸĪìĸ´ìļĶ":4437,"Ġìĺ¬ëł¸":4438,"ìĸ´ë²Ħ":4439,"ì½ĺ":4440,"Ġë²ĶìĿ¸":4441,"ëĤĺë¦¬":4442,"Ġê²½ìĦł":4443,"ĠíĪ¬ìŁģ":4444,"ë°¤":4445,"íĬ¸ëĤ¨":4446,"ìĿ¼ë³´":4447,"Ġìļ©ìĦľ":4448,"į¼ë":4449,"ĠíķłìĿ¸":4450,"Ġê³µíı¬":4451,"Ġìŀ¬ëĭ¨":4452,"ëĬĶëį°":4453,"Ġëļľ":4454,"ì©į":4455,"ĠìĽĶëĵľ":4456,"Ġxxx":4457,"Ġê¸°ì´Ī":4458,"Ġëĸ¨ìĸ´ì¡Į":4459,"ĠìŀĲì¹ĺ":4460,"Ġê³łíĸ¥":4461,"ĠíĻĪíİĺìĿ´ì§Ģ":4462,"Ġë¦¬ìĬ¤íĬ¸":4463,"ħĦ":4464,"ĠìĨĮì¤ĳ":4465,"ĠìĪĺì¶ľ":4466,"ĠìĤ¬ë¬´ìĭ¤":4467,"Ġìĥ¤":4468,"ëĵ¬":4469,"ĠíĺķìĦ±":4470,"Ġë§ĮëĤ¨":4471,"ĠëĦĪíĿ¬":4472,"Ġë¯¼ìĥĿ":4473,"ĠíĺķìĭĿ":4474,"Ġêµ¬ë§Į":4475,"Ġì¢ħêµĲ":4476,"ĠëĮĢê²°":4477,"Ġíģ°ìĿ¼":4478,"Ġë¼Ī":4479,"Ġìķłê¸°":4480,"Ġìļ©ìĸ´":4481,"Ġìĥµ":4482,"Ġê°ģì¢ħ":4483,"Ġëĭ¿":4484,"ì¤Ģíĳľ":4485,"Ġê³ĦìĭŃëĭĪëĭ¤":4486,"¨¹":4487,"ĠìĥģëĮĢë°©":4488,"ĠëĵľìħĶ":4489,"ĠìĿ¸ê³µ":4490,"ĠíıĲì§Ģ":4491,"ĠëķĢ":4492,"Ġë¹ĦìĦľê´Ģ":4493,"ĠìĤ°ì±ħ":4494,"ĠëŀĺìļĶ":4495,"íķ©ëĭĪëĭ¤":4496,"Ġê±¸ëł¤":4497,"ĠíĢ´ì¦Ī":4498,"Ġëĭ¹íĻ©":4499,"ĠíĤ¬ë¡ľ":4500,"Ġì·¨íķĺ":4501,"Ġê¸°êµ¬":4502,"ìĿ´ìĽĶ":4503,"ĠëĮĢìķĪ":4504,"ë°į":4505,"ĠìķĦëĭĪìļĶ":4506,"Ġê±´ì¶ķ":4507,"ĠìłĲê²Ģ":4508,"ìĭŃëĭĪê¹Į":4509,"ĠìĨĮìŀ¬":4510,"ĠìĿ´ë¦¬":4511,"Ġìļ°ë¦°":4512,"ĠìĿ´ìŀ¬ëªħ":4513,"ĠíĶ¼ê³¤":4514,"Ġëĭ¤ë©´ìĦľìļĶ":4515,"ĠëĲłê¹Į":4516,"Ġì¤ĳíķĻêµĲ":4517,"ìĸ´ì§Ī":4518,"íķľíİ¸":4519,"Ġìĵ°ëŁ¬":4520,"Ġìĭľì¼ľìĦľ":4521,"Ġíĺĳë°ķ":4522,"Ġìĸ´ë¦´":4523,"ë¹¨ë¦¬":4524,"Ġíĺ¸íĿ¡":4525,"Ġíĥľìĸĳ":4526,"Ġê°ľê·¸":4527,"ĠìĦ±íĸ¥":4528,"Ġê¼½":4529,"Ġë°Ł":4530,"Ġê¸°ìļ´":4531,"Ġë¹Ħë¡Ģ":4532,"ĠìĤ¬ëĵľ":4533,"ĠíĥĢìŀĦ":4534,"Ġì§ĢëĤľì£¼":4535,"ĠëĬĲê¼Ī":4536,"Ġì´ĪëĮĢ":4537,"ëĪĪ":4538,"Ġì¡°ìłĪ":4539,"ĠìĤ´ëł¤":4540,"Ġëļ«":4541,"Ġíķľì°¸":4542,"Ġë³´ê´Ģ":4543,"ĠíĻľìĦ±":4544,"Ġë¬¶":4545,"Ġìłľì£¼ëıĦ":4546,"ìĸ´ë§Ī":4547,"Ġëĭ¨ì§Ģ":4548,"Ġê±¸ë¦´":4549,"ĠëŃī":4550,"Ġëĵ¤ìĿ´":4551,"ìłľìĿ´":4552,"ĠìĿ¼ìĽĶ":4553,"ëĳĳ":4554,"Ġëĵ¤ìĸ´ìĻĢìĦľ":4555,"Ġì¢ģ":4556,"Ġê¾¼":4557,"ĠìķĦëıĻ":4558,"ĠìķĦìķĦ":4559,"Ġ201":4560,"ì½ľ":4561,"Ġë²ķë¬´ë¶Ģ":4562,"Ġìĸ´ëł¤ìļ¸":4563,"Ġê°Ģë¦¬":4564,"ĠìĹĳìĬ¤":4565,"ĠìĿ´ìĽĶ":4566,"ì¡°ê¸Ī":4567,"ĠìĨĮë¹ĦìŀĲ":4568,"ĠìłĢìª½":4569,"Ġì´Ľ":4570,"Ġêµ¬ìŀħ":4571,"Ġë¯¼ë":4572,"Ġêµ¬ë¶Ħ":4573,"ĠíĻįì¤Ģíĳľ":4574,"ì¹´ìĺ¤":4575,"ĠíĽĦë°°":4576,"ĠëģĮìĸ´":4577,"Ġì§ĢëıĦìŀĲ":4578,"ĠìĿ´ìĬ¹":4579,"Ġì¡±":4580,"Ġê²ĮëģĶ":4581,"ĠìĪľìľĦ":4582,"Ġë²łíĬ¸ëĤ¨":4583,"Ġíĥĳ":4584,"Ġì½Ķë¡ľëĤĺ":4585,"Ġëĸ¨ìĸ´ì§Ħ":4586,"ĠìĥĢ":4587,"Ġì§ĢìłĲ":4588,"Ġê»į":4589,"ĠëĿ¼êµ¬ìļĶ":4590,"ĠìĿĺë¢°":4591,"Ġ100":4592,"ëħĶ":4593,"ĠìļĶìĿ¸":4594,"ĠìĿ¸ìĽĲ":4595,"Ġë¡ľìį¨":4596,"ĠëıĦë°ľ":4597,"Ġëĭ¤êµ¬ìļĶ":4598,"ëłĪê¸°":4599,"Ġê°Ģì¡Į":4600,"Ġê¿Ģ":4601,"Ġêµ°ëį°":4602,"ĠëĮĢìłĦ":4603,"ëĿ¼ìĬ¤":4604,"Ġê³¨ëĿ¼":4605,"Ġì£¼ìĭĿ":4606,"ëŀĦ":4607,"ĠìĬ¤ì¼Ģ":4608,"Ġë°©íķ´":4609,"ë¨¸ë¦¬":4610,"ĠëĬĲëĿ¼":4611,"Ġì£¼ëħĦ":4612,"Ġìłķìĭľ":4613,"ĠìķĦë¦Ħëĭ¤ìļ´":4614,"ë©¸":4615,"ĠìłķíĻ©":4616,"Ġê²ī":4617,"Ġëĭ´ë°°":4618,"Ġì§Ģìłķ":4619,"ìĸ´ëĶĶ":4620,"Ġìĸ´ìļ¸ë¦¬":4621,"ìķī":4622,"Ġê³µëĭ¨":4623,"Ġì²´íĹĺ":4624,"Ġì´Ľë¶Ī":4625,"Ġêµ°ìĿ¸":4626,"ĠìĿ¸ìĹ°":4627,"ĠíĶ¼íķĺ":4628,"ĠìĭŃìĿ´ìĽĶ":4629,"Ġë´ĲëĿ¼":4630,"ĠìĹ´ë¦°":4631,"Ġêµ¬ê²½":4632,"ë¡¤":4633,"ĠëĽ°ìĸ´":4634,"ìķĦì£¼":4635,"Ġë¶ĻìĿ´":4636,"Ġê°ģê°ģ":4637,"ê¼¬":4638,"Ġíķľê³Ħ":4639,"ĠíĶ¼ìĿĺìŀĲ":4640,"Ġx":4641,"ìłĿ":4642,"Ġìłģëĭ¹":4643,"ĠêµŃìŀ¥":4644,"Ġë°°ìĥģ":4645,"ë°ĶìĿ´íĬ¸":4646,"ĠìĨĮëħĢ":4647,"ĠìķĦëĭĪìķ¼":4648,"ìĻľëĥĲ":4649,"Ġìĸ´ëĶ¨":4650,"ëĭ¤ë¦¬":4651,"ĠìĤ¬ìĥģ":4652,"ĠëıĻìĽĲ":4653,"ĠíĨ¤":4654,"Ġê²½ê¸°ëıĦ":4655,"Ġìłľë³´":4656,"ĠìķĪíĥĢê¹Įìļ´":4657,"Ġìļ©ê¸°":4658,"ĠíĺĦì§Ģ":4659,"Ġëĸłìĺ¤ë¥´":4660,"ĠìĦ¸ìĽĮ":4661,"ĠíĮĮìĿ´":4662,"ĠìĨĮë°©":4663,"Ġë©¸":4664,"Ġìį¨ìķ¼":4665,"Ġê³łìĸĳìĿ´":4666,"Ġê¸°ë°ĺ":4667,"íĢ´":4668,"¥ĺ":4669,"©ìĿ´":4670,"ĠìĽĶê¸ī":4671,"Ġê²°íĺ¼ìĭĿ":4672,"Ġë°Ķìģĺ":4673,"ĠìĿ¼ê°ģ":4674,"Ġì¤Ħìĸ´ëĵ¤":4675,"ëĺĳ":4676,"Ġíİ¸ìĿĺ":4677,"Ġë§Īìķ½":4678,"Ġíģ¬ê¸°":4679,"Ġì£¼ìĨĮ":4680,"ê·¸ê±´":4681,"Ġíĥķ":4682,"Ġë¯¸êµ°":4683,"Ġë°ĺë©´":4684,"ĠëģĿëĤľ":4685,"ê¹¥":4686,"Ġìŀ¬ìłķ":4687,"ĠíĨµìłľ":4688,"Ġì²´íı¬":4689,"ĠìŀĲìłĦ":4690,"Ġìľłë³ĳ":4691,"êµ°ëĭ¤":4692,"Ġëĭ¹ìĤ¬ìŀĲ":4693,"íĭ´":4694,"Ġíıīì°½":4695,"ĠìŀĳìłĦ":4696,"Ġê¸įê¹Į":4697,"ĠíķĺìĿ´":4698,"ìłĿíĬ¸":4699,"Ġíķ´ìķ¼ì£ł":4700,"ê·¸ëĭĪê¹Į":4701,"Ġì£½ìĿ´":4702,"Ġëĸłìĺ¬":4703,"Ġëºı":4704,"Ġë²¤":4705,"Ġë¶ĪëłĢ":4706,"ĠíĽĶ":4707,"Ġìłľì£¼":4708,"Ġì±Ļê¸°":4709,"ê´ľ":4710,"Ġê·¹ë³µ":4711,"Ġìĭľìĭł":4712,"Ġê³µì§ģ":4713,"ĠíĿ¬ìĥĿ":4714,"Ġê·¸ë¦ĩ":4715,"Ġëĵľëł¤ìķ¼":4716,"ĠíıŃë°ľ":4717,"ĠëĵľëĶĶìĸ´":4718,"Ġìĸ´ë§Īìĸ´ë§Ī":4719,"ĠìħĢ":4720,"ĠìĽ¨":4721,"ĠìłĦëĭ¹":4722,"ĠíĶĮëŁ¬ìĬ¤":4723,"Ġìĺ¤ë¥¸ìª½":4724,"ĠíĶĦë¡ľìłĿíĬ¸":4725,"ëĳĶ":4726,"ĠìĿ¼ê¹Į":4727,"ĠìłĦíĸĪ":4728,"Ġëĭ¨ìĪľíŀĪ":4729,"ĠíĺĦê¸Ī":4730,"Ġn":4731,"Ġíļ¡":4732,"êµ°ëĭ¤ëĤĺ":4733,"Ġìĵ°ëłĪê¸°":4734,"ìĦľíĬ¸":4735,"Ġë²¨":4736,"Ġìĸ´ê¹¨":4737,"Ġì»¸":4738,"Ġìī¬ìļ´":4739,"ìĸ´ìłľ":4740,"Ġê³¼ìłľ":4741,"ĠìĨĲëĭĺ":4742,"Ġìŀ¥ìłĲ":4743,"Ġë¥´":4744,"ĠìĻ¼":4745,"ĠìĪĺìĪĺ":4746,"Ġì¶ĺ":4747,"ĠëĿ¼ë©´ìĦľ":4748,"ĠìĿ´ëŀĢ":4749,"Ġë²ĶìľĦ":4750,"Ġìķ¼ì§Ģ":4751,"Ġë°Ķê¹¥":4752,"ĠìĪĺìļ©":4753,"Ġìŀ¬íĮĲë¶Ģ":4754,"ĠìķĦë²ł":4755,"Ġëħ¼ë¬¸":4756,"ìį":4757,"Ġë²łìĿ´":4758,"ĠíĻĶìŀ¬":4759,"ĠëĿ¼ëĭĪê¹Į":4760,"ĠëĨĢëŀĲ":4761,"Ġíľ´ëĮĢíı°":4762,"ì¿ł":4763,"Ġë¬´ìĦŃ":4764,"ĠìĦľë¯¼":4765,"Ġì¹Ńì°¬":4766,"ĠìĿ¼ìĸ´ëĤ¬":4767,"Ġëħ¸ì¶ľ":4768,"Ġìĺ¨ëıĦ":4769,"ĠìłĪë°ĺ":4770,"Ġìļķìĭ¬":4771,"Ġêµ¬ëıĦ":4772,"Ġìĸĳìª½":4773,"ĠíĦ°ì§Ģ":4774,"Ġì¢ħìĿ´":4775,"ĠìķĦëĭĪë©´ìĿĢ":4776,"Ġìŀ¥ì¹ĺ":4777,"Ġë§ŀì¶°ìĦľ":4778,"Ġìĭ¤ë§Ŀ":4779,"ĠëĤ´ëł¸":4780,"ĠìķĦë¥´ë°ĶìĿ´íĬ¸":4781,"ĠëĬĲëĤĦ":4782,"ĠíĶĦëłĪ":4783,"ĠìĪĺë§İ":4784,"Ġì§Ģíľĺ":4785,"ĠìŀĲë¶Ħ":4786,"ĠíķĻìŀĲ":4787,"Ġê°ĲìŀĲ":4788,"Ġê¹Įì§Ħ":4789,"ĠìĭľìĽĶ":4790,"ķł":4791,"°©":4792,"Ġê±¸ëł¸":4793,"ĠìĻ¸êµŃìĿ¸":4794,"ĠìĬµê´Ģ":4795,"ĠìĥĺíĶĮ":4796,"ìĦłìĥĿ":4797,"Ġì¶ķìłľ":4798,"ĠìĪĺê³ł":4799,"ê½ĥ":4800,"Ġê³ģ":4801,"Ġì¹łìĽĶ":4802,"Ġ12":4803,"ĠìĦłë°ľ":4804,"Ġ11":4805,"Ġìĸ´ëł¤ìĽĮ":4806,"ĠëĶ°ë¥¸":4807,"Ġë²Ĺìĸ´ëĤĺ":4808,"ĠíĺľíĥĿ":4809,"Ġëĭ¤ìļ´":4810,"ê¸°ë¦Ħ":4811,"Ġì¶ľìĦĿ":4812,"Ġë¹Ħìĥģ":4813,"Ġì¶©ëıĮ":4814,"ĠìķĦìĭľìķĦ":4815,"ĠìĹ°ì¶ľ":4816,"ĠëĮĢíĺķ":4817,"ĠìĦ±ìĿ¸":4818,"ĠìĬ¤íĬľ":4819,"Ġê°ľë´ī":4820,"Ġìĸ´ëķł":4821,"ê·¸ë§Į":4822,"ĠëģĪ":4823,"Ġì¼ľ":4824,"Ġìŀħì¦Ŀ":4825,"Ġë¹¨ê°Ħ":4826,"Ġë¸Įëŀľëĵľ":4827,"ĠìĶ¹":4828,"Ġë¯¸ìĪł":4829,"Ġì¹´ì¹´ìĺ¤":4830,"ë©į":4831,"Ġëª½":4832,"Ġì¹¼ë":4833,"Ġëª°ëŀĺ":4834,"Ġê·łíĺķ":4835,"Ġìĺ¨ëĿ¼ìĿ¸":4836,"ĠìŁ":4837,"Ġìļ°ìļ¸":4838,"ĠíĽĦíļĮ":4839,"Ġë³Ģíķĺ":4840,"ĠìķĦìĿ´ëıĮ":4841,"ĠíĬ¹ì§ĳ":4842,"ĠìĹ°êµ¬ìĨĮ":4843,"ĠìĤ´íķ´":4844,"Ġê°Ģì§Ī":4845,"ê²Ĳ":4846,"ĠìĨĮíĻĺ":4847,"Ġë¶Ħë¦¬":4848,"ĠìĹ°ìĦ¤":4849,"Ġê¹ĢìĿ¼":4850,"Ġíĺ¼ëŀĢ":4851,"ìļ°ìĬ¤":4852,"Ġëĥīìŀ¥":4853,"Ġë¶ĢíļĮìŀ¥":4854,"ĠìĿ¼ìĸµ":4855,"Ġë§ĪìłĢ":4856,"ë¥Ļ":4857,"Ġëª¨ìĿĺ":4858,"Ġëĭ¹ìĽĲ":4859,"ĠìĺģìĹħ":4860,"Ġì«Ļ":4861,"ĠíĹĪëĿ½":4862,"ĠìłľìĻ¸":4863,"Ġì¦Ŀëªħ":4864,"ĠìĿ´ë¤Ħ":4865,"ĠìĪĺëĭ¨":4866,"ĠìĿµìĪĻ":4867,"Ġê¸°íĥĢ":4868,"ĠëıĦìĦľ":4869,"ë¦¬ìĬ¤ë§Ī":4870,"ĠëĤĺíĥĢëĤ¬":4871,"ëĶª":4872,"ëŁŃ":4873,"ĠíĮĶìĽĶ":4874,"ĠíħĮìĬ¤íĬ¸":4875,"Ġê±´ëĦĪ":4876,"Ġc":4877,"ìĿ´ê±´":4878,"Ġë¶ĢìľĦ":4879,"ĠíħĮìĿ´":4880,"ĠìķĦë¬´ëŁ°":4881,"Ġë³´ìĿ¸ëĭ¤":4882,"Ġì²łìłĢ":4883,"Ġíĺķìłľ":4884,"ìĿ¼ìĽĶ":4885,"ĠëĮĢì¶©":4886,"Ġê·¸ëŁ°ì§Ģ":4887,"ĠìĦ¸íĬ¸":4888,"ëĤ´ìĿ¼":4889,"ëĿ¼ë©´":4890,"ìķĦëĤ´":4891,"Ġíĥĵ":4892,"Ġíĸĩ":4893,"Ġì§ĢëĤ¬":4894,"ĠìŀĲìľ¨":4895,"Ġìľłê¸°":4896,"ê¼¼":4897,"ĠìĿ¸ìŀ¬":4898,"ĠìłĦìłľ":4899,"Ġëª¨ì§ĳ":4900,"Ġëıķ":4901,"Ġë§¥ì£¼":4902,"Ġìľłë³ĳìĸ¸":4903,"Ġë°´":4904,"Ġì¶Ķìłģ":4905,"Ġë¬´ëĦĪ":4906,"Ġíķľê°ĢìļĶ":4907,"ĠìŀĲìłĦê±°":4908,"Ġëĭ¬ëŁ¬":4909,"ĠêµŃë°©ë¶Ģ":4910,"ĠìĿĮë£Į":4911,"ê¶ĮìŀĲ":4912,"Ġê¹ĬìĿ´":4913,"íĶĶ":4914,"Ġë³´ê³łìĦľ":4915,"Ġìļ°ë¦¬ëĤĺëĿ¼":4916,"Ġì¤ĳëıĦ":4917,"Ġëħ¸ì¡°":4918,"Ġê¹ĢëĮĢì¤ĳ":4919,"ĠìĬ¤íİĺ":4920,"ëªĩ":4921,"Ġë¶ĻìĹ¬":4922,"ĠëıĻê¸°":4923,"ìĤŃ":4924,"ĠìĦłì§Ħ":4925,"ĠìĦľë°©":4926,"Ġëĭ¤ëĬĶëį°ìļĶ":4927,"Ġê°ķê²½":4928,"Ġê³µíķĻ":4929,"ĠëĮĢì²ĺ":4930,"ĠìĺĪë¹Ħ":4931,"Ġë¶ĢëĶª":4932,"ĠìĬ¤íĨłë¦¬":4933,"Ġê³°":4934,"Ġìĭľì§ĳ":4935,"Ġë§Īì¹¨":4936,"Ġì¤Ħê²Į":4937,"Ġë³´ìĻĦ":4938,"Ġìłĳì´ī":4939,"Ġì°¨ëł¤":4940,"ëĤĺë¬´":4941,"ĠìĿ¼ìĸ´ëĤľ":4942,"ĠìķĦëĿ¼":4943,"ĠìĨĮëħĦ":4944,"Ġì¦Ī":4945,"ëĭ¤ìĭľ":4946,"ĠìĻł":4947,"ĠëıĻë§¹":4948,"Ġë¹Ħë²ķ":4949,"ëĭĪìĬ¤":4950,"ĠìĿĮì£¼":4951,"ĠìĿ´ìłł":4952,"ĠìĤ´ë¦¬":4953,"Ġìĭłê°ĢìļĶ":4954,"Ġë°ķì§ĢìĽĲ":4955,"Ġë¹łì¡Į":4956,"ĠìĭŃìĿ¼ìĽĶ":4957,"ĠêµŃë©´":4958,"Ġê¹ĢíĺĦ":4959,"Ġê³±":4960,"Ġë¶Īê°Ģ":4961,"Ġê°Ħíĺ¸":4962,"ĠëıħìĦľ":4963,"ĠìĤĲ":4964,"ĠìħĪ":4965,"Ġê·¸ë¥´":4966,"ëŀį":4967,"Ġëĵ±ëĵ±":4968,"ìĵ¸":4969,"ĠìķĦìī½":4970,"ĠìĹ¬ì§Ģ":4971,"ìļ°ìĦł":4972,"ĠëıĻìĺģìĥģ":4973,"Ġë°±ìĦ±":4974,"Ġíķ´ì¡Į":4975,"Ġê¶":4976,"Ġì¶ĶìĦĿ":4977,"ĠíĻĶëł¤":4978,"ê·ľì§ģ":4979,"ĠìŀħíķĻ":4980,"Ġìĭ¬íĮĲ":4981,"ĠìłķìĿĺëĭ¹":4982,"ĠëŁ°":4983,"ĠëĤĺìĦ°":4984,"ì¹«":4985,"Ġë¶ĢìŀĲ":4986,"Ġíİ´":4987,"Ġë°©ì§Ģ":4988,"ìĿ´ìħĺ":4989,"Ġë°°ìĽĮ":4990,"ĠìĤ´ìķĦê°Ģ":4991,"Ġê°ľíİ¸":4992,"ĠíĻĶìŀ¥íĴĪ":4993,"Ġê³Ħìĭ¤":4994,"ĠíĨłìļĶìĿ¼":4995,"ĠëĤ¯":4996,"ë²¤íĬ¸":4997,"ĠìĻ¼ìª½":4998,"am":4999,"Ġê¸°ìļ¸":5000,"ê±Ģ":5001,"Ġì§ĢëıĦë¶Ģ":5002,"Ġì§Ħë¡ľ":5003,"Ġìĺ®ê²¨":5004,"Ġë¬´ì£Ħ":5005,"íĿĲ":5006,"Ġê°Ģë£¨":5007,"Ġì½ĶìĬ¤":5008,"ì»µ":5009,"Ġì½ĺìĦľíĬ¸":5010,"Ġë³´ê±´":5011,"ĠíħĮëŁ¬":5012,"Ġíķ´ìĨĮ":5013,"Ġì§ģìłĦ":5014,"Ġíı¬ìŀ¥":5015,"ĠëĿ¼ê³łìļĶ":5016,"Ġìĸĳë°ĺ":5017,"Ġìľ¼ìĿĮ":5018,"ĠíĺĪìķķ":5019,"Ġìĭ¤ê¹ĮìļĶ":5020,"Ġìŀĳê³¡":5021,"ĠëĬĶêµ°ìļĶ":5022,"ĠëģĵìĹ¬":5023,"ĠíĽ¼ìĨĲ":5024,"Ġíĩ´ê·¼":5025,"Ġì¹ĺíĤ¨":5026,"ĠëĮĢë°ķ":5027,"Ġëĭ¬ëĿ¼ì§Ģ":5028,"ĠëıĻë£Į":5029,"Ġë¦°":5030,"ĠìłĪëĮĢë¡ľ":5031,"Ġê³¨íĶĦ":5032,"ë¿":5033,"ĠìĹĲìĦľë¶ĢíĦ°":5034,"Ġë¹Įëł¤":5035,"ê²ł":5036,"ĠìĦ¤ë§Ī":5037,"Ġê³łê°ľ":5038,"ĠëķĮë¦¬":5039,"ĠëĶ°ìł¸":5040,"ë¯¸íĦ°":5041,"Ġë¬¸ìłľìłĲ":5042,"ĠìŀĺëĿ¼":5043,"Ġëĳĺì§¸":5044,"ĠìŀĲëĿ¼":5045,"ëıĻìĥĿ":5046,"Ġê¹İ":5047,"Ġìľ¼ëĭĪê¹ĮìļĶ":5048,"Ġë°ķìĽĲ":5049,"Ġì§Ħìĥģ":5050,"Ġê²½ê³Ħ":5051,"Ġë°©ìĸ´":5052,"ĠíĿ¥ë¯¸":5053,"Ġë²Įìĸ´ì§Ħ":5054,"Ġì»µ":5055,"ĠíıĲê¸°":5056,"Ġë¶ĢëŁ¬":5057,"Ġìĭłëĭ¤ê³ł":5058,"Ġë¨¼ì§Ģ":5059,"Ġìłľìŀĳì§Ħ":5060,"ĠìĿ´ëŀĺìĦľ":5061,"ĠëĨĢìĿ´":5062,"ëķħ":5063,"Ġë¹¼ë":5064,"Ġëĭ¨ëıħ":5065,"ĠëĤĺìĺ¨ëĭ¤":5066,"Ġë§¤ì²´":5067,"Ġë§¤ìŀ¥":5068,"ĠíĶĦë¦¬":5069,"Ġìĸ¸ìłł":5070,"ê³łê°Ŀ":5071,"Ġëªħë¶Ħ":5072,"Ġê¹Ģì¢ħìĿ¸":5073,"ĠìľĦì£¼":5074,"Ġë¹łì§Ħ":5075,"ĠíĥĦìĥĿ":5076,"Ġíķ´ì§Ħ":5077,"ìłĦìŀĲ":5078,"Ġë¶Ģíĥģëĵľ":5079,"Ġë¬´ìĦľìļ´":5080,"Ġê²½ê¸°ìŀ¥":5081,"Ġìļ´ëªħ":5082,"ĠíĿł":5083,"ĠìŀĲì¡´":5084,"ĠíĺĢ":5085,"ĠìĦ¤ìłķ":5086,"ĠìĪĺìĿµ":5087,"Ġê°Ŀê´Ģ":5088,"ê³łìĤ¬":5089,"Ġê³µì£¼":5090,"ĠìĿ´ë¥¼":5091,"Ġë³¸ì§Ī":5092,"ĠìłĦìĦ¸":5093,"ĠëĲľìŀ¥":5094,"Ġìĸ´ì©Įë©´":5095,"Ġìĭ¬ìłķ":5096,"Ġíĺĳìłķ":5097,"Ġì©":5098,"ĠìĹĺë¦¬":5099,"Ġê¹ĢìĿ¼ìĦ±":5100,"ĠëªħìłĪ":5101,"ë±":5102,"Ġë©´ìĹŃ":5103,"Ġëª»íķł":5104,"Ġíĥľìĸ´ëĤĺ":5105,"Ġê³ĦìĹ´":5106,"ĠìŀĦê¸°":5107,"Ĩĵ":5108,"Ġëĭ´ê²¨":5109,"ĠëĵĿ":5110,"ĠìĹ¬ê¶Į":5111,"ëĸ¡":5112,"Ġë°ķìłķíĿ¬":5113,"Ġê°ķìĽĲ":5114,"Ġëª¨ìľ¼":5115,"Ġìļ°ìĪĺ":5116,"ĠëĬĻ":5117,"ĠìľĦë¡ľ":5118,"ëĮĢìļĶ":5119,"Ġì¼ĢìĿ´ìĬ¤":5120,"ĠìĺĪìģľ":5121,"Ġìľ¼ëĤĺ":5122,"ĠìŀĲìĤ´":5123,"ĠëłĪìĿ´":5124,"ìĩ¼":5125,"ĠìĿ´ë²¤íĬ¸":5126,"Ġë°ĺê°ĳ":5127,"Ġíĳľìĭľ":5128,"Ġëĭ¬ê±Ģ":5129,"ĠìļĶìĺ¤":5130,"ĠíĺĪìķ¡":5131,"Ġíĸīë³´":5132,"Ġìĸĳë³´":5133,"ĠëĤ©ëĭĪëĭ¤":5134,"Ġëĵłê°Ģ":5135,"Ġì§Ģíķĺì²ł":5136,"ĠíĬ¸ëŀĻ":5137,"Ġê·¸ëĤĺë§Ī":5138,"Ġê¾¸ì¤ĢíŀĪ":5139,"Ġë¶ķ":5140,"Ġìľ¼ë£¨":5141,"ĠíĮ½":5142,"Ġë²Įìĸ´ì¡Į":5143,"Ġëľ¯":5144,"Ġìŀ¥ë¥´":5145,"Ġê·¹ìŀ¥":5146,"ìĺ·":5147,"ĠêµĲíĻĺ":5148,"Ġë¹Ļ":5149,"ĠíĿ°":5150,"Ġê·¸ë¦°":5151,"ĠìĥĿê°ģëĤĺ":5152,"Ġëĭ¤ìĿ´":5153,"Ġê°±":5154,"ë¡ľìļ´":5155,"Ġê°Ģë¥´ì³Ĳ":5156,"ëĦ£":5157,"ĠëıĻìķĦë¦¬":5158,"ĠìĿĺìĻ¸":5159,"ĠìļĶê²Į":5160,"ĠëŃĺê¹ĮìļĶ":5161,"Ġê°Ĳê¸°":5162,"Ġì£¼ìŀĲ":5163,"Ġë§ĮíĻĶ":5164,"Ġë¯¸ìĨĮ":5165,"ĠìĿ´íĥĪ":5166,"ĠëĤ´ìĦ¸":5167,"Ġê¸īíķĺ":5168,"Ġ19":5169,"Ġë¹Ħìĭ¼":5170,"Ġì½ĺíħĲì¸ł":5171,"ĠìŀĲìĽĲ":5172,"Ġëĭ¤ëħĢìĺ¤":5173,"Ġê¸ĢìİĦìļĶ":5174,"ĠìĽĢì§ģìŀĦ":5175,"Ġìļ°ìľł":5176,"ê¸ĭ":5177,"Ġëĭ¤ë¥¼":5178,"ìĸ¸ëĭĪ":5179,"Ġëī´ìļķ":5180,"Ġê·¸ëŁ°ê°Ģ":5181,"Ġë³´ìķĪ":5182,"ĠìĹŃëŁī":5183,"ĠìĿ´ë§Į":5184,"Ġìĭľë¦¬":5185,"Ġê³µíĨµ":5186,"Ġíķľê°Ģ":5187,"Ġë°°ëł¤":5188,"ĠíĨłíģ¬":5189,"Ġìļ´ìłĦìŀĲ":5190,"ĠëıĦìłĢíŀĪ":5191,"ëļ±":5192,"Ġb":5193,"Ġëĥīìŀ¥ê³ł":5194,"Ġê·¸ìłĢ":5195,"ĠìļĶê¸°":5196,"ìķĹ":5197,"Ġê»įì§Ī":5198,"íĹ¤":5199,"Ġì»¤ì§Ģ":5200,"Ġëħ¼ìĪł":5201,"ĠìĿ´ìŀ¬ìļ©":5202,"ê´Ħ":5203,"íĿĺ":5204,"Ġë°ĺì°¬":5205,"ĠìĿĢì§Ģ":5206,"ì²¨":5207,"ĠëĤ¨ê¸°":5208,"Ġë§¤ì¶ľ":5209,"ĠìĿĺíļĮ":5210,"Ġê¹Ģê¸°":5211,"Ġì»¬":5212,"ĠíķľíħĲ":5213,"Ġíĺĳì¡°":5214,"Ġê·ĢìĹ¬":5215,"ĠìłķìĦľ":5216,"ë°ĶìĿ´":5217,"Ġê¶ģê¸Īì¦Ŀ":5218,"Ġìł¸ìķ¼":5219,"Ġë°ĶíĢ´":5220,"ĠìĦ¸íı¬":5221,"Ġê·¹ëĭ¨":5222,"ĠíļĮìĽĲ":5223,"ĠìĦ¤ê³Ħ":5224,"Ġë©ĭì§Ħ":5225,"ìľ¼ë¡ľ":5226,"ëª¸":5227,"Ġë³´ìĿ¼":5228,"ìĤ¬ìŀ¥":5229,"ĠìĿ´ìĺģ":5230,"Ġìľłë£Į":5231,"ĠìĺĪë§¤":5232,"Ġë°ĺê¸°":5233,"ĠëĪĮëŁ¬":5234,"ĠíĭĪ":5235,"Ġëª¨ë¥¼":5236,"Ġì§ĳëĭĪëĭ¤":5237,"ĠëĶĶìłľìĿ´":5238,"Ġê²Įëĭ¤ê°Ģ":5239,"ĠìķĦê°ĢìĶ¨":5240,"ĠìĬ¤íĬľëĶĶìĺ¤":5241,"ĠìĥĪìļ°":5242,"ĠìŀĦìĭľ":5243,"Ġëĭ¤ëħĶ":5244,"ì´Ŀë¦¬":5245,"Ġê°ĶìĹĪ":5246,"Ġê·¸ê±¸ë¡ľ":5247,"Ġëħ¹ìĿĮ":5248,"Ġê´´ë¡Ń":5249,"ĠëĤ¨ëħĢ":5250,"ĠëĮģ":5251,"ĠìĬ¤ë§ĪíĬ¸íı°":5252,"Ġíĭ°ì¼ĵ":5253,"Ġê°Ģíķ´ìŀĲ":5254,"Ġìĭłëį°":5255,"ĠìłĦë©´":5256,"Ġìĭľìĸ´ë¨¸ëĭĪ":5257,"Ġìĭłíĺ¸":5258,"ĠìĹŃëĮĢ":5259,"Ġê·¼ë¡ľìŀĲ":5260,"ĠíĻķìĤ°":5261,"Ġê³¤ëŀĢ":5262,"Ġëĭ¨ìľĦ":5263,"ĠìŀĲë³¸":5264,"Ġëĭ¹ëĩ¨":5265,"ìĺģíĻĶ":5266,"Ġíİ¸ì§ĳ":5267,"ëľ¨":5268,"Ġëĭ¤ëĭĲ":5269,"ĠìĻĦíĻĶ":5270,"Ġë°Ķë³´":5271,"Ġê¹Ģì§Ģ":5272,"Ġì°¸ê°Ģ":5273,"Ġëŀ©":5274,"Ġëį©":5275,"Ġíİľ":5276,"ë¸ĮìĿ´":5277,"Ġìł¸ìĦľ":5278,"Ġë§ĪìĬ¤íģ¬":5279,"Ġê³³ê³³":5280,"ĠëįĶêµ°ëĭ¤ëĤĺ":5281,"ĠíĽĦë°ĺ":5282,"ĠíĬ¹ìĦ±":5283,"ë¬¸íķĻ":5284,"ĠëĤ¨íķľ":5285,"Ġë®¤ì§ģ":5286,"ê°Ħëĭ¤":5287,"ĠìĹ°ê·¹":5288,"ĠìķĮëł¤ì§Ħ":5289,"ĠëĤ´ëĤ´":5290,"ĠíĮĮìĿ¼":5291,"ĠìĻĢì¤ĳ":5292,"Ġê³Ħì¢Į":5293,"ë²¼":5294,"Ġì²«ì§¸":5295,"Ġëĭ¤ìĬ¤":5296,"ĠíķľêµŃìĿ¸":5297,"ë°°ìļ°":5298,"êµĲìľ¡":5299,"ĠìŀĦìĭł":5300,"ĠëĵľëŁ¬ëĤ´":5301,"Ġê²°ìĭ¬":5302,"Ġë°±ìĸµ":5303,"ĠëĪĪë¹Ľ":5304,"Ġê²½ëł¥":5305,"ĠëĦ·":5306,"ĠìĿĺíķĻ":5307,"ĠìĿ´ëĤ´":5308,"Ġì¸¡ê·¼":5309,"Ġë²ĮìĿ´":5310,"Ġê±°ë¡ł":5311,"ĠíĻ©ëĭ¹":5312,"ĠíķľìŀĶ":5313,"Ġë°ķìĽĲìĪľ":5314,"ìħī":5315,"ë³´ëĤ´":5316,"Ġê¸°ë¶Ģ":5317,"ĠìĪĺìļĶìĿ¼":5318,"Ġê²½ê³ł":5319,"Ġê½ī":5320,"Ġë¯¸ëĶĶìĸ´":5321,"Ġë°°ìłľ":5322,"Ġì²ŃìĤ°":5323,"Ġìĺ¬ë¦°":5324,"Ġê¸´ê¸ī":5325,"íķľêµŃ":5326,"ìĿĢìĿ´":5327,"Ġì¦ĿìĿ¸":5328,"ĠìĪĺë¦¬":5329,"ĠëļĿ":5330,"Ġë°ľíľĺ":5331,"ĠìĹ´ìłķ":5332,"Ġëª¨ìĹ¬ìĦľ":5333,"Ġëĵľìĭ¤":5334,"Ġì²ľìĸµ":5335,"Ġìĭłëĭ¤ë©´":5336,"Ġê³łìłķ":5337,"ĠìłĦíĪ¬":5338,"Ġê²½íĸ¥":5339,"ĠìĦľë¶ĢíĦ°":5340,"Ġìŀħë²ķ":5341,"Ġë§ĪíĬ¸":5342,"Ġëĭ¨ë°±":5343,"Ġì§ł":5344,"ĠìĦŃì·¨":5345,"ê²¹":5346,"Ġëįĺëį°ìļĶ":5347,"ê¼Ń":5348,"Ġë¬¸íĿ¬":5349,"Ġê¼¼ê¼¼":5350,"ĠìĥĪëģ¼":5351,"ĠíĿĶìłģ":5352,"ĠìľĦìķĪ":5353,"Ġìį¨ìĦľ":5354,"Ġìĥģê´ĢìĹĨ":5355,"ĠìĿ´ìģĺ":5356,"ĠìķĦìĦ¸ìļĶ":5357,"ĠìłĦìĽĲ":5358,"ĠìĬ¤íħĮ":5359,"ĠìĹĲìĸ´":5360,"ì£ĦìĨ¡":5361,"ĠìĦ¸íĥģ":5362,"Ġìķµì»¤":5363,"Ġì¤ĳìĨĮ":5364,"Ġê°ĲìĦ±":5365,"ĠìĿ´ìĽĥ":5366,"ê¶Ĳ":5367,"ĠìĿ¼ìļĶìĿ¼":5368,"Ġë§ĪìĿ´íģ¬":5369,"ĠëĪĦìĽĮ":5370,"ĠìŁ¤":5371,"Ġë¶Ģìĥģ":5372,"ĠëıĻìĿ¼":5373,"Ġë§¤ëĭĪ":5374,"ĠìĿ¼ìľ¼íĤ¤":5375,"ë¶Ģë¡ľ":5376,"Ġì£¼ìĦ¸ìļĶ":5377,"ĠìĦľìļ¸ëĮĢ":5378,"ame":5379,"Ġë³´ëĤ¼":5380,"ĠìľłìĤ°":5381,"Ġëĳ¬":5382,"Ġë¸Įë¦¬":5383,"Ġë³´ë³µ":5384,"ĠìĺģíĻĶìłľ":5385,"Ġë§Īëĭ¹":5386,"ë³¶":5387,"ĠíĽĦìĽĲ":5388,"Ġë©Ķë¥´":5389,"ëĵŃ":5390,"ĠíĮĲë¬¸":5391,"ĠìĪĺìĭŃ":5392,"Ġìķ¼ë":5393,"ĠìĬ¤ë¬´":5394,"ëª½":5395,"Ġì§¤":5396,"Ġëªħëł¹":5397,"Ġì£¼ë¬´":5398,"ĠìĿ¸íķ´":5399,"ĠìŁģìłĲ":5400,"Ġëĭ¹ëĭ¹":5401,"Ġë¦¬ëįĶìĭŃ":5402,"Ġë¬¸ìĿĺ":5403,"Ġìĺ¤ë¥ĺ":5404,"ĠìĭĿì´Ī":5405,"Ġìĭ¤ë¬´":5406,"Ġíķĺìĸ":5407,"ëĵľëĿ¼ë§Ī":5408,"Ġë³´ì¦Ŀ":5409,"Ġìĭłëĭ¤":5410,"Ġíļį":5411,"ĠëĥĲëĬĶ":5412,"Ġê±¸ë¦°":5413,"Ġì¹¨ëĮĢ":5414,"ĠìĹ°ìĨį":5415,"ĠêµĲë¥ĺ":5416,"ĠìłĳìĪĺ":5417,"Ġë§ŀìĿ´":5418,"ĠíĥĢê²©":5419,"Ġìį©":5420,"ĠìĪĺìĥī":5421,"ĠìłĢë²Ī":5422,"ĠíĿĺë¦¬":5423,"ìĹ¬ìķ¼":5424,"Ġë¶ĢìĦľ":5425,"ë©ĺ":5426,"ĠìļĶê±´":5427,"Ġì¡°ì¹´":5428,"ĠíĻĶíķĻ":5429,"ĠìĤ¬ëĿ¼ì§Ģ":5430,"Ġìĺ¨ëĭ¤":5431,"ĠìĶ¬":5432,"ĠëĨįëĭ¨":5433,"Ġìĺ¤ìĿ¼":5434,"Ġë§¤ìļ´":5435,"Ġê°Ĳìĭľ":5436,"Ġì»¤íĶĮ":5437,"ĠìļĶìłľ":5438,"ĠìĹ°ê³Ħ":5439,"ĠìķĦëĩ¨":5440,"ë¹µ":5441,"Ġê³łë°±":5442,"Ġê´Ģíķ´ìĦľ":5443,"Ġíŀĺëĵľ":5444,"ĠìĪĺë¶Ħ":5445,"ëĦĮ":5446,"ĠìĨĲê°ĢëĿ½":5447,"Ġìłķíķĺ":5448,"Ġëĭ¨ë°±ì§Ī":5449,"íĦ°ë¦¬":5450,"Ġì±Ħìļ©":5451,"Ġì³¤":5452,"ìĮį":5453,"ĠëĿ¼ìĿ´ë¸Į":5454,"ĠìĿ¼ìłľ":5455,"Ġì¡´ì¤ĳ":5456,"ĠìĹ¬ìĦľ":5457,"ĠëĮĢê°ľ":5458,"ĠìłķìĭĿ":5459,"Ġìľ¤ë¦¬":5460,"Ġì¢ħìĿ¼":5461,"Ġ15":5462,"ĠíİĢ":5463,"Ġìĺ¤íĶĪ":5464,"Ġìĸ´ëĶľ":5465,"ĠíĿĲë¥´":5466,"Ġp":5467,"íķĺíķĺ":5468,"Ġëĭ¥":5469,"Ġì§ĢìĿ¸":5470,"Ġíĺ¸ìĨĮ":5471,"ĠíĻķë¥ł":5472,"ĠëıħìŀĲ":5473,"ĠìķĮëł¤ì¡Į":5474,"Ġì§ĢëĮĢ":5475,"ĠìĿ´ëħĲ":5476,"ĠìĿ¼ë°©":5477,"ëĭ·":5478,"Ġë°°ìĭł":5479,"ĠëŀĦê¹Į":5480,"ëŀĳìĿ´":5481,"ĠìķĪìĭ¬":5482,"Ġë°ĶëĢĲ":5483,"ëłī":5484,"Ġìĭ¤ìĭľê°Ħ":5485,"ĠëĤĺê²½":5486,"Ġì¡°íķ©":5487,"Ġë¬´ìĤ¬":5488,"ëĤĺë¬¼":5489,"ĠíĮ¨ìħĺ":5490,"Ġì±ĦëĦĲ":5491,"ìĸ´ìł¸":5492,"Ġë³ĳìļ°":5493,"Ġëĭ¹ëĤ´":5494,"ĠìĻĦë£Į":5495,"Ġê·¸ì¹ĺ":5496,"Ġíĺ¸ë¥´":5497,"Ġê½Ĥ":5498,"ĠíĴįê²½":5499,"íĺĢìĦľ":5500,"ĠìĹĩ":5501,"Ġëĭ¤ìĪĺ":5502,"ĠìĿ´ì¢ħ":5503,"ĠíĬ¼":5504,"ĠëıĮìķĦìĻĶ":5505,"ìī¬":5506,"ëŀĢíŀĪ":5507,"ĠìľłíĨµ":5508,"Ġì§Ģë°°":5509,"Ġëĭ¤ë©´ìĿĢ":5510,"ĠíķĺëĿ½":5511,"Ġìĭłë°ľ":5512,"Ġê³ĦìłĪ":5513,"êº¼":5514,"Ġìĸ´ëĸłìĦ¸ìļĶ":5515,"Ġëħ¼ìŁģ":5516,"ìļ´ëĵľ":5517,"ĠìĿ´ê²¨":5518,"Ġì£¼ìľĦ":5519,"ĠìłĢëł´":5520,"Ġì¡°ìĦ±":5521,"ëĦĺ":5522,"ĠìĤ¬ëł¹":5523,"Ġë¶ĢìĹ¬":5524,"Ġ/":5525,"ĠëĮĢê°Ģ":5526,"ĠìĤ¬ìĿ¸":5527,"ê¹ĥ":5528,"íķĢ":5529,"ĠëĦĺì¹ĺ":5530,"ĠìĤ¬ìĿ´ì¦Ī":5531,"Ġì¡°ìĸ¸":5532,"ëģĦëŁ½":5533,"Ġë°©íĥĦ":5534,"Ġìĵ°ë¦¬":5535,"ĠíħĶ":5536,"Ġíķ¨ë¶Ģë¡ľ":5537,"ë¬ĺ":5538,"Ġìĳ¥":5539,"Ġìĭ¤ìĭľ":5540,"Ġê³łë¥´":5541,"Ġëĺĳëĺĳ":5542,"Ġìľ¤ìĦĿ":5543,"ì¶¤":5544,"Ġíĺ¸ë¥´ëª¬":5545,"ĠìĤ¬ë¡ľ":5546,"ëĤ©ëĭĪëĭ¤":5547,"ĠìĥģìŀĦ":5548,"Ġìĭ¤ì¢ħ":5549,"Ġê¹ĢëıĻ":5550,"Ġëª©ìļĶìĿ¼":5551,"ĠëĪĪê¸¸":5552,"ëĴ¤":5553,"Ġì£¼ìĦ¸":5554,"ëĵľë¦¬":5555,"Ġë²Įê¸Ī":5556,"Ġëĭ¤íĸīíŀĪ":5557,"ĠíĮĲë¬¸ìłĲ":5558,"ë¶ĢìĿ¸":5559,"Ġë¶Ģì²ĺ":5560,"Ġì§Ħì§Ģ":5561,"ĠìķĦëĭĮì§Ģ":5562,"Ġì¡°ìļ©íŀĪ":5563,"Ġì°ľ":5564,"Ġê´ĢëŀĮ":5565,"ë´ĩ":5566,"Ġë³´ìĹ¬ìļĶ":5567,"ĠìĻłì§Ģ":5568,"Ġìłľì¡°":5569,"ĠìĿ´ë©ĶìĿ¼":5570,"Ġë©į":5571,"ĠìĤ¬ë¡ľìŀ¡":5572,"ĠìłĢìŀĲ":5573,"ĠíĹĪìļ©":5574,"Ġë³µê·Ģ":5575,"Ġê¹ĶëģĶ":5576,"Ġê³łêµ¬ëł¤":5577,"Ġë³ĳìĤ¬":5578,"Ġì§ĢìĹŃêµ¬":5579,"Ġëıĭ":5580,"íĻķìĿ¸":5581,"Ġì´Į":5582,"Ġë¶Ļìŀ¡":5583,"Ġë°ĺëł¤":5584,"ë¯¸ìķĪ":5585,"ê¹ģëĭĪëĭ¤":5586,"Ġìĺ¤ë¦¬":5587,"ìĽĮíķĺ":5588,"Ġì§Ģìĥģ":5589,"Ġë³´ì¢Į":5590,"Ġìį¬":5591,"Ġì§Ħì¶ľ":5592,"ĠëıħíĬ¹":5593,"Ġìŀħë§Ľ":5594,"ĠìĦ±íıŃíĸī":5595,"ĠìķĦìĿ´ëĶĶ":5596,"Ġëĵ¤ìľ¼ë©´ìĦľ":5597,"ĠëĤĺìķĦê°Ģ":5598,"Ġëĵ¤ìĸ´ìĦľ":5599,"Ġê±°ëĮĢ":5600,"Ġìĸ´ëĳĲ":5601,"ê±°ì§Ģ":5602,"Ġëł¤êµ¬ìļĶ":5603,"Ġê¸Ģë¡ľ":5604,"ë¶Ģì§Ģ":5605,"ĠëĨįëĭ´":5606,"ë¦ī":5607,"ĠëįĶëŁ¬":5608,"ĠìŀĳëıĻ":5609,"Ġ50":5610,"ĠíĿ¡ìĪĺ":5611,"ìŀłìĭľ":5612,"Ġê³µíĻĶ":5613,"ĠìĿ¸ëł¥":5614,"Ġìĸ´ëĶĺ":5615,"Ġì¹´ì¹´ìĺ¤íĨ¡":5616,"Ġë©ĶìĿ´":5617,"Ġì¹¸":5618,"ĠíĺĳíļĮ":5619,"ĠëĤ´ëł¤ìĺ¤":5620,"Ġê²½ìŁģëł¥":5621,"ìĺĪìĺĪ":5622,"Ġíİ¸ìĿĺìłĲ":5623,"ĠëĳĲë¶Ģ":5624,"Ġì¶ľìŀħ":5625,"Ġë°Ķíĥķ":5626,"Ġë°Ķë¥´":5627,"ĠìķĦìĿ´êµ¬":5628,"ĠìĿĺíķľ":5629,"Ġì¹ĺìĹ´":5630,"ĠíİĺìĿ´ìĬ¤":5631,"Ġê²½íĺ¸":5632,"ĠìĻĢìĿ¸":5633,"ĠíĶ¼ìķĦ":5634,"ìĿ´ëķĮ":5635,"ê°ĻìĿ´":5636,"Ġë§Įë§Į":5637,"Ġê°ĢìĬ¤":5638,"Ġì¸¡ìłķ":5639,"Ġë°ĶëŀĮì§ģ":5640,"Ġëª»íķ´":5641,"Ġì¦Ĳê²ģ":5642,"ê´ľì°®":5643,"Ġì§Ģì§Ħ":5644,"ì¡¸":5645,"Ġìľłê¶ĮìŀĲ":5646,"ìĹ¬ëŁ¬":5647,"ĠìĿ¸ìĪĺ":5648,"Ġìŀī":5649,"ĠìĹ´ëł¸":5650,"ĠìľłíķĻ":5651,"ĠëıĦìĦľê´Ģ":5652,"ĠìŀħìĽĲ":5653,"ëĬ¦":5654,"ìĹĲíĶĦ":5655,"Ġë§¤ëĭ¬":5656,"ĠëĿ¼ê¸°":5657,"ĠíĪ¬ëªħ":5658,"ĠìĨįìĥģ":5659,"ĠìľłìĤ¬":5660,"ê¾¼":5661,"Ġë§īìĥģ":5662,"Ġíģ´ëŁ½":5663,"Ġë²Ħë¦´":5664,"Ġìĭľì¼ľìķ¼":5665,"ĠìĽĶëĵľì»µ":5666,"ĠíĥĲêµ¬":5667,"Ġê³łìĤ¬":5668,"Ġì°¨ê´Ģ":5669,"Ġì°°":5670,"ĠêµĲìľ¡ê°Ĳ":5671,"Ġì¤ĳëĮĢ":5672,"Ġê°ĲìĹ¼":5673,"Ġìĺģêµ¬":5674,"Ġë°ĿíŀĮ":5675,"Ġë§¡ê¸°":5676,"Ġëĵľë£¨":5677,"Ġë©ľ":5678,"ìĪŃ":5679,"Ġìĭ¬íķľ":5680,"ĠìĹ°êµ¬ìĽĲ":5681,"ë²ħ":5682,"ĠíĻ©ìłľ":5683,"Ġê°Ģê¹Ŀ":5684,"Ġëį°ìļĶ":5685,"ĠíĨµì¦Ŀ":5686,"Ġë°´ëĵľ":5687,"ĠëģĶ":5688,"Ġëª©ê²©":5689,"ìķĦë¹ł":5690,"ìĺ¤ë¹ł":5691,"Ġìĭłì²´":5692,"Ġíĸ¥íķ´ìĦľ":5693,"ĠìłĦëł¥":5694,"Ġê±¸ìĿĮ":5695,"Ġì²ĺë¶Ħ":5696,"ĠíĮĮíĬ¸":5697,"Ġë§ĪíĿĶ":5698,"ĠìĿ¸ê·¼":5699,"Ġíģ´ëŀĺ":5700,"Ġì¶ľìĤ°":5701,"ĠìĿ´ìĤ¬ìŀ¥":5702,"ëĶĶìħĺ":5703,"ĠëĮĢê¶Į":5704,"ĠíĻķìŀ¥":5705,"Ġê·¸ëŁ¼ìļĶ":5706,"Ġì¤ĳê³Ħ":5707,"ë¨¼ìłĢ":5708,"Ġê±°ìłĪ":5709,"Ġìķłìłķ":5710,"Ġíĳ¹":5711,"Ġ~!":5712,"Ġìľ¼ëĿ¼ê³ł":5713,"ìĿ´ëĤł":5714,"Ġë°ķìĬ¤":5715,"ëĨĢ":5716,"ĠìĪ¨ê²¨":5717,"ĠëĮĢíķ´ìĦł":5718,"ìĥĿê°ģ":5719,"ĠëĶ°ëĿ¼ê°Ģ":5720,"ĠíĹ·":5721,"ĠëģĬìŀĦ":5722,"īĺ":5723,"Ġë¦¬ê·¸":5724,"Ġë¬´ìĹŃ":5725,"Ġëª¨ìħĶ":5726,"Ġìĭľë¦¬ì¦Ī":5727,"ĠíĪ¬ìŀħ":5728,"ĠíĶĮëłĪìĿ´":5729,"Ġê²¹":5730,"Ġìĭľê³¨":5731,"ĠìĿ´ëª¨":5732,"ĠâĢĻ,":5733,"Ġê¹Ģìļ©":5734,"ĠíŀĲ":5735,"Ġê³łëŁ°":5736,"ĠëĤĺìĻĢìķ¼":5737,"Ġìıł":5738,"Ġì°©ê°ģ":5739,"Ġì¤ĳëıħ":5740,"ë³į":5741,"Ġë¬´ê²Į":5742,"ë¦¬ìĸ´":5743,"Ġê·¸ê³³":5744,"Ġê°Ģíĥľ":5745,"ĠëĨĵì¹ĺ":5746,"ĠëłĮ":5747,"ìĸ´ëĦ£":5748,"Ġëį°ìĿ´íĬ¸":5749,"íĨ¤":5750,"Ġë§ĪìħĶ":5751,"ĠìĦ¬ìľł":5752,"ĠìĹ¬ìĿĺ":5753,"Ġë½Ģ":5754,"Ġë°°ìĽł":5755,"ĠëıĦëįķ":5756,"ĠìĥĿì¡´":5757,"Ġìĭłìļ©":5758,"Ġê³łê¸ī":5759,"Ġê¸°ê°ģ":5760,"Ġë¹ĦëĶĶìĺ¤":5761,"ĠìĹ°ë§Ĳ":5762,"ë£¬":5763,"Ġë³ĢìĪĺ":5764,"Ġì¦Ĳê±°":5765,"ĠëĥĲêµ¬":5766,"ĠëĬĲëĤĢ":5767,"Ġìļ°ìĬ¹":5768,"ĠìĬ¹ë¶Ģ":5769,"ëĵ¤ìĸ´":5770,"Ġì°¨ëĭ¨":5771,"Ġíıīëĵ±":5772,"Ġëĵľìħ¨":5773,"ë°Ķëĭ¥":5774,"Ġë§¤ëħĦ":5775,"Ġë³ĦëıĦ":5776,"Ġë³´ìľł":5777,"ĠíĨµíķĺ":5778,"ĠìłľìĿ´":5779,"ê·¸ëŁ¬ëĤĺ":5780,"Ġíĸ¥íķ´":5781,"Ġëĭ¤ìĨĮ":5782,"Ġë§ĮìĿ¼":5783,"Ġë¸ĮìĿ´":5784,"ĠìĿ¼ìĸ´ëĤł":5785,"Ġê³łë¬¸":5786,"ĠíĻľìķ½":5787,"Ġë¯¸ì¹ľ":5788,"Ġëıħìŀ¬":5789,"ĠìĹ¼ì¦Ŀ":5790,"Ġê´Ģì¸¡":5791,"Ġì²ŃìĽĲ":5792,"ĠëħĢìĦĿ":5793,"ĠëĤĺê²½ìĽĲ":5794,"ĠìĹ°ëł¹":5795,"Ġë°Ķê¿Ģ":5796,"Ġëĭ¨ìĨį":5797,"ĠìĮ¤":5798,"Ġì°¢":5799,"ĠìĦ¸ì¢ħ":5800,"ĠëıĻìŀĳ":5801,"Ġë¹ĽëĤĺ":5802,"Ġê·¸ëŀ¬ìĹĪ":5803,"Ġë°©íķĻ":5804,"Ġì°½ìĹħ":5805,"íĳ¸":5806,"ĠìĪľìĪĺ":5807,"ìĥĿíĻľ":5808,"ĠìĬ¤ëŁ¬ìĽĮ":5809,"ĠìĽ¬ë§Į":5810,"ĠíĢ":5811,"ĠêµĲìľ¡ë¶Ģ":5812,"ìķĦê¹Į":5813,"Ġê³łìĨį":5814,"Ġíĥ±":5815,"Ġì£¼ë°©":5816,"ĠíĹĪê°Ģ":5817,"Ġì§ĢìŀĲ":5818,"ì¡°ìĺģ":5819,"Ġë¶Ģë¥¸":5820,"ê¸°ìĹħ":5821,"ĠëįĶë¸Ķ":5822,"Ġë¹Ħíķĺ":5823,"ĠìĪĺë¡Ŀ":5824,"Ġë¶Ģë¦¬":5825,"Ġë¬¸ìĦľ":5826,"ĠíĹĽ":5827,"ĠëĤĺìĦł":5828,"ĠëĬĺë¦¬":5829,"Ġë©Ķë¥´ìĬ¤":5830,"ĠìĻĢìļĶ":5831,"ĠíıŃíĥĦ":5832,"Ġë·":5833,"íĻĶìłĲ":5834,"ëĵ¯":5835,"Ġê°Ĳìĺ¥":5836,"ĻëĭĪëĭ¤":5837,"Ġì¡°íķŃ":5838,"ĠëĵľìĦ¸ìļĶ":5839,"Ġëį§":5840,"Ġìķłë§¤":5841,"Ġë¦¬íı¬":5842,"Ġì¶Ķì¸¡":5843,"Ġë¯¸íĮħ":5844,"Ġë°ĺê°Ģ":5845,"Ġìĭ¤ì²ľ":5846,"Ġì§ķê³Ħ":5847,"Ġë§ĳ":5848,"Ġê¹Ģì§Ħ":5849,"Ġëĭ¤ê°Ģìĺ¤":5850,"ĠíĴĢë¦¬":5851,"ĠëĪĦë¥´":5852,"ëĤĺê°Ģ":5853,"ĠíĥĿë°°":5854,"Ġëª¨ìĿ´":5855,"Ġíı¬ì°©":5856,"ê·¸ëŁ´":5857,"Ġê²¨ìļ°":5858,"Ġìĭ¤ëŀĺìļĶ":5859,"ł¤ê³ł":5860,"Ġìŀ¡íŀĪ":5861,"Ġë¡ľë´ĩ":5862,"Ġëĵ¤ìĸ´ìĺ¨ëĭ¤":5863,"Ġìłķì§Ģ":5864,"ìĨĮëħĦ":5865,"ìĬµëĭĪê¹Į":5866,"ĠìĿ¸ë¯¼":5867,"ìĸ´ë¨¸":5868,"Ġìľ¡ìķĦ":5869,"Ġê°Ģë³į":5870,"ĠëĤĺìĻĶìĹĪ":5871,"Ġíĺ¼ìĿ¸":5872,"Ġëª°ëĿ¼ëıĦ":5873,"ĠìĤ¬ë©´":5874,"Ġíķ´ìĤ°":5875,"ìķĦë§Ī":5876,"Ġì¤Ģëĭ¤ê³ł":5877,"ĠìĺģìĽĲ":5878,"ĠëĿ¼ëįĺ":5879,"Ġìķłì´Ī":5880,"ë½":5881,"ĠëıĮíĮĮ":5882,"Ġì·¨ìŀĦ":5883,"ë´¤":5884,"ĠìĿ´ìĦ±":5885,"ĠíĹĪìľĦ":5886,"Ġë°ĺê¸°ë¬¸":5887,"ìĪĺìĥī":5888,"Ġì¡´ê²½":5889,"Ġë¶ĵ":5890,"ĠìĭĿë¬¼":5891,"ĠìĤ´ë¦¼":5892,"Ġíıīë²Ķ":5893,"ĠëĤ´ë¦°":5894,"Ġìļ±":5895,"íĨ±":5896,"ĠìĦłíĺ¸":5897,"ì«":5898,"Ġì¶ľíĮĲ":5899,"Ġìľ¤ìĦĿìĹ´":5900,"ĠíĮĮíĭ°":5901,"ĠíĹĲ":5902,"ëĳ¥ìĿ´":5903,"ĠìĿ¸íķľ":5904,"ĠìĿ´ìŀĲ":5905,"Ġì§ĢëĤĺì¹ĺ":5906,"Ġë²Ħíĭ°":5907,"ĠìĺĪìłĢ":5908,"Ġëĭ¤ëĬĶëį°":5909,"ĠíĮ¨ìĬ¤íĬ¸":5910,"Ġë³µìĪĺ":5911,"ĠìŀĸìĬµëĭĪê¹Į":5912,"ĠëĦĺê²¨":5913,"íŀĺ":5914,"Ġìľłë°ľ":5915,"Ġëĵ¤ìĸ´ìĺ¬":5916,"Ġê°Ģë¥´ì¹ĺ":5917,"ëł¤ìļĶ":5918,"ĠìķĻ":5919,"ĠìĪ²":5920,"Ġìŀ¥ë¹Ħ":5921,"ĠìĻ¸ëª¨":5922,"ĠìĻĶìĹĪ":5923,"Ġìķ¡ìħĺ":5924,"ĠìĿ¸ìŀĲ":5925,"ĠìķĦìĦľìļĶ":5926,"ĠíĪ":5927,"Ġìĺ¬ëĿ¼ê°Ķ":5928,"ħìĭľëĭ¤":5929,"Ġë¡ľë§¨":5930,"Ġê´ĢìĹ¬":5931,"ĠíĹ·ê°Ī":5932,"ëį¤":5933,"Ġê°Ģìł¸ëĭ¤":5934,"ĠìĥĮ":5935,"Ġìłĸ":5936,"Ġì£¼ìĤ¬":5937,"ĠëĤĺë¹ł":5938,"íģ°":5939,"Ġì¢ħìłĦ":5940,"ĠêµĲíļĮ":5941,"ë¹¡":5942,"Ġë¸ĮëĿ¼":5943,"ëĺĲíķľ":5944,"ĠìĿ´ë¥´ì¼Ģ":5945,"ĠìĿĺìŀĲ":5946,"ĠíĸĪìŀĸìķĦ":5947,"Ġìłķë¬´":5948,"Ġê²¬ìłľ":5949,"ë®¤":5950,"ĠìľĦìŀ¥":5951,"ĠìķķìĪĺìĪĺìĥī":5952,"ì·":5953,"Ġë²ĦìĦ¯":5954,"ĠíĨłë§Ī":5955,"Ġìĸ´ë¦¬":5956,"Ġìĸ¸ìłłê°Ģ":5957,"Ġë¶Ģìŀĳ":5958,"Ġê·¸ë¦¬êµ¬":5959,"Ġê³¼íķĻìŀĲ":5960,"ĪìĹĲ":5961,"Ġíķľëĭ¤ëĵłì§Ģ":5962,"íĺĦìŀ¬":5963,"Ġì§Ģì§Ģì¸µ":5964,"ĠíıŃë¡ľ":5965,"ĠíĺĦì§ģ":5966,"Ġìķĵ":5967,"Ġì±ħìŀĦì§Ģ":5968,"ĠëıĮìķĦëĭ¤ëĭĪ":5969,"êº¼ë²":5970,"êº¼ë²ĪìĹĲ":5971,"ĠíĸĦ":5972,"Ġíĸ¥íķľ":5973,"Ġì§ģíĽĦ":5974,"Ġê°Ģë¡ľ":5975,"ĠëĦĺê¸°":5976,"ìĸ¸ìłľ":5977,"ĠìĺĪìĿĺ":5978,"Ġë³Ģìĭł":5979,"Ġë¸Įë¦¬íķĳ":5980,"ĠëĮĢë²ķìĽĲìŀ¥":5981,"ĠíĥĶ":5982,"ĠìĿ´ëĮĢë¡ľ":5983,"ìĸ¼ë§Ī":5984,"Ġê¸Ģë¡ľë²Į":5985,"Ġìĸĳìĭ¬":5986,"ĠìĬĪíį¼":5987,"Ġë¶ĢíĴĪ":5988,"Ġê²½ë¹Ħ":5989,"ĠíķĺëĤĺíķĺëĤĺ":5990,"Ġê°ľìµľ":5991,"ĠëĮĦìĬ¤":5992,"Ġë©Īì¶Ķ":5993,"ĠíĥĢìĿ´íĭĢ":5994,"Ġì£¼ì²´":5995,"ëł¤ìķ¼":5996,"ĠìĪĺìļĶ":5997,"Ġë©´íĹĪ":5998,"ĠíģĲ":5999,"ĠíĨ¡":6000,"ĠìłĦì§ģ":6001,"Ġê³Ħìķ½ìĦľ":6002,"Ġêµ½":6003,"ìĻľëĥĲíķĺë©´":6004,"Ġê¸Īë¦¬":6005,"Ġìľ¼ìħ¨ìĸ´ìļĶ":6006,"íķ´ìķ¼":6007,"Ġë¡¯":6008,"Ġì§Īë³ĳ":6009,"ëļĿ":6010,"ĠìĹ¬íĥľ":6011,"ĠìĹ°ìĦ¸":6012,"ĠìĽĲìŀĲ":6013,"Ġì¦Ĳê±°ìļ´":6014,"ĠìĿ´ìĬ¤":6015,"ĠíĶĦëłĪìŀĦ":6016,"Ġìĺģíĸ¥ëł¥":6017,"Ġìĺ¤ì¼ĢìĿ´":6018,"ĠìĹ¬ê¸´":6019,"ëį©ìĿ´":6020,"Ġì±ĦìĽĮ":6021,"Ġì¹ľìłĪ":6022,"Ġë¹Ĺ":6023,"ĠëĵľëĿ¼êµ¬ìļĶ":6024,"Ġêµ¬ë©į":6025,"Ġë³´ìĹ¬ì§ĳëĭĪëĭ¤":6026,"Ġë§ĪìĿĮëĮĢë¡ľ":6027,"ĠìĿ¼ë°ĺìĿ¸":6028,"Ġê°ĸì¶Ķ":6029,"ì¶§":6030,"Ġê³¼ëıĦ":6031,"Ġìĸ¼ìĿĮ":6032,"ĠìŀĲì¡´ìĭ¬":6033,"ë§İìĿ´":6034,"ĠíķĺëıĦ":6035,"ĠìĦľìļĶ":6036,"ĠìĿ´íĥľ":6037,"Ġë²ķìĿ¸":6038,"ĠëıĮìķĦë³´":6039,"Ġíķ©ìĭľëĭ¤":6040,"ĠìĺĪìŀĲ":6041,"ĠíħĮìĿ´ë¸Ķ":6042,"Ġê³½":6043,"ì´Ŀìŀ¥":6044,"ĠìĿĳëĭµ":6045,"Ġë³¶ìĿĮ":6046,"ĠìłķìĦ±":6047,"ĠìĪľíĻĺ":6048,"Ġê¹Ģê²½ìĪĺ":6049,"Ġë¯¼ê°Ĳ":6050,"Ġíķľêº¼ë²ĪìĹĲ":6051,"ĠìĨĮìĪĺ":6052,"ĠìłķêµŃ":6053,"Ġëĭ¹ë¶Ħ":6054,"ĠìĨĮì£¼":6055,"ĠíĦ±":6056,"Ġê²Įìĭľ":6057,"Ġë§īëĤ´":6058,"Ġìĭłì¤ĳ":6059,"ĠìĿ¸ë¥ĺ":6060,"Ġê´ĢìłĪ":6061,"Ġë¬¸ìŀ¥":6062,"Ġì½ľëĿ¼":6063,"ìĿ´ê²ĥ":6064,"Ġì§ĦíķĻ":6065,"ĠíļĮê³Ħ":6066,"Ġë³Ģíĺ¸ìĿ¸":6067,"Ġìĺ¹":6068,"Ġëĺ¥":6069,"Ĳģ":6070,"ĠìķĦíľ´":6071,"ĠëĮĢëŀµ":6072,"ĠíĻĶìļĶìĿ¼":6073,"ĠìłģíıĲ":6074,"ìĺģìĹħ":6075,"ìļ´ëıĻ":6076,"Ġë°ķìĺģ":6077,"Ġì°¨ë¦¬":6078,"ëĨį":6079,"Ġìĥģíķĺ":6080,"Ġë°°ê³ł":6081,"Ġê³łëª¨":6082,"Ġíķĺêµ¬":6083,"ĠëĮĢíķĻìĥĿ":6084,"ĠìĦłìłĦ":6085,"ìĿ¼êµ¬":6086,"ĠìĤ¬ì°°":6087,"Ġê·ľëªħ":6088,"ĠëĨįêµ¬":6089,"ĠíĨµìĥģ":6090,"ëĦĪìĬ¤":6091,"ĠìĦľìļ´":6092,"Ġê°ĵ":6093,"Ġìłķë¹Ħ":6094,"Ġìłģíķ©":6095,"Ġëł¤ê³łìļĶ":6096,"ìĿĦê¹Į":6097,"Ġìŀ¥ìĦ±":6098,"ĠìŀĲìĤ°":6099,"ĠìĿĳê¸ī":6100,"Ġì§ľì¦Ŀ":6101,"ìĸ´ë¦¬":6102,"ĠìĹĶì§Ħ":6103,"ĠìĨĮê°Ĳ":6104,"ĠìłĢëŁ¬":6105,"ĠìĹ°ìĿ¸":6106,"ĠìĽ¹":6107,"Ġëĭ¹ìĿ¼":6108,"¦Ħ":6109,"ìĿ¼ë¶Ģ":6110,"ĠìĿĺíķĺ":6111,"ìĮĢ":6112,"ĠìĤ¬ìľĦ":6113,"Ġì°¨ìŀ¥":6114,"ëŀĢëĭ¤":6115,"Ġê³ĦëŀĢ":6116,"Ġìľłíĺķ":6117,"Ġì§Ģì¼ľë´Ĳìķ¼":6118,"Ġì»·":6119,"ëĳ¬":6120,"Ġê²½ì°°ìĦľ":6121,"Ġìĭłë¶Ģ":6122,"ìĸĺ":6123,"Ġë¬¼ëŁ¬ëĤĺ":6124,"íĮĮìĿ´":6125,"Ġë¯¸ì³¤":6126,"Ġìĸ¸ë¡łìĤ¬":6127,"ĠìłĦëĳĲ":6128,"Ġêµ¬ìĹŃ":6129,"Ġìľłì£Ħ":6130,"Ġë§¤ì£¼":6131,"Ġë¬´ìŀ¥":6132,"ĠìĿ´ê±¸ë¡ľ":6133,"Ġíķ´ì§Ī":6134,"Ġê³¨ëª©":6135,"ëĭĪìķĦ":6136,"ĠìĻĢìķ¼":6137,"Ġìĺ¤íĶĦ":6138,"Ġì§ĦíĻĶ":6139,"Ġê¸°ì§Ģ":6140,"ĠëģĬìŀĦìĹĨìĿ´":6141,"ĠìłģìĿĳ":6142,"Ġë¬´ì§Ģ":6143,"Ġë¶ĦìĹ´":6144,"ĠìľłëıĦ":6145,"íİĺìĿ´":6146,"Ġëĭ¤ë¦ħëĭĪëĭ¤":6147,"Ġëł¥":6148,"Ġëĭ´ê¸´":6149,"ĠìŀĲìłľ":6150,"ĠìĿ¼ì§Ģ":6151,"Ġê°Ħëĭ¤ê³ł":6152,"ĠëģĶì°į":6153,"ĠíĻķìĭł":6154,"Ġíİ¼ì¹ĺ":6155,"ĠëĪĦêµ°ì§Ģ":6156,"ëĤĺë¦¬ìĺ¤":6157,"ĠìĨĮìĿ´":6158,"ì¿¨":6159,"¸Ĳ":6160,"ĠìķĦëĭĲê¹ĮìļĶ":6161,"ĠëĦĪë¬´ëĦĪë¬´":6162,"Ġê°Ģìł¸ìĺ¤":6163,"ĠëıĦêµ¬":6164,"Ġìłķê¸°":6165,"ĠìķĦìĽĥ":6166,"Ġname":6167,"Ġì°¾ìķĦìĺ¤":6168,"ĠëģĵìĿ´":6169,"Ġê°ĪëĿ¼":6170,"Ġíķľë³µ":6171,"ĠëŁ¬ë¸Į":6172,"Ġì£¼ì°¨ìŀ¥":6173,"Ġëĭ¤íģĲ":6174,"ĠëĮĢíķĺ":6175,"ĠìĪĺìĪĺë£Į":6176,"Ġë°±íĻĶìłĲ":6177,"ĠíĻĺìĺģ":6178,"Ġê°Īê¹Į":6179,"Ġíĭ°ë¸ĮìĿ´":6180,"Ġê´ĳìŀ¥":6181,"ĠíĺĦìķĪ":6182,"Ġë§īë§Ĳ":6183,"Ġd":6184,"ê°ĸ":6185,"Ġì°¸ìĤ¬":6186,"ĠìĺĪë»Ĳ":6187,"ĠìĪĺëĭ¹":6188,"íĶĦíĬ¸":6189,"20":6190,"ë¡ľê·¸":6191,"Ġíĩ´ì§ģ":6192,"ĠìĹ¬ìĿ¸":6193,"Ġëĭ¬ëĿ¼ìļĶ":6194,"Ġìł¤":6195,"Ġëįĺê°Ģ":6196,"ĠìŀĲìķĦ":6197,"Ġê°ĲìĨĮ":6198,"íĶ¼ìĬ¤":6199,"Ġìĸ¹":6200,"ë©Ķëĭ¬":6201,"Ġíķ©ëĭĪëĭ¤ë§Į":6202,"Ġê²°ì½Ķ":6203,"ĠëĨĢëĿ¼ìļ´":6204,"Ġëª¨ìĿĺê³łìĤ¬":6205,"ìĤ¬ëŀĳ":6206,"Ġë°°ìļ´":6207,"ĠëĤĺíĥĢëĤľ":6208,"Ġëĵ¤ìĹ¬ëĭ¤":6209,"Ġê¹Ģë¶Ģ":6210,"Ġì¦Ĳê²¨":6211,"ĠëĿł":6212,"ĠìĤ¬ë²ķë¶Ģ":6213,"ĠêµŃë¦½":6214,"Ġê°ķëıĦ":6215,"Ġë¹Ħì¤ĳ":6216,"Ġíĸ¥íĽĦ":6217,"ĠìĿ¼ë³´":6218,"Ġëħ¸ìĦł":6219,"ĠìĿ¼ê´Ģ":6220,"ê¾¸ë¡ľ":6221,"Ġìĭ¤íĸī":6222,"Ġê¹Ģíķľ":6223,"ĠíĨµìŀ¥":6224,"Ġë¯¸ëĭĪ":6225,"Ġë°ľëĭ¬":6226,"Ġìĸµì§Ģ":6227,"ĠíĶ¼ìķĦëħ¸":6228,"Ġê°ķìļĶ":6229,"ĠìĤ¬ê·Ģ":6230,"Ġë°Ģìĸ´":6231,"ĠìĥĪíķ´":6232,"Ġìĭľê³Ħ":6233,"ë¦¬ìĬ¤ë§ĪìĬ¤":6234,"Ġì§Ģì§ĢìŀĲ":6235,"Ġì°¨íĬ¸":6236,"Ġì¹ľìłķ":6237,"ì²ĺìĿĮ":6238,"Ġê·¸ë§ĮëĳĲ":6239,"Ġë¡¯ëį°":6240,"ĠìĺĪë¯¼":6241,"Ġê²½ëĤ¨":6242,"ĠëĤ¨ìª½":6243,"Ġë§¤ëĭĪìłĢ":6244,"ëĦ¤ëĦ¤":6245,"Ġë£¸":6246,"ĠíķĦìĪĺ":6247,"Ġë¡¤":6248,"ĠíĭĢë¦¬":6249,"Ġíķłëł¤ë©´":6250,"Ġê±°ì¹ĺ":6251,"ĠìĭľëĤĺë¦¬ìĺ¤":6252,"Ġìĺ¤ë°Ķ":6253,"ĠíĻĺë¶Ī":6254,"Ġì§Ħì§ľë¡ľ":6255,"Ġëĳ¥":6256,"Ġêº¾":6257,"ìĬ¤ì½Ķ":6258,"Ġì§ĢìŀĲì²´":6259,"ĠìĭłìĦł":6260,"Ġê¹Ģíĺľ":6261,"Ġì¹ĺë¥´":6262,"Ġëª°ëĿ¼ìĦľ":6263,"Ġìĭľì§Ħ":6264,"Ġì²łìĪĺ":6265,"Ġë¹Ħë°ķ":6266,"ĠìºłíĶĦ":6267,"ĠìĥĿìĦł":6268,"Ġê³µë°©":6269,"Ġë¦½":6270,"ĠìłĢíķŃ":6271,"Ġì§ĢìĪĺ":6272,"Ġê¸°ìĹ¬":6273,"Ġë°°ì¶ľ":6274,"ìĺ¨ëĭ¤":6275,"ĠìķĦìī¬ìļ´":6276,"ëĩĮ":6277,"Ġê±°ëĵŃ":6278,"ìĬ¤íĨł":6279,"ìŀī":6280,"ĠìĨĮì§Ģ":6281,"Ġì°Ķ":6282,"ëģĿ":6283,"Ġì¢ĮìĦĿ":6284,"ĠëĬĶëĭ¤ë©´":6285,"ĠìĤ´íİ´ë³¼":6286,"ĠëŁī":6287,"Ġì§Ħë£Į":6288,"Ġìľłì¶ľ":6289,"ì©¡":6290,"ĠíĮį":6291,"ìŀİ":6292,"êµŃë¯¼":6293,"ì°Įê°ľ":6294,"ĠìłĢì§Ī":6295,"ëĶ¸":6296,"Ġë¶Ģìłģ":6297,"Ġìĭ¬íķ´":6298,"Ġìŀ¥ìķħ":6299,"ĠíĬ¹ìľĦ":6300,"ìķĦë¬´ëŀĺëıĦ":6301,"Ġê³łì³Ĳ":6302,"ĠêµŃìĪĺ":6303,"ĠìĿ´ë£¨ìĸ´ì§Ħ":6304,"Ġì¡°íĺĦ":6305,"íĻĶë¬¸":6306,"Ġê°Ħíĺ¸ìĤ¬":6307,"ĠìŀĲìĺģìĹħ":6308,"ĠëĬĲëĿ¼ê³ł":6309,"ĠìĤ¬ìŀĲ":6310,"Ġìĺģê°Ĳ":6311,"ëĳĺëŁ¬":6312,"ëŀĢëĵľ":6313,"ì§ķìĸ´":6314,"ĠëĴĢ":6315,"Ġë¶Ģë¥¼":6316,"Ġëª¨ìķĦìĦľ":6317,"Ġìłķìľł":6318,"ĠëĶĶì§Ģ":6319,"ĠìłķìĦ¸":6320,"ë§ĪìĿĮ":6321,"ĠìĿ´ëĤł":6322,"Ġê³µìĨĮ":6323,"Ġì¹ĺì¦Ī":6324,"ìĿ¼ëŁ¬":6325,"ìĿ´ëŁ¬":6326,"Ġëª°ëł¤":6327,"Ġì¶Ķêµ¬":6328,"Ġìĺ®ê¸°":6329,"Ġê¹ĢìĪĺ":6330,"Ġìĵ°ìĿ´":6331,"Ġëħ¸ë¦ĩ":6332,"Ġê¸ĢìŀĲ":6333,"Ġì§Ģíĺľ":6334,"ë¸Ĳ":6335,"Ġë¬´ëĦĪì§Ģ":6336,"Ġì²Ńì¶ĺ":6337,"Ġì¼ĢìĿ´íģ¬":6338,"ĠìĿ´ìĪĺ":6339,"Ġìľµ":6340,"ĠìłĢíķĺ":6341,"ĠíĮĮê´´":6342,"§Ŀ":6343,"Ġê°ķìĹ°":6344,"ĠìłĬìĿĢìĿ´":6345,"ĠìĬ¤íĥ":6346,"ì¶§ê°Ģë£¨":6347,"Ġì²łëıĦ":6348,"Ġê¸°ëĮĢê°Ĳ":6349,"ë£°":6350,"Ġëŀľ":6351,"Ġë¶Ģìŀĳìļ©":6352,"Ġë¶ĢíĮ¨":6353,"Ġë°Ķë¹ł":6354,"ĠëĶľ":6355,"ĠëĤ©ëĵĿ":6356,"Ġì§ĢëĤľëĭ¬":6357,"Ġê²łì£ł":6358,"Ġì¡°íļĮ":6359,"ĠìĦľìĸĳ":6360,"Ġë¨¹ìĿ´":6361,"ĠìĻĢìĿ´íĶĦ":6362,"ĠìĦłìĤ¬":6363,"Ġìħ°":6364,"Ġê°Ĳê°ģ":6365,"ĠìłĦëĳĲíĻĺ":6366,"Ġê³łë§ĪìĽĮ":6367,"Ġíļ¨ìľ¨":6368,"Ġê¸°ìĸµëĤĺ":6369,"ĠìľĹ":6370,"ĠìĽĥê¸°":6371,"ë³¶ìĿ´":6372,"Ġìĸ´ìĿ´":6373,"Ġë³´ëĭ¨":6374,"Ġê¼¬ë¦¬":6375,"ĠíĴįë¶Ģ":6376,"íį¼ë":6377,"ĠëĿ½":6378,"Ġë°Ķìģľ":6379,"ĠëĵľëŁ¬ëĤ¬":6380,"Ġíķ´ìĦ¤":6381,"Ġê±´ì¡°":6382,"Ġëªħëĭ¨":6383,"ìĩł":6384,"Ġìķħê¸°":6385,"Ġê±°ì£¼":6386,"Ġìĸ´ëł¤ìĽł":6387,"Ġê±°ê¾¸ë¡ľ":6388,"Ġëľ¨ê±°":6389,"Ġì£¼ìĦĿ":6390,"Ġìķķëł¥":6391,"ĠìĪĺìĬµ":6392,"ëŁ¬ìļ´":6393,"ëįľ":6394,"Ġë¬´ìĸ¸":6395,"Ġìŀ¬ëĤľ":6396,"Ġê²Ģê±°":6397,"ĠëĭĪê¹ĮëĬĶ":6398,"Ġíķľì°½":6399,"Ġë°ĺìłĦ":6400,"ë§ĲìĶĢ":6401,"ë¦¬ìĬ¤íĬ¸":6402,"Ġê°ĢëĤľ":6403,"Ġíģ¬ë¦¬ìĬ¤ë§ĪìĬ¤":6404,"íķĺë£¨":6405,"ĠìĻľê³¡":6406,"ë¬¼ë¡ł":6407,"Ġíĥľê·¹":6408,"Ġê²Ģìĥīìĸ´":6409,"Ġëį¥":6410,"ĠìĥĿê°ķ":6411,"ĠíĿĶëĵ¤ë¦¬":6412,"ĠìĹ¬ë³´ìĦ¸ìļĶ":6413,"Ġë°ľìĿĮ":6414,"ë¬¼ê´Ģ":6415,"íĺľìĽĲ":6416,"ĠíĹĺ":6417,"Ġë±ĥ":6418,"ĠìķĦìĭľ":6419,"ìĤ¬ê³ł":6420,"ĠìļĶìĽĲ":6421,"Ġìĸ´ìľł":6422,"ĠíĨłë§ĪíĨł":6423,"Ġë¯¸ì¹ł":6424,"Ġë°Ķê¿¨":6425,"íļĮìĤ¬":6426,"íĭ°ë¸Į":6427,"ì·Ħ":6428,"ĠìĬ¤ëĭĺ":6429,"ĠëĤľëĭ¤":6430,"ĠëģĮëł¤":6431,"ìĸ´ì©":6432,"Ġëħ¹íĻĶ":6433,"Ġëĵ¤ìĹ¬ëĭ¤ë³´":6434,"Ġë§īíŀĪ":6435,"ìħľ":6436,"Ġì£¼ê±°":6437,"Ġìľłíķ´":6438,"Ġë°Ķì§Ģ":6439,"Ġìĭłíĺ¼":6440,"ĠíķĻëĮĢ":6441,"Ġì²ľìŀ¬":6442,"ĠìĿ´ëĿ¼ëıĦ":6443,"Ġë¶ĦìŁģ":6444,"Ġê³łìŀ¥":6445,"Ġë°¥ìĥģ":6446,"Ġë¶ī":6447,"Ġë¶Ģëĭ¹":6448,"Ġìľłê°Ģì¡±":6449,"Ġìŀ¥ìĪĺ":6450,"³ĳ":6451,"ĠëıĦëĳĳ":6452,"Ġë§Ľì§ĳ":6453,"ĠíĬ¸ë¡ľ":6454,"Ġê°ĲíŀĪ":6455,"Ġë§Īëķħ":6456,"ĠëĤłìķĦ":6457,"ĠìĻľëĥĲíķĺë©´ìĿĢ":6458,"ĠìĭľëĤ´":6459,"Ġì¡°ê°ģ":6460,"íķľëĭ¤":6461,"Ġìĭľì§Ħíķĳ":6462,"Ġë³´ë¦¬":6463,"ĠìĿ¸ì¦Ŀ":6464,"Ġìħĺ":6465,"Ġë¶Ģíĥģëĵľë¦½ëĭĪëĭ¤":6466,"Ġì²Ńìŀ¥":6467,"Ġìĸĩ":6468,"ĠìĭłëıĻ":6469,"Ġì§ĳìĸ´ëĦ£":6470,"Ġì§Ĳìŀĳ":6471,"Ġì·¨ë¯¸":6472,"ìĸ´ì":6473,"Ġíķľëĭ¨":6474,"ĠìĥģìľĦ":6475,"Ġë¶Ħìĸĳ":6476,"ĠëĤ´ëĨ¨":6477,"Ġë²ķì¡°":6478,"ĠìĿ´ìĻ¸":6479,"Ġê¸°ëıĦ":6480,"ĠëĤ´ê°ģ":6481,"íĿ¬ìłķ":6482,"Ġë°ĺë°ķ":6483,"Ġë§Ĳë¦¬":6484,"ĠìĪĻìĨĮ":6485,"Ġì£¼ê¸°":6486,"ìĦ¸íĽĪ":6487,"ĠíİĺìĿ´ì§Ģ":6488,"Ġë§¡ê²¨":6489,"ĠëĲĺëıĮ":6490,"Ġëĵľë¦´ê»ĺìļĶ":6491,"Ġìł¸ìļĶ":6492,"ĠìķĦëģ¼":6493,"ĠìļĶìĸĳ":6494,"Ġëª¨ë¥¸ëĭ¤":6495,"ìĭŃìĭľìĺ¤":6496,"Ġë³Ħëªħ":6497,"ĠìĨĮìĭł":6498,"ìĨĮëħĦëĭ¨":6499,"Ġëįĺìł¸":6500,"Ġì°½ì¡°":6501,"ĠìĹħê³Ħ":6502,"ĠìļĶê·¸":6503,"Ġì¶ľìŀ¥":6504,"ĠìĤ¬ëª¨ëĭĺ":6505,"Ġë§¥ëĿ½":6506,"²Ħ":6507,"Ġ',":6508,"Ġëħ¸íĽĦ":6509,"ĠíĻįì½©":6510,"Ġìĺģê´ĳ":6511,"Ġì¡°ìĦłìĿ¼ë³´":6512,"ĠìłĦê°ľ":6513,"ĠíħĶëłĪ":6514,"íĮ½":6515,"Ġê³µëıĻì²´":6516,"ĠìłĢê±¸":6517,"Ġê´Ģì°°":6518,"ĠìĹ¬ìĿĺëıĦ":6519,"Ġê³łìľł":6520,"ĠíĮĮë¦¬":6521,"ĠâĢ¦":6522,"Ġê°ĢìĿ´ëĵľ":6523,"Ġê°Ħë¶Ģ":6524,"Ġì²´ëł¥":6525,"Ġì¹´íĨ¡":6526,"Ġê°ķìĽĲëıĦ":6527,"ĠíĥĪì¶ľ":6528,"Ġìĸĺê¸´ëį°":6529,"ĠìĽĶìĦ¸":6530,"Ġìĭłëŀĳ":6531,"ĠëĶĶì§ĢíĦ¸":6532,"ĠìĿ´ì¤Ģ":6533,"Ġìĸ¸ìłľëĤĺ":6534,"Ġêµ¶":6535,"Ġê¸°ìŀ¬":6536,"Ġì°¨ê¸°":6537,"ë°ĶìĿ¼":6538,"ì¼ĢìĿ´ìħĺ":6539,"ĠìłĢê²ĥ":6540,"Ġë¶ĪìĮį":6541,"Ġë¨¸ë¦¿":6542,"ĠíĻľë°ľ":6543,"Ġêµ¬ìĽĮ":6544,"Ġëĭ¤ëįĺ":6545,"Ġì£¼ë¨¹":6546,"íĪ¼":6547,"Ġë¶Ħë¥ĺ":6548,"ìķĺ":6549,"ĠìĿ¸íĺķ":6550,"Ġìłķìŀĳ":6551,"ĠëĤ´ì£¼":6552,"Ġì·¨íĸ¥":6553,"Ġê·¸ëŀ¨":6554,"°ĺ":6555,"ĠìĬ¤íİ":6556,"Ġìļ°ìĹ°íŀĪ":6557,"Ġê·ĢìĹ½":6558,"ĠíĹ¤ìĸ´ì§Ģ":6559,"ê·¸ê±¸":6560,"Ġìĺ¤ì§ķìĸ´":6561,"ĠíĻĶìĦ±":6562,"Ġëªħë°±":6563,"ĠëĤ´ëł¤ëĨĵ":6564,"ĠíĮģ":6565,"ĠìĥĿê²¨ìĦľ":6566,"Ġo":6567,"Ġê·¸ëŁ¬ëĭĪê¹Ĳ":6568,"ĠìķĦìķ¼ì§Ģ":6569,"ĠìľĦìķĪë¶Ģ":6570,"Ġíķ´ê³ł":6571,"ĠëĶ±íŀĪ":6572,"Ġê³ĦìĭŃëĭĪê¹Į":6573,"ĠëıĮìķĦìĺ¨":6574,"Ġê³łëł¹":6575,"ĠìĺĪìĿĮ":6576,"ĠìļĶê³ł":6577,"Ġê³µìŀĳ":6578,"ĠìĽĲìłĦ":6579,"Ġë¶Īíĸī":6580,"ĠìĹ°íľ´":6581,"Ġê´Ģê´ĳê°Ŀ":6582,"ìŃī":6583,"Ġë¶ĢëĵľëŁ½":6584,"ĠíŀĪíĬ¸":6585,"Ġìķ½íķĺ":6586,"Ġë°ķë¬¼ê´Ģ":6587,"ĠìĭłìĨį":6588,"ĠìĤ¼ì´Į":6589,"ĠíĶ¼ìŀĲ":6590,"Ġìŀ¡íĺĢ":6591,"ìĸ´ëľ":6592,"ê³¼ë":6593,"ìłĵ":6594,"ĠìĥĲ":6595,"Ġëĭ¤ë¦Ħ":6596,"Ġì§ĢëĥĪ":6597,"ĠìĹ´ì°¨":6598,"Ġê°ĢëŁī":6599,"Ġì¹¨íķ´":6600,"ĠìĽħ":6601,"Ġëĭ¬ëŀĺ":6602,"Ġì£¼ê°Ħ":6603,"ĠìĦ±íķ¨":6604,"Ġê²°ëĭ¨":6605,"ĠìķħíĻĶ":6606,"ĠìĽ¬ìĿ¼":6607,"Ġê·¤":6608,"ĠìĿĺìĥģ":6609,"Ġëĸ¡ë³¶ìĿ´":6610,"Ġë°ĺì§Ģ":6611,"íķĻê·ľ":6612,"ĠíĨ±":6613,"Ġêµ¬ì¶ķ":6614,"Ġë°Ģë¦¬":6615,"ê²łëĭ¤":6616,"ĠìĹĲìĸ´ì»¨":6617,"Ġì´Īì²Ń":6618,"Ġë¬´ëł¥":6619,"Ġìĩł":6620,"ĠëĮĢíĸī":6621,"Ġê³Ħëĭ¨":6622,"ìķĦë¦¬":6623,"Ġëĭ¤ì¹ĺ":6624,"Ġë²ĦìłĦ":6625,"Ġ200":6626,"ë¥ľ":6627,"Ġë¡Ŀ":6628,"Ġë°Ķê¾¼":6629,"Ġëĭ¨ëĭ¨":6630,"ĠëĮĢìłĳ":6631,"ĠìļĶê±¸":6632,"Ġì¡°ê¸°":6633,"Ġë¿Įëł¤":6634,"Ġê±¸ìĸ´ê°Ģ":6635,"ĠìĪĺë°±":6636,"Ġê°Ģëł¤":6637,"Ġì°¸ê¸°ë¦Ħ":6638,"Ġêµ¬ëĳĲ":6639,"íĶ¼ë":6640,"Ġì°©íķľ":6641,"ĠìĨĮìĽĲ":6642,"ĠêµĲìĸĳ":6643,"ì°¾":6644,"Ġìŀĥìĸ´ë²Ħ":6645,"Ġì±ħìĥģ":6646,"Ġëľ¬":6647,"íĭ°ì¦Į":6648,"Ġì¡°ëªħ":6649,"Ġìľ¡ìĪĺ":6650,"Ġëľ¨ê²ģ":6651,"ĠíķĻëł¥":6652,"Ġì±ĦíĥĿ":6653,"Ġì§Ģëªħ":6654,"ĠìĭłëĤĺ":6655,"Ġíĳ¼":6656,"Ġê¸īìĹ¬":6657,"ĠìĿĢê°Ģ":6658,"ìĿ¸ìłľ":6659,"Ġì¤Ħìĸ´":6660,"Ġê¸°ìłģ":6661,"ĠëĸłëĤľ":6662,"Ġì¶ľë²Ķ":6663,"ĠëĦī":6664,"Ġìĥģê°Ģ":6665,"ĠìĹİ":6666,"ê±±ìłķ":6667,"ĠíĮ¨íĦ´":6668,"Ġì§ĪìĦľ":6669,"ĠìĦŃìĦŃ":6670,"Ġë°ľëªħ":6671,"Ġê¶ĮìľĦ":6672,"Ġíķľê¸Ģ":6673,"Ġíıīìĥģ":6674,"ĠìķķëıĦ":6675,"Ġëĭ´ëĭ¹ìŀĲ":6676,"Ġìĭ¤ëĤ´":6677,"ëħ¼":6678,"ê»ĳ":6679,"Ġê°ķìłĲ":6680,"ķëĭĪëĭ¤":6681,"Ġì«ĵê²¨":6682,"ĠìĿ´ìĿ´":6683,"ë¬¸íĿ¬":6684,"Ġìŀ¥ìĿ¸":6685,"Ġëį°ìĿ´":6686,"Ġê°Ĳëĭ¹":6687,"Ġê¸Īê°ķ":6688,"ĠíŀĻ":6689,"ł¥":6690,"ĠíķĢ":6691,"ì¼ĢíĮħ":6692,"Ġê³łê±°":6693,"ëĮĢíķľ":6694,"Ġê°ľë°©":6695,"ĠìķłëĭĪ":6696,"Ġê·¸ëŀĮ":6697,"Łī":6698,"Ġìķ½íķľ":6699,"ĠëĨĶëĳĲ":6700,"ĠìĪĺì²ĺ":6701,"Ġë³´ìĹ¬ì¤Ģ":6702,"ëľ©":6703,"ĠëĳĺëŁ¬ë³´":6704,"ĠíıĲìĩĦ":6705,"Ġì¡°ìľ¨":6706,"ë§Įê°Ħ":6707,"Ġë·°":6708,"Ġë¹Ħìľł":6709,"ĠìĿĢíĩ´":6710,"ê³ĦìĨį":6711,"Ġë°±ìĭł":6712,"ĠìĹ¬ê¸°ìłĢê¸°":6713,"ĠíĮĮëŀĢ":6714,"ĠìĨĲíķĻê·ľ":6715,"Ġì½Ķëĵľ":6716,"ĠìĿ´ì¤ĳ":6717,"ĠëĶ±ëĶ±":6718,"ĠíķŃìĿĺ":6719,"ëĭī":6720,"Ġì§Ħìŀħ":6721,"ëĿ¼ëĬĶ":6722,"ĠìĿ¼ì¹ĺ":6723,"ì¤Ģíĺ¸":6724,"Ġíĸ¥ìĥģ":6725,"ĠëĦ¤ìŀĲ":6726,"ĠìĸĳìĭĿ":6727,"Ġíģ´ëŀĺìĭĿ":6728,"ĠìĿ´ê¸¸":6729,"Ġìĭ¬ìĥģ":6730,"ĠíĮ¨ëĦĲ":6731,"Ġë¹Ħìłķ":6732,"Ġìĭ¤ìĹħ":6733,"Ġì¹ľíķľ":6734,"ìľ¼ë©°":6735,"Ġê³µì§ģìŀĲ":6736,"Ġëª©ìĤ¬":6737,"ĠìĩĦ":6738,"Ġì§ĢìĹ°":6739,"ĠíĨµë³´":6740,"Ġíı¼íİĺìĿ´":6741,"Ġìĺ¤ê°Ģ":6742,"Ġê·¸ëĭĪê¹Ĳ":6743,"ìĿ¸ëĵľ":6744,"Ġë¶ĪëŁ¬ìĦľ":6745,"ëŀŃ":6746,"Ġëł¹":6747,"ĠìĦ¤ë¦½":6748,"Ġë¶Ģì±Ħ":6749,"Ġìŀ¬ìĪĺ":6750,"Ġë¶Ģì´Ŀë¦¬":6751,"íĮĢ":6752,"Ġìĺ¬ëĿ¼ê°Ī":6753,"ë°©ìĨ¡":6754,"ĠíĬ¸ìľĦ":6755,"Ġë¬´ìĸ¸ê°Ģ":6756,"Ġì¶ľëıĻ":6757,"Ġìĭ¤ì²´":6758,"ĠíĬ¸ëłĮ":6759,"ì§ĢìĤ¬":6760,"ĠìĿ¼ìĿ¼":6761,"ìĦ¸ì§Ģ":6762,"ĠëĦ¤íĭ°ì¦Į":6763,"Ġìľłëł¥":6764,"Ġê·ľì¹Ļ":6765,"Ġêµ¬ì²Ń":6766,"ĠìķĦìĭ¤":6767,"ĠìĿ¸ìļ©":6768,"ĠìĺµëĭĪê¹Į":6769,"Ġê°ĦìĭĿ":6770,"Ġë£°":6771,"ĠëªħíĴĪ":6772,"Ġë°Ķê¿Ķìķ¼":6773,"ĠìĹĲê²Ĳ":6774,"Ġëĭ¬ëĿ¼ì¡Į":6775,"īģ":6776,"Ġê³µìĿ¸":6777,"Ġìķ¡ìĪĺ":6778,"ĠíĭĢë¦¼":6779,"Ġê³łì¹ĺ":6780,"Ġë°ĽìķĦëĵ¤ìĿ¼":6781,"Ġì¶Ķê²½":6782,"Ġë²łìĬ¤íĬ¸":6783,"ĠíĿīê¸°":6784,"ĠíİĢëĵľ":6785,"Ĳģëĭ¹":6786,"Ġê¸°ëĭ¤ëł¸":6787,"Ġëĭ¹ë¶Ħê°Ħ":6788,"íķłë¨¸ëĭĪ":6789,"Ġìĭłìĥģ":6790,"Ġíĳľì¤Ģ":6791,"ëĵ¤ìĿ´":6792,"Ġë©¸ì¹ĺ":6793,"ĠìĪĺë¹Ħ":6794,"ĠëĵľëŁ¬ëĤľ":6795,"ê²°êµŃ":6796,"Ġê¹Ģë¯¼":6797,"Ġìŀ¥ë¡Ģ":6798,"Ġê¸°ì°¨":6799,"ĠìĿĦê²ĮìļĶ":6800,"ìĸ´ì¨Į":6801,"ĠìĤ¬ë¬´ì´Ŀìŀ¥":6802,"Ġê³łì¶Ķìŀ¥":6803,"ĠíķĺìĸĢ":6804,"ĠíĴĪê²©":6805,"Ġëħ¸ë¦¬":6806,"Ġê³łìłĦ":6807,"ìĸ´ëĬĲ":6808,"Ġì¢Įìļ°":6809,"ĠëĤ¨ìļ©":6810,"Ġë°°ì¶Ķ":6811,"ĠìĿĢíķĺ":6812,"Ġì¤ĳë°ĺ":6813,"Ġíı°":6814,"Ġíĥľê·¹ê¸°":6815,"Ġê´ĳíĻĶë¬¸":6816,"ĠíĪŃ":6817,"ĠìĿĦëŀĺ":6818,"ĠìłĦíĮĮ":6819,"ĠìĿ´ìļĶ":6820,"Ġíķłëł¤":6821,"Ġëĭ¤ëħĢìĻĶ":6822,"Ġì¤ĳìĨĮê¸°ìĹħ":6823,"ĠìĥĿë¬¼":6824,"Ġíĺ¸ì£¼":6825,"ĠìĦłê±°ë²ķ":6826,"Ġì»¨ìħī":6827,"Ġìľ¼ìĭŃëĭĪê¹Į":6828,"Ġì²łìłĢíŀĪ":6829,"Ġíį¼ë":6830,"ë©ĶìĿ´ìħĺ":6831,"Ġìĸ´ì§¸":6832,"Ġê¹Ģìĺģì²ł":6833,"Ġë¶ķê´´":6834,"ĠìĿĮìĦ±":6835,"Ġê°ķìĤ¬":6836,"ë§Īë§Ī":6837,"ĠëĤĺìķĦ":6838,"ĠìĤŃìłľ":6839,"ì£¼ë¨¸ëĭĪ":6840,"ĠìĹĦê²©":6841,"ĠìĸĳìĬ¹":6842,"Ġê¹Ģë³ĳ":6843,"Ġë¶ĢëģĦëŁ¬":6844,"ìĹ¬íĸī":6845,"Ġì·¨ê¸ī":6846,"Ġëª¨ë°ĶìĿ¼":6847,"Ġíķľê°ķ":6848,"ĠíĮĮê²¬":6849,"kbs":6850,"Ġë¨¸ë¦¿ìĨį":6851,"Ġê³µëª¨":6852,"ĠìķĦëĭĺ":6853,"Ġëĥīë©´":6854,"Ġíķĺìļ°ìĬ¤":6855,"Ġìĸ´ì§Ģ":6856,"íĮ¡":6857,"Ġëĭ¨ê¸°":6858,"ĠíķľëķĮ":6859,"Ġê°ģìĺ¤":6860,"ìºĲ":6861,"ĠíķĺíķĦ":6862,"Ġì¶ĶìĦ¸":6863,"ĠíĶĮëŀ«":6864,"ĠìĻ¸êµĲë¶Ģ":6865,"Ġë°ľëĿ¼":6866,"ĠìĤ¬ëĤ´":6867,"ĠëķĮëł¤":6868,"ìĹ¬ìłķ":6869,"ĠíĪ¬ê¸°":6870,"ĠìĦ¹":6871,"Ġìĸ´ì©Ĳ":6872,"Ġê³µìĤ°":6873,"Ġê³łêµ¬ë§Ī":6874,"ĠìĿ´ë¶Ī":6875,"Ġë°©ìĤ¬":6876,"ĠìĬ¤ìľĦ":6877,"ĠâĢľ":6878,"Ġìļ´íĸī":6879,"Ġì¶©ìĦ±":6880,"ëĿ":6881,"ĠìĨĮìļ©":6882,"Ġë°ĶìĿ´ëŁ¬ìĬ¤":6883,"ê²¹ìĤ´":6884,"Ġê¸īíŀĪ":6885,"Ġíķľëĭ¤ë©´ìĿĢ":6886,"Ġêµ¿":6887,"ĠìĿ´íķ´ì°¬":6888,"Ġê¿Īê¾¸":6889,"ì£¼ë¯¼":6890,"ĠíİĺìĿ´ìĬ¤ë¶ģ":6891,"Ġê¹Ģìŀ¬":6892,"Ġìłĵ":6893,"Ġìŀ¡ìķĦ":6894,"ĠìĿ´íĸī":6895,"Ġë°©ì¹ĺ":6896,"Ġìĸĳìĥģ":6897,"Ġê°ĢëĿ¼":6898,"Ġê±°ì³ĲìĦľ":6899,"Ġì¤Ģëĭ¤ëĬĶ":6900,"Ġíĺ¸ê¸°":6901,"ĠìĿ´ëĿ¼ëįĺ":6902,"Ġëį´":6903,"Ġë´¤ìĹĪ":6904,"ĠìĦ¼ì¹ĺ":6905,"Ġë³´ì¢Įê´Ģ":6906,"Ġíľ©":6907,"ĠëĤĺê°Ħëĭ¤":6908,"ĠëµĪ":6909,"ĠìĬ¤ì¼Ģì¤Ħ":6910,"Ġêµ¬íķ´":6911,"Ġëħ¸ë²¨":6912,"Ġê»´":6913,"Ġë§Īì¼ĢíĮħ":6914,"Ġê³ĦíĮĮ":6915,"ĠíĭĢë¦°":6916,"Ġê°Ĳì°°":6917,"ĠíķĦë¦¬":6918,"ĠìĸĳìĦ±":6919,"ìļ´ìłĦ":6920,"Ġê²©ì°¨":6921,"ê²ģëĭĪëĭ¤":6922,"Ġë©´ìĹŃëł¥":6923,"ìĿ¸ì§Ģ":6924,"Ġë¹ĦëĮĢìľĦ":6925,"Ġê³łë¦¬":6926,"ĠìıŁìķĦ":6927,"Ġìĭ¤íĺĦ":6928,"Ġê°ľë³Ħ":6929,"Ġê°ĪìĪĺë¡Ŀ":6930,"Ġìĺģìŀħ":6931,"ìĹŃìĭľ":6932,"ĠíĶ¼ê³ł":6933,"ë²Ķì£Ħ":6934,"Ġìŀ¬íĮĲìĨĮ":6935,"ĠíĶĦëĿ¼ìĿ´":6936,"Ġê·Ģì°®":6937,"ìķĦëĭĪìļĶ":6938,"Ġê±¸ì³ĲìĦľ":6939,"ĠëŀįëĭĪëĭ¤":6940,"ë°Ń":6941,"Ġê·¸ëŁ´ê¹ĮìļĶ":6942,"ĠìĨĮìĿĮ":6943,"ĠìĦ±íıŃëł¥":6944,"ĠìķĦë¦Ħëĭµ":6945,"ĠíĺĦìĹŃ":6946,"Ġë¶Ģì¶Ķ":6947,"Ġì¢ħì¢ħ":6948,"ĠëŃĶëį°":6949,"ĠíķŃìĨĮ":6950,"Ġì¢ħëª©":6951,"Ġê¸°ìĹĲ":6952,"ĠìĪĺë©´":6953,"ĠìķĦíĶĶ":6954,"ìĭ¤íĹĺ":6955,"ìĬ¤íĮħ":6956,"ĠìĤ°ìĨĮ":6957,"Ġê³łìĭľ":6958,"Ġì§ģë¬´":6959,"ĠëıħëıĦ":6960,"ĠìĽĲë¦¬":6961,"Ġl":6962,"ìĹī":6963,"ĠìĤ¬ë¦½":6964,"Ġì¤ĳëł¥":6965,"Ġì§ĳê°Ĵ":6966,"ĠêµŃíĨł":6967,"ĠìĺģìĽħ":6968,"ëĶ°ëĿ¼":6969,"ëĤĺì¤ĳ":6970,"Ġìĸĳìľ¡":6971,"ìģ¨":6972,"ĠëıĦë°ķ":6973,"Ġë¶ģì¸¡":6974,"ĠëłĪëĵľ":6975,"ĠíĹ¬ìĬ¤":6976,"ĠëĮĢì²´ë¡ľ":6977,"ĠìºĶ":6978,"ĠìĤ´ìķĦëĤ¨":6979,"ĠìĿ´ë¡Ģ":6980,"Ġì§Ħëĭ¤":6981,"Ġë§¤íĬ¸":6982,"Ġê¸°ë¬´":6983,"ĠìĦ±ìĭ¤":6984,"íħĮë©´":6985,"ĠìĨľ":6986,"íĤ¤ì§Ģ":6987,"Ġë´ħìĭľëĭ¤":6988,"Ġë¬´íķľ":6989,"ĠìĥģìĨį":6990,"ĠìĥģìĿĺ":6991,"ìĺµ":6992,"ĠìŀĬìĸ´ë²Ħ":6993,"Ġê³Ħì¸µ":6994,"Ġì²Ńíĥģ":6995,"êµŃìĪĺ":6996,"ĠìĦłì¶ľ":6997,"Ġëĵłëĵł":6998,"Ġê¹ĮìļĶ":6999,"ëħĦê¸°":7000,"Ġíĳľëªħ":7001,"Ġë©Ķëª¨":7002,"ĠíĻ©ê¸Ī":7003,"ĠëĤļ":7004,"Ġìľłëıħ":7005,"ĠìĿ´ìĦĿ":7006,"ĠìĦ¸ìŀħ":7007,"Ġê³łì§ĳ":7008,"ĠëĸłëĤ¬":7009,"ĠìĿ´ëĨĪ":7010,"Ġë¡ľë¹Ħ":7011,"ĠëĤ´ê²Į":7012,"ĠëŃĶê°ĢìļĶ":7013,"ĠìĨĮìĦľ":7014,"ĠëĮĢë¦½":7015,"Ġê¹Ģêµ¬":7016,"ĠëĪĦêµ´":7017,"Ġìĭ¤ìĿĢ":7018,"Ġì§ĦìłĦ":7019,"ĠíĥĢìĿ´ë°į":7020,"Ġëĭ¤ë¤Ħ":7021,"ĠìĸĳìŀĲ":7022,"Ġëĭ¤ì§Ħ":7023,"ĠíĬ¹íĺľ":7024,"ĠìĮĵìĿ´":7025,"íĬ¸ë¦¬":7026,"ĠìķĪìª½":7027,"Ġì«Ħ":7028,"ĠìĪĺìĽĲ":7029,"ìŀĲëĦ¤":7030,"ĠìĪ¨ê¸°":7031,"Ġê°ĲìķĪ":7032,"ĠìĿĮìĽĲ":7033,"ĠíĿĻ":7034,"ìĿ´ë¯¸":7035,"Ġë¶Īìĭł":7036,"Ġìĭłì§Ģ":7037,"ê²½íĻĺ":7038,"ĠìĹĲíĶ¼":7039,"Ġëª¨ë¦ħëĭĪëĭ¤":7040,"Ġëįĺê°ĢìļĶ":7041,"Ġê¹Ģìĥģ":7042,"ê²°íĺ¼":7043,"Ġê¶¤":7044,"ĠìķĪíĿ¬ìłķ":7045,"ìŀłê¹Ĳ":7046,"ì§ĢëĬ¥":7047,"ìĿ´ëĦĪ":7048,"Ġë¯¸ë§Į":7049,"Ġìĸ´ìķ¼ì£ł":7050,"Ġëĭ¤ê±°ëĤĺ":7051,"ĠêµĲìľ¡ì²Ń":7052,"Ġìŀħìĸĳ":7053,"ĠëĵĢ":7054,"Ġë¯¸ìĬ¤":7055,"ĠëĽ°ìĸ´ëĤľ":7056,"Ġë¹ĦìłĦ":7057,"Ġë°°ìļ°ìŀĲ":7058,"ë±ħ":7059,"ĠìļĶê²ĥ":7060,"Ġêµ°ë¶Ģ":7061,"ĠìĪĺíĹĺ":7062,"Ġì¤ĳë¦½":7063,"íı¼":7064,"ĠëĤ©ì¹ĺ":7065,"ê·¸ëŀ¬":7066,"ëĪĦêµ¬":7067,"Ġëª«":7068,"Ġë¬¼ëł¤":7069,"Ġíķµìĭ¤íĹĺ":7070,"ëĨĶ":7071,"ëĤĺëĭ¤":7072,"ìĭ¤ìłľ":7073,"ìĨĮëĵľ":7074,"Ġë°ľëª©":7075,"Ġëĸ¨ìĸ´ì§Ī":7076,"Ġë§¤ë²Ī":7077,"Ġì´ĪìłĲ":7078,"Ġê³łëĬĶ":7079,"Ġë§Īìĭ¤":7080,"ĠìĿĮìĿĮìĿĮ":7081,"ĠëįĶìļ±ëįĶ":7082,"Ġë´īíĪ¬":7083,"ê±¸ìĿ´":7084,"Ġìĺ¨ê°ĸ":7085,"Ġíļ¡ëł¹":7086,"Ġì£¼ê³ł":7087,"ĠìĬ¤íİĺìĿ¸":7088,"Ġë¹¡":7089,"Ġë¶Ħê³¼":7090,"íĮ¬":7091,"ëŃĩ":7092,"Ġìĺ¬ë¦´":7093,"Ġìĺ¬ëĿ¼ìĻĶ":7094,"Ġë°©íĥĦìĨĮëħĦëĭ¨":7095,"íķ´ìļĶ":7096,"ë§Īì§Ģë§ī":7097,"ìĿ¸ëĭ¤":7098,"ĠëĿ¼ìĬ¤":7099,"Ġì£¼íķľ":7100,"ĠìŃ":7101,"ĠëĨĵìĹ¬":7102,"ĠíĻĶíķ´":7103,"Ġë¶Ģë¬¸":7104,"Ġê°ĪìķĦ":7105,"ìŀ¥êµ°":7106,"ĠëĮĢíķĻìĽĲ":7107,"Ġìĥīìĥģ":7108,"Ġìĸ´ìĥī":7109,"Ġëĵ¤ìľ¼ìĭľ":7110,"ĠìĭłìĿ¸":7111,"Ġë¦¬íı¬íĦ°":7112,"Ġê²ĮìĭľíĮĲ":7113,"Ġë¶ģìª½":7114,"ĠìĮĪ":7115,"ĠëĤ´ìĹŃ":7116,"Ġì°¸ëª¨":7117,"ë°ĺê¸°":7118,"ìĸ¼ë¥¸":7119,"Ġì§Ģê°ĳ":7120,"ëĤĺìĿ´":7121,"ĠíĤ¬ë¡ľë¯¸íĦ°":7122,"Ġê³łì§Ģ":7123,"Ġë¹Ħìłķê·ľì§ģ":7124,"ĠìµľìĿ¼êµ¬":7125,"ĠìĤ½":7126,"Ġìµ¸":7127,"Ġì£¼ë¦Ħ":7128,"Ġíķ´ì²´":7129,"Ġë¶Ģì§Ģ":7130,"ĠëĤ´ìŀ¥":7131,"ĠìľłìłĦìŀĲ":7132,"ĠëĤłëĿ¼":7133,"ĠëįĶêµ°ìļĶ":7134,"ìĸ´ì¨Įëĵł":7135,"ĠìĦ°":7136,"ĠëĤľë¯¼":7137,"Ġíķłëŀĺ":7138,"Ġì¶ķìĨĮ":7139,"Ġì§Ģì¼ľìķ¼":7140,"Ġëį§ë¶Ļ":7141,"ĠìĦ±ëªħ":7142,"ĠìĪŃ":7143,"ĠíĮĮìĽĮ":7144,"ĠìĺĪìĻ¸":7145,"Ġê²łëĭ¤":7146,"ëŁ¬ëĵľ":7147,"ĠìĤ¼ê²¹ìĤ´":7148,"Ġì¢ħë¶ģ":7149,"Ġë©Ģì©¡":7150,"ëĵ£":7151,"Ġì¹ľíķĺ":7152,"ĠíĶ¼ë¡ľ":7153,"ì¶Ķíĸī":7154,"íĭ¸":7155,"ĠìķĦìī¬ìĽĢ":7156,"ĠíĿ¥ë¶Ħ":7157,"ĠìķĦíĶĦë¦¬ì¹´":7158,"Ġìļ°ìļ¸ì¦Ŀ":7159,"ëĮĢë¬¸":7160,"Ġíĸīíĥľ":7161,"ĠìĿ´íĥĪë¦¬ìķĦ":7162,"ĠëıĦìļ°":7163,"ĠìĬ¤íĤ¤":7164,"ĠìĿ¼ê¸°":7165,"ĠìĿ¼ìĿ¼ìĿ´":7166,"ĠìłĢê±´":7167,"ì»¨ëĮĢ":7168,"Ġì§Ģë¥´":7169,"Ġë³´ì¡°":7170,"Ġì£¼ê³łë°Ľ":7171,"ĠìĨĮìļĶ":7172,"ĠìĿ´ìĪľ":7173,"Ġê³łìĬ¤":7174,"Ġëħ¸ëŀĢ":7175,"Ġì½Ķì¹ĺ":7176,"Ġì°½ìĿĺ":7177,"Ġì³Ĳëĭ¤ë³´":7178,"ĠìħĶìķ¼ì£ł":7179,"ĠêµĲëıĦ":7180,"Ġê¹ĢíķĻ":7181,"ĠëĮĢìĦ¸":7182,"ĠìŀĲêµ¬":7183,"ĠìĨĲíĺľìĽĲ":7184,"Ġê¾":7185,"ëŃĶ":7186,"Ġìŀ¬ëĬ¥":7187,"ĠìĿ¸ê³µì§ĢëĬ¥":7188,"Ġìĭľê¸ī":7189,"Ġë¹ĦíĬ¸":7190,"ĠíĮŁ":7191,"ĠëĦĺìĸ´ê°Ī":7192,"ì¹¼":7193,"ĠêµĲìĭ¤":7194,"Ġë°°ìļ¸":7195,"Ġëļľê»ĳ":7196,"Ġìĥģíĺ¸":7197,"Ġê²ĮìĬ¤íĬ¸":7198,"ĠìĪĺìĨĮ":7199,"ĠìĦ±ì¶Ķíĸī":7200,"ĠìĿ´ìĸµ":7201,"ĠìĪĺë°ķ":7202,"ĠìłĦëĤł":7203,"ĠëªħìĿĺ":7204,"ĠìĿ´ì§Ģ":7205,"Ġìłł":7206,"ĠìĨĲìĥģ":7207,"Ġì£¼ë¥ĺ":7208,"ëĴĢ":7209,"ìĽĲëŀĺ":7210,"ë²ĦìĦ¯":7211,"Ġë°ĶëĢĶ":7212,"ĠìłĢì§Ģë¥¸":7213,"Ġìłģëĭ¹íŀĪ":7214,"ĠíķĻìĹħ":7215,"Ġìµľìķħ":7216,"ĠìĺĢìĹĪ":7217,"Ġì±Ħìļ°":7218,"Ġê¸īíķľ":7219,"Ġê·¸ëŁ½ëĭĪëĭ¤":7220,"Ġê³łìĪĺ":7221,"ĠìŀĲë¥´":7222,"ìłĦíĻĶ":7223,"ĠìĹĲíĶ¼ìĨĮëĵľ":7224,"Ġë¹ĦìĹĲìĬ¤":7225,"ĠìĤ´íĶ¼":7226,"Ġ000":7227,"Ġê¸ģ":7228,"Ġìŀħêµ¬":7229,"Ġíķ´ìłľ":7230,"Ġì²©":7231,"Ġëĭ¹ê·¼":7232,"ĠíĥľíĴį":7233,"ĠìĨĮê³łê¸°":7234,"ĠìĦľíķ´":7235,"Ġë©ĭì§Ģ":7236,"Ġë©Īì¶°":7237,"ĠìĿ´ì¹ĺ":7238,"Ġì¡°ë¦¬":7239,"ĠëĮĢíĮ":7240,"Ġëħ¸íĬ¸":7241,"Ġì¤ĳìŀ¬":7242,"ĠëĮĢë³¸":7243,"Ġë¬¼íĴĪ":7244,"Ġi":7245,"Ġëł¤êµ¬":7246,"ĠíĬ¸ìľĦíĦ°":7247,"ĠìĪĺëŁī":7248,"ĠìłĦìļ©":7249,"Ġì«ĵìķĦ":7250,"Ġëĭ¹íķł":7251,"Ġë§ŀìĦľ":7252,"Ġì»´ë°±":7253,"ĠíĮ¨íĤ¤ì§Ģ":7254,"ĠëĨįìĤ¬":7255,"ë²łìĿ´íĦ°":7256,"ĠìĬ¤ì¹´":7257,"ëĦī":7258,"ë´ĲëıĦ":7259,"Ġê¹ĢìĦ±íĥľ":7260,"Ġê°Ģë²¼":7261,"Ġìĺ¤íĨł":7262,"ìŀ¥ë©´":7263,"ĠìłĦëĤ¨":7264,"ĠìĺģìĪĺ":7265,"ĠíĮ¨ëŁ¬":7266,"ìµľê·¼":7267,"Ġì²ĺë°©":7268,"ĠíŀĮ":7269,"Ġìŀħì£¼":7270,"ëłĪìĬ¤íħĮ":7271,"Ġë¬´ìĦľìĽĮ":7272,"ë¹Ķ":7273,"ëĮģ":7274,"ĠìłķìĪĺ":7275,"ĠìľłëĭĪ":7276,"Ġìĭľìĭľ":7277,"ĠìĦłì§ĦêµŃ":7278,"ĠìĪĻìłľ":7279,"ĠìķĦìĿ´ìĬ¤":7280,"ĠìĿ´ë¥¼íħĮë©´":7281,"Ġë³ĳìĹŃ":7282,"Ġë¬´ìĥģ":7283,"Ġê°ĩ":7284,"ëłĪìĬ¤íħĮë¡¤":7285,"Ġë°ľë¶Ģ":7286,"Ġê°ķíĺ¸":7287,"Ġêµ¬ìĽĲ":7288,"Ġê³µìĦ¸":7289,"ĠìłĢë¶Ħ":7290,"Ġë¬¸ìłł":7291,"ĠìĿ´ìĤ°":7292,"Ġê°Ģìĥģ":7293,"ĠìĿ¸ìĦ±":7294,"ë¯¸êµŃ":7295,"Ġëĭ¤ìĺĪ":7296,"Ġìĥģíķ´":7297,"Ġê°ĲìĪĺ":7298,"Ġê³łì¶§ê°Ģë£¨":7299,"ĠëĦ¥":7300,"Ġê±°ì³Ĳ":7301,"ĠíĨµìĿ¼ë¶Ģ":7302,"Ġì¤ĳëħĦ":7303,"Ġê°Īë¹Ħ":7304,"Ġë©ĶìĿ¸":7305,"Ġì§ĢìľĦ":7306,"ĠëķĮë¡ľ":7307,"Ġê¹ĢìĹ¬ìłķ":7308,"Ġì½ľëłĪìĬ¤íħĮë¡¤":7309,"ĠëĦ¤íĬ¸":7310,"ĠìĤ¬ëĿ¼ì¡Į":7311,"¬¼":7312,"Ġê²°ìĿĺ":7313,"Ġì·¨ìķ½":7314,"ë¤ĺ":7315,"ĠëıĻë°ĺ":7316,"ëĿ¼ì§Ģ":7317,"ĠëĨĢëŀ¬":7318,"ê³§":7319,"Ġê³ĦìħĶ":7320,"ĠíĥĢíĺĳ":7321,"Ġìŀ¬ê°ľ":7322,"ì¯":7323,"ĠíĬ¹ìĤ¬":7324,"Ġëĭ¤ê°Ģê°Ģ":7325,"Ġê²°íķ©":7326,"ĠìĹ¼ëĳĲ":7327,"10":7328,"Ġëĭ¤ìŀĲ":7329,"ĠíĹ¤ìĸ´":7330,"Ġêµµ":7331,"ĠíĪ¬ìĸ´":7332,"ìħĢ":7333,"Ġíĥľìĸ´ëĤľ":7334,"Ġì¹ĺìļ°":7335,"ĠëĮĢìļ°":7336,"íĻĶë¬¼":7337,"ĠìķłêµŃ":7338,"ĠíĬ¸ëłĮëĵľ":7339,"Ġë¶Ģê°ģ":7340,"Ġê¸°ìĥģ":7341,"ĠìĦ±ì§Ī":7342,"Ġê²½ë¶ģ":7343,"Ġíķı":7344,"Ġì¡°ë§Įê°Ħ":7345,"ĠíĺĦíĸī":7346,"ê°ĲìĤ¬":7347,"ĠìĬ¹ê°Ŀ":7348,"Ġì¶©ì²Ń":7349,"ĠìĬ¤íĬ¸ëłĪ":7350,"Ġê³¼ìĭ¤":7351,"Ġìļ°ìĹ°":7352,"Ġê¸¸ìĿ´":7353,"ĠìĻľëĥĲë©´ìĿĢ":7354,"ĠíĬľ":7355,"ĠëįĶë¸Ķìľł":7356,"ĠìķłëĭĪë©ĶìĿ´ìħĺ":7357,"Ġìłĳìĭľ":7358,"ĠìŀĦì¢ħ":7359,"íħĮìĿ¼":7360,"ĠíĨµíķľ":7361,"ĠìĦ¸ìŀħìŀĲ":7362,"ìĸ´ëĤ´":7363,"ĠìĹ´ëł¤":7364,"Ġì¶©ìĭ¤":7365,"ĠìºĲìĬ¤íĮħ":7366,"ĠìĦ¸ê·ł":7367,"ĠìĿĦëł¤ê³ł":7368,"ĠìķłíĶĮ":7369,"Ġìŀ¬íĿ¬":7370,"ë°ĶëŀĮ":7371,"ëĲĺ":7372,"ìĽĲìŀ¥":7373,"Ġíģ¬ë¦¼":7374,"ĠëĮĢê°Ĳ":7375,"Ġë¹ĦëĭĲ":7376,"Ġíĺ¸ë°ķ":7377,"Ġê»ĺìĦł":7378,"Ġë©ķ":7379,"Ġì²ľìĹ°":7380,"ĠìĹ¿":7381,"Ġìµľì§Ħ":7382,"ĠíĮ¨ë°°":7383,"íı¬ë¥´":7384,"Ġê³łëıĦ":7385,"íĿĳ":7386,"Ġëĭ´ë³´":7387,"Ġê°ľê·¸ë§¨":7388,"Ġê°ĸì¶°":7389,"Ġìĭłê³¡":7390,"ì¤Ģìĺģ":7391,"Ġìŀ¤":7392,"Ġëĭ¨ìŀ¥":7393,"Ġëĵ¤ìĸ´ìķ¼":7394,"Ġë¸Įë¡ľ":7395,"Ġê³¼ê°Ĳ":7396,"Ġì°½ë¬¸":7397,"Ġê°Ģìł¸ìĻĶ":7398,"Ġë¬¼ë¦¬íķĻ":7399,"ª¨":7400,"ĠìĿ´ìĬ¹ë§Į":7401,"Ġê²Ħ":7402,"Ġíķĳê³Ħ":7403,"ĠìĿĮëª¨":7404,"Ġìĭ¤ì§Ģ":7405,"Ġê°Ħëĭ´":7406,"Ġì´ĿíļĮ":7407,"Ġë³´ì¦Ŀê¸Ī":7408,"Ġëª°ìķĦ":7409,"ĠìĨĮê°ľìĦľ":7410,"ĠìĭľëģĦëŁ¬":7411,"Ġì¤ĦìĹ¬":7412,"Ġìĺ¤ìĹ¼":7413,"Ġë§Īìħ¨":7414,"ĠìĬ¤ìĬ¹":7415,"ĠìĹĺìĹĺ":7416,"ĠíĻ©íĥľ":7417,"ëĵŃëĭĪëĭ¤":7418,"ë¯¸ëĶĶ":7419,"ĠìĺĪì»¨ëĮĢ":7420,"ĠíĬ¸ëŁŃ":7421,"ĠìłķëıĪ":7422,"ĠìĹ°ëĿ½ì²ĺ":7423,"Ġê±°ìļ¸":7424,"ë¬´ê¸°":7425,"Ġëĵ¤ìĸ´ê°ĳëĭĪëĭ¤":7426,"ë°Ķì§Ģ":7427,"ĠìıĻ":7428,"¦°":7429,"Ġê·Ģíķľ":7430,"ĠíĿ¥íĸī":7431,"Ġf":7432,"Ġê°ľìłķìķĪ":7433,"Ġì§Ģíĸ¥":7434,"ĠíĺĲìĺ¤":7435,"ĠìĬ¤íħĮìĿ´íģ¬":7436,"Ġìĸ´ëĸ¤ì§Ģ":7437,"ĠíĬ¸ëłĪìĿ´":7438,"ĠìĤ¬ìĹħìŀĲ":7439,"ëľ¨ë¦¬":7440,"ĠëıĦì£¼":7441,"ĠìĻ¸ì¶ľ":7442,"Ġë¡ľë§¨ìĬ¤":7443,"Ġíıīìĥģìĭľ":7444,"ĠìķĦìĿ´íħľ":7445,"ĠëĦ¤ìĿ´ë²Ħ":7446,"ë³´ìĿ´":7447,"ĠëįĶëįĶ":7448,"Ġì·¨ì§ģ":7449,"Ġê°±ëħĦê¸°":7450,"ìĺµëĭĪê¹Į":7451,"ĠíĮĮìŀ¥":7452,"ëĭ¤ë©´ìĿĢ":7453,"ĠìĨĶë¡ľ":7454,"Ġìļ©ìĿĺìŀĲ":7455,"ĠìŀĲë©´ìĿĢ":7456,"ìĭ±íĦ´":7457,"ĠìłĦìĦ¤":7458,"ĠëĮĢíı":7459,"ĠíĥľìŀĲ":7460,"ĠìĨĲì§Ī":7461,"Ġìŀłìŀ¬":7462,"ìł¤":7463,"Ġìłķë©´":7464,"ĠêµĲìĦŃ":7465,"Ġì²Ńì£¼":7466,"Ġë¯¼êµŃ":7467,"Ġë°ľíļ¨":7468,"ĠìĥģìĿ¸":7469,"ĠìłĦë³µ":7470,"Ġëĵ±ìĤ°":7471,"ĠìĥģìŀĲ":7472,"Ġê°Ħì²©":7473,"Ġë³Ģëªħ":7474,"ĠìĮĵìĹ¬":7475,"ĠíĬ¸ë¡ľíĬ¸":7476,"ĠìŀĲì¹«":7477,"ĠìºĲëĤĺëĭ¤":7478,"ìĦľìļ¸":7479,"ĠìĻķìŀĲ":7480,"Ġë»¥":7481,"ĠíĻĢë¡ľ":7482,"ëłĽ":7483,"ëĪĦê°Ģ":7484,"ì²«":7485,"ĠëıĻìĦľ":7486,"ĠëĳĲëł¤ìĽĢ":7487,"ĠìĿ¸íķĺ":7488,"Ġìłľìłķ":7489,"Ġ40":7490,"ĠíĮ¨ìĬ¤":7491,"ĠìĹ®":7492,"Ġë¹Ħëĭ¨":7493,"Ġëĭ¨ë§Ľ":7494,"ĠìĦŃìĻ¸":7495,"ĠìĦľëªħ":7496,"Ġëĭ¨ìĭĿ":7497,"ĠíĶĮëĿ¼ìĬ¤":7498,"ĠìĿ¸ìłķë°Ľ":7499,"ĠìĨĮìĿ´ëĭ¤":7500,"ê¹Ģì¹ĺ":7501,"Ġê²Ł":7502,"ĠìĿ¼ìĭľ":7503,"ìł¸ìļĶ":7504,"ë®¤ëĭĪ":7505,"Ġë°ľìĿĺ":7506,"ĠíĮĮìĬ¤íĥĢ":7507,"Ġë§ĿìĽĲ":7508,"Ġë³´ìĦĿ":7509,"Ġìĸ½":7510,"íı´":7511,"ĠëłĪëª¬":7512,"Ġìĭ¼":7513,"ĠìłķìĽĲ":7514,"Ġì£¼ìĹ°":7515,"Ġë±ħ":7516,"ĠìĸĳìĬ¹íĥľ":7517,"Ġìłķê²½":7518,"ĠìŀĳìĤ¬":7519,"Ġì°½ì¶ľ":7520,"ëłĪìĿ´íģ¬":7521,"ĠìĿĺì¡´":7522,"Ġê°Ħëĭ¤ëĬĶ":7523,"Ġëĭ¬ëĿ¼ì§Ħ":7524,"ĠìĹ¼ëł¤":7525,"Ġëīĺ":7526,"ĠëıĦìĭ¬":7527,"Ġëĭ¨ìłĲ":7528,"Ġë³´íİ¸":7529,"ê°Ģíı¬ë¥´":7530,"ê·¸ëŀĺìļĶ":7531,"Ġë¹¼ìķĹ":7532,"Ġíķ´ë°©":7533,"Ġë¯¸ë£¨":7534,"Ġíĺķíİ¸":7535,"ĠìĸĳëħĲìŀ¥":7536,"Ġê³łë¬´":7537,"Ġê¸Īë©Ķëĭ¬":7538,"Ġë©ĶìĦ¸ì§Ģ":7539,"Ġì»¤ë®¤ëĭĪ":7540,"Ġíĺ¹ìĭľëĤĺ":7541,"Ġë»Ĺ":7542,"Ġìłķê·ľ":7543,"Ġë¯¼ìĽĲ":7544,"Ġì¶¥":7545,"Ġë¬¼ëŁī":7546,"Ġíĥľê¶Į":7547,"Ġë¦¼":7548,"Ġìľ¼ìħĶëıĦ":7549,"ĠìĹ¬ê±´":7550,"Ġìĥģìĺģ":7551,"Ġê¿ĩ":7552,"ĠìĿ´ë³Ħ":7553,"ì§±":7554,"Ġìĺ¬ëĿ¼ìĻĢ":7555,"Ġëį¸":7556,"Ġê¹ĥ":7557,"ëĵľë¦´":7558,"Ġë§ĪëĿ¼":7559,"Ġëĭ¬ëĿ¼ì§Ī":7560,"Ġìĭľëĭ¬":7561,"Ġìķ¼ì£ł":7562,"Ġì°¾ìķĦëĤ´":7563,"ĠëĥīëıĻ":7564,"ĠìĥĿìĥĿ":7565,"ĠëĤĺëĪ´":7566,"Ġë´Ĳìķ¼ì§Ģ":7567,"Ġìī´":7568,"Ġì¾Į":7569,"ĠìĲ":7570,"Ġìĸµìłľ":7571,"ĠìŀĲë°ľ":7572,"ĠìĨĮíĶĦíĬ¸":7573,"ĠíĺķìĪĺ":7574,"Ġì¦Ĳê¸¸":7575,"ìºĶ":7576,"ĠìĪĺì§ĳ":7577,"Ġê¹Ģë°¥":7578,"ĠìĹĲë¯¸":7579,"ìĹ¬ëŁ¬ë¶Ħ":7580,"ĠìĿ´ìģľ":7581,"ìŀĲë£Į":7582,"ìłĢê»ĺ":7583,"ĠëĤĺëĪłìĦľ":7584,"Ġì§ĢíĤ¬":7585,"ìĭ¹":7586,"ĠëĤ´ë¦´":7587,"ĠìłĳìĨį":7588,"ĠìĿ´ìĻĦ":7589,"ë°ĸ":7590,"ĠìĹ°ìĥģ":7591,"ë¶ģìŀĲ":7592,"Ġê°Ħëĭ¨íŀĪ":7593,"ĠìĦľìłĲ":7594,"Ġìļ¸ë¦¬":7595,"Ġëĵ¤ìľ¼ëĭĪê¹Į":7596,"ëł·":7597,"Ġì½Ķë¯¸ëĶĶ":7598,"ĠêµĲíĨµìĤ¬ê³ł":7599,"ê³łë¦¬":7600,"ĠìłĦê²©":7601,"ĠìĦłìŀĦ":7602,"Ġê¸īê²©":7603,"Ġì§Ħìļ°":7604,"Ġëª¬":7605,"Ġë¬¸êµ¬":7606,"ĠìĿ¸íĦ´":7607,"Ġê·ĢêµŃ":7608,"ëį´":7609,"Ġë³´ì¡´":7610,"Ġìĺ¬ë°Ķ":7611,"ĠëĴ¤ëĬ¦":7612,"Ġì°½ëĭ¹":7613,"ĠìķĦë¦¬":7614,"ĠìķĦìŀ¬":7615,"ĠëĶĶìĹĶ":7616,"Ġê³µë²Ķ":7617,"Ġëĭ¨íĺ¸":7618,"Ġìķ½ìŀĲ":7619,"Ġë¹¼ëĨĵ":7620,"ĠìĿ´ê²½":7621,"ìĥĺ":7622,"ĠìĹīëļ±":7623,"Ġìŀ¥íķĻ":7624,"ĠíļĮìĭĿ":7625,"ìĸ´ì°Į":7626,"ĠìĭłíĻĶ":7627,"ĠíķŃëª©":7628,"Ġì§Ģíĳľ":7629,"Ġìĥ·":7630,"ìĦ¬":7631,"ëį°ìĿ´":7632,"ĠìĿ´ëĶ°ê°Ģ":7633,"Ġê°Ħëĭ´íļĮ":7634,"ĠìķĪê²½":7635,"ĠìĬ¹ìĿ¸":7636,"ĠëĨįëıĦ":7637,"ĠìĽĮìĭ±íĦ´":7638,"Ġê¸°ëĵĿ":7639,"Ġìĭ±ê°Ģíı¬ë¥´":7640,"ê³łì¶Ķ":7641,"ë¡¬":7642,"ĠìĿ´ìĿ¸":7643,"ĠìĭłìŀĦ":7644,"Ġë¹Ħìļ°":7645,"Ġì§ĳì°©":7646,"ĠìłĢìŀ¥":7647,"Ġê±´êµŃ":7648,"ĠíĦ°ì¡Į":7649,"Ġì§ģê¶Į":7650,"ĠíĮĲìłķ":7651,"ĠìĤ¬ëĭ¨":7652,"ĠìĨĮë¦´":7653,"Ġìľ¼ëĭĪê¹Ĳ":7654,"Ġìĺ¤ë°Ķë§Ī":7655,"Ġíķ´êµ°":7656,"ĠíĶ¼ê³łìĿ¸":7657,"ĠìĤ¬êµĲìľ¡":7658,"Ġìŀ¬ê³ł":7659,"ê¶Ī":7660,"ìķ¼ì§Ģ":7661,"Ġë³µíķ©":7662,"Ġì¤ĳê³ł":7663,"ĠìĦłê³¡":7664,"Ġê°ķëł¬":7665,"Ġìļ©ëıĪ":7666,"Ġëı¼ì§Ģê³łê¸°":7667,"ĠìĿ´ëĵĿ":7668,"êµīìŀ¥":7669,"ĠìĤ¼ë":7670,"Ġêµ¬ê°Ħ":7671,"ħ¸":7672,"ĠìĪĺìľĦ":7673,"Ġê³µìĿµ":7674,"Ġê´Ģë£Į":7675,"ê°ľìĿ¸":7676,"Ġìĭ±ê¸Ģ":7677,"ĠìĪĺìŀ¥":7678,"ĠìĪĺìĤ¬ê´Ģ":7679,"Ġë§ĪìĿ´ëĦĪìĬ¤":7680,"Ġê¸°ìĺ¨":7681,"ìĿ¼ë¦¬":7682,"Ġìķ¼êµ¬ìŀ¥":7683,"Ġì§Ģë¶Ħ":7684,"ĠëĤ¨ê²¼":7685,"ëłĪìĿ´ìħĺ":7686,"ĠëĭĿ":7687,"Ġìĭ¤ê²Ģ":7688,"Ġë³µìĽĲ":7689,"ĠìĿ´ë³ĳ":7690,"ĠìłĦìĪł":7691,"Ġê³µì¤ĳ":7692,"ĠëĳĺëŁ¬ìĭ¼":7693,"Ġë°Ģëł¤":7694,"Ġê°Ħìłĳ":7695,"ĠìĤ¬ë§Į":7696,"ĠìłĦíĽĦ":7697,"ĠìĦłë³´ìĿ´":7698,"Ġêµ¬ìĦĿ":7699,"Ġì²ľìķĪ":7700,"ĠíĥĢìŀĲ":7701,"Ġg":7702,"ĠìĿ¸ë¬¸":7703,"ĠìłģíĺĢ":7704,"Ġë°ĽìķĦëĵ¤ìĹ¬":7705,"Ġëĭ¤ëĵłì§Ģ":7706,"Ġì§±":7707,"ìłľë°ľ":7708,"Ġê¹ĢìĹ°":7709,"Ġë¹Ħë¹Ķ":7710,"Ġë°©ìĨ¡êµŃ":7711,"ĠëįĶìľĦ":7712,"Ġë°Ķëĭ·":7713,"Ġë°Ģê°Ģë£¨":7714,"ëĭ«":7715,"ìłķë¶Ģ":7716,"ĠíıŃìĹ¼":7717,"Ġì¹ĺëªħ":7718,"ĠìĹĶíĦ°":7719,"ĠìĤ¬íĳľ":7720,"ìĸ´ìķ¼":7721,"ĠìŀłìĪĺ":7722,"íİĺìĿ¸":7723,"ĠìĺĪìłľ":7724,"ĠìłĪëıĦ":7725,"ĠëıĦìĭľëĿ½":7726,"Ġìĥģìĭ¤":7727,"ĠëĦĺìĸ´ìĦľ":7728,"ĠìĿĺìłľ":7729,"Ġì§ĢëĬ¥":7730,"ë¥´íĬ¸":7731,"Ġê²¬ìłģ":7732,"Ġëĭ¬ìĦ±":7733,"ĠíķĺìĹ¬ê°Ħ":7734,"Ġëĵ¤ìĸ´ëıĦ":7735,"ĠìĿ¼ëł":7736,"ĠíĶ¼ìļ°":7737,"ĠìĿĢê·¼":7738,"Ġë§ĮëĳĲ":7739,"Ġë¹łì§Ī":7740,"Ġê´Ģíĸī":7741,"Ġì¢ĮíĮĮ":7742,"Ġë¶ĪìķĪê°Ĳ":7743,"ĠìĤ°ëĭ¤":7744,"Ġì²ĺì§Ģ":7745,"Ġëĭ¤ê¸°":7746,"Ġëĭ¤íĪ¼":7747,"ìķĦë²Ħëĭĺ":7748,"Ġë³¸ìĤ¬":7749,"ĠìĹīëį©ìĿ´":7750,"ĠëĶ°ëĭĺ":7751,"ıĮ":7752,"ĠìĿ´ìĿĺ":7753,"ĠìĤ¬íĺķ":7754,"Ġëĭ¹ì²¨":7755,"ĠìĬ¤íģ¬":7756,"íıĲíķĺ":7757,"Ġíķ´ì§Ģ":7758,"Ġì°½ê³ł":7759,"ĠìĿ´ë»Ĳ":7760,"ê³łë§Ļ":7761,"ĠìĿ¼ê°Ģ":7762,"ê·¸ëħĢ":7763,"Ġêº¼ë":7764,"Ġìĸ´ë¨¸ëĤĺ":7765,"Ġë§Īê°Ĳ":7766,"ĠìľłìķĦ":7767,"ĠìĽĮëĤĻìĹĲ":7768,"ë²ĦìĬ¤":7769,"ĠìıŁìķĦì§Ģ":7770,"Ġë³´ë¦Ħ":7771,"ĠìľĦëĮĢ":7772,"Ġíı¬ëıĦ":7773,"ĠíķľêµŃìĸ´":7774,"íĥĳ":7775,"ĠìĨĲìŀĲ":7776,"Ġëĸ¨ìĸ´ëľ":7777,"ĠëĶĶìĹĶìĹĲìĿ´":7778,"ĠìĭłëħĦ":7779,"Ġì²łíļĮ":7780,"Ġê°Īê²ĮìļĶ":7781,"ë´īì£¼":7782,"Ġì§Ģë¬¸":7783,"Ġëª¨ëĭĪ":7784,"Ġê±°ëĳĲ":7785,"ĠìĥĿê³Ħ":7786,"ìĦłëĭ¤":7787,"Ġê·¸ëŁ´ê¹Į":7788,"Ġìŀİ":7789,"ĠëĤ´ë³´ëĤ´":7790,"ĠíĻĺìĥģ":7791,"ê°ĳìŀĲê¸°":7792,"ĠìĿ´ìĸ´ì§Ī":7793,"Ġíķľìłķ":7794,"ĠìĤ¬ìĽĲ":7795,"ĠíĶ½":7796,"Ġê°ĳìŀĳ":7797,"ĠìľĪ":7798,"ĠìķĦë©Ķ":7799,"ĠëıĦë§Ŀê°Ģ":7800,"ĠìĦ¤ìĤ¬":7801,"Ġìłĳì¢ħ":7802,"Ġì¼ĢìĿ´íĭ°":7803,"ì»¥":7804,"Ġìĭ¤ìłģ":7805,"ĠìĹ°ìĪĺ":7806,"Ġxxxx":7807,"ĠìķĦë¶Ģì§Ģ":7808,"Ġíĥľìĸ´ëĤ¬":7809,"Ġíĥ±íģ¬":7810,"Ġë¹Ħê·¹":7811,"Ġë¸ĶëŀĻíĻĢ":7812,"ĠìŀĲë¬¸":7813,"íİľ":7814,"ĠíĭĢëł¸":7815,"ĠìłľìŀĲ":7816,"ë³´ê³ł":7817,"Ġë¬´ê±°ìļ´":7818,"Ġê³Ħìĭłëį°":7819,"ĠíİĺìĿ´":7820,"ĠëĮĢë²ķê´Ģ":7821,"Ġíģ¬ë¡ľ":7822,"Ġìłķê·ľì§ģ":7823,"Ġê¹¡":7824,"ĠëŀĦê¹ĮìļĶ":7825,"ĠíĤ¤ìĬ¤":7826,"ĠìĤ¬ìĿ´ë²Ħ":7827,"ĠìŀĲìĭłê°Ĳ":7828,"ìķĦë¬´ë¦¬":7829,"ĠíĸīìĦ±":7830,"ĠìĦ¤ëłĪ":7831,"Ġëį¤":7832,"ë£©":7833,"ë¶ģíķľ":7834,"Ġíĸīìłķë¶Ģ":7835,"Ġíķ©ë¥ĺ":7836,"Ġë°Ń":7837,"ê°Ģë¦¬":7838,"Ġê°ľë§ī":7839,"Ġê¸°ëĭ¤ë¦´":7840,"Ġëª¨ìķĺ":7841,"Ġìĭ¬ìĿĺ":7842,"ìĬ¤íģ¬ë¦¼":7843,"ìĬĺ":7844,"Ġëĵľìĭł":7845,"ì§Ħìĺģ":7846,"ĠìĹ¬ìĻķ":7847,"ĠíķĻë¶Ģ":7848,"ĠìĬ¤íİĻ":7849,"êµīìŀ¥íŀĪ":7850,"ĠìĿ´íĺĦ":7851,"Ġê°Ģê³Ħ":7852,"ĠìĹ°ëıĻ":7853,"ĠëĨĢëŀį":7854,"ĠìĿ´ë£¨ìĸ´ì§Ī":7855,"ĠíķľìĪ¨":7856,"Ġë¬¸ëªħ":7857,"Ġë¬´ê²ģ":7858,"Ġëŀ¬":7859,"ĠìľłìĹ°":7860,"Ġíķ©ì³Ĳ":7861,"Ġë¶Ģìĭ¤":7862,"Ġë¦¬ìĸ¼":7863,"ĠìĥĲëŁ¬ëĵľ":7864,"ìĿ¼ë³¸":7865,"Ġë§Īíģ¬":7866,"Ġê³łëĮĢ":7867,"ĠëıĻíĻĶ":7868,"ĠëĮĢëŁī":7869,"Ġë§ĪìĤ¬":7870,"Ġë¹ĦìŀĲ":7871,"Ġê¸ĢìĶ¨":7872,"ĠëĮĢìŀħ":7873,"ĠëĵľëĿ¼ìĿ´":7874,"ì²´ëĬ¥":7875,"ĠëĥĲêµ¬ìļĶ":7876,"Ġëĭ¤ëĭĮ":7877,"ĠìķĪë°©":7878,"Ġë¯¸ìĹŃ":7879,"íĪ°":7880,"Ġë¶Īê°ĢíĶ¼":7881,"Ġìĸµì§Ģë¡ľ":7882,"Ġíķľë¥ĺ":7883,"ĠìĦ¸ìŀĲ":7884,"ĠìĭłìĦ¸":7885,"ĠìĹ°ë£¨":7886,"Ġëĵľëł¤ëıĦ":7887,"ĠìłĢì§ĪëłĢ":7888,"Ġëĭ¬ì½¤":7889,"ĠëĨįìŀ¥":7890,"Ġë¹¨ëŀĺ":7891,"ĠìļĶìłķ":7892,"Ġì¹ĺëŁ¬":7893,"Ġê³łëĵ±íķĻìĥĿ":7894,"Ġìķŀìŀ¥":7895,"ĠìĪĺê±´":7896,"Ġë¶Ħê¸°":7897,"ë²Ħê±°":7898,"Ġìļķêµ¬":7899,"Ġë³¼ëł¤ê³ł":7900,"ĠìĹĺë¦¬ë²łìĿ´íĦ°":7901,"Ġì§Ģìļ°":7902,"Ġë¬¼ìĸ´ë³¼":7903,"Ġëª»íķ´ìĦľ":7904,"ĠëıĻê³Ħ":7905,"Ġëĵłëĭ¤":7906,"Ġìĵ°ëŁ¬ì§Ģ":7907,"Ġìľłìĭł":7908,"ĠìĬ¤ìºĶ":7909,"ì¹´ëĵľ":7910,"ëĭ¹ìĹ°íŀĪ":7911,"Ġë°ľë§¤":7912,"Ġê²½ì°°ê´Ģ":7913,"Ġë§ĮìłĲ":7914,"êµ¬ë¦¬":7915,"ĠìŀĦìĽĲ":7916,"Ġì§Ģê²Ģ":7917,"ĠëıĦì¤ĳ":7918,"Ġì°¨ë¶Ħ":7919,"Ġìľ¼ëĿ¼":7920,"Ġëªĩëªĩ":7921,"ĠëıĻìĸĳ":7922,"íĭ°ìĬ¤íĬ¸":7923,"ĠëĤ®ì¶Ķ":7924,"ìĽ¨ìĿ´":7925,"ì§Ħìļ°":7926,"Ġëª©ìļķ":7927,"Ġíķľëĭ¤ê±°ëĤĺ":7928,"Ġì¶ľìĭľ":7929,"Ġìŀĳê³¡ê°Ģ":7930,"ĠìĦ¸ë¶Ģ":7931,"Ġì¹ľíķ´":7932,"Ġê°Ģìł¸ìķ¼":7933,"Ġê¹Ģë¶ĢìĦł":7934,"ìĦ¸ìĥģ":7935,"aa":7936,"ëİ":7937,"ĠìĿ´ìķ¼ê¸¸":7938,"ìĸ´ëĨĵ":7939,"Ġíķľëĭ¤ëĵłê°Ģ":7940,"ìĽĮìķ¼":7941,"ĠìĪĺì§Ģ":7942,"Ġê·¸ëŁ°ê°ĢìļĶ":7943,"Ġë¹ĦìĹł":7944,"Ġë°©ë¶ģ":7945,"Ġê¸°ì¡°":7946,"ĠëĦĺìĸ´ê°Ķ":7947,"Ġì´Īëĵ±íķĻìĥĿ":7948,"ĠíĤ¤ìĽł":7949,"ëĭ¤ëŀĢ":7950,"ĠëĬĶì§ĢìļĶ":7951,"Ġë³¼ëŀĺ":7952,"ĠìļĶë¡ľ":7953,"ĠìłķìľłëĿ¼":7954,"ĠëĦīëĦī":7955,"Ġê¸°ìĽĲ":7956,"Ġì§Ħìŀĳ":7957,"ìŀĩ":7958,"Ġíķ©ì¹ĺ":7959,"Ġë°ĶìĿ´ìĺ¤":7960,"ĠìķŀëĴ¤":7961,"Ġë¯¸ìļ©":7962,"Ġëĭ¹ëıĦ":7963,"ĠìĦ±ë²Ķì£Ħ":7964,"ê¸´ëĭ¤":7965,"ĠëıĦìŀ¥":7966,"ĠìĿĮë°ĺ":7967,"Ġíķ©ë³ĳ":7968,"ĠìĦľëĳĺëŁ¬":7969,"ĠìĹ°íĿ¬":7970,"Ġìĭľìĥģ":7971,"Ġìłķì°©":7972,"Ġìłķíķ´ìł¸":7973,"ĠìİĦ":7974,"Ġëĸ´":7975,"ëĿ¼ìļ°":7976,"Ġëª¨ìļķ":7977,"ĠìĿ´ê²¼":7978,"ĠíĥľêµŃ":7979,"ĠíĹĮìŀ¬":7980,"ĠìĦ¸ìļ´":7981,"Ġìĸ´ëĶĺê°Ģ":7982,"ĠëĨĢëŀĢ":7983,"ëĤ®":7984,"ĠëĶ©":7985,"Ġì¹ĺìĤ¬":7986,"ê³łìĥĿ":7987,"Ġë¡ľê·¸":7988,"Ġê³¼ìĭľ":7989,"ĠìĤ¬ëł¹ê´Ģ":7990,"ĠìĿ´ë¯¼":7991,"ĠìłĦìĿ´":7992,"ìĽĮíģ¬":7993,"ĵ¤":7994,"Ġì£¼ìłĢ":7995,"êµ¬ëĭĪ":7996,"Ġì²łê±°":7997,"Ġê°ĢëıĻ":7998,"ĠìĤ¬ëª¨":7999,"Ġì£¼ì£¼":8000,"Ġì¢ħë£Į":8001,"ĠëĳĲìĦ¸":8002,"Ġê¹Ģê´ĳ":8003,"Ġê°Īëŀĺ":8004,"Ġë¶Ģê³¼":8005,"ë§Įìķ½":8006,"ĠëĮĢë§Į":8007,"ĠíĶĮëĿ¼ìĬ¤íĭ±":8008,"ĠìĽĲë§Ŀ":8009,"ĠíĨµì¹ĺ":8010,"ĠìĹŃíķĻ":8011,"ë¹¨":8012,"Ġìĸ´ë¦°ìĿ´ì§ĳ":8013,"ĠìĹ½":8014,"ĠìĶĮ":8015,"ĠëĿ¼ëĿ¼ê³ł":8016,"Ġì¹ĺìľł":8017,"ĠìĻ¸ë©´":8018,"Ġëĭ¨ìłķ":8019,"Ġê·¸ëŁ¬ëĭĪê¹ĮëĬĶ":8020,"Ġë°©ì¹¨":8021,"Ġì²ĺìŀ¥":8022,"Ġëħ¸ëŀĺë°©":8023,"Ġì¼ĢìĿ´ë¹Ħ":8024,"Ġë¶ĢìłģìłĪ":8025,"ĠìłķëıĻ":8026,"Ġë²ĦíĬ¼":8027,"ĠëıĮìķĦê°Ī":8028,"ĠíķĦë¦¬íķĢ":8029,"ĠëĮĢëĮĢ":8030,"ĠìĦľìĦľ":8031,"Ġë¶ĪëŁī":8032,"Ġê½ģ":8033,"Ġëĸłìĺ¬ë¦¬":8034,"Ġíĺ¸ê¸°ìĭ¬":8035,"Ġë¶Īê±°":8036,"ĠìĻ¸ë¡ľ":8037,"Ġìľ¼ìĭ¤ê¹Į":8038,"ĠìłķëħĦ":8039,"ìĦ±ê¸°":8040,"Ġë³´ê¶Ĳ":8041,"ĠëĮĢì¡°ìĺģ":8042,"000":8043,"ĠìĬ¬íĶĪ":8044,"Ġê¸°ìĥĿ":8045,"ĠíĪ¬ìĪĺ":8046,"Ġìº¡":8047,"ëĸ¨":8048,"Ġã":8049,"ĠêµŃìłģ":8050,"ĠëıĦë¦¬":8051,"ĠìĭĿê°Ĳ":8052,"íĮį":8053,"ĠíĻĶìĿ´":8054,"Ġëį©ìĸ´ë¦¬":8055,"ĠìĿ´ìĸ´ì¡Į":8056,"ë°Ķëĭ¤":8057,"Ġì°©ìļ©":8058,"ĠëĵľëłĪìĬ¤":8059,"ìŀ¬íĿ¬":8060,"ĠìĿ¼ìĭ¬":8061,"ê³½":8062,"ĠíĻĶìĥģ":8063,"Ġìĭ¤ìĦ¸":8064,"Ġë¹¨ëĿ¼":8065,"ëĶľ":8066,"Ġìŀħê¸Ī":8067,"ëĵľëł¤":8068,"Ġë£¨ëĤĺ":8069,"Ġíİ¸íķľ":8070,"ë´Ħ":8071,"ĠëĤĺëĪĮ":8072,"Ġëĺĳë°Ķë¡ľ":8073,"ìī½":8074,"ê¿Ī":8075,"Ġëį°ëł¤ëĭ¤":8076,"Ġê·¸ê°Ħ":8077,"Ġêµ¬ìĥģ":8078,"Ġì©ľ":8079,"ë¶ķ":8080,"ĠìĨĮëł¨":8081,"Ġì¶ľêµŃ":8082,"Ġíı¬íĦ¸":8083,"ĠìĺĪì²´ëĬ¥":8084,"Ġëª¨ìŀĲëĿ¼":8085,"Ġìļ°ìĤ°":8086,"Ġì°¾ìķĦìĻĶ":8087,"ĠìľĦìĦ±":8088,"Ġëĭ´ëįķ":8089,"Ġê¹ľë¹¡":8090,"Ġë°Ķê¿ĶìĦľ":8091,"ëµ":8092,"Ġê³µì§Ģ":8093,"Ġìŀ¥ë¯¸":8094,"ĠìŀĦë¬´":8095,"ĠìĮįëĳ¥ìĿ´":8096,"ìĽ¨ìĸ´":8097,"Ġíķ´ë²ķ":8098,"Ġë¯¹":8099,"Ġ18":8100,"Ġë§Įì§Ģ":8101,"ĠìĦ±ë¦½":8102,"Ġë°ĿíĺĢì¡Į":8103,"Ġë°ķìĥģ":8104,"ìĿ´ì¦Ī":8105,"Ġê°Ĳì¶Ķ":8106,"Ġê²½ë¡ľ":8107,"Ġë³Ħê°ľ":8108,"ĠíĥĪë¶ģìŀĲ":8109,"Ġë§ĿìĽĲê²½":8110,"ĠëĤĺë¬¼":8111,"Ġê¸°ìģ¨":8112,"Ġìĭ¬ìĭ¬":8113,"ĠëģĿëĤ¬":8114,"ĠìłĦìĦł":8115,"ĠíĦ´":8116,"Ġë¬´ì²Ļ":8117,"Ġëª©íı¬":8118,"Ġê·Ģìĭł":8119,"Ġëĥīìłķ":8120,"Ġëĭ¬ëł¤ê°Ģ":8121,"ĠíĬ¹ìľł":8122,"ĠìĥĿíĻľë¹Ħ":8123,"Ġì¤ĺìķ¼ì§Ģ":8124,"Ġëį°ëł¤ê°Ģ":8125,"ĠìĭľëıĻ":8126,"Ġì°¨ëªħ":8127,"ĠìĪŁ":8128,"ë¶Ħëªħ":8129,"ĠëĦ¤ìĹĲ":8130,"Ġë§Īë¥´":8131,"Ġmc":8132,"ìĥ¤":8133,"Ġíİ¸ìĦ±":8134,"ìĬ¤ëŁ½":8135,"Ġìĸ´ëĸłìħ¨":8136,"Ġê³¼ìŀĲ":8137,"ĠìĿ´ë§Įíģ¼":8138,"Ġë¶Ħëĭ¹":8139,"Ġì¹ĺê°Ģ":8140,"Ġë¯¸íĪ¬":8141,"ìŀ¡ìĿ´":8142,"ĠíĬ¼íĬ¼":8143,"ĠìŀĲë§¤":8144,"±ìĿ´":8145,"ĠìķĦìĿ´ìĬ¤íģ¬ë¦¼":8146,"ĠíĥĦëł¥":8147,"Ġë¸ĮëĿ¼ì§Ī":8148,"Ġì²´ì¤ĳ":8149,"ĠìĹ¬ëıĻìĥĿ":8150,"Ġë°ľê¸ī":8151,"Ġìī°":8152,"Ġì§Ģëª©":8153,"Ġë³´ì¶©":8154,"Ġëĭ¬ëŀĲ":8155,"ìĤ°ë¬¼":8156,"ĠëĨĶìķ¼":8157,"Ġê±°ìĭ¤":8158,"Ġì£¼ë¨¸ëĭĪ":8159,"Ġìŀ¡ì§Ģ":8160,"Ġìłģìłķ":8161,"Ġê·¸ëłĩëĭ¤ë©´ìĿĢ":8162,"ë¨¼ìĬ¤":8163,"Ġëįĺì¡Į":8164,"Ġì°¨ê°Ģ":8165,"ĠìĪľìĭł":8166,"Ġìĺ¤ëĶĶìħĺ":8167,"Ġë¶Īê³łê¸°":8168,"ĠëĤłë¦¬":8169,"ë¹¤":8170,"íļĮìĿĺ":8171,"Ġë°ľëłĪ":8172,"Ġíĥľíıī":8173,"Ġì½Ķë¦¬ìķĦ":8174,"Ġìŀ¬ìĥĿ":8175,"ĠíĦ°ìł¸":8176,"Ġìĭłë¶Ħì¦Ŀ":8177,"Ġê°ĦìłĪ":8178,"Ġíķµë¬´ê¸°":8179,"Ġì½©ëĤĺë¬¼":8180,"Ġì§Ģê²½":8181,"ìĪĺíĻĶë¬¼":8182,"Ġê¸´ìŀ¥ê°Ĳ":8183,"Ġì²´ê²°":8184,"ìł¯":8185,"Ġìĭľë¹Ħ":8186,"ĠìĤ´íİ´ë´¤":8187,"Ġê³łìĬ¤ëŀĢíŀĪ":8188,"Ġìľłìłķ":8189,"Ġê°Ĳìĭ¸":8190,"Ġíĺ¸ëŀĳìĿ´":8191,"¬ë§Ī":8192,"ëŁ¬ì§Ģ":8193,"Ġì£¼ìĬ¤":8194,"ĠëģĿëĤł":8195,"íı¬ë¨¼ìĬ¤":8196,"ĠëĨ¨ëĬĶëį°":8197,"ĠìĦ¸ìĽł":8198,"Ġë°¤ìĥĪ":8199,"ĠëĤ¨ë§¤":8200,"Ġìĺ¤ë¸Į":8201,"Ġìŀ£":8202,"Ġì§Ģë¦¬":8203,"ĠìĬ¤íĭ°":8204,"ë¹ĦìłĦ":8205,"ĠëıĻì°½":8206,"Ġë§Īë¹Ħ":8207,"Ġë°ĺëıĦ":8208,"ĠëıĮë³´":8209,"ĠëĥħëĭĪëĭ¤":8210,"Ġìĺ¤ì£½":8211,"ĠìļĶìķ½":8212,"Ġì²ľë¬¸íķĻ":8213,"ĠëŃĺë¡ľ":8214,"Ġë£¨ë¹Ħ":8215,"Ġë¬´ê´Ģ":8216,"Ġê¹¨ëĭ¬":8217,"ĠëįĶëĿ¼êµ¬":8218,"ëĭŃ":8219,"ĠìĦ±íĺķ":8220,"ĠëĮĢíĮĮ":8221,"Ġê¹Ģìŀ¥":8222,"Ġì¦ĿìĦ¸":8223,"ìĸ´ë¥¸":8224,"Ġê³µë¡ł":8225,"Ġì¹ľìĿ¼":8226,"Ġì¤Ħê¹Į":8227,"Ġê²¬ëĶĶ":8228,"Ġë§ĪìĿ¸ëĵľ":8229,"Ġíį¼íı¬ë¨¼ìĬ¤":8230,"Ġì±ħìŀĦìŀĲ":8231,"ë¡ľì§Ģ":8232,"Ġíģ½ëĭĪëĭ¤":8233,"Ġë²ķì¹Ļ":8234,"ĠìķħìĪĺ":8235,"ìĭľë¯¼":8236,"Ġë¹Ħê²°":8237,"Ġê´´ë¡ľ":8238,"Ġìħ¨ìĹĪ":8239,"Ġìĥģê´ĢìĹĨìĿ´":8240,"Ġê³łìĿĺ":8241,"Ġë°±ëĳĲ":8242,"Ġíİĳ":8243,"Ġë³´ì»¬":8244,"Ġë¡ľì¼ĵ":8245,"ĠëıĮìķĦìĺ¬":8246,"Ġìłĳíķĺ":8247,"ĠíĻķì§Ħ":8248,"ĠìĻ¸ì¹ĺ":8249,"Ġê°Ģëł¹":8250,"ë¯¸ë¦¬":8251,"Ġìķ½íķ´":8252,"Ġíķ´ê²°ì±ħ":8253,"Ġìľłì¡±":8254,"Ġìĺ¬ê²ĮìļĶ":8255,"Ġë³ĢíĸĪ":8256,"Ġê°Ģê¹ĮìĽĮ":8257,"Ġì£¼ê°Ģ":8258,"ĠìĦ±ëĮĢ":8259,"ìĤ¬ì§Ħ":8260,"Ġë¹Ħì¶°":8261,"íĥĢìĿ¸":8262,"Ġëĸłëĵ¤":8263,"ĠìķĮë°Ķ":8264,"ê³łë£¨":8265,"Ġìĺ¤íĺ¸":8266,"ëª¨ëĳĲ":8267,"ĠìķłìĦľ":8268,"Ġíķ©ë²ķ":8269,"Ġë¦´":8270,"ìĭłìłĢ":8271,"ì¥":8272,"ìĿ´ê³³":8273,"ìķĦìľł":8274,"Ġë°ĺë¡ł":8275,"ì¿Ħ":8276,"íĮł":8277,"ĠìĿ´ê³µ":8278,"Ġê¸°ê¸°":8279,"Ġë¹Ħë¡Ŀ":8280,"Ġìĵ¸ëį°":8281,"ĠíĸĦë²Ħê±°":8282,"ĠíĻĶìĿ´íĬ¸":8283,"ĠëĬĲëĭĪ":8284,"Ġê·ĢìĹ¬ìļ´":8285,"ìľ¼ë¦¬":8286,"Ġìĺ¤íĨłë°ĶìĿ´":8287,"ëħľ":8288,"Ġë°ĺìŀ¥":8289,"Ġì¦Ļ":8290,"Ġë²łìĿ´ìĬ¤":8291,"ĠíĻĪëŁ°":8292,"ĠëĤ´ë©´":8293,"ì°ľ":8294,"Ġë¶ĦëŁī":8295,"Ġì¶Ķìļ´":8296,"Ġìĭłëĭ¤ëĬĶ":8297,"ĠíķĻë¬¸":8298,"ĠìĿ´ìĻķ":8299,"ĠìľĮ":8300,"Ġëª»ì§Ģ":8301,"ĠêµĲëıĦìĨĮ":8302,"Ġìļ°ìłķ":8303,"Ġë²Ķì£ĦìŀĲ":8304,"Ġìļķë§Ŀ":8305,"Ġë¹łìł¸ëĤĺê°Ģ":8306,"Ġíĳ¸ë¥¸":8307,"ëķ¡":8308,"Ġë§¤ì½¤":8309,"ĠìłģìĦ±":8310,"Ġë¬´ëłµ":8311,"ĠìĿ´ëª©":8312,"Ġê·¸ëĿ¼":8313,"ĠìŀĶëľ©":8314,"Ġì£½ìĹ¬":8315,"ĠìĤ¬ìļ°":8316,"Ġìľłì¾Į":8317,"ëįĶëĭĪ":8318,"ìĭ¸ìĽĢ":8319,"Ġê°ĢëĿ¼ìķī":8320,"er":8321,"Ġê¸°íķľ":8322,"Ġëªħìĭľ":8323,"ĠíĻĶíıĲ":8324,"Ġë°ķìĺģìĦł":8325,"Ġëª¨ëĭĪíĦ°":8326,"Ġë°©ìľĦ":8327,"Ġë¯¿ìĿĮ":8328,"Ġê²©ë¦¬":8329,"Ġì¶©ìłĦ":8330,"Ġë³µêµ¬":8331,"ĠíĨłì§Ģ":8332,"ĠíĥĦìĪĺíĻĶë¬¼":8333,"Ġëħ¸ëıĻëĭ¹":8334,"Ġìłģë°ľ":8335,"Ġíı¬ìĬ¤íĦ°":8336,"ĠíķĻíļĮ":8337,"Ġíĭ´":8338,"Ġìĭłìŀħ":8339,"Ġì§Ħì£¼":8340,"Ġë§ŀì¶¤":8341,"Ġê¹Ģêµ¬ëĿ¼":8342,"ìł¯ë°¤":8343,"ĠíĽĦë³´ìŀĲ":8344,"ĠëĵľëŁ¬ëĥĪ":8345,"Ġì£¼ê´Ģ":8346,"ĠìľĦì¡°":8347,"ìħĶìķ¼":8348,"Ġíķľìĸĳ":8349,"ĠìĥģìĤ¬":8350,"Ġê³§ë°Ķë¡ľ":8351,"ĠíĥĪëĿ½":8352,"ĠíĮĮíĬ¸ëĦĪ":8353,"Ġê¸Īê°ķìĤ°":8354,"ĠìķĦíĭ°ìĬ¤íĬ¸":8355,"ĠëĬĺìĸ´ëĤ¬":8356,"Ġì´īêµ¬":8357,"Ġíķ´íĶ¼":8358,"Ġê²ĮìĿ´íĬ¸":8359,"ì£¼ìĸ¼":8360,"ìģł":8361,"Ġíľ´ìĭĿ":8362,"ĠìĺģìĽĲíŀĪ":8363,"íĪ¬ë¦¬":8364,"ìłĢëĤĺ":8365,"Ġìĺģíĺ¼":8366,"ĠëĤ´ëĨĶ":8367,"ĠìĭŃìĩ¼":8368,"ĠíļŁ":8369,"ëħľìļĶ":8370,"ëĳĲë¥´":8371,"Ġìľ¼ëł¤ë©´":8372,"ìĸ¼ë§ĪëĤĺ":8373,"ë¯¸ìķł":8374,"ĠìĨĲìĭ¤":8375,"ĠìĹĩê°Ī":8376,"ĠìĽĢì§ģìĿ¼":8377,"Ġíį¼ì§Ģ":8378,"Ġë¸ĮëłĪìĿ´íģ¬":8379,"Ġìľ¼ìħĶìķ¼":8380,"ĠëĤ¨ê¸´":8381,"ĠìĬ¤íĥł":8382,"ëĭĻëĭĪëĭ¤":8383,"íĺ¼ìŀĲ":8384,"Ġëĸ¨ë¦¬":8385,"ê¸į":8386,"ĠìĹ¬íķĺ":8387,"ìŁģìĿ´":8388,"Ġêµ¬ìłľ":8389,"Ġì»¤ìĦľ":8390,"Ġì¦īìĭľ":8391,"ĠìĦ¸ìłľ":8392,"Ġì¿¨":8393,"Ġìłķë´īì£¼":8394,"Ġìĭ¤ëªħ":8395,"ë°°ì¶Ķ":8396,"ĠìĿ´ë£¨ìĸ´":8397,"Ġë°ľìĨ¡":8398,"Ġíķ©ëıĻ":8399,"Ġë³µë¬´":8400,"ĠìĬ¹ì§Ħ":8401,"ë¦¬ì¼ĢìĿ´ìħĺ":8402,"ĠëĬĶëĶĶ":8403,"Ġë°ľêµ´":8404,"íĬ¸ë¡¤":8405,"ìłĢê²ĥ":8406,"Ġë°ĺì§Ŀ":8407,"ê±¸ë¦¬":8408,"ĠìŀĶìĨĮë¦¬":8409,"ĠëıĦìĤ¬":8410,"Ġìľłê°Ĳ":8411,"Ġìķ½ìłĲ":8412,"Ġì¶ľìłĦ":8413,"ë½Ģ":8414,"ĠêµŃê²½":8415,"ĠìĭłìĦ±":8416,"Ġìŀ¥ëª¨ëĭĺ":8417,"ĠìļĶìļĶ":8418,"ĠìĥĿíĥľ":8419,"Ġì¹ĺë°Ģ":8420,"Ġìĥģíķľ":8421,"ĠëıĻíķ´":8422,"Ġì¤į":8423,"ĠìŀħìŀĲ":8424,"ëŁ¬ë¦¬":8425,"ë¥´ë¥´":8426,"ë¹Į":8427,"ë¬´ìĭ¤":8428,"Ġë²ķê´Ģ":8429,"Ġì¤Ģíĺ¸":8430,"ĠíļĮëıĻ":8431,"ĠìľĦíķĺ":8432,"ĠìĹ°ë£Į":8433,"ĠìĦ±ëĤ¨":8434,"ëĤĺëĿ¼ëĭ¹":8435,"Ġì¡°íĻĶ":8436,"ĠìĦłëĮĢ":8437,"ĠìķłìĿ¸":8438,"Ġë¸Ķë£¨":8439,"ë³¸ìĿ¸":8440,"ê·¼ë":8441,"Ġë©ĶìĭłìłĢ":8442,"Ġì¡´ìŀ¬ê°Ĳ":8443,"ìĻľëĥĲë©´":8444,"Ģë¡ľ":8445,"ĠìĿ´ì²ľ":8446,"¡ľë¦¬":8447,"ĠíŀĺëĤ´":8448,"ĠìķĦê¹Ŀ":8449,"ìĭľì½Ķ":8450,"Ġìĵ°ìĹ¬":8451,"Ġì·¨íķ´":8452,"Ġë³ĳëł¥":8453,"Ġë³Ħê±°":8454,"Ġì°¾ìķĦëµ":8455,"Ġì¹¨ë¬µ":8456,"ĠëĹ":8457,"ê°ĢëĬ¥":8458,"Ġëĭ¨ìĦľ":8459,"Ġìļ©íĴĪ":8460,"Ġë§ĪëĪĦ":8461,"ĠëĮĢìĻ¸":8462,"ĠëįĶëĿ¼ë©´":8463,"Ġë§Ŀê°Ģ":8464,"ĠêµĲìŀ¥":8465,"Ġì¼Ģìĸ´":8466,"ĠìĤ¬ëĿ¼ì§Ħ":8467,"ĠìķĦì£¼ë¨¸ëĭĪ":8468,"Ġì§Ģë¶Ī":8469,"ĠìĤ¬ëıĪ":8470,"ĠíķĻëħĦëıĦ":8471,"ëį°ìĿ´íĬ¸":8472,"Ġìŀ¬íĺ¼":8473,"Ġë²Ĺê²¨":8474,"ĠìĬ¤íĶĦ":8475,"Ġë°ķì§Ģ":8476,"ĠëĶĶíħĮìĿ¼":8477,"Ġìĭ±ìĸ´":8478,"Ġëĭ¹ìĦłìĿ¸":8479,"ì»·":8480,"Ġê²½ìľĦ":8481,"Ġë¯¸ìĬ¤íĦ°":8482,"Ġê¹Ģê¸°ì¶ĺ":8483,"ĠíŀĮíĬ¸":8484,"ĠíķľëĤĺëĿ¼ëĭ¹":8485,"Ġëħ¸ìĺĪ":8486,"ĠíĮĮíģ¬":8487,"Ġê¹ĢìĺģìĤ¼":8488,"ĠìĪĺë¦½":8489,"ì¡°ìĦł":8490,"Ġë³´ìĹ¬ìĦľ":8491,"ĠíĺĦëªħ":8492,"Ġ25":8493,"Ġìĺ¬ëĿ¼ê°Ħ":8494,"Ġë¬´ìļ©":8495,"ìłĦíķĺ":8496,"ĠíĹ¬ê¸°":8497,"ë©ĺíĦ°ë¦¬":8498,"ĠíħĶëłĪë¹ĦìłĦ":8499,"ĠìŀĲêµŃ":8500,"Ġë¡ľëĵľ":8501,"ĠìĹ¬íķĻìĥĿ":8502,"Ġìĸ´ëĳ":8503,"ĠìĻ¸ê³Ħ":8504,"ĠìĤ¬ê²©":8505,"Ġìĸ´ëł¤ìļ°":8506,"ì¹ľêµ¬":8507,"Ġê²©ëł¤":8508,"Ġìľ¼ìħĶìĦľ":8509,"Ġë¶ĢëŁ½":8510,"Ġìĭłìŀ¥":8511,"ìĹ¬ë³´":8512,"Ġì§¬":8513,"ĠìĽĲëĭ¨":8514,"ĠìĩĦìĭł":8515,"ĠìĹĦë§Į":8516,"íĻĺê²½":8517,"ĠìĺģìĪĺì¦Ŀ":8518,"ĠìĨįë³´":8519,"Ġëĭ¤ì³¤":8520,"ĠíĮĮìĹħ":8521,"ĠíĮĮê²©":8522,"ĠëıĦì¿Ħ":8523,"Ġêµ¬ì¹ĺ":8524,"Ġë¬¸íĻĶìŀ¬":8525,"ëĿł":8526,"ĠìĺĪìĿ´":8527,"ĠëĮĢë¬¸":8528,"Ġì¤Į":8529,"Ġìľłíı¬":8530,"Ġê¸¸ê±°ë¦¬":8531,"Ġê¶Įê³ł":8532,"Ġê³µì¡°":8533,"ĠìłĢì§Ģë¥´":8534,"Ġìłķìļ°":8535,"ĠìłĢë¦¬":8536,"ĠëįĶëŀĺëıĦ":8537,"Ġì¶ĶëĿ½":8538,"Ġìĭ¬ë¦¬íķĻ":8539,"Ġìĭľì¤ĳ":8540,"Ġìļ¸ìĤ°":8541,"ĠìľĦìŀĲë£Į":8542,"ĠìĬ¤ìĽ¨":8543,"ĠëĮĢìĻķ":8544,"Ġìŀħëł¥":8545,"ĠíĬ¸ë¦¬":8546,"ĠëĤ´ë°Ģ":8547,"Ġíĥľìļ°":8548,"Ġìķ¼ì±Ħ":8549,"Ġë°±ìķħ":8550,"ĠíĨłëĮĢ":8551,"Ġìķ¼ë§Ĳë¡ľ":8552,"ĠëĤłì¹´":8553,"ìĺ¤ìĦľ":8554,"Ġë°ķê³Ħ":8555,"Ġíĸ¥ìĪĺ":8556,"Ġê²¨ëĥ¥":8557,"Ġíĸīìłķê´Ģ":8558,"ĠìĿĺìķĦ":8559,"ĠìľłìłĦ":8560,"Ġê³µíĨµìłĲ":8561,"Ħ¤":8562,"Ġì¹´ëłĪ":8563,"ĥĪ":8564,"ê·¸ì£ł":8565,"Ġê»ĺìĺ¤ìĦľ":8566,"Ġêµ¬ê¸Ģ":8567,"ìľĦì¹ĺ":8568,"Ġëļľëł·":8569,"ĠëĮķ":8570,"Ġíģ¬ë¦¬ìĬ¤":8571,"ĠìĤ¬ìĥĿíĻľ":8572,"Ġì£¼íĸī":8573,"ĠíĻĶë²ķ":8574,"ĠíĥĢìĿ¸":8575,"ĠìĽĲì¡°":8576,"Ġë§µ":8577,"Ġì»¤ëĭ¤ëŀĢ":8578,"Ġì¶©ëĤ¨":8579,"Ġìļ©ìĤ°":8580,"Ġê³¨ê³łë£¨":8581,"Ġëĸ¨ìĸ´ìł¸ìĦľ":8582,"Ġìľłíĺ¹":8583,"ĠêµĲëĮĢ":8584,"Ġë¨¸ë¬¼":8585,"ĳëĭĪëĭ¤":8586,"ĠëıĮìķĦìĻĢìĦľ":8587,"ĠíĬĢê¹Ģ":8588,"ĠìĿ´ì£¼":8589,"Ġíķľì¤ĳ":8590,"ĠëĤĺë¦¬":8591,"ìį©":8592,"ĠìŀħìĤ¬":8593,"ĠìĺģëĤ¨":8594,"Ġëħ¸íĻĶ":8595,"ĠíĮĮìĿ´íĦ°":8596,"ĠëĬĺìĸ´ëĤľ":8597,"ë°Ľì¹¨":8598,"Ġì°¨ë¦¼":8599,"Ġíĸ¥íķĺ":8600,"Ġì¹©":8601,"Ġìĸ´ëł¤ìĽĮìļĶ":8602,"ĠìĿĺìĦĿ":8603,"Ġë§Ĳëł¤":8604,"Ġê·¼ëĮĢ":8605,"ĠëĮĢì¹ĺ":8606,"Ġê¸°ëıħ":8607,"ìķĦë³´":8608,"ĠìĭĿìĿ´":8609,"ìļ©ì°¨":8610,"ĠìłĦì£¼":8611,"ĠëıĻì°¸":8612,"ëĺ¥":8613,"Ġë¬¸íķŃ":8614,"Ġì²«ëĤł":8615,"Ġìĸ´ìłĢê»ĺ":8616,"ìĹĳ":8617,"ĠìĿ¼íĸī":8618,"Ġëı¼ë":8619,"Ġëĭ¹ê¶Į":8620,"Ġê³łë§ĪìĽĮìļĶ":8621,"Ġë³´ìľ¡":8622,"Ġë¬¼ê°Ģ":8623,"ĠìĥģìŀĦìľĦ":8624,"ë²ħì§Ģ":8625,"íĥĢìĿ´":8626,"ìĹ¬ìŀĲ":8627,"Ġì§ĪíĪ¬":8628,"Ġê¸°ë°Ģ":8629,"Ġë§ĮìĦ±":8630,"Ġê°ķíĸī":8631,"Ġê²Ģìłķ":8632,"¼ë²Ħ":8633,"ĠëĿ¼ë©´ìĿĢ":8634,"ĠìĪĺì²ľ":8635,"ĠìĪĻë°ķ":8636,"Ġì°©íķĺ":8637,"ĠìłģìŀĲ":8638,"Ġê²½ìĥģ":8639,"ìĭ¤ìłľë¡ľ":8640,"Ġìĭľíķ©":8641,"Ġìĸĺê¹ģëĭĪëĭ¤":8642,"Ġì°¸ìľ¼ë¡ľ":8643,"Ġê¸°ë¬´ìĤ¬":8644,"ĠíĮħ":8645,"ë¯¹":8646,"ĠìķĦëħľìļĶ":8647,"ĠíĹ·ê°Īë¦¬":8648,"ĠíĻĶë¬¼":8649,"Ġê³¨ëĵł":8650,"Ġë§Īìĭł":8651,"ê³µê°ľ":8652,"Ġê³łìĨįëıĦ":8653,"Ġe":8654,"ĠëĿ¼ìĦľìļĶ":8655,"ĠìłľêµŃ":8656,"ĠìĦľë²Ħ":8657,"ĠìĽĲíķľ":8658,"Ġì²ľìłķ":8659,"Ġë²Įìĸ´ì§Ī":8660,"Ġíķ´ìŀĦ":8661,"ĠìĪĺíĺĦ":8662,"Ġë¶ĪêµĲ":8663,"Ġë°ľìłĦìĨĮ":8664,"Ġì§Ħìķķ":8665,"Ġê³łìļĶìĿ´":8666,"Ġë³´ìĿ´ìĬ¤":8667,"ĠëµĲ":8668,"ĠíŀĻíķ©":8669,"ĠìĬ¬íĶĶ":8670,"Ġëª°ìŀħ":8671,"Ġê·¹ìļ°":8672,"?!":8673,"ĠìĪĺë²ķ":8674,"ĠìłĢìŀĳ":8675,"Ġêµ¬íĺķ":8676,"Ġìŀ¬ê±´":8677,"ĠëĤ®ì¶°":8678,"ĠìĤ¬ë¬´ìĨĮ":8679,"Ġì¦īê°ģ":8680,"Ġê°ľêµŃ":8681,"ĠëıĻë¶ģ":8682,"Ġìĭ¸ìĽł":8683,"Ġìŀ¡íĺĶ":8684,"ìµľëĮĢíķľ":8685,"ĠëĵľëĿ¼ê³ł":8686,"Ġíķ´ì¤ĺ":8687,"ë§ĺ":8688,"ĠìľłìĦ¸":8689,"Ġíķ©ëĭ¹":8690,"Ġë°ĺì£½":8691,"ĠìķłêµĲ":8692,"Ġìŀ¥íķĻê¸Ī":8693,"ĠëĤĺëŀĢíŀĪ":8694,"Ġë°©ìĨ¡ìĤ¬":8695,"Ġë§Īêµ¬":8696,"Ġì°½ìŀĳ":8697,"Ġìį¨ìļĶ":8698,"Ġì¹¼ë¡ľë¦¬":8699,"ĠëĤ¯ìĦł":8700,"ìĺ¹":8701,"Ġëĭ¹ë¶Ģ":8702,"ĠíĮ¨ê¶Į":8703,"ıĪ":8704,"Ġìĥģë´ī":8705,"Ġëĵľë¦¼":8706,"ĠìĹĲê²ĮìĦľ":8707,"ĠëŀŃ":8708,"Ġíı¬ì¦Ī":8709,"Ġë°±ìķħê´Ģ":8710,"ĠìĿ´ìľ¤":8711,"ë§¤ë§¤":8712,"íĹĪëĤĺ":8713,"Ġê°ĢìĨį":8714,"Ġíķ´ìĸĳ":8715,"ĠìłķíĨµ":8716,"ĠìĿ¼ì°¨":8717,"Ġê¹Ĳ":8718,"íĳ¼":8719,"Ġë°¸":8720,"Ġêµ¬íĺ¸":8721,"Ġì¡°ìĺģ":8722,"ĠíĶ¼íķł":8723,"ĠìŀħìĪł":8724,"ì¹ĺê¸°":8725,"ĠëĤ©íĴĪ":8726,"ĠìĹ¬ë°°ìļ°":8727,"ë¥¸ëĭ¤":8728,"ĠíĽĶì³Ĳ":8729,"íĨµëł¹":8730,"Ġìļ°ë¬¼":8731,"ĠíĨµì§Ħ":8732,"ĠëŃ£":8733,"Ġìļ°ìķĦ":8734,"Ġê·¸ëŁ¬ê³ł":8735,"ë¬¸ìłľ":8736,"ìŀĦê¸Ī":8737,"ĠíĤ¤ìļ¸":8738,"ìľ¼ëĤĺ":8739,"Ġìĭ¤ë¦¬":8740,"Ġìĭ±íģ¬":8741,"ĠëıĮëł¤ì£¼":8742,"ĠëĶĶìŀĲìĿ´ëĦĪ":8743,"Ġìłķíķ´ì§Ħ":8744,"Ġê²½ì°°ì²Ń":8745,"ĠíħĮëĭĪìĬ¤":8746,"Ġìĭľë²Ķ":8747,"ĠìĭĿë¯¼":8748,"Ġì¶ľìłľ":8749,"Ġì°¾ìķĦìĺ¨":8750,"íķı":8751,"ĠìĪĺëĭ¤":8752,"Ġëª¨ìĺĢ":8753,"ë³´ëĵľ":8754,"ê²½ê¸°":8755,"ĠìĸĳêµŃ":8756,"Ġëĭ¤íģĲë©ĺíĦ°ë¦¬":8757,"Ġëĭ¹íķ´":8758,"Ġëħ¸ìĤ¬":8759,"ĠíĺĪëĭ¹":8760,"ĠëıĻëł¥":8761,"Ġêµ¬ì¹ĺìĨĮ":8762,"ĠëĮĢë¥Ļ":8763,"Ġë©ķìĭľì½Ķ":8764,"Ġë§īíĺĢ":8765,"Ġë¹ĦíĭĢ":8766,"Ġë¬¼ê³łê¸°":8767,"ĠìĿĺê²°":8768,"ì¹ľëĭ¤":8769,"Ġë¹Ħíķ´":8770,"Ġì¡Įìĸ´ìļĶ":8771,"Ġê·¸ëŀĺëĳĲ":8772,"ìĭĿê°Ħ":8773,"íĥľìļ°":8774,"ĠíĴĭ":8775,"ĠëĤĺíĥĢëĤł":8776,"ĠìĹ´íĿĺ":8777,"Ġìķłë¹Ħ":8778,"ĠëĽ°ìĸ´ëĤĺ":8779,"ĠìŃĪ":8780,"Ġë§Įìł¸":8781,"Ġëħ¸íķĺ":8782,"Ġë¹Įë¦¬":8783,"īëĭĪëĭ¤":8784,"ĠëĤĺìĺ¨ëĭ¤ê³ł":8785,"Ġìĺ¬ë°Ķë¥¸":8786,"Ġë§Ŀíķĺ":8787,"ĠëıĮìĿ´":8788,"Ġì»¨íĬ¸ë¡¤":8789,"ĠìĻĶìĸ´ìļĶ":8790,"Ġê²°ì§ĳ":8791,"ëĭµëĭĪëĭ¤":8792,"Ġë¶ĢíĦ´":8793,"Ġê±´ëĦ¤":8794,"ĠíĺķëŁī":8795,"ëĤ¨ìŀĲ":8796,"Ġìĸ¼ë§Į":8797,"ëŃĺ":8798,"Ġê¹¨ì§Ģ":8799,"Ġë¯¸ëª¨":8800,"ĠìĿ´ê²ģëĭĪëĭ¤":8801,"Ġë¶ĢìĤ¬ìŀ¥":8802,"ĠíĽĦìĨį":8803,"Ġëĭ¤ìĭľë§Ī":8804,"ë´ĲìļĶ":8805,"ìĹ¼ë":8806,"ĠìĹĲìĬ¤ìĹĲíĶĦ":8807,"ĠìĥĮëĵľ":8808,"ĠíĻ©ìĭ¤":8809,"ĠìĿ¸ëĶĶ":8810,"Ġìĭ¤ê¹Į":8811,"ĠìĽĶíĻĶ":8812,"Ġì§ģìŀ¥ìĿ¸":8813,"Ġê³łìľĦê¸ī":8814,"Ġê°ķë¦ī":8815,"Ġì°Įê°ľ":8816,"ĠëĵŃ":8817,"Ġëĭ¬ëĭ¬":8818,"ìŀĳëħĦ":8819,"ĠìĺģíĻĶê´Ģ":8820,"ĠìŀĲë°±":8821,"ĠìĦ±ìĪĻ":8822,"ĠìķĦíĬ¸":8823,"Ġê±¸ê¹Į":8824,"ĠìĬ¤ìľĦìĬ¤":8825,"Ġë¦¬ëĵ¬":8826,"Ġê¹Ģê´Ģ":8827,"Ġê±¸ìĸ´ìĦľ":8828,"ĠìĪĺìĭľë¡ľ":8829,"ìķĬ":8830,"ĠëĥĦë¹Ħ":8831,"ĠìĶģ":8832,"ë¯¼ì£¼":8833,"Ġìħ°íĶĦ":8834,"ëĭ¤ìĪĺ":8835,"ëĤŃ":8836,"ĠìŀĲê²©ì¦Ŀ":8837,"Ġë¹Ħì¦Ī":8838,"íĬ¸ë¡ľ":8839,"Ġì²ĺíĺķ":8840,"ĠíĮĶë¦¬":8841,"Ġë°ĿíĺĢì§Ħ":8842,"Ġê¹Įë¨¹":8843,"ĠìĺģíĨł":8844,"Ġì²Ńê³¡":8845,"ĠìķĦëĵľ":8846,"Ġê´ĳë³µ":8847,"Ġv":8848,"Ġëħ¸ëł¤":8849,"Ġê°ĪìķĦìŀħ":8850,"ëĭĪìĸ´":8851,"Ġêµ¬íķł":8852,"ĠíĤ¤ìļ´":8853,"Ġë¨¸ìĭł":8854,"ĠìĿ´ëŀĺìļĶ":8855,"Ġíķ´ëĨ¨":8856,"Ġìļ©ëıĦ":8857,"ĠëĴ¤ìª½":8858,"ĠíĹĿ":8859,"Ġìŀĳìłķ":8860,"Ġê¸°ëıħêµĲ":8861,"ìĺ¬ë¦°":8862,"ëŁ¬ìĦľ":8863,"Ġëª¨ëŀĺ":8864,"ĠíĹĪë²ħì§Ģ":8865,"Ġê°Ģíķĺ":8866,"ĠìŀĲì§Ħ":8867,"Ġë²¼ë":8868,"ĠíĮĮíĹ¤":8869,"Ġë§ĪìļĶ":8870,"Ġê²½ì£¼":8871,"Ġì¢ħë¡ľ":8872,"ĠëĨ¨ìĸ´ìļĶ":8873,"Ġíİ¼ì³Ĳì§Ģ":8874,"Ġë¶Ĳ":8875,"íĴĢìĿ´":8876,"ìĪĺìĪĺ":8877,"Ġìŀ¥ìĦ±íĥĿ":8878,"ĠìĻĢëĿ¼":8879,"Ġìľ¡ìĦ±":8880,"Ġë²Ħíħ":8881,"ĠìĽ¨ìĿ´":8882,"ìłĢë²Ī":8883,"Ġì¤Ħê¸°":8884,"ĠëĪĪìķŀ":8885,"ĠëĤĺëĪĪ":8886,"Ġëĵ¬":8887,"ĠìĤ¬ê°ģ":8888,"Ġê³łêµĲ":8889,"ĠëĮĢìĽĲ":8890,"Ġì¶©ì¡±":8891,"ĠìķĦë©Ķë¦¬ì¹´":8892,"ĠìĹŃìłĦ":8893,"Ġë§ģíģ¬":8894,"ĠíŀĲë§ģ":8895,"Ġìłķê³Ħ":8896,"Ġ13":8897,"Ġë§īê±¸ë¦¬":8898,"ĠìĽĲìĪĺ":8899,"ëĨĴ":8900,"Ġë¯¼ë§Ŀ":8901,"Ġìĺ¤ë¡ľì§Ģ":8902,"Ġì¹łë§Į":8903,"íĩ´ê·¼":8904,"Ġíķ´ìĦł":8905,"ë³ķ":8906,"ĠìľłìĺĪ":8907,"ĠëıĻëĤ¨":8908,"Ġì¹ĺìķĦ":8909,"Ġìĸ´ìĦł":8910,"ĠìĤ¬ëĥ¥":8911,"ĳ¤":8912,"Ġëĭ¤ë£¬":8913,"Ġë¶Ħíķ´":8914,"Ġê°ķìĪĺ":8915,"Ġë§īíŀĮ":8916,"ĠìķĦíĮł":8917,"ĠìĿ¼ìŀĲ":8918,"ëĭ¤íĸī":8919,"Ġë¹Ħì£¼ìĸ¼":8920,"ĠëĨĴìĹ¬":8921,"ĠìŀĶìĿ¸":8922,"Ġìĥīëĭ¤ë¥¸":8923,"ëĦ¨":8924,"Ġë°©ìļ¸":8925,"ìĬĲ":8926,"Ġë¶ĢëģĦëŁ½":8927,"ĠìĤ´ìĤ´":8928,"ì²ĺëŁ¼":8929,"Ġìĸ´ì©ľ":8930,"ns":8931,"ìĬ¤íĤ¤":8932,"ì¤ĳêµŃ":8933,"ĠìĦľìĦľíŀĪ":8934,"Ġë³´ëŀĮ":8935,"ĠíĻĶìĿ´íĮħ":8936,"Ġíİ¸ê²¬":8937,"ĠìķĦìĿ¸":8938,"Ġë¬´íļ¨":8939,"Ġì·¨ëĵĿ":8940,"Ġì¦ĿíıŃ":8941,"íĺĦì§Ħ":8942,"ĠëĿĦìĽĮ":8943,"Ġì°¾ìķĦëµĻ":8944,"Ġë§ĪëĪĦëĿ¼":8945,"Ġê²½ë§¤":8946,"Ġìĸĳíķ´":8947,"ìľłìĺĪ":8948,"ĠìĿĺëħ¼":8949,"ĠìĤ¬ìĿ´ëĭ¤":8950,"ĠíĬ¹ë³Ħë²ķ":8951,"ĠìĿĮìĭĿìłĲ":8952,"Ġìĺ¤íİĺ":8953,"ë³´íĨµ":8954,"ìĪĺìĺģ":8955,"ëħ¸ìĿ´":8956,"ĠëģĮìĸ´ëĵ¤":8957,"ì§ĢëĤľë²Ī":8958,"Ġêµ¬ë³Ħ":8959,"Ġíľ´ê²Į":8960,"Ġìĭ¤íĥľ":8961,"ĠìĽĲìĦľ":8962,"Ġìŀ¥ëĤľê°Ĳ":8963,"ê³łë§Ī":8964,"ĠìĬ¤ì¿¨":8965,"Ġì·¨íķľ":8966,"Ġëĭ¹ê³¼":8967,"Ġëª¨ìĿ¸":8968,"Ġìĸĳë°°ì¶Ķ":8969,"ĠìĬ¤ìºĶëĵ¤":8970,"ìķĦì¹¨":8971,"Ġìķ¼ê²łëĭ¤":8972,"Ġì§Ħëĭ¤ê³ł":8973,"ë²Įìį¨":8974,"Ġê²¬íķ´":8975,"ĠëĿ¼ëįĺê°Ģ":8976,"ĠëĤļìĭľ":8977,"Ġê°¤":8978,"Ġì§Ģì¶ľ":8979,"ĠíķłëĿ¼ê³ł":8980,"Ġíķ©ì³ĲìĦľ":8981,"ĠíĮĮìĿ´íĮħ":8982,"Ġê·¸ë¦¬ìĬ¤":8983,"Ġê¾¸ë©°":8984,"Ġíķĺëĵľ":8985,"Ġìĥģëĭ¨":8986,"Ġìŀ¥ìĭĿ":8987,"Ġë§ĪìĿ´íģ´":8988,"ĠìĿ¸ë¬¸íķĻ":8989,"Ġì£¼ìĥģ":8990,"ĠìłĦìłģ":8991,"ê·¸ëıĻìķĪ":8992,"Ġì§ĦìĿ´":8993,"Ġìµľê°ķ":8994,"ì£¼ë¬¸":8995,"ĠìľłìĿ¸":8996,"Ġì»¬ëŁ¬":8997,"ĠíķľìĭĿ":8998,"Ġë¶Ħëĭ¨":8999,"ìĿĺìĤ¬":9000,"ĠìĦ±ë§¤ë§¤":9001,"ëª¨ëĵł":9002,"Ġì¶ĶìĽĮ":9003,"ĠìĪ¨ì§Ħ":9004,"ê¼½":9005,"ĠìĻ¸ìļ°":9006,"ĠìĹ°ë´ī":9007,"ì§ĳìķł":9008,"Ġì±Ħë¬´":9009,"ĠëĶĶìĬ¤":9010,"ĠìĪŁê°ĢëĿ½":9011,"Ġê°Ģë§¹":9012,"ĠìĿĺíķ´":9013,"Ġëĭ¤ëĭĪê¹ĮìļĶ":9014,"Ġëħ¸ì´Ŀ":9015,"Ġê²Ģì§Ħ":9016,"Ġê¸īìĭĿ":9017,"ĠìķĦìĭľìķĪ":9018,"ë³¸ëĭ¤":9019,"ĠëĤĺë":9020,"ìĬ¤íĭ±":9021,"Ġê´Ģìŀ¥":9022,"Ġê°ĦíĮĲ":9023,"Ġê³µì§ľ":9024,"Ġìŀ¥ë§Ī":9025,"ĠíĶĦë¦°":9026,"ì»´":9027,"ĠìĹ¬ëĮĢ":9028,"ĠëłĪìĬ¤íĨł":9029,"ĠëĮĶ":9030,"ĠíĥĲìĤ¬":9031,"ĠëłĪìĬ¤íĨłëŀĳ":9032,"ĠëıĦëł¨":9033,"ë¡ľëĵľ":9034,"Ġë°©ìĹŃ":9035,"ĠíĨłë¡łíļĮ":9036,"ìłľíĴĪ":9037,"ĠìĦ±ìĤ¬":9038,"Ġìĺ¨ëĭ¤ê³ł":9039,"Ġì¹´ë¦¬ìĬ¤ë§Ī":9040,"ĠëĴ·ë°Ľì¹¨":9041,"ĠëĨĢëŀĺ":9042,"Ġíħį":9043,"íīģ":9044,"Ġë¶ĢëıĦ":9045,"Ġìĥģê³µ":9046,"ëĤĺëĤĺ":9047,"Ġë§ĺëĮĢë¡ľ":9048,"Ġìĺ¤ìĦ¸íĽĪ":9049,"ĠìļĶíķľ":9050,"ìĺ¤ëŀľ":9051,"ĠíĴĢëł¤":9052,"Ġìĥģë¬´":9053,"ĠìĿ¼ìľ¼íĤ¨":9054,"ĠíķľëıĻìķĪ":9055,"ĠìĹ´ê¸°":9056,"ìĸ´ë¨¹":9057,"Ġë¹ĮëĶ©":9058,"ĠëĳĲëł¤ìĽĮ":9059,"ĠëıĦíĶ¼":9060,"ĠìĭľëĮģ":9061,"Ġìŀ¬ë°ľ":9062,"ëĿ¼ìĿ´íĬ¸":9063,"Ġê·¸ëŁ¬ëĭ¤ê°Ģ":9064,"Ġê°Ĳìĥģ":9065,"Ġíı¬íķŃ":9066,"ĠëĶĶìĬ¤íģ¬":9067,"Ġê¹Ģê²½ëŀĺ":9068,"íĥ±":9069,"ĠìķĮíĮĮ":9070,"Ġë§ĪìĤ¬ì§Ģ":9071,"ĠìłķíĻĶ":9072,"âĢĿ":9073,"Ġì§ĢìĽĮ":9074,"ĠâĢĿ":9075,"ĠíĿĺëŁ¬ê°Ģ":9076,"¯Ħ":9077,"Ġíĺ¸ìĪĺ":9078,"Ġì°¬ë¬¼":9079,"Ġìĭ£":9080,"Ġì¦ĿíĽĦ":9081,"ìľ¤ìĦł":9082,"Ġìķ¼ìĻ¸":9083,"ìĨĮëĵĿ":9084,"ĠëĤ´ìĦ¸ìļ°":9085,"ĠìĿ´ë¹Ħ":9086,"ĠëĮĢëĭ´":9087,"ĠëºĲ":9088,"ĠìĦłìłľ":9089,"Ġìĸ´ê¸ĭ":9090,"Ġì§Ģì¹¨":9091,"ĠìĪĺëª©":9092,"Ġê±°ì¹ľ":9093,"ê·¸ìµ¸":9094,"ĠìĻ¸ìĭł":9095,"Ġìĺ¤ì§ģ":9096,"Ġê³¼ë°ĺ":9097,"Ġíķĺíķĺ":9098,"ëĲĲ":9099,"ĠìłĦë¬´":9100,"Ġìĺ¤ìļ°":9101,"Ġë¶Īì¾Į":9102,"Ġì¤ĦìĿ¼":9103,"ĠëĤłê°ľ":9104,"ĠìĭĿëŁī":9105,"ĠíĬ¹ë³´":9106,"ĠíĽĦë¬¸":9107,"Ġì¹ľì²Ļ":9108,"Ġíķĳíģ¬":9109,"Ġíķľê²¨":9110,"Ġê¹Ģë¯¸":9111,"ì¹´ëĿ½":9112,"Ġë¨¸ë¦¬ì¹´ëĿ½":9113,"Ġë¶Ģìĸĳ":9114,"ĠìłĦëĭ´":9115,"ĠìĥģìĦ¸":9116,"ĠíĬ¹ê¶Į":9117,"Ġíĺķë¶Ģ":9118,"Ġìĺ¬ëĿ¼ìĺ¨":9119,"Ġëª¨ìĸĳìĥĪ":9120,"Ġë§Īì£¼ì¹ĺ":9121,"ëŃĶê°Ģ":9122,"ĠêµĲíĻ©":9123,"ĠëĮĢìĤ¬ê´Ģ":9124,"ĠìĿ¸ê²©":9125,"ĠìĤ¬ìĨĮ":9126,"Ġìĺ¤ëĬĺëĤł":9127,"ĠìĬ¤ëŁ¬ìĽł":9128,"Ġìłķíķľ":9129,"Ġë§Įì°¬":9130,"ĠëĤ´ë³´":9131,"ìłĢëħģ":9132,"ĠìºłíİĺìĿ¸":9133,"Ġë©´ìłľ":9134,"Ġêµ¬ë¦Ħ":9135,"Ġìŀ¬íĮĲê´Ģ":9136,"Ġíı¬íĨł":9137,"Ġì»¨íħĲì¸ł":9138,"ë¹ĦìķĦ":9139,"Ġëª°ë¦¬":9140,"ì¥Ĳ":9141,"Ġë¯¼ìĦ±":9142,"Ġìĭľìłķ":9143,"ĠíķłëĿ¼":9144,"Ġì²´ì§Ī":9145,"Ġìĭ¸ìĿ´":9146,"½ëĭĪê¹Į":9147,"ĠëĤ¡":9148,"ĠìłĳëĮĢ":9149,"Ġë°©ìĺģ":9150,"Ġì½ĶíĬ¸":9151,"Ġê°ģëıĦ":9152,"Ġë¬ĺìĤ¬":9153,"ê·¸ëŀĺìķ¼":9154,"ĠëłĪë²¨":9155,"ĠìłĦìĹŃ":9156,"Ġê°Ģë¬¸":9157,"ĠìĭłëĿ¼":9158,"ë¦¼ë":9159,"ĠìľĦìĥģ":9160,"Ġë³ĢëıĻ":9161,"ĠìĨįìĿ´":9162,"ĠìĬ¤ìĽ¨ëį´":9163,"Ġëĭ¤íĪ¬":9164,"Ġìĸĳë§Ĳ":9165,"Ġìµľë¯¼":9166,"Ġìŀłëĵ¤":9167,"Ġë¶ĢëĵľëŁ¬ìļ´":9168,"ĠëģĮìĸ´ëĤ´":9169,"ĠìķĦìĭŃëĭĪê¹Į":9170,"Ġëª¨ë²Ķ":9171,"ĠìľĦë²ķ":9172,"Ġì£łìĿ´":9173,"Ġìľ¡ë§Į":9174,"Ġíĸ¥ê¸°":9175,"ëłīìĬ¤":9176,"Ġë©ĶìĿ´ìłĢ":9177,"ĠêµĲê°Ĳ":9178,"Ġíĺ¸ìľĦ":9179,"Ġì¹´ìļ´":9180,"ìĬ¤íĬ¸ëĿ¼":9181,"ĠìĬ¹ìļ©ì°¨":9182,"Ġë±Ģ":9183,"ĠëĤ¨ë¶ģíķľ":9184,"Ġëħ¸íķĺìļ°":9185,"ìľĪ":9186,"ìĨĶì§ģ":9187,"ĠìĽĢì§ģìĹ¬":9188,"Ġë³´íĹĺë£Į":9189,"ĠëĽ°ìĸ´ëĦĺ":9190,"Ġìļ©ìĿ¸":9191,"ĠíĥĦìķķ":9192,"ĠìĿ¼ëĮĢ":9193,"ĠìķŀëĳĶ":9194,"ë¦ŃìĬ¤":9195,"Ġìľ¡êµ°":9196,"Ġì¦ĿíĽĦêµ°":9197,"Ġì°¹":9198,"ĠíĻĺê²½ë¶Ģ":9199,"Ġê±°ì¹ł":9200,"ĠìĦĿìľł":9201,"ĠìŀĲìĪĺ":9202,"Ġíĳľë©´":9203,"Ġì¿łíı°":9204,"Ġë¹¨ê°Ħìĥī":9205,"ĠíĺĦê´Ģ":9206,"Ġë©Ķë¦¬":9207,"Ġì°¾ìķĦë³¼":9208,"ĠìĬ¤íĮĮ":9209,"Ġëªħì¹Ń":9210,"ĠíļĮìłĦ":9211,"Ġìŀ¡íŀĮ":9212,"ê°Ģìŀ¥":9213,"ĠìĪĺëł¹":9214,"ĠìĹĨìķ":9215,"ĠìŀĲìķĦëĥĪ":9216,"ĠìĿ¸ë©¸":9217,"Ġìķ¼ê°Ħ":9218,"Ġë¬´ê±°":9219,"Ġë¬´ìĤ°":9220,"Ġì¤ĳêµŃìĸ´":9221,"ĠìĨĮë°©ê´Ģ":9222,"Ġë¶Ģê²Ģ":9223,"Ġê±´ëĵľë¦¬":9224,"ĠëĤłìķĦê°Ģ":9225,"Ġëĭ¤ìłķ":9226,"ìĿ´íķ´":9227,"ëłĪìĿ¸":9228,"ĠìŀħìĪĺ":9229,"Ġë¶Īì¶ľ":9230,"Ġì¶Ķëª¨":9231,"ĠìĦ¤ê±°ì§Ģ":9232,"Ġì·¨íĸĪ":9233,"Ġì¹¨ìŀħ":9234,"ëĵľë¦´ê¹ĮìļĶ":9235,"ĠìĦłëıĻ":9236,"Ġìľłìĭľë¯¼":9237,"ĠìĿ¼ìĪĺë¡Ŀ":9238,"ĠêµŃêµ°":9239,"ĠëıĮìķĦìĦľ":9240,"Ġíķĺëħ¸ìĿ´":9241,"ĠìłķìłĦ":9242,"ëĬ¬":9243,"Ġë§ŀìķĦ":9244,"ìĭľìĬ¤":9245,"ĠìĿ´ìĪľìĭł":9246,"Ġì¶ĶìľĦ":9247,"Ġíĳľì°½":9248,"Ġìĥģíģ¼":9249,"Ġìĭ¤íĺķ":9250,"ĠìĿ´ê²ĥìłĢê²ĥ":9251,"Ġì§ĢìĽĲê¸Ī":9252,"ĠíĮ¥":9253,"ĠëĸłëĤł":9254,"ìķ¼êµ¬":9255,"ĠìĦ±ì·¨":9256,"ĠìķĦíĮĮìĦľ":9257,"Ġê¼¼ê¼¼íŀĪ":9258,"Ġë¶ĢíĻľ":9259,"Ġì°Ĳ":9260,"ĠëŃĺê¹Į":9261,"íĹĮëį°":9262,"Ġëĥ¥":9263,"ìĻĢìĿ´":9264,"Ġê¹į":9265,"ĠìĬ¤íĶ¼":9266,"ĠíĻĶìĤ´":9267,"ĠíĬĢìĸ´ëĤĺ":9268,"ĠìŀĦì°¨":9269,"Ġê·¸ëłĪ":9270,"ĠëıĻìĥģ":9271,"ĠìĹ´ìĩł":9272,"ĠìĤ¬ìĺµëĭĪê¹Į":9273,"ĠìļĶíķĺ":9274,"Ġë³¸ëĭ¤ê³ł":9275,"ĠëºĢ":9276,"ìĸ´ë¨¸ëĭĺ":9277,"ìĿ¼ìľ¼":9278,"Ġë°ĺëıĦì²´":9279,"ë£¸":9280,"Ġíİ¸ë¦¬":9281,"Ġì¤ĺëıĦ":9282,"ĠìĿĢë°Ģ":9283,"ëŁ¬ìĽĮ":9284,"ìĺ¤ëŀĺ":9285,"ĠëĲľëĭ¨":9286,"Ġê´Ģìĭ¬ìĤ¬":9287,"ĠìĽ¹íĪ°":9288,"ľëĵľ":9289,"ĠëĳĲë£¨":9290,"ìĨĮë¬¸":9291,"ëĶ´":9292,"ìĹĳìĬ¤":9293,"Ġê²°ìĬ¹":9294,"ĠìļķìĦ¤":9295,"Ġíĺ¸ê°Ĳ":9296,"Ġìĺµìħĺ":9297,"Ġìĺ¤íİĺëĿ¼":9298,"ìĿ´ê±¸":9299,"Ġì¶ľíĮĲìĤ¬":9300,"Ġìĺ¤íĶ¼ìĬ¤":9301,"ĠìĦľìŀ¥":9302,"Ġì´Īë¡Ŀ":9303,"ĠìĦłê±°êµ¬":9304,"Ġì¿µ":9305,"Ġê¹Ģíķľê¸¸":9306,"ĠìļĶë²ķ":9307,"ĠìĨĮíĶĦíĬ¸ìĽ¨ìĸ´":9308,"Ġê³łìĦł":9309,"ĠìĦ¤ë¬¸":9310,"ĠíĲģëĭ¹":9311,"ĠìĪĺì²©":9312,"ĠìķĮìķĦë³¼":9313,"Ġìľµíķ©":9314,"Ġìĸ´ìł¯ë°¤":9315,"Ġë¹Ħë¹Ħ":9316,"ĠíĥĢëĭ¹":9317,"ê·¸ê¹Į":9318,"ëĭ¹ìŀ¥":9319,"ëĵĢ":9320,"ĠíĮĲë¡Ģ":9321,"Ġë¶ĪëŁ¬ìĿ¼ìľ¼":9322,"ĠìĪĺê¸ī":9323,"Ġì´Ŀê´Ħ":9324,"ĠìĦ¹ìĭľ":9325,"Ġë¶Ģìĭľ":9326,"ëĤĻìĹ°":9327,"ëłĪìĿ´ëĵľ":9328,"ĠìĿĺëĮĢ":9329,"Ġê³µë£¡":9330,"ĠìĿ´íĺ¸":9331,"ĠëĮĢìĹ¬":9332,"ĠìĹ°ìĿ´":9333,"ĠëĤĻíĥľ":9334,"Ġê³łì¡°":9335,"íĥĲ":9336,"Ġê¹Ģíĥľìļ°":9337,"ĠìĹ°íıī":9338,"ĠìĿ¼ë§Į":9339,"Ġì´ĿìĪĺ":9340,"Ġëĭ¹ëĤĺëĿ¼":9341,"ê¹ľ":9342,"Ġìª¼ê°ľ":9343,"Ġìĥ¤ìĽĮ":9344,"ĠìĪĺëªħ":9345,"ĠìłľìĿĺ":9346,"ê¶Įëł¥":9347,"ĠìĿ´ëł¥":9348,"Ġìķ½ë¬¼":9349,"ë°ķìĬ¤":9350,"ëĥħëĭĪëĭ¤":9351,"Ġìĸ´ì©Įëĭ¤":9352,"ĠìĿĮì£¼ìļ´ìłĦ":9353,"Ġë°°ìĪĺ":9354,"Ġë¯¸ìħĺ":9355,"Ġìŀħëĭ¹":9356,"Ġìį¸":9357,"ĠíĻĶíķ©":9358,"Ġê°ĸì¶ĺ":9359,"ĠëįĶìļ´":9360,"Ġê³Ħìłķ":9361,"ĠëįĶëįĶìļ±":9362,"ĠëĮĢëıĻ":9363,"íĶĦë¦¬ì¹´":9364,"Ġìĺ¬ëł¤ìĦľ":9365,"ĠìĪľìĭĿê°Ħ":9366,"ĠìĤ¬íļĮì£¼ìĿĺ":9367,"ĠëĦ¤íĬ¸ìĽĮíģ¬":9368,"Ġì¶Ķë¯¸ìķł":9369,"ĠìĹĲìĹĲ":9370,"Ġìĭ¤ê°Ĳ":9371,"ĠëıĻíĸī":9372,"Ġë²Ħë¦°ëĭ¤":9373,"ĠíĨłëģ¼":9374,"ëĲľ":9375,"ĠìĿ´ìĨĮ":9376,"Ġì¡°ìĥģ":9377,"Ġë°ĶëĤĺëĤĺ":9378,"Ġëģ¼ì¹ĺ":9379,"ĠìĤ´íİ´ë³¼ê¹ĮìļĶ":9380,"ĠìĿ´ëĿ¼ê³ł":9381,"ĠëıĻê±°":9382,"Ġìķŀìª½":9383,"ë¶ĻìĿ´":9384,"Ġê°Ģë²¼ìļ´":9385,"ĠìªĦ":9386,"ĠìĿ´ê¹Į":9387,"ĠìĹ¬íĸīì§Ģ":9388,"Ġê¸°ìģĺ":9389,"ĠìĤ½ëĭĪëĭ¤":9390,"Ġì¡°íĿ¬":9391,"Ġìĭ¤íļ¨":9392,"Ġê±¸ëł¤ìĦľ":9393,"Ġ14":9394,"ĠíĥĦëıĦ":9395,"Ġì§ľìŀ¥ë©´":9396,"Ġê³Ħìĭłê°ĢìļĶ":9397,"Ġê°Īê¹ĮìļĶ":9398,"Ġê¹¨ëĭ«":9399,"ĠìķĮìķĦëĵ£":9400,"ìĬ¤íĭ°":9401,"Ġë¶Ħíķł":9402,"ĠíĥĦíĥĦ":9403,"ĠìķĦìħ¨":9404,"Ġë¨¹ìĹ¬":9405,"Ġëĵ¤ìĸ´ê°Ħëĭ¤":9406,"ë¦ħ":9407,"ĠìĥĿìĨĮ":9408,"Ġì¡°ì¢ħ":9409,"Ġëĸłìĺ¤":9410,"ĠìĬ¤íĥĢíĬ¸":9411,"ĠìĿ´ìĤ°ê°Ģì¡±":9412,"ĠëĲĺì°¾":9413,"Ġê¹»":9414,"ĠìĿ´ì§Ħ":9415,"ĠìĭľìĪł":9416,"Ġëª¨ìĪľ":9417,"ĠìĬ¤íĬ¸ëłĪì¹Ń":9418,"Ġìľ¼ëĥĲ":9419,"Ġì°¾ìķĦê°Ķ":9420,"Ġê³µíĻĶêµŃ":9421,"ĠìĭľíĬ¸":9422,"Ġê¸°ìĸ´":9423,"ĠìľĦì¶ķ":9424,"íħĮë¦¬ìĸ´":9425,"ĠíļĮìĪĺ":9426,"ĠìĤ¼ê°ģ":9427,"Ġìĸ´íľ´":9428,"Ġë§ĪìĭŃìĭľìĺ¤":9429,"ĠíĢ¸":9430,"Ġê³µê³ł":9431,"Ġìĸĳê·¹":9432,"ìĿ´ëıĦ":9433,"ĠìĪĺê°ķ":9434,"Ġë°°êµ¬":9435,"ĠëĪĦìłģ":9436,"Ġê°Ħíĺ¹":9437,"Ġê´´ë¡ŃíŀĪ":9438,"ĠìĤ¬íĿĺ":9439,"ĠëįĶêµ¬ëĤĺ":9440,"ĠíĶĮëŀľ":9441,"ĠìĬ¤íİĺìħľ":9442,"ê¹Ħ":9443,"Ġê¸°ë»Ĳ":9444,"ĠìĹ¬ìĭł":9445,"ĠìĹ°ìĸ´":9446,"ĠìŀĦëĮĢë£Į":9447,"ĠìĿ´ì¤ĢìĦĿ":9448,"ĠìłĲì°¨":9449,"Ġë¶Ħëĭ´":9450,"ê²¨ìĦľ":9451,"íĤµëĭĪëĭ¤":9452,"Ġíķ´ìļ´":9453,"ìŀĲìĭĿ":9454,"Ġì½§":9455,"ĠìĤ´ìķĦìĺ¨":9456,"Ġë§ĮìĦ¸":9457,"Ġë¶ĻìĺĢ":9458,"ĠëĤŃë¹Ħ":9459,"Ġëı¼ëıĦ":9460,"ĠëĮĢëĤ¨":9461,"ĠíķľìŀĲ":9462,"Ġëı¼ë²Ħ":9463,"Ġë¹Ħë§Į":9464,"ĠíĥĢìĽĮ":9465,"Ġì´Īê³¼":9466,"ĠìķĪëħķíķĺ":9467,"ĠìħĢíĶĦ":9468,"ĠìŀŃ":9469,"Ġì¡°ìĦ¸":9470,"ë²Ħëł¤":9471,"ê²¸":9472,"Ġìĥģìŀ¥":9473,"Ġìľłìļ©":9474,"ëĿ¼ë³´":9475,"ĠìĹĲìĿ´ì¹ĺ":9476,"ĠìĬ¤íĶ¼ë":9477,"Ġë°ľìĥģ":9478,"íĨ¨":9479,"Ġë¸ĶëŀĻë¦¬ìĬ¤íĬ¸":9480,"ĠìĿ´íĬ¹":9481,"ë¬´ì§Ģ":9482,"ĠêµŃê°Ĳ":9483,"ë³ĳìĽĲ":9484,"ĠëĬĺëł¤":9485,"Ġì¦Ĳê±°ìĽĢ":9486,"Ġìĺ¤ë¥¼":9487,"ĠìķĮìķĦëĵ¤":9488,"ì°Ķ":9489,"ĠëĮĢëĭ¤ìĪĺ":9490,"ĠìĦľê¸°":9491,"ĠìĦłê´Ģ":9492,"ĠëĳĺëŁ¬ìĭ¸":9493,"Ġìŀ¥ë¡ĢìĭĿ":9494,"Ġëĭ¤ì¹ľ":9495,"ĠíĮĮëıĦ":9496,"ĠìĿ´ëĿ¼ëįĺê°Ģ":9497,"ĠìĭľìĥģìĭĿ":9498,"ĠëıĦì§ĢìĤ¬":9499,"ĠìĿĺêµ¬":9500,"ĠëĤłëł¤":9501,"Ġì²´ê°Ĳ":9502,"Ġìľ¤ìĥģ":9503,"Ġëħ¸íļĮ":9504,"Ġë²ĮìĺĢ":9505,"Ġë°ĶìľĦ":9506,"ĠíļŁìĪĺ":9507,"ĠìĿ´ìķ¼ë§Ĳë¡ľ":9508,"Ġë§ŀì¶ĺ":9509,"ĠíĿ©":9510,"ìĺ¬íķ´":9511,"ĠíĽĪíĽĪ":9512,"ĠíĿ¡ìĹ°":9513,"Ġë²łìĿ´ì§ķ":9514,"ĠëĤ¨ë¶Ģ":9515,"Ġìłľì²ł":9516,"ĠìĹ¼ìĥī":9517,"ĠíĮ½íĮ½":9518,"Ġë©ľë¡ľ":9519,"ĠìĿ¸ëªħ":9520,"Ġìŀħì§Ģ":9521,"Ġìĭ¤ëł¤":9522,"Ġëĭ¬íķĺ":9523,"ì¡°ë¦¬":9524,"ĠíĻ©ìĥģ":9525,"ĠìĹ¬íķĺíĬ¼":9526,"ĠíĻĶìĺģ":9527,"ëĥī":9528,"30":9529,"ĠìłģëĮĢ":9530,"ìĹ¬ë¦Ħ":9531,"ĠìĤ°íķĺ":9532,"Ġë¯¸ìĦ±":9533,"§¨":9534,"ĠíķłìĪĺë¡Ŀ":9535,"Ġê°Īì§Ģ":9536,"ĠìīĲ":9537,"ĠìĹħëį°ìĿ´íĬ¸":9538,"ĠìĭľëģĦëŁ½":9539,"Ġë²Īì§Ģ":9540,"ĠëıĻë¶Ģ":9541,"ìłĪëĮĢ":9542,"ĠëŁ°ëįĺ":9543,"ĠìĿ¼ìĦ¸":9544,"Ġëª¨ëłĪ":9545,"ĠìĦ¬ìĦ¸":9546,"ĠëıĦìļ°ë¯¸":9547,"Ġìłķìłķ":9548,"ĠìµľíĽĦ":9549,"Ġê¶Įìľł":9550,"ĠìķĶìĤ´":9551,"Ġì§ĳíĸīìľłìĺĪ":9552,"Ġì§ĢëĤ¸":9553,"ĠëŃĲìļĶ":9554,"Ġìļ°ìĬ¤":9555,"Ġëĭ´ìŀĦ":9556,"ĠìĥģìĽĲ":9557,"ĠìĨĮìĻ¸":9558,"Ġì´Īì½ľ":9559,"ĠíķŃìĤ°":9560,"Ġìº¬":9561,"ĠìĨĮíĻĢ":9562,"ĠìĨ¡ìĺģ":9563,"Ġê¹Ķëł¤":9564,"Ġíķľê²¨ëłĪ":9565,"Ġë³´ìĬ¤":9566,"ìķĻìĬ¤":9567,"Ġê´Ģê±´":9568,"Ġìľłë¨¸":9569,"Ġìĭ¸ìļ¸":9570,"ĠìĪĺìłľ":9571,"êµĲìĪĺ":9572,"ê±¸ìĿĮ":9573,"Ġë¡±":9574,"ĠìŀħêµŃ":9575,"Ġë§Īë¥¸":9576,"Ġì§Ģìĺ¥":9577,"ìĺĽ":9578,"Ġì½¤":9579,"ĠëłĪìĭľ":9580,"Ġë§Ŀì¹ĺ":9581,"ĠëĶĺ":9582,"ĠíĻĶê°Ģ":9583,"ë»Ķ":9584,"ìŀĲìĹ°":9585,"ĠíĻĺíĺ¸":9586,"ĠìĿĳê¸īìĭ¤":9587,"ĠìĿ´ìĦĿê¸°":9588,"ĠëĤ´ìłķ":9589,"ĠëĤ´ìĻ¸":9590,"Ġê³¼ìŀī":9591,"Ġë¯¸ë¤Ħ":9592,"Ġë°Ķëĳĳ":9593,"Ġëł¤ëĬĶëį°":9594,"Ġëĵ¤ìľ¼ìĭł":9595,"ĠìĨľìĶ¨":9596,"ĠìĬ¤íģ¬ë¦°":9597,"ĠìķĦëŀ«":9598,"Ġíķ´ìł¸":9599,"Ġë¶ĦìĭĿ":9600,"Ġê°Ħíİ¸":9601,"Ġë¹ħë±ħ":9602,"Ġê°ĢìľĦ":9603,"Ġì§ĢìĻĦ":9604,"ĠìĭĿíĥģ":9605,"ĠìĿĺêµ¬ìĭ¬":9606,"Ġìļ°ìĥģ":9607,"Ġêµ¬ëıħ":9608,"ĠìĹ°ëĳĲ":9609,"Ġíı¬ìĬ¤íĬ¸":9610,"ĠìĿį":9611,"ìĳ¥":9612,"ê¸°ìĤ¬":9613,"ĠìĽĲíĻľ":9614,"ĠíķŃìĨĮìĭ¬":9615,"Ġìľ¼ë¦¬":9616,"ìĭľê²½":9617,"ĠëĵľìħĶëıĦ":9618,"ĠëīĺìķĻìĬ¤":9619,"ĠìķĮìķĦë´Ĳ":9620,"ìĦľë¡ľ":9621,"Ġêµ¬ìĤ¬":9622,"ĠìĹ°ê°Ħ":9623,"ĠíĽĦíĩ´":9624,"íĮ¡ìĿ´":9625,"Ġë¹Ħì¦ĪëĭĪìĬ¤":9626,"Ġëĭ¤ë¬¼":9627,"ĠìĪĺê°Ĳ":9628,"ĠëĤľê°Ĳ":9629,"Ġë°°íĽĦ":9630,"Ġê³µêµ°":9631,"Ġê¹Ģì£¼":9632,"ĠìĤ¬ë§ĿìŀĲ":9633,"Ġíķ´ê²½":9634,"ĠìĭĿëĭ¨":9635,"Ġíĳľê³ł":9636,"Ġê²¸ìĨĲ":9637,"ìĿ´ìª½":9638,"ìľ¼ëĭĪê¹Į":9639,"ĠíĸĪìľ¼ëĭĪ":9640,"ë°ĺëĮĢ":9641,"Ġëĭ´ê°Ģ":9642,"ĠìĦłë³´ìĺĢ":9643,"ëĿ¼ìļ°ë§Ī":9644,"Ġì²ľìłķë°°":9645,"Ġíķĺíĥľ":9646,"Ġê·¸ë©´":9647,"Ġìĭłê°Ģ":9648,"Ġë°°ëĵľ":9649,"ĠëĤĺíĥĢëĤ´":9650,"ĠëĮĢìĥģìŀĲ":9651,"Ġìĸĳì¸¡":9652,"Ġìı´":9653,"Ġê³¼íķĺ":9654,"ĠìĽĲê³ł":9655,"ĠìłĪìĭ¤":9656,"ĠìĤ°ëĭ¤ëĬĶ":9657,"Ġëįĺì§Ħ":9658,"ìłľìŀĳ":9659,"Ġìł¬ë§Ī":9660,"ĠëĤ¨ëĭ¤ë¥¸":9661,"íĶ¼ìķĦ":9662,"Ġêµ´ëŁ¬":9663,"ĠìłĦìĪĺ":9664,"Ġëĭ¹ì´Ī":9665,"ĠìĦĿë°©":9666,"Ġì¢ĮìłĪ":9667,"Ġê±°íĴĪ":9668,"Ġê¸°ê¸Ī":9669,"Ġëĭ¬ë¦°":9670,"Ġíĸīìłģ":9671,"Ġ:":9672,"Ġíķ´íĤ¹":9673,"Ġê³łëĵ±ìĸ´":9674,"Ġìŀĥìĸ´ë²Ħë¦°":9675,"Ġë³´ê¸ī":9676,"ĠìŀĲë¶Ģ":9677,"ĠìłĦëĭ¨":9678,"ĠìĺĪìĪłê°Ģ":9679,"ĠíĮĮìĿ´ë¸Į":9680,"ĠìĽĶíĻĶëĵľëĿ¼ë§Ī":9681,"Ġìłľë¡ľ":9682,"Ġë¬´ì¹¨":9683,"Ġê¹ĢëĤ¨":9684,"Ġíĺ¸ìĿĳ":9685,"Ġì°½íĶ¼":9686,"ĠìŀĶëĶĶ":9687,"Ġì¡°ì§Ģ":9688,"Ġìµľìĺģ":9689,"Ġëĭ¨ìĽĲ":9690,"ĠìĿ¼ë¦¬":9691,"Ġì¦Ŀë§Ĳ":9692,"Ġëª¸ë§¤":9693,"ĠìĹħìłģ":9694,"Ġì¹¼ìĬĺ":9695,"ĠìĹīë§Ŀ":9696,"ìĸ´ì©Į":9697,"Ł¼":9698,"ìķĦìļ°":9699,"Ġê¹Ģëªħ":9700,"ĠíķľíħĮìĦľ":9701,"ĠíĬ¸ëĿ¼ìļ°ë§Ī":9702,"Ġë¡ľê·¸ìĿ¸":9703,"ĠìĿĺë¦¬":9704,"Ġì¤ĳëıĻ":9705,"ĠìĹħì¢ħ":9706,"ĠìĪĻìĦ±":9707,"ĠíĨ¡íĨ¡":9708,"Ġëĭ¤ëĿ¼":9709,"Ġì´Ĳ":9710,"ĠíĻķê³ł":9711,"Ġìļ´ìļ©":9712,"ĠìĻ¸ë¡Ń":9713,"ĠëĶ°ëĿ¼ìĺ¤":9714,"ĠíİĦ":9715,"Ġì»¤ë²Ħ":9716,"ëª¬ëĵľ":9717,"Ġë¹Ħë¹Ķë°¥":9718,"Ġì°¨ê°Ģìļ´":9719,"Ġë§ĲíĪ¬":9720,"ĠìµľìłĢìŀĦê¸Ī":9721,"Ġìŀ¥ëª¨":9722,"Ġë§ŀëĮĢ":9723,"ĠíĬ¹ê¸°":9724,"ĠìĥĮëĵľìľĦì¹ĺ":9725,"ĨĪ":9726,"Ġê·¸ëĨĪ":9727,"Ġê²Ģì¶ľ":9728,"ĠëŀĺëıĦ":9729,"Ġëª©ê²©ìŀĲ":9730,"ĠëĤĺìĦ¤":9731,"Ġì£½ìĿ¸":9732,"Ġìĵ¸ëį°ìĹĨ":9733,"Ġìĭłê·ľ":9734,"Ġë²ĦíĦ°":9735,"íķŃìĥģ":9736,"Ġê³µê°ĲëĮĢ":9737,"Ġê±°ìĬ¬":9738,"ê°ĢìĬ¤":9739,"Ġíĸīì§Ħ":9740,"Ġìŀ¬ë¯¸ìĹĨ":9741,"ĠìĿ´ìĦł":9742,"Ġì§Ģìŀ¥":9743,"Ġëĺĺ":9744,"ĠêµŃìĿµ":9745,"ĠìķĶíĬ¼":9746,"Ġíĭ±":9747,"Ġìłķì§ģ":9748,"ìĸ´ì°¨íĶ¼":9749,"ĠìĬĪíį¼ë":9750,"ĠìŀĲíĥĿ":9751,"Ġëļ±":9752,"Ġì£½ìĺĢ":9753,"Ġë²¨íĬ¸":9754,"ê°ĵ":9755,"Ġëª¨ìĿĢ":9756,"Ġì¤ĳìĦ±":9757,"Ġë¬´ìĿ¸":9758,"Ġê±¸ì³Ĳ":9759,"Ġíı¬ê´Ħ":9760,"ëª¨ë¥´":9761,"ĠìŀĲë³¸ì£¼ìĿĺ":9762,"ëİĮ":9763,"ĠìĿ´ëĤĻìĹ°":9764,"Ġì¡°ë¦¼":9765,"Ġê°Ķëĭ¤":9766,"ĠíĿĳìĿ¸":9767,"Ġì¹¼ëŁ¼":9768,"ĠëĤĺìľ¼ë¦¬":9769,"ĠêµŃë¬´ì´Ŀë¦¬":9770,"Ġë°Ķë¹łìĦľ":9771,"ĠìĿ¼ëĭ¹":9772,"Ġê°ľìĦ¤":9773,"ĠëĵŃëĭĪëĭ¤ëĦ¤":9774,"ĠìĹ°ìĺĪê³Ħ":9775,"ĠìļĶì§Ģ":9776,"ĠìĨĮìĨĮ":9777,"Ġ17":9778,"Ġì¹¨ëª°":9779,"Ġì»¨ëĶĶìħĺ":9780,"ĠìĹ¬ë¦Ħì²ł":9781,"Ġë¥Ļ":9782,"Ġê¸°ì§ĳìķł":9783,"Ġìļ°íļĮ":9784,"ìĤ¬ìĿ´":9785,"Ġë§īíĮĲ":9786,"ĠìŀĶì¹ĺ":9787,"Ġëĭ¤ëĵłê°Ģ":9788,"ĠìĿ¼ìľ¼ì¼°":9789,"Ġê³µìłľ":9790,"ĠìĨĮê·¹":9791,"Ġëħ¼íıī":9792,"ĠìĿ¼ìľ¼ì¼ľ":9793,"Ġìĩ¼íķĳëª°":9794,"íĿ¥ë¯¼":9795,"ĠìĿ´ìłķíĺĦ":9796,"Ġë³´íĥľ":9797,"Ġê¸°ë¥´":9798,"Ġê²¨ìļ¸ì²ł":9799,"Ġê±°ë¶ģ":9800,"ì£¼ìĿ¸":9801,"ĠêµĲì°¨":9802,"ĠìķĦíĶĮ":9803,"ë¥¼ë":9804,"ìĬ¤ì¹´":9805,"Ġê°Īëł¤ê³ł":9806,"Ġê°ģìĦľ":9807,"ê·¸ëłĪìĿ´ëĵľ":9808,"Ġìŀ¥ê°Ģ":9809,"Ġìµľê²½íĻĺ":9810,"Ġê¸ĪëħĦ":9811,"Ġì£ĦìĿ¸":9812,"ĠìĥģìĬµ":9813,"ëī´ìĸ¼":9814,"ĠìłĦëħĦ":9815,"²Ķ":9816,"ĠëĮĢëĨĵ":9817,"ë½ķ":9818,"Ġë¡ľë§Ī":9819,"ĠëįĶìĽĮ":9820,"Ġê¹ĢìĦł":9821,"ëĿ¼ëĵľ":9822,"Ġê°Ģìł¸ìĻĢ":9823,"ìºĲìĬ¤íĬ¸":9824,"Ġíľ©ìĭ¸":9825,"Ġê³łê°Ģ":9826,"Ġì§ĢìĦ±":9827,"Ġì§Ģë£¨":9828,"ëĮĢì¡°ìĺģ":9829,"Ġê·¸ëŀĺìķ¼ì§Ģ":9830,"Ġíģ¬ë¡ľìĬ¤":9831,"ĠíķľëıĦ":9832,"ĠìŀĲë§ī":9833,"ĠìĿ´ìłľìķ¼":9834,"Ġê´ĢìĦ¸":9835,"Ġë¸Ķë¦¬":9836,"Ġíķ´ëĳĲ":9837,"Ġìĺ¤ë©Ķ":9838,"Ġë°ľì£¼":9839,"ĠíĹ¤ëĵľ":9840,"ĠëĬĲëĥĲëĬĶ":9841,"ĠìĤ¬ì£Ħ":9842,"ĠìĿĺë¥ĺ":9843,"ìľłëŁ½":9844,"ĠìĹ´ë¦´":9845,"Ġêµ¬ìĦ±ìĽĲ":9846,"Ġìĭłë¹Ħ":9847,"Ġì²Ńìĸĳ":9848,"Ġê´´ë¬¼":9849,"Ġë¶Īë§¤":9850,"ìĺģìĭ¤":9851,"ĠìĪĺìĺģìŀ¥":9852,"Ġëħ¸íļĮì°¬":9853,"ĠìĤ¬ì§ģ":9854,"Ġìłľìķķ":9855,"Ġë§¤ë§¤":9856,"Ġê³ĦìĹĦ":9857,"Ġìĥģëĭ¹ìĪĺ":9858,"Ġê¹Ģì¤Ģ":9859,"ĠìļĶê°Ģ":9860,"Ġìµľíĥľ":9861,"Ġëĭ¹ê¸°":9862,"Ġë¯¸ìĽĮ":9863,"ìĿĢíĸī":9864,"Ġë²¼":9865,"ĠëŀĦì§Ģ":9866,"Ġê·¸ëĵł":9867,"ì§Ħíĺ¸":9868,"ĠëĨįìĹħ":9869,"ĠìĿ¼êµ¬":9870,"Ġìĺ¤ë²Ħ":9871,"Ġì²ĺìłľ":9872,"Ġê°Ĳì§Ģ":9873,"Ġìį¨ëıĦ":9874,"Ġíĩ´ìĽĲ":9875,"ĠìĤ¬ëł¹ë¶Ģ":9876,"ë²³":9877,"Ġê±¸ìļĶ":9878,"Ġì¹ľë¶Ħ":9879,"Ġìĭ¬íĸĪ":9880,"ĠìĨĲì£¼":9881,"Ġëª©ë¡Ŀ":9882,"Ġë¬´ìĤ¬íŀĪ":9883,"ìĺĪìłĦ":9884,"ĠìĿ¸íħĮë¦¬ìĸ´":9885,"ĠêµŃìĦ¸":9886,"ĠìĿĮë£ĮìĪĺ":9887,"Ġê¸°ìļ¸ìĿ´":9888,"ëĨĴìĿ´":9889,"ĠìĤ¬ìĦ¤":9890,"Ġìŀħê±´":9891,"Ġìµľìĥģ":9892,"Ġê´ĢëħĲ":9893,"ĠêµĲíĽĪ":9894,"ê´Ģê³Ħ":9895,"ĠìķĦë¬´ëłĩ":9896,"Ġì»¤ë®¤ëĭĪíĭ°":9897,"Ġìĭľê³µ":9898,"ĠìļĶëıĻ":9899,"ĠìĺģìŀĲ":9900,"Ġë§¤ëī´ìĸ¼":9901,"Ġê°Ģì¤ĳ":9902,"ìĭľë§Ī":9903,"Ġì¹ľë¬¸":9904,"Ġë²ķë¦¬":9905,"ìĻ¸ìĦł":9906,"ĠìĥĿëªħì²´":9907,"ì«ĵ":9908,"Ġìłľìķ½":9909,"ĠìłľìĻķ":9910,"ë¯¼ê¸°":9911,"Ġë°ľíĸī":9912,"ì¹¸":9913,"ëª¨ìĬµ":9914,"Ġë²Ħë¦ĩ":9915,"íľ¼":9916,"ĠëĤĺê°ĳëĭĪëĭ¤":9917,"Ġì§ĪëŁī":9918,"Ġê³łìĺģ":9919,"ĠìĿ¸ì¢ħ":9920,"Ġêµ¬ì²ľ":9921,"Ġëĭ¨íİ¸":9922,"Ġì¤ĺëĿ¼":9923,"Ġê¹Ģë³ĳì¤Ģ":9924,"Ġë¶Ħë¹Ħ":9925,"ë°©ê¸Ī":9926,"Ġ16":9927,"ĠëĤĺìĺ¬ì§Ģ":9928,"ĠìĿµíŀĪ":9929,"ĠìĪĺíĺ¸":9930,"ë¡ľìļ°":9931,"Ġì¹ľëĭ¤":9932,"Ġë½Ĳ":9933,"ĠíĺĦë¯¸":9934,"ëĭ¤ëħĢ":9935,"ĠìĿ¼ìĸ´":9936,"Ġë¡ľìĬ¤":9937,"ĠìĬ¤íĤ¨":9938,"Ġì§ĳìĤ¬":9939,"Ġì§ĳìĤ¬ëŀĮ":9940,"ĠìĹĺë¦¬íĬ¸":9941,"Ġíĩ´ì§ģê¸Ī":9942,"Ġíĺ¼ëĤ":9943,"ì»¤ìĬ¤":9944,"ìļĶëłĩê²Į":9945,"Ġìĺ¤ëĿ½":9946,"ĠìĦłìŀ¥":9947,"Ġìľłìĸ¸":9948,"ĠíĽĦì¶Ķ":9949,"Ġë³ĳíĸī":9950,"ĠìĹħê·¸ëłĪìĿ´ëĵľ":9951,"ĠëĨįì´Į":9952,"ì¯§":9953,"ëĭ¤ë§Į":9954,"Ġì¶ľìĥĿ":9955,"Ġë®¤ì§Ģìħĺ":9956,"Ġìĺ¬ê²Į":9957,"ĠíĦ°ëĦĲ":9958,"Ġíľ´ìĿ¼":9959,"ĠëĦĺìĸ´ì§Ģ":9960,"Ġë¿ľ":9961,"Ġê²½ìłľíķĻ":9962,"ëįĶëĿ¼":9963,"Ġê¿°":9964,"Ġìĺ¥ìĥģ":9965,"ĠíķĺìľĦ":9966,"ĠìĿ¸ë°©":9967,"ĠëĤ´ëł¤ìĦľ":9968,"ĠëıĻëĤ¨ìķĦ":9969,"Ġë³µëıĦ":9970,"Ġìľ¼ëĿ¼ë":9971,"ĠìĤ¼êµŃ":9972,"ĠìĤ´ìķĦìĻĶ":9973,"Ġìķ¼ëĭ¨":9974,"ĠëĵľëĤĺ":9975,"Ġë©Ķëĭ¬":9976,"ĠíĮŁìºĲìĬ¤íĬ¸":9977,"Ġìĭ¬íĻĶ":9978,"ê¸īìłģ":9979,"Ġë¯¼ìĤ¬":9980,"ĠìĿ´êµŃ":9981,"ìľĹ":9982,"Ġê¹Įëĭ¤":9983,"ëĦ¬":9984,"Ġì°¨ê·¼":9985,"Ġìĭ¬ìĭł":9986,"Ġìľ¤ì£¼":9987,"ĠìķĹ":9988,"ĠìĨĲíĿ¥ë¯¼":9989,"Ġì¶ķìłģ":9990,"19":9991,"in":9992,"Ġëª¨ê¸°":9993,"ìª":9994,"ìĺĪìŀĲ":9995,"Ġìĭ¸ìĿ¸":9996,"ĠìĿ´ìĽĲ":9997,"ĠëĮĢê°ķ":9998,"ê±°ìĿĺ":9999,"Ġë¦¬ëĿ¼ê³ł":10000,"ĠëıĮìķĦìĻĢ":10001,"ëĵ¤ìĸ´ê°Ģ":10002,"Ġê±°ëĬĺ":10003,"Ġê·¸ëł¸":10004,"ì¡°ìĭ¬":10005,"Ġìĸĳëĭ¹":10006,"Ġì¦ĿìĹ¬":10007,"ìĨĶì§ģíŀĪ":10008,"Ġê³łìĿ¸":10009,"Ġë¹ĦìķĪ":10010,"Ġë³¸ëĬ¥":10011,"ĠìĿ´ìĿĢ":10012,"Ġìłķë°Ģ":10013,"Ġë³µë©´":10014,"Ġê¹»ìŀİ":10015,"ê³°":10016,"ê¸ĢìİĦ":10017,"ĠëıĻì§Ģ":10018,"ĠìłĦìĭł":10019,"Ġë§ĪìĿĮê»ı":10020,"ì²ľì²ľíŀĪ":10021,"Ġë§ĿìĦ¤":10022,"ĠìĦ¼íĭ°":10023,"ĠìĺģìĸĳìĨĮ":10024,"ĠìĤ¬íĽĦ":10025,"ĠìľĦëł¥":10026,"Ġê±¸ëŁ¬":10027,"Ġì§ĳê³Ħ":10028,"ìĭŃëĭĪëĭ¤":10029,"ĠìłķëıĻìĺģ":10030,"ĠìĿ´ëĿ¼":10031,"ĠìĿ´ìĬ¬":10032,"ĠìĨĮì§ĳ":10033,"ĠìĿ¼ë³¸ìĿ¸":10034,"Ġë³´íĸī":10035,"ĠìłľëĮĢ":10036,"Ġë§Īëĥ¥":10037,"ĠëıĻíĸ¥":10038,"Ġì²ľíķĺ":10039,"Ġë³µê¶Į":10040,"Ġíľ´ì§ģ":10041,"ĠìĬ¬íĶĦ":10042,"ĠìķĦë°Ķ":10043,"ìĹĮ":10044,"ĠìłĦêµĲ":10045,"ĠíĮĮë¬¸":10046,"ê¶ģíĻĶ":10047,"ĠíĪ¬ìŀĲìŀĲ":10048,"Ġê¶Ĳ":10049,"ê³łêµ¬":10050,"ĠìĦľìĹ´":10051,"ĠìĦłëĭ¤":10052,"Ġíĳ¸ëĵľ":10053,"ĠìĿĢê·¼íŀĪ":10054,"ëĬĦ":10055,"Ġë¯¼ì¤ĳ":10056,"Ġë³µìĤ¬":10057,"Ġë¨¸ë¬´":10058,"Ġëŀľëĵľ":10059,"Ġê¸°ìĦ±":10060,"Ġìļ°ìĬµ":10061,"Ġìŀ¥ìĻ¸":10062,"ĠëıĮë°ľ":10063,"Ġê°ģë³Ħ":10064,"ìĺ¤ëŀľë§Į":10065,"Ġì¡°ê·¸ë§Į":10066,"íį¼ìĬ¤":10067,"Ġëª¨ëħĢ":10068,"Ġëĭ¨ì¶ķ":10069,"ìķĦëĭĻëĭĪëĭ¤":10070,"ê·¸ë§Ī":10071,"Ġíĳľê²°":10072,"ĠëĤĺë¹Ħ":10073,"Ġì»¤ì¡Į":10074,"Ġíİ¸íŀĪ":10075,"ĠëĨįë¯¼":10076,"ĠìĿ´ê²¬":10077,"ĠìĥģìĹħ":10078,"Ġê³µíĮĲ":10079,"Ġë§¤ì§Ħ":10080,"ĠíĮĮê³ł":10081,"ĠìĭłìĽĲ":10082,"Ġë°ĿíŀĲ":10083,"Ġê³łë¦½":10084,"íĮİ":10085,"Ġë°ķìĦ±":10086,"ĠìĤ¬íĪ¬ë¦¬":10087,"Ġíķ´ìĥģ":10088,"ĠëĺĲëŀĺ":10089,"ĠìĨĮìĥģ":10090,"ìłĢíĬ¸":10091,"Ġëªħìĭ¬":10092,"ĠíļĮíĶ¼":10093,"ĠíĺĦìĪĺ":10094,"Ġê°ĦìĦŃ":10095,"ë¦°ëĤ´":10096,"Ġë¯¸ìĿ¸":10097,"Ġë¶Īëł¤":10098,"Ġëĭ¨ê°Ģ":10099,"Ġëĭ¬ìķĦ":10100,"Ġê»Į":10101,"ĠìĿ´ìĻĦêµ¬":10102,"Ġê²Ĳ":10103,"ĠíĻĶëĤĺ":10104,"Ġì¹ľíĻĺê²½":10105,"ìķ½ê°Ħ":10106,"Ġì´īì´ī":10107,"ĠìĿ¼ëł¨":10108,"Ġë¬´ëįĶ":10109,"ĠìĺĢìŀĸ":10110,"Ġì´Ŀìŀ¬":10111,"ĠëĤĺìĺģ":10112,"Ġë°Ķì§Ŀ":10113,"Ġë³µìŀ¥":10114,"Ġï":10115,"Ġê³łìļ´":10116,"ĠìĦ¼ìĬ¤":10117,"ìĸ¼êµ´":10118,"Ġìĺ¤ì§Ģ":10119,"Ġëª¨íĺ¸":10120,"Ġì¼Ģë¯¸":10121,"ĠìĤ¼ìĦ±ìłĦìŀĲ":10122,"ëļľ":10123,"ĠìĹ¬ê¹Ħ":10124,"ĠìĬ¤ëŁ°":10125,"ĠíĥľìĽĮ":10126,"Ġëĭ¹ëĩ¨ë³ĳ":10127,"Ġë²ħ":10128,"ĠìķĪíĮİ":10129,"Ġì§ĦëıĦ":10130,"ĠíĮĮìĿ¸":10131,"ĠìĨįìĺ·":10132,"ĠíĤ¤ë¡ľ":10133,"Ġì·¨ìŀ¬ì§Ħ":10134,"re":10135,"ê°ģê°ģ":10136,"Ġìĺ¨ëª¸":10137,"ĠëıĮìķĦê°Ķ":10138,"Ġê³łë§Īìļ´":10139,"Ġê·¸ëĤĺìłĢëĤĺ":10140,"ëį©":10141,"Ġë§¤ìŀħ":10142,"ĠíĮĲíĥĢ":10143,"ĠìķĦìĿ´ìĶ¨":10144,"Ġëıħë¦½ìļ´ëıĻ":10145,"Ġë¯¸ìĪłê´Ģ":10146,"ĠìĶ¨ìķĹ":10147,"Ġíį¼ìł¸":10148,"Ġê¶ģíķ©":10149,"Ġê¼¼ìĪĺ":10150,"Ġë²Ħëł¤ìļĶ":10151,"Ġì²´ìľ¡ê´Ģ":10152,"ĠìĿ´ëģĦ":10153,"Ġìķ¼ìķ¼":10154,"ĠìĻĢìļ°":10155,"Ġë³Ģë¡ł":10156,"ĠíĻľëıĻë¹Ħ":10157,"ĠíĦ°ì§Ħ":10158,"Ġíģ´ë¦Ń":10159,"Ġíķłì§ĢëĿ¼ëıĦ":10160,"ĠìĹ°ìĦ¸ëĮĢ":10161,"ì¡°ìĤ¬":10162,"Ġê¶ģê·¹":10163,"ĠìĨ¡êµ¬":10164,"Ġë§Ŀìĭł":10165,"Ġíĸĩë¹Ľ":10166,"ĠìĬ¨":10167,"Ġë¹Ħì¹ĺ":10168,"Ġê´ĳìĹŃ":10169,"Ġìĺ¬ë¦¬ë¸Į":10170,"ĠìĦ¤ëĵĿëł¥":10171,"ĠìĿ´ë§Ī":10172,"ì¦Ļ":10173,"ìĸ´ëĸ¡":10174,"ĠìĽĲìŀĳ":10175,"ĠëĳĲëłµ":10176,"ë©Ģ":10177,"Ġìķŀìŀ¥ìĦľ":10178,"ĠìĿĦìĪĺë¡Ŀ":10179,"ĠìĹ´íĴį":10180,"Ġëĭ¤ê°ĢìĻĢ":10181,"ĠëĩĮë¬¼ì£Ħ":10182,"ĠìłĦë°©":10183,"Ġë¯¸ìĺģ":10184,"ëĭ¨ì²´":10185,"Ġì²ĺíķ´":10186,"Ġìļ©ëĤ©":10187,"Ġê¼¼ì§Ŀ":10188,"Ġìĭľëĭ¬ë¦¬":10189,"ê²½ì°°":10190,"ĠìĹ´ìķħ":10191,"Ġê°Ģìł¸ìĺ¨":10192,"Ġìĵ´ëĭ¤":10193,"Ġê¸°ëĭ¤ëł¤ìķ¼":10194,"ìĸĺê¸°":10195,"ĠíĮįíĮį":10196,"Ġë¨¹ë°©":10197,"íĥľíĶĦ":10198,"ĠìķĦë¦¬ëŀĳ":10199,"Ġë¯¸ëĦ¤":10200,"ê²Ģì°°":10201,"ĠìľĦíĹĮ":10202,"ĠëĤĻì§Ģ":10203,"ĠëĦĲë¦¬":10204,"ìķ¼ë":10205,"ĠìŀĲìŀĲ":10206,"Ġìĥģìłķ":10207,"ĠìĨįëĤ´":10208,"Ġíķ´ìĪĺ":10209,"ëĮĢê¸°":10210,"ĠìľłìĿĺ":10211,"Ġë½Ģë½Ģ":10212,"Ġê·¸ëĵłìļĶ":10213,"ìķĦë¦Ħ":10214,"ĠíķĺìĹ¬ê¸Ī":10215,"Ġì¤Ħìĸ´ëĵľ":10216,"Ġëª»ì§ĢìķĬ":10217,"ĠìĨĮëªħ":10218,"Ġë§¤ìĭ¤":10219,"ĠìķĦê»´":10220,"Ġê°ķíķ´":10221,"Ġì¤Ħì¤Ħ":10222,"ĠìĹħìŀĲ":10223,"Ġë°ĺê°Ģìļ´":10224,"¥¨":10225,"Ġë²Ħë¬´":10226,"ìħĶì¸ł":10227,"ĠìĿ´ìĭ¬":10228,"Ġêµ¬ìĿ´":10229,"ĠëĦĺê²¼":10230,"ĠíĴĪëª©":10231,"ĠìĦŀìĹ¬":10232,"ĠìĭłëıĦ":10233,"ĠíĮĮëıĻ":10234,"ĠìĪĻìĿ´":10235,"ĠìĬ¤ëŁ¬ìļ¸":10236,"ĠìĿ´ë£¨ìĸ´ìł¸ìķ¼":10237,"êµ¬ìĦĿ":10238,"ì§ģìĽĲ":10239,"Ġë°°ìłķ":10240,"ĠíĻ©ê¶ģ":10241,"Ġê·ĢìĹ¬ìĽĮ":10242,"ĠìĬ¤ë¦´":10243,"ìłģìľ¼ë¡ľ":10244,"ĠìĿĢíıĲ":10245,"Ġë°ķì¢ħ":10246,"Ġë²ĮìĿ¸":10247,"Ġê°ĳìĭľëĭ¤":10248,"Ġë¸Ķë¡Ŀ":10249,"ĠëĵĿíĳľ":10250,"Ġì¤ĳìłĲ":10251,"ĠìĦłë°ķ":10252,"Ġê²Ģê²½":10253,"ĠíĸĪìĹĪìŀĸ":10254,"ĠëĤĺëīĺ":10255,"Ġíķ´ë³Ģ":10256,"Ġì¤ĳì§Ģ":10257,"Ġíİ¸íķ´":10258,"Ġìĸ´ëł¤ìĦľ":10259,"ĠìĿ´ë¶Ģ":10260,"Ġêµ¬ìłĪ":10261,"ĿëĭĪëĭ¤":10262,"ĠëĲ¨":10263,"Ġìŀ¥ê°ĳ":10264,"ĠìłĪë°ķ":10265,"Ġíĺĳìķ½":10266,"ĠìŀłìĪĺíķ¨":10267,"ìĺĽëĤł":10268,"Ġíķłê»ĺìļĶ":10269,"ëĮĢìĭł":10270,"Ġë¬¼ê¸°":10271,"ĠìĬ¹ê³Ħ":10272,"ĠëĵŃëĭĪëĭ¤ìŀĲ":10273,"Ġê³µìŀ¥ìŀ¥":10274,"Ġì±ħë°©":10275,"Ġìĺ¤íĶĦëĭĿ":10276,"Ġíĳľì¶ľ":10277,"ĠëĿ¼ìĿ´íĶĦ":10278,"ĠíķĻìľĦ":10279,"ĠìĤ¬ìĭł":10280,"ìĸĢ":10281,"Ġë³´íĺ¸ìŀĲ":10282,"ĠìĹĦì¤ĳ":10283,"ĠìĬ¬íį¼":10284,"ĠëĥĲê³łìļĶ":10285,"íĺ¼ë":10286,"Ġë¹Ħì¼ľ":10287,"Ġë³Ħëĭ¤ë¥¸":10288,"Ġì£½ìĿ¼":10289,"ĠíĥĦìĨĮ":10290,"Ġw":10291,"Ĭê·¸":10292,"Ġê²½íĿ¬":10293,"Ġìĭ¤ìļ©":10294,"ĠíĮĮíĥĦ":10295,"ĠìĻĢìĿ´íĮĮìĿ´":10296,"Ġê°Ģìĭ¤":10297,"Ġë°ĺìĤ¬":10298,"Ġëĭ¨ìłĪ":10299,"Ġ24":10300,"Ġëº¨":10301,"ëłĮì§Ģ":10302,"ĠìĦłê´ĢìľĦ":10303,"Ġê²ģëĤĺ":10304,"Ġì¡°ê³Ħ":10305,"Ġì°¨ìĦł":10306,"Ġë³Ģíķľ":10307,"Ġê°Ģê¸īìłģ":10308,"Ġìĭ¬ë¶Ģ":10309,"Ġë¶ĢëĶªíŀĪ":10310,"Ġì¤ĳíķĻìĥĿ":10311,"ìķĦë¬´íĬ¼":10312,"ĠìĿ´ë©´":10313,"ĠìĭľìĿ¼":10314,"ĠìĽĲì¹ĺ":10315,"Ġë°ĶëĿ¼ë³¸":10316,"ĠíĿ°ìĥī":10317,"ìļĶìĥĪ":10318,"Ġë©´ëĭ´":10319,"ĠíĻľëł¥":10320,"Ġìĺ¤íĶ¼ìĬ¤íħĶ":10321,"Ġê³łìĦ±":10322,"ĠìŀĺëĤľ":10323,"ê·Ħ":10324,"Ġìµľìŀ¬":10325,"ĠìŀĬìĸ´ë²Ħë¦¬":10326,"ĠìĿ´íĻĶ":10327,"Ġíķĺê¸´":10328,"ĠëĤĺìĿ¸":10329,"Ġìļ°ë°ľ":10330,"ìĺĪìĸ´":10331,"Ġì£¼ë¬´ìĭľ":10332,"ĠëłĪìĭľíĶ¼":10333,"§ģ":10334,"Ġíķĺì²Ń":10335,"Ġìĺģë¦¬":10336,"Ġì¡°ìĪĺ":10337,"ĠìĨĮíĺķ":10338,"Ġì¶ĶìĿ´":10339,"ĠìĿ´ëĭ¬":10340,"Ġìľłì§Ħ":10341,"Ġê¹Ģíĺķ":10342,"Ġêµ¬íĺĦ":10343,"ë¯¼íĦ´":10344,"ĠìĺĢìĿĦ":10345,"ĠìĬ¤íĥľíĶĦ":10346,"ĠìķĦìĤŃ":10347,"Ġë³´ìĤ´":10348,"ĠêµĲìŀ¬":10349,"Ġë°°íĦ°ë¦¬":10350,"Ġë°ķíĥĪ":10351,"Ġë¹¼ëıĮ":10352,"ĠìĨĮë¦°":10353,"ì°¨ê·¼":10354,"íĦ±":10355,"Ġëĭ¨ê³¨":10356,"ĠíĦ°íĤ¤":10357,"łĪ":10358,"Ġëĭ·":10359,"Ġëĭī":10360,"ĠëĩĮì¡¸":10361,"Ġëł¤ë©´ìĿĢ":10362,"ìĿ´ìĥģ":10363,"ë§£":10364,"ĠìĪĺê±°":10365,"Ġëĭ¤ìĿ´ìķĦ":10366,"ë©ĺíĬ¸":10367,"ë¼Ī":10368,"Ġë©´ìłģ":10369,"Ġìĭľê¸Ī":10370,"ĠìľĦìĥĿ":10371,"ì±ħê°Ĳ":10372,"Ġíģ´ë¦°":10373,"Ġë²łìĿ´ë¹Ħ":10374,"Ġë²Ħíħ¨":10375,"Ġíķ´ëıħ":10376,"ĠìłķíĸĪ":10377,"Ġë¯¸ìķ½":10378,"ĠìĿ¸ë¶Ħ":10379,"Ġêµ¬ëĿ¼":10380,"Ġìĸ´ëĳĲìļ´":10381,"Ġíķĺíĥľê²½":10382,"ĠìĨŁ":10383,"Ġê°ķê°Ħ":10384,"ë§ĽìŀĪ":10385,"Ġ70":10386,"ëħĦìŀĲ":10387,"Ġë²ĮëłĪ":10388,"ĠëĤ¸ëĭ¤":10389,"Ġìŀ¦":10390,"ĠìĶģëĭĪëĭ¤":10391,"ìłĢë¦¬":10392,"íĶĦëĿ¼":10393,"Ġê¸Īë´ī":10394,"Ġìıľ":10395,"Ġh":10396,"ìĿ¸ê·Ģ":10397,"Ġë§Īì¹ľ":10398,"ĠêµĲìłķ":10399,"Ġë¥ĺíĺĦì§Ħ":10400,"Ġë°ĶìĿ´ìĺ¬ë¦°":10401,"ĠìŀĦëĮĢì°¨":10402,"Ġë³´íĽĪ":10403,"ĠëĤ¬ìĹĪ":10404,"ĠëıĻë¶ģìķĦ":10405,"Ġìĺ¤ìĤ¬":10406,"ĠìĹ¬ê¸¸":10407,"ĠìłĲëł¹":10408,"ê·¸ëłĩì§Ģë§Į":10409,"ìĨĮìĺģ":10410,"Ġìŀ¬ìĦł":10411,"ĠëıħìĨĮ":10412,"Ġë¬´ìĦľìĽĮìĦľ":10413,"ë¯Ħ":10414,"ĠìĶģìĵ¸":10415,"ĠíĨµë¡ľ":10416,"íĮĮë¦¬":10417,"ĠíķŃìķĶ":10418,"ì§ĢíĺĦ":10419,"ë¥¨":10420,"íķĺëĬĺ":10421,"ìĿ´ìłł":10422,"Ġì¡°ìķ½":10423,"ĠìķĮëłĪ":10424,"Ġìľłìŀ¬":10425,"ĠëıħìłĲ":10426,"ĠìłĦë¶ģ":10427,"ĠìĦłëªħ":10428,"ĠìĦłíĸī":10429,"Ġë¹¨ê°":10430,"Ġë¶ĻìĿ¸":10431,"ĠìĽĥê²¨":10432,"ĠëĤ±":10433,"ê°Īë¹Ħ":10434,"ĠëĶĶìłĢíĬ¸":10435,"Ġë¶ĢíĴĢ":10436,"ĠìĭłíĨµ":10437,"ĠìŀĦë§Ī":10438,"Ġíĸĩë³ķ":10439,"ĠëĤĺìĹ°":10440,"Ġê´Ģíķł":10441,"ĠëªħìĦ±":10442,"Ġë°ĿíĺĢìķ¼":10443,"Ġê¹ĥë°ľ":10444,"ĠìĿ´ë¬¸":10445,"ĠìľłëĤľ":10446,"Ġë°ķìļ©":10447,"Ġë§Ľë³´":10448,"Ġìĺ¥ìĪĺìĪĺ":10449,"ĠìŀħëĮĢ":10450,"Ġëĭ¬ëł¸":10451,"ĠìĽĮíģ¬":10452,"Ġë°Ķëĭ·ê°Ģ":10453,"ì¹©ëĭĪëĭ¤":10454,"Ġê³µê¶Įëł¥":10455,"Ġê¹ĢíĿ¬":10456,"Ġì¼ĢìĿ´ë¸Ķ":10457,"Ġë¿Įëĵ¯":10458,"ĠëĿ¼ìļ´ëĵľ":10459,"Ġì¶Ķë¦¬":10460,"ĠëĽ°ìĸ´ëĵ¤":10461,"Ġìĺ¤ìĿ´ìĶ¨":10462,"Ġï¼":10463,"Ġíķ´ìĺ¨":10464,"Ġë©´ëª¨":10465,"Ġëĵ¤ìĸ´ìĦłëĭ¤":10466,"ĠëĶ¸ê¸°":10467,"ê·¸ëŁ¬ë©´ìĿĢ":10468,"Ġì²Ļíķĺ":10469,"ìłķíĻķ":10470,"Ġë¬´ëį¤":10471,"ì¤Ģë¹Ħ":10472,"Ġê°ĲíĥĦ":10473,"Ġìļ´ëıĻìŀ¥":10474,"ëį°íĥĢ":10475,"Ġëĵľëł¤ìĦľ":10476,"Ġê³Ħê¸ī":10477,"Ġíľł":10478,"Ġê»Ħ":10479,"ë¿į":10480,"Ġê·¸ìłľ":10481,"Ġìŀ¬ìĽĲ":10482,"Ġë³Ģíķ´":10483,"Ġì»¤ì§Ī":10484,"ìĹłìĹĲíĶĦ":10485,"ĠëĤ´ë²Ħëł¤":10486,"Ġêµ¬ëĭ¨":10487,"Ġëį°ìĬ¤íģ¬":10488,"ĠíĥĳìĬ¹":10489,"Ġíķĺê³¤":10490,"ĠìľĦíķ´ìĦł":10491,"Ġëĭ¤ìĭł":10492,"ìļ°ë¦°":10493,"Ġê°ĩíĺĢ":10494,"Ġê²¬ìłģìĦľ":10495,"Ġìĺ¤ì¼Ģ":10496,"ìĹħìŀĲ":10497,"ì½§":10498,"Ġë©´ìĦ¸":10499,"Ġìłľê²Į":10500,"ĠìĤ´ë¦´":10501,"Ġë¶Īê½ĥ":10502,"Ġë°ľëł¹":10503,"Ġë§ŀì¶ľ":10504,"ĠëģĮìĸ´ìĺ¬":10505,"Ġì£¼ìµľ":10506,"Ġë¬¸ëĵĿ":10507,"ĠìĹ°ìĩĦ":10508,"ĠíĨµìĹŃ":10509,"ĠìłĪë§Ŀ":10510,"Ġì¦Ŀê¶Į":10511,"Ġ500":10512,"Ġíİ¼ì³¤":10513,"ìŀ£":10514,"ĠìĦłìĥģ":10515,"Ġë°±ìłľ":10516,"ĠìĨĲìŀ¡":10517,"ĠìĤ¬ì¶ĺ":10518,"Ġì§Ļ":10519,"ĠìľłëĮĢ":10520,"Ġë³´íĹĺê¸Ī":10521,"ĠìľłìĿµ":10522,"Ġë»Ķë»Ķ":10523,"Ġìĭľê·¸":10524,"ìķĦì¤Įë§Ī":10525,"Ġìĭłëį°ìļĶ":10526,"Ġê±´ìłĦ":10527,"Ġë¨¹ê±°ë¦¬":10528,"Ġêº¼ëĤ":10529,"Ġê¸°íĽĦ":10530,"ìĸ´ì¤Ģ":10531,"Ġsns":10532,"st":10533,"ĠëĮĢê±°":10534,"ĠìķĪë¬´":10535,"ĠëĳĲêº¼":10536,"ìĪŃìķĦ":10537,"Ġìłľë²ķ":10538,"Ġë²łëŀĢëĭ¤":10539,"ĠìľłìĤ°ê·ł":10540,"Ġê¸°íĺ¸":10541,"Ġë¶ĢìĹĮ":10542,"ĠìĭłìĦ¤":10543,"Ġìħĭì§¸":10544,"Ġì´īì§Ħ":10545,"ĠìĿ¼ì²´":10546,"ĠìĨĮë³Ģ":10547,"ëĵ¤ìĸ´ìĺ¤":10548,"ĠìĿ¼ìľ¼íĤ¬":10549,"ĠëĵŃëĭĪ":10550,"Ġê·¸ì§Ģ":10551,"ĠìĺĪìĪĺ":10552,"Ġìĭ¬ê²½":10553,"Ġê¹Ģì§ĢìĿĢ":10554,"Ġê°Ģìĭł":10555,"Ġë¹Ħë²¼":10556,"ĠíİĮ":10557,"Ġìľłíļ¨":10558,"Ġê±¸ìĸ´ìĺ¤":10559,"ĠìĭĿë¯¼ì§Ģ":10560,"ĠìĿ´íĺľ":10561,"ĠëĶ°ìľĦ":10562,"ìĤ´ìĿ´":10563,"Ġëĵ±ë¡Ŀê¸Ī":10564,"Ġë±ĥìĤ´":10565,"Ġê¾Ģ":10566,"ë¬´ìĹĩ":10567,"ìĪį":10568,"ĠëĪĪëĨĴìĿ´":10569,"ĠëĤĺìĺ¨ëĭ¤ëĬĶ":10570,"ĠìĦľêµ¬":10571,"Ġë±ī":10572,"Ġê¹Ģë¬¸":10573,"íĨłë¡Ŀ":10574,"ìĺ¤íŀĪëł¤":10575,"Ġë¬´ëĬ¥":10576,"Ġëĵ¤ëł¸":10577,"ìķĦëĭĪë©´":10578,"Ġê¹ģëĭĪëĭ¤":10579,"Ġì°¨ì§Ī":10580,"ĠìĨįìĥģíķĺ":10581,"ĠëĮĢíıŃ":10582,"Ġê±°ëĭĪ":10583,"ĠìĥĿìłĦ":10584,"ĠëįĶëĥĲ":10585,"ĠíĻĶëĳĲ":10586,"ĠìĿĳìĭľ":10587,"ĠìĻ¸êµĲê´Ģ":10588,"ìĭľìŀ¥":10589,"Ġìĸĳë³µ":10590,"Ġìĸ´ëł¤ìļ´ëį°":10591,"Ġê¸°ìĥĿì¶©":10592,"Ġj":10593,"Ġê³µêµ¬":10594,"Ġë¦¬íĦ°":10595,"ìķĦìĽĥ":10596,"ĠìĨĮíĮĮ":10597,"Ġì§ķìļ©":10598,"Ġìĸ´ìĿ´êµ¬":10599,"ë¦°ëĭ¤ê³ł":10600,"Ġíı¬ìļ©":10601,"Ġê¹Ģì§Ħíĥľ":10602,"Ġë¯¸ìĪĺ":10603,"Ġìŀ¬ì¦Ī":10604,"Ġì´Īë³´":10605,"ĠìĥģíĴĪê¶Į":10606,"ĠìĻĢëıĦ":10607,"Ġíļ¡ëĭ¨":10608,"Ġê²¹ì¹ĺ":10609,"ĠíĭĢë¦¼ìĹĨ":10610,"ĠìľĦìŀĦ":10611,"Ġì³Ĳëĭ¤":10612,"ĠìĽĲìŀĲëł¥":10613,"Ġíķ´ëĤ´":10614,"Ġì´Ŀê°ģ":10615,"Ġ60":10616,"Ġë¶Ģíķĺ":10617,"ĠìĭłëħĲ":10618,"Ġìĸĳíĺķ":10619,"ĠìĿ´ëŁ¬ë©´":10620,"Ġíĩ´ì§Ħ":10621,"Ġê°Ģì£½":10622,"Ġìĸ´íķĦ":10623,"Ġê¹ĢìĽĲ":10624,"Ġì¿łëį°íĥĢ":10625,"ĠëĤ¨ëıĻìĥĿ":10626,"ì½Ķë¡ľëĤĺ":10627,"ĠíĹĮìĭł":10628,"ĠíĬ¹ê¸ī":10629,"ĠìŀĦíķĺ":10630,"Ġìĭ¬ìĥģìłķ":10631,"ĠìĦ¸ë¸Ĳ":10632,"ĠëĪĦëĭĺ":10633,"ê³Ħìķ½":10634,"ĠëĩĮì¡¸ì¤ĳ":10635,"ĠìĿ´ìĸ´ì§Ħ":10636,"Ġê°Ģì¹ĺê´Ģ":10637,"ĠìĦ±ì°°":10638,"ĠíĬ¹ë¡Ģ":10639,"ĠíĻ©íĽĦ":10640,"ĠìĹĶì§Ģ":10641,"ĠìĨ¡ìĿ´":10642,"Ġíľ´ì§Ģ":10643,"Ġëª»íķľëĭ¤":10644,"Ġê³łëł¤ëĮĢ":10645,"ĠëĤŃë§Į":10646,"Ġì°ľì§Ī":10647,"Ġìłķì§Ħ":10648,"ĠìĦ±ì£¼":10649,"Ġê¹Ģìĸ´ì¤Ģ":10650,"íķŃê³µ":10651,"Ġìĸ´ëĸłìĭł":10652,"Ġëķ¡ëķ¡":10653,"Ġìłķìķł":10654,"Ġíķĺë£¨íķĺë£¨":10655,"ìĬĪíĥĢìĿ¸":10656,"Ġì³ĲìĦľ":10657,"Ġë³´ë¬¼":10658,"ĠìĸĦ":10659,"Ġêµ¬ê¸ī":10660,"ĠëĿ¼ëĩ¨":10661,"Ġë³µìļ©":10662,"Ġíĭ°ìłĢ":10663,"Ġë¹łìł¸ìĦľ":10664,"Ġìłķì²Ń":10665,"ìłķìĭł":10666,"ĠëĮĢíĶ":10667,"ì¡°ë¦¼":10668,"ĠìĨĲëħĢ":10669,"Ġì§ĦíĸīìŀĲ":10670,"Ġìľłì°©":10671,"Ġê±¸ë¦½ëĭĪëĭ¤":10672,"íħĿ":10673,"Ġìķħìļ©":10674,"an":10675,"ĠëĮĢêµŃë¯¼":10676,"ĠìłĢëŀĺ":10677,"ĠìĬ¤ë¦¬":10678,"Ġìŀ¥ëĤ¨":10679,"íĴįê¸°":10680,"ĠëıĦëĭ¬":10681,"ìķĦëĩ¨":10682,"ĠìĨĮë§Ŀ":10683,"íķłìķĦë²Ħì§Ģ":10684,"ĠíķĻìłĲ":10685,"ĠìķĦìĿ´ìĹłìĹĲíĶĦ":10686,"Ġíķ©ìĦ±":10687,"Ġê°Ģìł¸ìĺ¬":10688,"ìŀĺëª»":10689,"ê´ľíŀĪ":10690,"Ġy":10691,"ĠíķĺíĬ¸":10692,"Ġìĭľíķľ":10693,"ĠìĪĺìłĢ":10694,"Ġì¶Ķìĥģ":10695,"ĠëĤ´ëł¤ê°Ķ":10696,"ĠíĿīëĤ´":10697,"ìŀ¬ìļ±":10698,"ì¦Ĳ":10699,"ë³ĳëĮĢ":10700,"ëĸł":10701,"Ġíķ´ìķĪ":10702,"Ġë¹Ħì¤Ģ":10703,"íĻĶìŀ¥":10704,"Ġíľ´ìłĦ":10705,"ĠìŀĦì¢ħìĦĿ":10706,"ĠíĻľì§Ŀ":10707,"íĤ´":10708,"Ġìĺ¤ëłĮì§Ģ":10709,"ĠìĽĲíĸĪ":10710,"Ġê°ķìĿ¸":10711,"ìłĪë¡ľ":10712,"ëħ¸ëŀĺ":10713,"Ġê·¸ë¦¼ìŀĲ":10714,"Ġëª¨ë¥¸ëĭ¤ëĬĶ":10715,"Ġëĳ¬ìķ¼":10716,"Ġë¶Ħìĭ¤":10717,"Ġê¹ĢìĬ¹":10718,"Ġë¬¼ìĸ´ë´Ĳ":10719,"Ġìĺ¹íĺ¸":10720,"ĠìĹĬê·¸":10721,"Ġë§Īíı¬":10722,"ĠíķĦìĬ¤":10723,"íĭĪ":10724,"ĠìĨĮëª¨":10725,"ĠìĹĦì§Ģ":10726,"ĠìĤ´ê·ł":10727,"Ġì£¼ë²Ķ":10728,"ĠìĤ¬ì¶ĺê¸°":10729,"Ġëĭ¤ì§Ģ":10730,"Ġìĭľë¦½":10731,"ĠìĹ¬ê²¨":10732,"Ġëĭ¹ìĿĢ":10733,"ĠíĥĢìŀħ":10734,"ĠíĹĪíĹĪ":10735,"Ġíĥģêµ¬":10736,"Ġíķ©ê²©ìŀĲ":10737,"Ġë¬¸ìłłëį°":10738,"Ġë¯¸ëł¨":10739,"Ġìŀ¬ìĭ¬":10740,"ê¹Ĭ":10741,"ê»į":10742,"Ġíŀĺëĵłëį°":10743,"ĠíĦ¸ìĸ´ëĨĵ":10744,"Ġëĭ¨ëĭ¨íŀĪ":10745,"ëį§":10746,"Ġê¸°ì¹¨":10747,"Ġì£¼ìĹŃ":10748,"Ġìĥģíĸ¥":10749,"ë§Īì¹¨":10750,"ĠëıĮìŀħ":10751,"ĠìľłëĭĪíı¼":10752,"Ġê¸°ë²ķ":10753,"ĠìķĦìĿ´íģĲ":10754,"Ġíķĺë°ĺê¸°":10755,"ĠìłķìŁģ":10756,"íĬĢ":10757,"Ġë¨¸ë¬¼ë":10758,"Ġìµľìĭł":10759,"Ġëħ¸ë²¨ìĥģ":10760,"ĠìĤ¬ìħ¨":10761,"ĠìĺĪìĦł":10762,"ĠìĦ¸ìĪĺ":10763,"Ġë°±ëĳĲìĤ°":10764,"Ġë¶Īì¶ľë§Ī":10765,"ê·¸ì¹ĺ":10766,"Ġìŀ¥ë²½":10767,"Ġê°Ģìł¸ê°Ķ":10768,"ìĤĲ":10769,"Ġì¶Ķì²¨":10770,"¶Ļ":10771,"ĠìĬ¤íĭ¸":10772,"ĠíĨµì§¸":10773,"Ġê°ķêµŃ":10774,"Ġëª¨ìĥī":10775,"Ġë¯¸ìķĦ":10776,"Ġì§ĢëĤĺê°Ħ":10777,"Ġë¹Ħëħ¸":10778,"ĠìķĦì¹´":10779,"Ġë°ľë³ĳ":10780,"Ġë°ķì°¬":10781,"Ġëł¤ëĭ¤ê°Ģ":10782,"ĠìŀĲëŀĢ":10783,"Ġê³¼ìĦ¸":10784,"Ġìŀ¬ì£¼":10785,"ĠëĮĢíĶ¼":10786,"Ġê±°ì§Ģ":10787,"ë¹´":10788,"ĠìĹĶëĶ©":10789,"ĠìłĦíĻĶê¸°":10790,"Ġë°Ģìłĳ":10791,"Ġê¹ĢìĦ±ìĪĺ":10792,"Ġë³´ì¡°ê¸Ī":10793,"ĠìĭĿìļ©":10794,"Ġì´Īì¡°":10795,"ĠëĬĺìĸ´ëĤł":10796,"ê¸ĢëĿ¼ìĬ¤":10797,"Ġë¹Īê³¤":10798,"Ġë¶ĦìĤ°":10799,"Ġë§ŀì·Ħ":10800,"Ġê·ľíĺĦ":10801,"ĠëĤĢ":10802,"Ġì£¼ìĭľ":10803,"ĠìļĶìĿ¼":10804,"Ġê²½ë¯¼":10805,"Ġì²ľì§Ģ":10806,"Ġì¶ľêµ¬":10807,"Ġíĺķë²ķ":10808,"Ġë³Ģíķ¨":10809,"Ġë³´íĺ¸ë²ķ":10810,"Ġëĭ¨ì²´ìŀ¥":10811,"Ġì£¼ìĸ´ì§Ħ":10812,"ìļ°ëĵľ":10813,"ĠìķĦìĿ´ìľł":10814,"Ġëŀĺíį¼":10815,"Ġëķħì½©":10816,"Ġê³µêµĲ":10817,"Ġê¹Ģíĺľê²½":10818,"°Ķ":10819,"ĠìĦ±ëĭ¹":10820,"ĠìķĦëĭĮëį°ìļĶ":10821,"ĠìĿ´ìĬ¤ëĿ¼":10822,"ĠíĴįìĦ±":10823,"ìĺ¤ëĤĺ":10824,"Ġìĸ´ìļ¸ë¦´":10825,"íĶĦë¡ľ":10826,"ĠíĥĪíĩ´":10827,"ëį°ê¸°":10828,"Ġë³´ìķ½":10829,"ĠìĿ¸íĶĦëĿ¼":10830,"Ġì¤ĳìĭľ":10831,"ĠíĥĢìĿ´ìĸ´":10832,"ĠìķĦëŀį":10833,"ëĦ¤ìĭľìķĦ":10834,"ĠìĹĺìĹĲìĿ´":10835,"Ġì«ĵìķĦê°Ģ":10836,"Ġë¯¸ìĿ¼":10837,"ĠíĽĦê¸°":10838,"ĠíķŃê³µìĤ¬":10839,"ĠìķĦë²Ħ":10840,"ĠìĽ°":10841,"Ġì¤ĳì§Ħ":10842,"Ġëªħê³¡":10843,"Ġê°ĦìĤ¬":10844,"ìħĭ":10845,"Ġì¸ł":10846,"ĠëĤľëĭ¤ê³ł":10847,"ĠìĻ¸êµŃìĸ´":10848,"Ġëĭ¹ë¡ł":10849,"ìĦ¸ìĬ¤":10850,"ìĹħìĽĲ":10851,"ĠìĨĲíĨ±":10852,"Ġì¥¬":10853,"Ġì§¬ë½ķ":10854,"on":10855,"ĠìľłìĦľ":10856,"Ġë²Ħê±°":10857,"Ġë¬»íĺĢ":10858,"Ġë»Ĳ":10859,"ĠíħĢ":10860,"ĠëĤ´ëł¤ìĻĶ":10861,"ĠíĦ°ì§Ī":10862,"Ġê°Ģëĭ´":10863,"Ġíķľìĭ¬":10864,"ĠìķĪì£¼":10865,"Ġìĭ¤ë¡Ģ":10866,"ĠìĦłíı¬":10867,"ĠíĶ¼ìĭ±":10868,"ĠìĭľíĤ¨ëĭ¤":10869,"ou":10870,"Ġê°Ģê³µ":10871,"ĠìĤ¬ì´Į":10872,"ìŀ¬ë¯¼":10873,"ĠëĦ¤ìļĶìĿ´":10874,"ëĺĺ":10875,"Ġê²¬ê³¼":10876,"Ġëĵ¬ë¿į":10877,"Ġëªħë¬¸":10878,"ëĿ¼ê¸°":10879,"Ġë¬´ìŀĳ":10880,"ĠíĺĦíĻ©":10881,"Ġëł¤ëĭ¤":10882,"ĠíĥģìĽĶ":10883,"Ġì¤Ħìĸ´ëĵł":10884,"ĠíĸĪìľ¼ë©´":10885,"Ġìĥģê³ł":10886,"ĠëĤ¯ìĦ¤":10887,"ĠìķĪìĦ±":10888,"ĠìĥĿë¦¬":10889,"Ġ21":10890,"ë¯¼ë":10891,"ìĥĿê¸´":10892,"Ġê¸°ëĳ¥":10893,"Ġìļ°ìĹī":10894,"ë¶Ģìŀ¥":10895,"ĠìķĮëł¸":10896,"Ġëł¤ëįĺ":10897,"Ġì¡°íıŃ":10898,"Ġìĭłì¡°":10899,"tv":10900,"£©":10901,"Ġë³´ìĦł":10902,"ìķĦë¨¹":10903,"Ġëħķ":10904,"ĠìĦľëĦĪ":10905,"êµŃìŀ¥":10906,"Ġê¸ĪìłĦ":10907,"Ġìľ¤ì¢ħ":10908,"Ġì§ĦëıĻ":10909,"Ġë¯¸íĿ¡":10910,"Ġíļ¨ëł¥":10911,"Ġë©ľë¡ľëĶĶ":10912,"ĠìĿ´ê°Ģ":10913,"Ġë¦¬ëª¨":10914,"Ġê·ĢìĪľ":10915,"ĠìłľìĤ¬":10916,"ĠìĨĲìĪĺ":10917,"Ġìĭľê¸Īì¹ĺ":10918,"ĠìĪĺëł´":10919,"ĠìĬ¤íĶ¼ëĵľ":10920,"Ġì°¨ê·¼ì°¨ê·¼":10921,"íĶĮë¦ŃìĬ¤":10922,"ê¸°ì¤Ģ":10923,"Ġìľłê³µ":10924,"ĠìľĦê²½":10925,"êµĲíĨµ":10926,"ĠìŀĦìĿĺ":10927,"íĥľë£Į":10928,"Ġëģ¼ìĽĮ":10929,"Ġìºłíį¼ìĬ¤":10930,"Ġë²¤ì²ĺ":10931,"ìĭľíļ¨":10932,"ĠìĥģíĻĺ":10933,"ĠìĦ±ëĬ¥":10934,"ë³µê¶ģ":10935,"ĠíĶĮëĿ¼":10936,"ëĮĵ":10937,"Ġu":10938,"ëģ¼ë¦¬":10939,"ĠëĿ¼ëĭĪê¹ĮìļĶ":10940,"ĠìĥĪê²¨":10941,"Ġì¹ĺê³¼":10942,"Ġì·¨ë¡Ŀ":10943,"ĠíħĲíĬ¸":10944,"Ġìłľë³´ìŀĲ":10945,"ĠìĿĺìłĦ":10946,"ê·¸ìª½":10947,"ë²ĮìĿ´":10948,"ĠíĹ¤ìĸ´ì¡Į":10949,"ĠìĭľíĤµëĭĪëĭ¤":10950,"ë³´ê¸°":10951,"ĠíĬ¹íĻľ":10952,"ĠìĿ´íĿ¬":10953,"Ġì§Ģíĺķ":10954,"Ġíķ¨ìłķ":10955,"ëĳĲë¦¬":10956,"ëĤĺìĺ¤":10957,"Ġê³µì¡´":10958,"ĠíĽħ":10959,"Ġê°ĳëĭĪê¹Į":10960,"ĠìĿĮìĭĿë¬¼":10961,"Ġì§Ħì§Ħ":10962,"ĠìĽĥê¸´":10963,"ĠìĺĪìĤ°ìķĪ":10964,"Ġë§Īì³¤":10965,"Ġë°Ķëŀĺ":10966,"Ġì§ĦìĪĺ":10967,"Ġì¶ľíĩ´ê·¼":10968,"ĠëŁŃ":10969,"Ġìĺ¤ë©Ķê°Ģ":10970,"Ġëĵ¤ìĹ¬ìĦľ":10971,"Ġë°ĺíĻĺ":10972,"ĠíĮĶìŀĲ":10973,"Ġëľ¸":10974,"Ġì§Ģê°ģ":10975,"ĠìĨĮìĺģ":10976,"Ġë°ĺë§Ĳ":10977,"ĠëģĬìĿ´":10978,"ĠíĤ¥":10979,"į½":10980,"Ġê³łëĤľ":10981,"Ġìĭ¬ì¸µ":10982,"Ġëĥħ":10983,"Ġë§Ŀëªħ":10984,"ĠìĤ´ìķĦëĤĺ":10985,"Ġì«Ħê¹ĥ":10986,"Ġíķľì¸µ":10987,"ĠìłĢì¶ķ":10988,"ĠêµŃê³¼":10989,"ìĨ¥":10990,"Ġì¡°ìŀ¥":10991,"ë¶Īë¦¬":10992,"ìĪŃìĿ´":10993,"ĠìłĢìłĪë¡ľ":10994,"Ġìŀ¥êµĲ":10995,"ĠìĿ´ë¤Ħì§Ģ":10996,"Ġìłķì²Ńëŀĺ":10997,"Ġìŀ¼":10998,"íĮ¥":10999,"Ġì²ľìŀ¥":11000,"ĠìĦĿíĥĦ":11001,"ĠìĿ´íķĻ":11002,"Ġë°ī":11003,"Ġëĭ´ê·¸":11004,"ĠíħĮë§Ī":11005,"Ġìĭ¸ìĽĮ":11006,"Ġìĸ´ë¦°ìķĦìĿ´":11007,"Ġë©ĺíĨł":11008,"Ġê³¼íĥľë£Į":11009,"ë¬´ê²Į":11010,"íķĺìĹ¬":11011,"Ġìŀ¥ë¶Ģ":11012,"Ġì´ĪìĦł":11013,"Ġì§ĢëĤĺì¹ľ":11014,"ĠìĽĮíĤ¹":11015,"Ġì«ĵê²¨ëĤĺ":11016,"Ġë¯¸ëĦ¤ëŀĦ":11017,"Ġê¸°ìĻķ":11018,"ĠìĿ¼ìĦł":11019,"ĠìļĶë§Į":11020,"ĠìļĶê¸Īìłľ":11021,"Ġìłķíĺľ":11022,"ĠìĿĺë£Įì§Ħ":11023,"ĠìĸĳìĤ°":11024,"Ġê¾¸ë¯¸":11025,"Ġìıłë¦¬":11026,"ĠíķľëĮĢìļĶ":11027,"ĠëķĮëł¸":11028,"ì£¼ë¥ĺ":11029,"Ġê¹¨ëģĹìĿ´":11030,"ĠìĸĮ":11031,"ĠìķĦíĮĮìļĶ":11032,"ĠìĿµíĺĢ":11033,"Ġì¶¤ì¶Ķ":11034,"ĠìķĪëĭ¤":11035,"Ġìĭ¤ìłķ":11036,"Ġê²°ê³¼ë":11037,"Ġê°Ħê²©":11038,"ĠëĥīìłĦ":11039,"Ġë³¸ëĭ¤ë©´ìĿĢ":11040,"ìłķì¹ĺ":11041,"Ġìĥģíĥ":11042,"Ġëĭ´íĻĶ":11043,"Ġìľ¤íļĮ":11044,"Ġëħ¹ì·¨":11045,"ê°Ģê²©":11046,"ìĦĿíĿ¬":11047,"Ġìĵ±":11048,"ĠìŀĲì§Ī":11049,"Ġìĺ¬ëĿ¼ìĦľ":11050,"Ġíķ´ìĤ°ë¬¼":11051,"ëĭ¤ìŀĦ":11052,"Ġíķľìĥģ":11053,"Ġëĵ¤ê¸°ë¦Ħ":11054,"ĠìĤ¬ìļ´ëĵľ":11055,"Ġê¹ĢìĨĮ":11056,"Ġì¹ľê·¼":11057,"Ġì£Ħì±ħê°Ĳ":11058,"ìĹ¼ë³ĳ":11059,"Ġë§Ĳë¦°":11060,"ë°ķìĿ´":11061,"Ġì²´ìĺ¨":11062,"ĠìĿ´ê¸´":11063,"Ġì¤ĳìĪľ":11064,"Ġëĭ¹ì§ģ":11065,"ĠìĬ¤íħĿ":11066,"Ġë©ĶìĿ´íģ¬":11067,"ĠíĿ¬íķľ":11068,"ĠíĮĮëŀĢìĥī":11069,"Ġìłķì¤Ģìĺģ":11070,"Ġì£¼ìŀ¬":11071,"Ġìļ°íĮĮ":11072,"ĠìĥĿë°©ìĨ¡":11073,"Ġì°¨ìĿ´ìłĲ":11074,"Ġì´Īì½ľë¦¿":11075,"ê¸°ìŀĲ":11076,"ê·¸ë¶Ħ":11077,"ĠìĥģìķĶ":11078,"Ġíķľëĭ¤êµ¬":11079,"ê±°ëŀĺ":11080,"ĠìĿ¼ë³¸ìĸ´":11081,"Ġë¹ĮëĿ¼":11082,"ĠíĮ¨ëŁ¬ëĭ¤ìŀĦ":11083,"Ġìŀ£ëĮĢ":11084,"Ġë¯¸ëĤĺë¦¬":11085,"ĠëĤľë°©":11086,"ĠíĻįëĮĢ":11087,"ĠëıĦë§Ī":11088,"Ġë°©ì²Ń":11089,"Ġíĸīìļ´":11090,"ĠìĬ¹ë¬´ìĽĲ":11091,"Ġë¶ĻìĹ¬ìĦľ":11092,"ĠíķĺëĤľ":11093,"Ġíķ´ì§ĳëĭĪëĭ¤":11094,"ĠíķĦë¦Ħ":11095,"íģ¬ë¦¼":11096,"Ġì§ĢìłĢ":11097,"ĠìĹ¬ì§Ħ":11098,"ĠìĹ°ìĿ¼":11099,"ĠëĤ¨ì¸¡":11100,"Ġì±Ķ":11101,"Ġìĸĳì§Ģ":11102,"ë°ĺê°ĳ":11103,"ĠìłĦíķ´ì¡Į":11104,"ĠëĮĢë©´":11105,"ĠìĨĲëª©":11106,"íĨłë¦¬":11107,"ëıĮìĿ´":11108,"ĠìĿ¸ìĦł":11109,"ĠìŀĲìĻ¸ìĦł":11110,"Ġì¹ĺë§Ī":11111,"ê¸īíŀĪ":11112,"Ġë¹Įë³´ëĵľ":11113,"ĠìĬ¬ì©į":11114,"ĠìŀĬíĺĢ":11115,"Ġë¹łìł¸ëĤĺ":11116,"Ġë°°ëĵľë¯¼íĦ´":11117,"ĠëĳĲë¥´":11118,"ĠíĽĦì§Ħ":11119,"ì²ŃìŀĲ":11120,"Ġì²´ì¡°":11121,"ĠìĽĮëĦĪ":11122,"ĠìĦ¸ìļ¸":11123,"Ġìķ¼ìĥĿ":11124,"Ġíģ¼":11125,"ĠìĨĲë°Ķëĭ¥":11126,"ĠìĺĨì§ĳ":11127,"Ġëħ¹ìĥī":11128,"ĠíĮĲê²°ë¬¸":11129,"Ġì¡°íĺĦìķĦ":11130,"ë¦¬íı¬":11131,"ë¬´ìŀ¥":11132,"Ġëľ°":11133,"Ġê°ľìĿ¸ê¸°":11134,"Ġê¼¬ë§Ī":11135,"Ġê¾¹":11136,"Ġëĭ¤ìłĢ":11137,"ĠìķĦìķ¼ì£ł":11138,"Ġaaa":11139,"ĠëĿ¼ëįĺì§Ģ":11140,"ĠìķĦë©Ķë¦¬ì¹´ëħ¸":11141,"ĠìĿ¼íĻĺ":11142,"Ġë¶Ħë°°":11143,"íĤ¤ìĬ¤":11144,"ĠëĶĶìĹł":11145,"ĠëĿ¼ë©´ìĦľìļĶ":11146,"ëįľëŀĢëĵľ":11147,"ĠìĤ¬ìĤ¬":11148,"ĠìĹ´ë§¤":11149,"Ġìķ½íĺ¼":11150,"ĠìĹĲíĶĦìĹł":11151,"ëĽ":11152,"ĠìĿ´ê´ĳ":11153,"ĠìĿ¸ì²Ļ":11154,"Ġë²ļ":11155,"Ġê²½ìĥī":11156,"ĠìĦ±íĿ¬":11157,"Ġìŀ¥ê±°ë¦¬":11158,"ĠíıŃìĸ¸":11159,"ë¸Įë¦¬":11160,"ĠìĤ¬ëĿ¼ìł¸":11161,"Ġì§Ģë¢°":11162,"Ġìĸ´ëľ":11163,"Ġê¸°ëħĲìĿ¼":11164,"ĠëĵľëĿ¼ê³łìļĶ":11165,"ìĬ¤íĭ°ë²Į":11166,"ĠìĻĪ":11167,"ë¥´ê¸°":11168,"Ġê¹ĢíĿ¥":11169,"Ġìĸ¸ë¡łìĿ¸":11170,"ìĻĦì¢ħ":11171,"ĠìĿ´ìĬ¤ëĿ¼ìĹĺ":11172,"Ġê²°ê³¼ë¬¼":11173,"Ġê°ĢìĤ°":11174,"ĠêµŃìķħ":11175,"íĲģëĭ¹":11176,"ĠíĶĦëŀľ":11177,"ê°ĪìĿ´":11178,"ĠíĥĪëª¨":11179,"Ġë°°ê³łíĶĦ":11180,"Ġìłķì¤ĳ":11181,"ëĤľëĭ¤":11182,"ì¤Ģëĭ¤":11183,"Ġë¦½ëĭĪ":11184,"ĠìĭłìĤ¬":11185,"ĠëıĻìĦł":11186,"Ġë°°ê³łíĮĮ":11187,"Ġíķĺíķĺíķĺ":11188,"Ġëĭ¤ë¤ĺ":11189,"ĠëıĦì²Ń":11190,"ĠìŀĲëĭĪ":11191,"Ġì§Ħëĭ¤ëĬĶ":11192,"ì¤¬":11193,"Ġì§ĪìĿĺ":11194,"Ġê»Ģ":11195,"ĠëŃīì³Ĳ":11196,"Ġëıĭë³´ìĿ´":11197,"ìĿ´ë¦Ħ":11198,"ìŀĲìĦ¸":11199,"Ġê·¸ëŁ¬ê²Į":11200,"ĠìĦ¸ëł¨":11201,"ëĭ¹ìĭľ":11202,"ĠìĹ°íķĺ":11203,"ĠíĽĦì¿ł":11204,"Ġëĸ³":11205,"Ġíĥľíĺ¸":11206,"Ġíķľë°©":11207,"Ġê°ķíķĦ":11208,"Ġíĳľì§Ģ":11209,"ĠíİĺìĬ¤íĭ°ë²Į":11210,"Ġë¬ĺíķľ":11211,"Ġíķĺë²Ħ":11212,"Ġê³łë¹Ħ":11213,"ëĭ¤ì§Ģ":11214,"ĠìłĦê²½":11215,"ĠëĮĳëĭĪëĭ¤":11216,"Ġëĭ¤ëįĺëį°":11217,"Ġë°ĺëĤ©":11218,"ĠëıĮìķĦê°Ħ":11219,"Ġê¶ģíĻĶ":11220,"ĠíĽĶì¹ľ":11221,"ë´ħëĭĪëĭ¤":11222,"íĻĺìŀĲ":11223,"ĠìĽ¨ëĶ©":11224,"ĠìĿ´ë£¬":11225,"ĠìłķìŀĦ":11226,"ĠìļĶìłĦ":11227,"ĠìĹ¬ìłķ":11228,"ë¯¼ìĦ±":11229,"Ġëħ¸íĥľìļ°":11230,"íĪŃ":11231,"Ġì°¸ê³łìĿ¸":11232,"Ġë²Ħëł¤ìķ¼":11233,"Ġê¶¤ëıĦ":11234,"ĠìŀĲë¶Ģìĭ¬":11235,"Ġì§ĢìĥģíĮĮ":11236,"Ġê¸°ê°ķ":11237,"ìŀ¥ë³´ê³ł":11238,"Ġì§ģìĦł":11239,"Ġì¡°íĿ¬íĮĶ":11240,"ĠìĿ¸ì§Ī":11241,"ĠìķĪê²¨":11242,"ë¶Ģíĥģ":11243,"ĠìĦ±ìĻĦì¢ħ":11244,"Ġë³¸ëŀĺ":11245,"ĠíħĮìĿ´íĶĦ":11246,"Ġë§ĪìĬ¤íĦ°":11247,"ë¶Ģë¥´":11248,"ĠìĮĵìĿ¸":11249,"Ġìĭľìķ¼":11250,"ĠíĿĶíķľ":11251,"ì»¤íĶ¼":11252,"ì§ĢëĮĢ":11253,"Ġëĵľëł¸ìĹĪ":11254,"ĠìĿ¸ê³¼":11255,"ĠíĶĦë¡ľíķĦ":11256,"ìłľìĽĲ":11257,"Ġë¶Īë¡ľ":11258,"Ġë³Ģíĺķ":11259,"ĠìĹħìĨĮ":11260,"Ġëħ¸ëıĻë¶Ģ":11261,"Ġë¶Ģê°Ģ":11262,"ĠêµĲë³µ":11263,"Ġìĭľìĺ¤":11264,"Ġë¬´ê³ł":11265,"Ġë³Ģë¹Ħ":11266,"Ġëª©ê±¸ìĿ´":11267,"ĠíĹĮëį°":11268,"ĠìĿ´íķľ":11269,"ĠëĮĢì£¼":11270,"ĠìŀĲëŀĲ":11271,"ĠìķĦìĿ´ì½ĺ":11272,"Ġì·¨íķł":11273,"ĠíĴĪì§Ī":11274,"Ġëª¨ë¥¸ëĭ¤ê³ł":11275,"ĠíĮ½ì°½":11276,"ĠëĿ¼ìļĶ":11277,"Ġë°°ìĽĮìķ¼":11278,"Ġë¸Ķë¡ľê·¸":11279,"ĠìıŁìķĦìł¸":11280,"ĠìĬĪíį¼ë§¨":11281,"ĠìĿ´ì¡°":11282,"ĠëĮĢìĿ¸":11283,"ĠëĮĢìĪĺ":11284,"Ġëª»íķ©ëĭĪëĭ¤":11285,"ĠëĭŃê³łê¸°":11286,"ĠìĿĺìĻ¸ë¡ľ":11287,"Ġë§ĪëĿ¼íĨ¤":11288,"ìĿ´ë©´":11289,"Ġìĥģë°ĺê¸°":11290,"Ġê±´ìł¸":11291,"Ġì¤ĦìĹ¬ìĦľ":11292,"ĠìĪľë°©":11293,"ĠìĬ¬ìĬ¬":11294,"ĠìĿ´ëĿ¼ëįĺì§Ģ":11295,"Ġê°Ģë°ľ":11296,"ì¢ħë²Ķ":11297,"ĠìŀĺëĿ¼ìĦľ":11298,"ìĿ´ëŁ´":11299,"Ġêµ¬ë¯¸":11300,"Ġì·":11301,"ĠìĹ°ë§¹":11302,"ĠíķĻì°½":11303,"ëĿ¼ë¶Ļ":11304,"ĠëĮĢíĳľëĭ¨":11305,"ĠëºĦ":11306,"Ġì¡°ê²½":11307,"ĠíĽĦìĹ°":11308,"ìĬµê¸°":11309,"ĠíĹ¤ìĸ´ì§Ħ":11310,"ìĿ´ë¶Ħ":11311,"Ġìĺģë³Ģ":11312,"Ġì¹ľìĦľ":11313,"Ġíı¬ìĬ¤":11314,"Ġë¬¸ìĸ´":11315,"ë¯¸ëĭĪ":11316,"ĠëıĮë´Ħ":11317,"Ġì§ĢëĤĺê°Ķ":11318,"ĠëªħíĻķíŀĪ":11319,"Ġê³łëıħ":11320,"ê¸Īë°©":11321,"ĠëĬĳ":11322,"Ġê´ĳëªħ":11323,"Ġì¡°ë¡Ģ":11324,"ìĿĢíĿ¬":11325,"Ġë°±ì§Ģ":11326,"Ġë°ķì£¼":11327,"ĠêµŃíļĮë²ķ":11328,"Ġê¹Ģì¹ĺì°Įê°ľ":11329,"ĠìĪ¨ê²¨ì§Ħ":11330,"ĠìĿ´ê°ķ":11331,"Ġë¶Ħìŀ¥":11332,"ëıĹ":11333,"ĠêµĲìĽĲ":11334,"Ġì¢ħìĹħìĽĲ":11335,"ĠìĿµëªħ":11336,"Ġëĸ¨ìĸ´ëľ¨":11337,"Ġìŀ¬ê±´ì¶ķ":11338,"ĠëĮĢëĨĵê³ł":11339,"Ġìĭ¬ë¶Ģë¦Ħ":11340,"ĠìķĦë¹Ħ":11341,"ë¦¬íĬ¸":11342,"Ġëªħíķ¨":11343,"ĠíĿ¬ìĥĿìŀĲ":11344,"ĠëıĻìłĦ":11345,"Ġìłĵê°ĢëĿ½":11346,"Ġê²½íĿ¬ëĮĢ":11347,"Ġë§ĮëĵŃëĭĪëĭ¤":11348,"ĠìĬ¤íĮĮìĿ´":11349,"Ġë°±ìĿ¸":11350,"Ġíĺĳì°¬":11351,"ĠíħĮíģ¬":11352,"Ġë£Į":11353,"Ġê¼½íŀĪ":11354,"Ġìłľê³±":11355,"ĠëĤ´ë¹Ħ":11356,"Ġë°©íĻĶ":11357,"ĠíĺĦìķĦ":11358,"Ġíĩ´ìŀĦ":11359,"ĠíĥĲì§Ģ":11360,"Ġë»ĶíŀĪ":11361,"Ġê³¨ëĿ¼ìĦľ":11362,"Ġê³µíıī":11363,"Ġì§ĳë¬´ìĭ¤":11364,"ĠëĪķ":11365,"Ġê°Ģì£¼":11366,"Ġìĥģê¶ģ":11367,"ì¦ī":11368,"Ġì²Ńíķ´":11369,"Ġíģ¬ë£¨":11370,"Ġì²¨ëĭ¨":11371,"201":11372,"ĠíıĦ":11373,"ìķĦìķĦ":11374,"ĠìĿĮëŀĢ":11375,"ĠìĽĲë¡ľ":11376,"ëĤ´ë¦¬":11377,"Ġë§īìĹ°":11378,"Ġìĸ´ìļ°ëŁ¬":11379,"Ġì¿¼":11380,"ĠìĿ¸ëıĦëĦ¤ìĭľìķĦ":11381,"ĠìĹ°ë°©":11382,"ĠíĬ¹íŀĪëĤĺ":11383,"Ġìľ¼ëł¤ëĬĶ":11384,"ëĸ³":11385,"Ġë³´ê°ķ":11386,"ĠìłĢìĨĮëĵĿ":11387,"Ġìĭłëĭ¹":11388,"Ġíı´ë¦¬":11389,"Ġíĥľíıīìĸĳ":11390,"bc":11391,"ĠìĨĮëŀĢ":11392,"Ġë°°ì¢ħ":11393,"Ġëıħê°Ĳ":11394,"ĠëĤĻë§Ī":11395,"Ġì²©ë³´":11396,"Ġë¶Ģì¹ľ":11397,"Ġëª¨ê¸Ī":11398,"ĠíĥľíĿ¬":11399,"Ġê°ģì§Ģ":11400,"Ġíļ¨ëĬ¥":11401,"ĠìĭłëħĦìĤ¬":11402,"Ġì§Ģë¶ķ":11403,"ĠëĦ¤ëįľëŀĢëĵľ":11404,"Ġë°ĶëŀĢëĭ¤":11405,"Ġìķłìĵ°":11406,"ìħĢëŁ¬":11407,"ĠìŀĦì°¨ìĿ¸":11408,"ĠíĲģëĭ¹íĲģëĭ¹":11409,"ĠìķĦë¯¸":11410,"Ġìĺģìĭ¤":11411,"Ġë°ĺìłĲ":11412,"ĠìĿĳíķĺ":11413,"ĠìĨ¡ê¸Ī":11414,"ĠëĿ¼ëĭĪìļĶ":11415,"ĠìĹĩê°Īë¦¬":11416,"Ġê°Ģíĺ¹":11417,"Ġëł¨":11418,"ĠìłĪìķ½":11419,"Ġì°©ìĪĺ":11420,"ìĤ¼ì´Į":11421,"ĠìĨĮìĦ¤ê°Ģ":11422,"ë¦¬ìļ°ëĵľ":11423,"Ġë³´ìľĦ":11424,"ĠíĮĮíĶĦë¦¬ì¹´":11425,"ĠíĻĺê¸°":11426,"Ġê°Ģìł¸ê°Ī":11427,"Ġìĸ´ë§¤":11428,"Ġëĭ¤ë£°":11429,"ĠìĺĪìĪľ":11430,"ĠìłĢê²©":11431,"ìķĦì°Į":11432,"Ġëªħëª©":11433,"Ġë²Ħë¦½ëĭĪëĭ¤":11434,"Ġë°©ìĤ¬ëĬ¥":11435,"Ġê°Ģì¶ľ":11436,"Ġë¯¸ì§Ģ":11437,"ĠëĤ¨ìĤ°":11438,"Ġë§īê°ķ":11439,"ĠêµŃìĤ¬":11440,"Ġëĭ¬ëł¥":11441,"ëľ°":11442,"Ġë°ĶëĿ¼ë´":11443,"ĠíĨµíĸī":11444,"Ġê°Īê²Į":11445,"Ġë¿Ķ":11446,"Ġì½Ķë¯¹":11447,"ĠìĿ´ì²ľëħĦ":11448,"ĠìĽĲì²ľ":11449,"ĠëĦĺìĸ´ìĺ¤":11450,"Ġì²¨ë¶Ģ":11451,"Ġìİ":11452,"Ġë¥ľ":11453,"ĠìĿ¼ìĸ´ìĦľ":11454,"Ġê³Ħê³¡":11455,"Ġì¶ĶíĽĦ":11456,"Ġë¯¼ê°ĦìĿ¸":11457,"Ġê³°íĮ¡ìĿ´":11458,"ĠìĹ°ì°¨":11459,"Ġì°¸ë§Ĳ":11460,"Ġëħ¹ì°¨":11461,"Ġ80":11462,"Ġêµ¬ì²Ńìŀ¥":11463,"ĠìŀĲêµ¬ìļĶ":11464,"ìŀĲìĭł":11465,"ĠíĽĦìľł":11466,"ĠëĿ¼ëıĪ":11467,"Ġëºĳ":11468,"ĠìĨĮìľłìŀĲ":11469,"Ġê´ĢìłĪìĹ¼":11470,"Ġì¢ħê²°":11471,"ĠìĪĻì²Ń":11472,"íķĦìļĶ":11473,"Ġ+":11474,"ĠìķĪì¤ĳ":11475,"Ġë¯¸êµŃìĿ¸":11476,"Ġë²Įë¦¬":11477,"Ġê³¨ë°ĺ":11478,"Ġëĭ¤ëĭĪìļĶ":11479,"Ġìķ¼ìĭ¬":11480,"Ġìĺ¨ëĭ¤ëĬĶ":11481,"Ġê°ĳìŀĳìĬ¤ëŁ½":11482,"Ġìĸ´ìļĶìĿ´":11483,"Ġê²½ìľł":11484,"âĢĻ":11485,"ë°ĢíŀĪ":11486,"Ġë¬µë¬µ":11487,"Ġëĭ¤ëĵ¬":11488,"ìħĪ":11489,"ĠíĽĦìĽĲê¸Ī":11490,"ëĭ¤ë¥´":11491,"ĠëĿ¼ê³¤":11492,"ëıĦëĮĢì²´":11493,"ĠêµŃë°¥":11494,"Ġì°¸ì¹ĺ":11495,"Ġë¬¼ëŁ¬ê°Ģ":11496,"Ġì¡°ìļ©íķĦ":11497,"ĠëĵľëĿ¼ìĿ´ë¸Į":11498,"ĠìŀħëĭĪëĭ¤ë§Į":11499,"Ġê²¬ëİĮ":11500,"Ġëĵ¤ìľ¼ìħ¨":11501,"Ġíķ´ëĤ¼":11502,"Ġìļ°ëŁ¬":11503,"Ġì£¼ëł¥":11504,"íĮ©":11505,"ĠíıŃíĴį":11506,"ĠìķĪíĥĢê¹ĮìĽĢ":11507,"íķ¸":11508,"ìłķìĭĿ":11509,"Ġê¸¸ëŁ¬":11510,"íģ´ëŁ½":11511,"Ġì§Ģì¼°":11512,"ĠìĿ¸ìĤ¼":11513,"Ġì¹ĺìĽĮ":11514,"ìĻ¸ê³¼":11515,"Ġì¸µê°Ħ":11516,"Ġì¹«":11517,"Ġì¡°ë¬¸":11518,"ĠìĥĪì½¤":11519,"ĠíķĦíĦ°":11520,"ìĦ¤ì£¼":11521,"Ġ&":11522,"Ġê³µë¬´":11523,"Ġë°ĶìĤŃ":11524,"Ġê°ľë¯¸":11525,"ĠëıĻê²°":11526,"ĠëĤľìĿ´ëıĦ":11527,"Ġì±ħìŀĦê°Ĳ":11528,"ĠìĽĲìľł":11529,"Ġìĭ¬íĺĪ":11530,"ëŀĺê¸°":11531,"ê³¼ìĹ°":11532,"Ġë¶ĢëģĦëŁ¬ìļ´":11533,"ĠíķľíĻĶ":11534,"Ġê°ķìłĲê¸°":11535,"ĠìĦ¸ìĨĲ":11536,"ëĵ¤ìĹ¬":11537,"Ġìĸ´ë¨¸ë¨¸":11538,"ëłĺ":11539,"Ġì£¼ìľł":11540,"ĠëĳĲëĵľ":11541,"ĠíĹ¹":11542,"ĠìĪłì§ĳ":11543,"Ġëĭ¤ì§Ĳ":11544,"ĠìĭľìĦ¸":11545,"ĠìĨĮíĸī":11546,"Ġìĭłë¹Ļ":11547,"ĠìĦłê¸ĢëĿ¼ìĬ¤":11548,"íĭ°ëĤĺ":11549,"Ġìºĺ":11550,"Ġì°¬ìĬ¤":11551,"Ġëª¨ëĵľ":11552,"Ġë¬´ìĭĿ":11553,"Ġì¶Ķê²©":11554,"ì°½íĺ¸":11555,"ĠìĺĪìļ°":11556,"ĠìĺĪë³´":11557,"Ġë¹Ħì£¼ë¥ĺ":11558,"Ġë°ķìĿ´":11559,"Ġìĭ¬ë¬¸":11560,"Ġíı¬ëŁ¼":11561,"Ġë³´ìĿ´ì½§":11562,"Ġê´ĳíķ´":11563,"ĠíĭĢë¦¼ìĹĨìĿ´":11564,"ģëĭĪê¹Į":11565,"Ġê³µìĺģ":11566,"Ġê¸Īê³ł":11567,"Ġìĸĳìľ¡ë¹Ħ":11568,"ĠìĤ¬ì£¼":11569,"ĠëĦ¤ëª¨":11570,"Ġìĭ¸ìļ´":11571,"ĠíĦ°ì¹ĺ":11572,"ĠëĦĺìĸ´ê°Ħ":11573,"Ġì°Įë¥´":11574,"Ġë°ĺëŀĢ":11575,"íĺĦìĦĿ":11576,"ĠíĶĦë¡ľìĦ¸ìĬ¤":11577,"ì¶ķêµ¬":11578,"Ġë£¨íĬ¸":11579,"Ġë°ĳê°Ħ":11580,"Ġì°¨ë§Ī":11581,"ëª¨ìĤ¬":11582,"ĠíĨ¨":11583,"ëĽ°":11584,"ëĮĢìĬ¹":11585,"Ġë¯¸ìĪĻ":11586,"Ġì´Īì½Ķ":11587,"Ġíķ´ì¹ĺ":11588,"ĠìĦľì´Ī":11589,"Ġìľłë¶Ģ":11590,"ë£»":11591,"Ġìŀ¥ëŀĺ":11592,"ĠëĨĴìĺĢ":11593,"Ġê¸°ëħĲíĴĪ":11594,"Ġëĭ¤ëħĢìĺ¬":11595,"ëłĲ":11596,"ĠìĤ¬ë¬¼":11597,"Ġìļ°ë¦´":11598,"Ġêµ¬íĸĪ":11599,"ĠìķĪë³´ë¦¬":11600,"íķ´íķĺ":11601,"ĠëıĻíı¬":11602,"Ġë¶Īê±°ì§Ģ":11603,"Ġê°ģêµŃ":11604,"Ġê¹ĢíķľìĦĿ":11605,"Ġëĭ¤ì±Ħ":11606,"ĠíıŃê²©":11607,"Ġì°½ìĽĲ":11608,"Ġì¡°ìĺģëĤ¨":11609,"Ġê¸°ëĤ´":11610,"ìķĦìłĢìĶ¨":11611,"ĠëĿ¼ëĳĲ":11612,"ĠëĴ¤ì§Ģ":11613,"ĠìĤ¬ìĿ´ëĵľ":11614,"ĠìĥĿê²¨ëĤĺ":11615,"Ġì¤ĳê°ľ":11616,"Ġíħĥ":11617,"Ġì§Ģì¹ĺ":11618,"Ġìłķê°ľ":11619,"ĠìķĪì¢ħë²Ķ":11620,"Ġë¯¸ì²ĺ":11621,"Ġëª¸ë¬´ê²Į":11622,"ĠìĦ±íĿ¬ë¡±":11623,"Ġíīģ":11624,"ĠìĿ¼ìĤ°":11625,"Ġìĸ´ë²Ħ":11626,"Ġë¶ĢìĪĺ":11627,"ĠìĨĮìĿ¸":11628,"Ġë°ľìĤ°":11629,"Ġëĭ´ë°±":11630,"ĠíĨłë¡ľ":11631,"ìĿ¸íĦ°":11632,"ĠëĬĲë¦¬":11633,"ĠìĻ¸ìĥģ":11634,"Ġê¸ĪìĹ°":11635,"Ġë³¶ìĿĮë°¥":11636,"ĠìĿ¸ì¡°":11637,"Ġë§ĪìĪł":11638,"Ġëĵ±ë¡Ŀì¦Ŀ":11639,"Ġêµ¬êµ¬":11640,"Ġì´Īìĥģ":11641,"ĠìĤ°ë¶Ī":11642,"Ġìĸ´ëĬĲìĥĪ":11643,"ê¸°ë³¸":11644,"Ġìłķíĺķ":11645,"Ġë¶Ģíķ©":11646,"Ġëĵľë¬¼":11647,"Ġì¹¨íĪ¬":11648,"Ġíģ´ë¦°íĦ´":11649,"ìĬ¤ëłĪ":11650,"Ġì²ľìĤ¬":11651,"ĠìķĪëħķíŀĪ":11652,"ë¦¬ìķĪ":11653,"ĠíıŃíĮĮ":11654,"Ġìĸ¼íķı":11655,"Ġãħ":11656,"ĠìĿ´ìĺ¤":11657,"Ġíĸīë°©":11658,"ĠìĦ¤ëł¹":11659,"Ġìķħë§Ī":11660,"**":11661,"Ġê±°ê¸´":11662,"ĠìĤ¬ë§ī":11663,"ĠìĺģìĪĻ":11664,"Ġë°ľëĿ¼ëĵľ":11665,"Ġìŀ¬íĺĦ":11666,"ìĺĪìķ½":11667,"ĠíĻįìĤ¼":11668,"ĠìĬ¤ì¼Ģì¹ĺ":11669,"Ġìĸ´ëĸłìĭłê°ĢìļĶ":11670,"ĠëıĦìļĶ":11671,"ìĭľíĺ¸":11672,"ëıĻìĽĲ":11673,"ĠìĽĲìĤ°":11674,"Ġê°ķìĦ±":11675,"Ġë²ķëĮĢ":11676,"ĠëĨĵìĿ¸":11677,"Ġë³ĳìŀĲ":11678,"Ġêº¼ìł¸":11679,"Ġë²¤ì¹ĺ":11680,"ĠìľłëĤľíŀĪ":11681,"Ġìłķë°ĺëĮĢ":11682,"ĠíĸĪìĿĦê¹Į":11683,"ĠìłĦíĸ¥":11684,"Ġì°¼":11685,"Ġêµ¬ìĪĺ":11686,"Ġì¡°ë¡±":11687,"Ġëħ¸ëŀ":11688,"ĠìķĦë¦Ħëĭ¤ìĽĢ":11689,"ê¸°ìĸµ":11690,"Ġìłģìĭľ":11691,"ĠìĦłì¡°":11692,"Ġì§Ħíķľ":11693,"Ġë¹½":11694,"íĭĭ":11695,"ĠìĹ¬ëĵł":11696,"Ġê³µìķĪ":11697,"Ġì»¨ìĦ¤":11698,"ë¥¼ë¦°":11699,"ve":11700,"Ġëĵ¤ìľ¼ìĭľê³ł":11701,"ĠìłĦëıĦ":11702,"ìĸ´ëĨ":11703,"ĠíļįëĵĿ":11704,"ĠëĤĺë§Ī":11705,"Ġìĺ¤ëĦĪ":11706,"ĠìłĦíķľ":11707,"Ġìļ°íĺ¸":11708,"ìĦłê±°":11709,"ĠìķĶíĿĳ":11710,"Ġê³µìĹ°ìŀ¥":11711,"ë¿Ĳ":11712,"Ġìĸ´ê¸ĭëĤĺ":11713,"Ġë¯¸ìĦ±ëħĦìŀĲ":11714,"ĠìĿ¼ìĥĿ":11715,"ĠìĽĲìĦ¸íĽĪ":11716,"Ġìŀ¬íķĻ":11717,"Ġìĥģìĥģëł¥":11718,"Ġë¸ĶëŀĻë°ķìĬ¤":11719,"ĠìķĦìĬ¤":11720,"ĠìłĢëĦĲ":11721,"Ġì°¬ë°ĺ":11722,"ĠëµĢ":11723,"¡Ģ":11724,"ĠëıĦëª¨":11725,"Ġì¡°ê°ľ":11726,"Ġê°ķê²½íĮĮ":11727,"Ġë±ħíģ¬":11728,"Ġë»ĺ":11729,"Ġê³µë°±":11730,"Ġì¸Ħ":11731,"ĠìłĦíĪ¬ê¸°":11732,"Ġê³µìĨĮìĭľíļ¨":11733,"Ġìĸ´ë¬µ":11734,"ĠìĤ¬ë²Ķ":11735,"Ġíķ´ëĵľë¦´ê¹ĮìļĶ":11736,"Ġìłķíĥľ":11737,"ëĦ¤ìĸ´":11738,"Ġì±ħìŀĦì§Ī":11739,"Ġë§Īì°¬ê°Ģ":11740,"ĠíĮĲíĥĢì§Ģ":11741,"Ġíķ´ìł¸ìĦľ":11742,"ìŀĲëıĻ":11743,"Ġìĭłíķĺ":11744,"Ġë´īì§Ģ":11745,"ĠìķĮìķĦì£¼":11746,"ìį¹":11747,"ĠíĽĦìľłì¦Ŀ":11748,"Ġë³´ìĿ¼ëŁ¬":11749,"Ġë°Ķì¹ĺ":11750,"Ġì¤ĳêµŃìĿ¸":11751,"Ġìĭłì²ŃìĦľ":11752,"Ġìĸ´ëĸ¨ì§Ģ":11753,"ĠìĿ¸ê±´":11754,"Ġê°Ħì§ģ":11755,"Ġë³Ħìŀ¥":11756,"ĠíĺģìĭłìķĪ":11757,"Ġëª½ê³¨":11758,"Ġëħ¸ëł¤ë³´":11759,"ëĤĮ":11760,"Ġìłľëªħ":11761,"ìĬµëĭĪëĭ¤":11762,"ĠíĽĮì©į":11763,"Ġë©ĶìĿ´íģ¬ìĹħ":11764,"Ġìĳ¤":11765,"ĠëıĦíĿ¬":11766,"Ġê¸°ëł¥":11767,"ë¯¼ìłķ":11768,"ĠíĥĢê³ł":11769,"ĠëĮĢë¦¬ìĿ¸":11770,"ĠìĭľìķĦë²Ħì§Ģ":11771,"ĠíĮĮìĬ¤":11772,"Ġìļ©ìĹŃ":11773,"Ġëĸ³ëĸ³":11774,"Ġëĭ¨íĴį":11775,"ĠëĪĦì§Ħ":11776,"ĠìħĶìļĶ":11777,"Ġìĺ¤ì¼ĢìĬ¤íĬ¸ëĿ¼":11778,"Ĭĺ":11779,"ĠíĿ¬ê²½":11780,"íĶĮë¦¬ì¼ĢìĿ´ìħĺ":11781,"Ġì²Ļì¶Ķ":11782,"Ġìĸ´ì©Ĳì§Ģ":11783,"Ġ\"":11784,"ëĿ¼ëĿ¼":11785,"ĠìĿ¼ë£¨":11786,"ĠíĶĦëĿ¼":11787,"ĠìĨįìĿ¸":11788,"Ġì»¤ìļĶ":11789,"Ġê¿Ķ":11790,"ìķŀìĦľ":11791,"Ġë¹Ħì¶Ķ":11792,"ĠìĦ¸ì§Ħ":11793,"ĠíĽĦìĨĲ":11794,"ĠíĻ©ëıĦ":11795,"Ġëĸ¨ìĸ´ì§Ħëĭ¤":11796,"ì¤ĺìķ¼":11797,"Ġë³´ëĵľ":11798,"Ġê¸°ë¯¸":11799,"ĠìĦ¸ìĿ¼":11800,"ĠíķĻìĤ´":11801,"Ġë§īëĮĢ":11802,"ĠìĥĿë¬¼íķĻ":11803,"ê²¨ìļ¸":11804,"Ġíļ¨ëıĦ":11805,"Ġíĩ´ìĤ¬":11806,"ê¸°ëĮĢ":11807,"Ġìłģë¦½":11808,"Ġê³µë¶Ħ":11809,"Ġê°ľìĹ°":11810,"ĠëĦĺë²Ħ":11811,"Ġëĭ¥íĦ°":11812,"ĠìĲĪ":11813,"ĠìłĦê³¼":11814,"Ġìŀ¬ë°°":11815,"Ġì¶ľê³ł":11816,"Ġë²Īì©į":11817,"Ġë¯¸ëģĦëŁ¬":11818,"Ġìľ¡ì²´":11819,"ĠíĥĢê²°":11820,"ĠìłĦìĭľíļĮ":11821,"Ġëĸ¨ìĸ´ëľ¨ë¦¬":11822,"Ġíķľê²°":11823,"ĠìĺĪëĭ¨":11824,"ë¯¼ìĦĿ":11825,"ĠìŀĦìĥģ":11826,"ìķĦìĿ´ê³ł":11827,"Ġê±¸ëł¤ìļĶ":11828,"Ġíķĺì²´":11829,"Ġê·¸ëĬĺ":11830,"ĠìĿĢíĺľ":11831,"Ġë¹¤":11832,"ê½ģ":11833,"Ġì£¼ê¶Į":11834,"Ġìĺģì£¼":11835,"ĠìĪľì²ľ":11836,"ĠìŀĦì§Ħ":11837,"Ġëĭ¹ìĦłìŀĲ":11838,"Ġì¡±ë°ľ":11839,"Ġíľ´ê²ĮìĨĮ":11840,"Ġê¹ĢíĿ¥êµŃ":11841,"Ġì§ĢíĤ¨":11842,"ĠìĻ¸ìĭĿ":11843,"Ġì§Ħìłķíķľ":11844,"ì§Ģë°©":11845,"Ġíķ´ìŀ¥":11846,"Ġìĭľíĭ°":11847,"ìĭľìĽĲ":11848,"ĠìķĪê±´":11849,"ĠëıĻìłķ":11850,"Ġ23":11851,"Ġê´Ģê´ĳì§Ģ":11852,"Ġëħ¸ëŀĢìĥī":11853,"ĠìĻ¸ê³ĦìĿ¸":11854,"ìĺĨ":11855,"Ġì¤ĳìĤ°":11856,"ĠìľłìĦ±":11857,"Ġìŀ¥ë¬¸":11858,"ëĿ¼ë²Ħ":11859,"Ġê²Ģìŀ¥":11860,"ë¦¬ì¦ĺ":11861,"íħĮìĬ¤":11862,"Ġìļ©ê°Ĳ":11863,"Ġëĵľë¦°ëĭ¤":11864,"ìĹ£":11865,"Ġê°Ħëĭ¤ë©´":11866,"ìĽĮëĵľ":11867,"ĠìĻķìĭ¤":11868,"ê·łê´Ģ":11869,"ĠíĹĿê°Ģë¦¬":11870,"Ġê°Ģë§¹ìłĲ":11871,"Ġë¦¬ìĸ¼ë":11872,"Ġë¹Įë¯¸":11873,"ëĪĦëĤĺ":11874,"ĠëģĮëł¤ê°Ģ":11875,"ĠìĿ´ë£°":11876,"ëĭĽ":11877,"ĠìķĦëħĢ":11878,"ìĸ´ë¡ľ":11879,"Ġê±´ìĪĺ":11880,"ë¦¬íĭ°":11881,"Ġê³µìĭľ":11882,"ĠêµŃê¸°":11883,"ĠìĨĮë¦Ħ":11884,"ĠìĿ´ê±´íĿ¬":11885,"Ġë§ĿíĸĪ":11886,"Ġìĭ±ìĭ±":11887,"ĠëŃīì¹ĺ":11888,"ĠíĬ¹íĹĪ":11889,"Ġë²ķì¡°ìĿ¸":11890,"ĠëĮĢë§Ī":11891,"ĠìĿ¼íĿĶ":11892,"Ġëĵľë¬¸":11893,"ëĦĵ":11894,"Ġëĭ¨ëĭ¤":11895,"Ġì¤Ħëł¤ê³ł":11896,"ĠìĥĪìĤ¼":11897,"ì°¨ìĿ´ì¦Ī":11898,"ĠìķĦìĿ¸ìĬĪíĥĢìĿ¸":11899,"Ġê±´ìĿĺ":11900,"Ġë¯¸ìĽĮíķĺ":11901,"Ġì¶ľê°Ħ":11902,"Ġê°Īë¦¬":11903,"Ġë³µìĪŃìķĦ":11904,"Ġìºłíķĳ":11905,"ĠëĮĢìĿĺ":11906,"Ġíİ¸íĸ¥":11907,"Ġëģ¼ìĸ´ëĵ¤":11908,"Ġìĭľíĸīëł¹":11909,"Ġë¶ĢìľĦìĽĲìŀ¥":11910,"ĠëıĮìĿ´ì¼ľ":11911,"ê·¸ëĿ¼ë":11912,"Ġìķłíĭĭ":11913,"ìĪĺë¦¬":11914,"Ġíķľëĭ¤ëĭĪê¹Į":11915,"Ġì½ķ":11916,"ĠëĬĲëĥĲê³ł":11917,"Ġë§Įëĵłëĭ¤":11918,"Ġìĺģìĸĳìłľ":11919,"Ġë²ļê½ĥ":11920,"įĶ":11921,"ĠìĹ°ê¸°ëł¥":11922,"ìĬĲë¦°":11923,"Ġê¸°ìĬµ":11924,"ĠìĦłë³Ħ":11925,"ĠìĹŃìĦ¤":11926,"ĠëĮĪ":11927,"ĠìĹ°ê¸°ìŀĲ":11928,"ìľ¤ìłķ":11929,"Ġëł¤ëĤĺ":11930,"Ġë³ĳìĭ¤":11931,"ĠìĦŀìĿ¸":11932,"ĠêµŃìĦ¸ì²Ń":11933,"ê¸°ìķ¼":11934,"ĠëĵľëĭĪ":11935,"Ġë¬´ëĭ¨":11936,"ĠìĭĿìļķ":11937,"ĠìĿ´ëŀĺìķ¼":11938,"Ġíķ´ë¬¼":11939,"ĠìłĦë¶Ħ":11940,"ĠìĤ¬ê³¼ë":11941,"ĠíļĮê³ł":11942,"Ġìĵ°ëŁ¬ìł¸":11943,"Ġìĸ´ëĶĺì§Ģ":11944,"Ġìľ¼ëĿ¼ëĬĶ":11945,"Ġê·¸ëĭ¤ì§Ģ":11946,"ĠëĤ©ë¶Ģ":11947,"ĠìĹĳìĨĮ":11948,"ĠëĵľìħĶìķ¼":11949,"Ġê³łë£¨":11950,"ĠìĥĿìķł":11951,"ĠëıĻêµ´":11952,"ĠíĻĶëĤ´":11953,"ë²Ħë¦¬":11954,"Ġìī¼":11955,"ĠíķĺìĪĺ":11956,"Ġê³łë§Į":11957,"Ġê³łëŀĺ":11958,"Ġìĭľëŀĺê¸°":11959,"Ġìĸ´ë¯¸":11960,"¯¸íĦ°":11961,"Ġë°ľê±¸ìĿĮ":11962,"Ġì°¹ìĮĢ":11963,"Ġê°ĢìħĶìķ¼":11964,"Ġê¸°ìģľ":11965,"ëĳĲë¶Ģ":11966,"ĠëıĮëł¤ìĦľ":11967,"Ġì°įíŀĮ":11968,"ĠíĴįìĦł":11969,"Ġì§ĢëĭĪ":11970,"ĠìĨĮìĭ¬":11971,"Ġë°°ëĭ¹":11972,"Ġìĭľê°ĦëĮĢ":11973,"Ġìķłìį¨":11974,"ĠìĪľì§Ħ":11975,"Ġì±Ļê²¼":11976,"Ġê¹ĬìĪĻ":11977,"Ġê³łëĮĢë¡ľ":11978,"ĠëıĻê°ĳ":11979,"ĠíĪ¬ìķ½":11980,"Ġê¹ĢìĺģëŀĢ":11981,"ëĮĦ":11982,"ĠëģĮìĸ´ìķĪ":11983,"ĠìĿ¸ê±´ë¹Ħ":11984,"ĠìłĦë¡Ģ":11985,"Ġìľłê²½":11986,"ĠíķĻê¸ī":11987,"ĠíĬ¹ê°ķ":11988,"ĠëĤ´ëł¤ìĻĢ":11989,"ĠëıĮëł¤ë°Ľ":11990,"ĠìĹ¬ìļ°":11991,"Ġê¹ĢìĦ¸":11992,"Ġê¼¬ë°ķ":11993,"ĠëĬĲê»´ì¡Į":11994,"Ġíħľ":11995,"ê³¼ê±°":11996,"ĠìĽĲë³¸":11997,"Ġëħ¸ìĪĻ":11998,"ĠíŀĺëĵŃëĭĪëĭ¤":11999,"Ġëĵľë¦´ëł¤ê³ł":12000,"ĠíĻĺìĪĺ":12001,"Ġë¶ĪëŁ¬ìķ¼":12002,"ĠëĿĦìļ°":12003,"ë£¡íķ´":12004,"Ġì¦ĿëªħìĦľ":12005,"ĠëĤĺë¥´":12006,"ĠìĿ¸ìĬĲë¦°":12007,"ê¶ģê¸Ī":12008,"ĠíķĺíĬ¼":12009,"ĠìĤ¬ê·¹":12010,"Ġë§ĮìļĶ":12011,"Ġê³µíĳľ":12012,"Ġë¯¸ë¬ĺ":12013,"Ġìķ½ìŀ¬":12014,"Ġíĭ°ìħĶì¸ł":12015,"ìĿ¼ëŀ":12016,"Ġë°ĽìķĦëĵ¤ìĺĢ":12017,"ĠíĿĺëłĢ":12018,"Ġë¯¹ìĬ¤":12019,"Ġë¬´ìĭ¬":12020,"Ġì¶Ķíĸī":12021,"ĠíĺĳëıĻ":12022,"ĠìŀĦëĮĢìĿ¸":12023,"Ġê°Ģë§Ī":12024,"ĠëĦ¤ìĺ¤":12025,"ĠìłķêµĲ":12026,"Ġì£¼íĿ¬":12027,"Ġìľłìĺģ":12028,"ì°¨ë¡Ģ":12029,"Ġê²½íĺ¸ìĽĲ":12030,"ëĨĢìĿ´":12031,"ĠìĤ¬ëĤĺìĿ´":12032,"ĠëĮĢíĨµ":12033,"ìĹ°ëĿ½":12034,"Ġë¡Ģ":12035,"ĠëĿ¼ìĿ´ë²Į":12036,"Ġë©ĶìĿ´ì»¤":12037,"Ġë¶Ģìŀ¬":12038,"ĠëĿ¼ëĿ¼":12039,"Ġë³¸ëĭ¤ëĬĶ":12040,"ĠíĿĺëł¸":12041,"íĪ´":12042,"ĠìĿ´ëĿ¼íģ¬":12043,"Ġì±ĶíĶ¼":12044,"ĠìŀĲìłķ":12045,"ĠìĿ¼ìĭĿ":12046,"Ġìķ½íĻĶ":12047,"ĠíĶĦë¡ľíĮĮ":12048,"Ġëį°ëł¤ìĺ¤":12049,"Ġíķłë¨¸":12050,"Ġê·¸ëŀĺíĶ½":12051,"ìĪĺê³ł":12052,"Ġìĺģíķĺ":12053,"Ġë°ľê¸¸":12054,"Ġì´Īë¯¸":12055,"ĠíĥĦíĬ¸":12056,"Ġpd":12057,"Ġê°ķíĺ¸ëıĻ":12058,"Ġë¶Ģë¦ħëĭĪëĭ¤":12059,"Ġê°Ĳê¸Ī":12060,"Ġíĺ¸ëĳĲ":12061,"Ġëĵłëį°":12062,"Ġë¨¸ëĭĪ":12063,"ìĿ¼ëŀľëĵľ":12064,"Ġê²½ìĤ¬":12065,"Ġê´Ģìķħ":12066,"ĠìĹ´ë³ĳ":12067,"Ġíĺķíıī":12068,"ĠìłĪì¹ľ":12069,"Ġê·Ģì¡±":12070,"êµ½ëĭĪê¹Į":12071,"Ġì¡°ìĽĲ":12072,"Ġê°ķìłķ":12073,"Ġê¹¨ìļ°":12074,"ĠíĶ¼ëĤ":12075,"Ġíľ©ìĵ¸":12076,"Ġë¯¸ìļ©ìĭ¤":12077,"Ġëª¹":12078,"ĠìĪĺë°°":12079,"ĠìłķìłĲ":12080,"ĠìĦ±ê·łê´Ģ":12081,"Ġìķķì¶ķ":12082,"ĠìĽĢì§ģìĺĢ":12083,"Ġê²¬ëĶľ":12084,"íĺĪìķķ":12085,"Ġ06":12086,"ĠíĶĦëŀľì°¨ìĿ´ì¦Ī":12087,"ĠìĹ´ë¦½ëĭĪëĭ¤":12088,"Ġëĭ¤ê°ĢìĻĶ":12089,"Ġíļ¨ìĨĮ":12090,"Ġê³¼ê±°ìĤ¬":12091,"ĠìĹ¼ìŀ¥":12092,"ë¯¿":12093,"ê³łêµ¬ëł¤":12094,"Ġì¹¨ëŀµ":12095,"ĠìĬ¤ë¦´ëŁ¬":12096,"ĠëĤĺìĤ¬":12097,"Ġì²ľêµŃ":12098,"Ġê¸Īì£¼":12099,"íı¬ìĿ¸íĬ¸":12100,"Ġëĭ¬ëĿ¼ìĦľ":12101,"Ġëĭ¬ëł¤ìĺ¤":12102,"¼ë²ķ":12103,"Ġì²ĺëĤ¨":12104,"Ġëĭ¤ê°Ģìĺ¨ëĭ¤":12105,"ĠíĻľê¸°":12106,"Ġë³´ìĹ¬ìķ¼":12107,"ëĪĦìĿ´":12108,"ĠìĿ´ìĦ¸":12109,"Ġëª¨ìļ©":12110,"Ġì§ĦíĨµ":12111,"Ġë¦¬ìĬ¤":12112,"Ġê¹ĢìłķëĤ¨":12113,"³¼":12114,"Ġr":12115,"Ġê±°ìĦ¸":12116,"ĠëĤ´ê¸°":12117,"ìĨĮìĹ°":12118,"ì¶ľìĤ°":12119,"Ġíĳ¸ì§Ĳ":12120,"Ġì¶ĺì²ľ":12121,"ë§Īíģ¬":12122,"Ġê¾¸ëł¤":12123,"ĠìĦľë¶Ģ":12124,"Ġëª¨íĺķ":12125,"Ġê²°ëł¬":12126,"Ġë§ŀíŀĪ":12127,"íİĳ":12128,"Ġëĭµë°©":12129,"ĠìĹĲìĿ´ìķĦìĿ´":12130,"Ġì¿¡":12131,"Ġìŀ¡ìķĦë¨¹":12132,"ìļ©ìĦĿ":12133,"Ġì°¾ìķĦìĻĢ":12134,"Ġëľ»ëĮĢë¡ľ":12135,"ªħ":12136,"Ġë²Ļ":12137,"ĠëĤ¨ê²½":12138,"ìĹ¬ê²¨":12139,"ĠëıĻëĮĢë¬¸":12140,"Ġë²łë¦¬":12141,"ĠìĤ¬ê±°ë¦¬":12142,"ê±Ķ":12143,"ìĦ¤ë§Ī":12144,"Ġì±Ħë¦¬":12145,"ê²Įëĭ¤ê°Ģ":12146,"Ġê¸°ìĿ¼":12147,"Ġë¹ĦìĽĮ":12148,"Ġê¸ĭ":12149,"Ġìµľë£¡íķ´":12150,"ĠíıīíĥĿ":12151,"Ġë¶ĢëĶªì¹ĺ":12152,"°ķ":12153,"ĠìĦľìĿ¸":12154,"ìĦ±ìĿ´":12155,"Ġìĵ¸ìĵ¸":12156,"ĠëĨ¨ëĭ¤":12157,"Ġë¡ľë§¨íĭ±":12158,"Ġë¯¸ìĬ¤íĦ°ë¦¬":12159,"Ġë³´ëĿ¼":12160,"ĠìĿ¸ëĤ´":12161,"ëĬł":12162,"ĠíĮĮì£¼":12163,"ì°½ê¸°":12164,"Ġìķ½êµŃ":12165,"Ġì¶Ķë¡ł":12166,"Ġìŀ¥ëĭ¨":12167,"ĠëĪĦìĽĮìĦľ":12168,"ê·¸ëŁ¬ê²Į":12169,"Ġë¹¨ë¦¬ë¹¨ë¦¬":12170,"ĠíĤ´":12171,"ĠíŀĪìĸ´ë¡ľ":12172,"Ġíĳľê³łë²ĦìĦ¯":12173,"ĠíķĺìĻĢìĿ´":12174,"Ġë¶Ļëĵ¤":12175,"Ġêº¼ì§Ģ":12176,"ë»¤":12177,"Ġë¬¸íĿ¬ìĥģ":12178,"Ġëħ¸íĬ¸ë¶ģ":12179,"Ġëİ":12180,"Ġë§ĲëĿ¼":12181,"Ġë°©íķľ":12182,"Ġë°ĺë°ĺ":12183,"Ġìŀłê²¨":12184,"Ġê·¸ë¥´ëĭĪê¹Į":12185,"ĠëĵĿìłĲ":12186,"Ġë³´ëĥħëĭĪëĭ¤":12187,"ĠëĤ´ê±¸":12188,"ĠíĹĪë¬¼":12189,"ĠëĤĻíķĺ":12190,"Ġì§ĢìłĢë¶Ħ":12191,"ĠëĤ¼ë":12192,"Ġê¸°ìĪĻ":12193,"Ġê¹Ģê·ľ":12194,"ìŀ¬íĺĦ":12195,"ìŀĦìŀĲ":12196,"ĠëıĦëģ¼":12197,"ìłķíĻĶ":12198,"Ġêµ°ëĭ¨":12199,"ĠëĪĪìĹ¬ê²¨":12200,"ĠìĿ´ì¢ħê±¸":12201,"Ġë°°ì¢ħì°¬":12202,"Ġê³łìĿĢ":12203,"Ġìłķì°°":12204,"ĠíļĮíĻĶ":12205,"Ġê¸´ëį°":12206,"Ġì²´ë©´":12207,"ĠíľĻ":12208,"ĠëıĦë§Ŀì¹ĺ":12209,"Ġê³łìŀĳ":12210,"ëı¼":12211,"Ġë¯¸ëħĢ":12212,"Ġë°ķìľł":12213,"ĠëĨĢìĿ´íĦ°":12214,"Ġìľłê³µìŀĲ":12215,"Ġê°ĢìĬµê¸°":12216,"Ġìŀ¥ìķĦì°Į":12217,"ĠìķŀìĦł":12218,"Ġê¶Įìŀ¥":12219,"ĠëĨĢëŀĦ":12220,"ĠìĥģìĥĿ":12221,"Ġëª¨íĹĺ":12222,"Ġì§Īê¹Į":12223,"Ġê°Īë¦´":12224,"Ġë§ĮëĬ¥":12225,"ë²¼ë":12226,"ìĭ¬ìŀ¥":12227,"Ġë¬¼ìĿĮ":12228,"Ġë§¤ì¹ĺ":12229,"Ġì£¼ìłĢìķī":12230,"Ġì§ĢëĭĮ":12231,"ĠìĿ¼íĥĪ":12232,"ë£¹":12233,"ĠëıĻë§¥":12234,"ì²ŃìĽĲ":12235,"Ġì¤Ģëĭ¤ë©´":12236,"Ġê³¨íĶĦìŀ¥":12237,"Ġë©´ìĦ¸ìłĲ":12238,"Ġê°ĢëĬł":12239,"ĠìĮ©":12240,"Ġë§¡ê¸¸":12241,"íĶĮëłīìĬ¤":12242,"ĠìĹ¬ìłĦ":12243,"ìĿ´ëĶ°":12244,"ĠíĽĦê³Ħ":12245,"ĠëķĦ":12246,"Ġìľ¤ìĦľ":12247,"Ġ2015":12248,"Ġê¸°ìĦ¸":12249,"Ġë¶Ģê·¼":12250,"Ġìĭ¤ë¬¼":12251,"ĠëĪĦêµ½ëĭĪê¹Į":12252,"Ġë´Ĳìķ¼ê²ł":12253,"ĠìŀĶíĺ¹":12254,"Ġë°ķíķ´":12255,"Ġíĺ¸íıī":12256,"ê²¨ìļ´":12257,"ĠëĦ·íĶĮë¦ŃìĬ¤":12258,"Ġì§ĢëĤ¼":12259,"ĠìĦ±ë¬¸":12260,"ĠíĬ¹ì¡°":12261,"Ġë¦¬ìĸ¼ë¯¸íĦ°":12262,"Ġìĭ«ìĸ´":12263,"ĠíĨµìĭłìĤ¬":12264,"Ġì°Ŀ":12265,"Ġìŀ¥ëĭ´":12266,"ì°¨ëĿ¼ë¦¬":12267,"Ġíķ´ëĥĪ":12268,"Ġìĭłë³Ģ":12269,"Ġë¹Ħìŀ¥":12270,"Ġë°ĶëŀĦ":12271,"Ġìĸ´ëĳł":12272,"ĠëĤĺìķĦì§Ģ":12273,"ĠìĨĮëĤĺ":12274,"Ġì´Īëŀĺ":12275,"Ġëľ»ë°ĸ":12276,"Ġìĥ´":12277,"Ġë¹Ħë¡ľ":12278,"Ġìľ¼ìĭŃëĭĪëĭ¤":12279,"ĠíĿĶëĵľ":12280,"ĠíĿĺëł¤":12281,"ĠìĪĺëª©ëĵľëĿ¼ë§Ī":12282,"Ġêµ¬ìļ´":12283,"Ġê³µìĭł":12284,"Ġëł´":12285,"ëĤ¨íİ¸":12286,"ĠìĿ´íķ´ê´Ģê³Ħ":12287,"Ġì¡°ë¯¸":12288,"Ġìľłë¯¼":12289,"ĠìĹĦëĭĪ":12290,"Ġíķ©ëĭĪëĭ¤ë§ĪëĬĶ":12291,"ĠëģĦëįķ":12292,"Ġê¹¡íĮ¨":12293,"Ġëħ¸ìĺģ":12294,"Ġê¸īìĨį":12295,"ĠëıĻìĦ±":12296,"Ġê¸ĪíĴĪ":12297,"Ġë³µë¶Ģ":12298,"ĠíĽĪìŀ¥":12299,"Ġì¢ĭìķĦíķ©ëĭĪëĭ¤":12300,"Ġë§ĪìĿ´íģ¬ë¡ľ":12301,"Ġë¬¸ìłķ":12302,"íĴĭ":12303,"ĠíĥĦìĤ°":12304,"Ġê·¸ë¦´":12305,"ĠìŃīìŃī":12306,"Ġëĵ¤ëŁ¬":12307,"ëŀ´":12308,"Ġìļ°íİ¸":12309,"ĠìĪ¨ì§Ģ":12310,"Ġê³łìķĦ":12311,"ĠëĮĢì¶Ķ":12312,"ĠìĦľëĳĲë¥´":12313,"ĠëįĶìĽĮìĦľ":12314,"Ġë¹ĦëįĶ":12315,"Ġìŀ¥ìĭľíĺ¸":12316,"Ġíĳľê¸°":12317,"Ġì¢ħìĤ¬":12318,"Ġê½Ī":12319,"Ġì¶ľìĹ°ë£Į":12320,"ëĶ°ë¡ľ":12321,"Ġìĺ®ê²¼":12322,"ëĦĺê¸°":12323,"ĠÂ":12324,"ĠìłĦìĨ¡":12325,"Ġìĥģì¶Ķ":12326,"ĠìľłëĿ¼":12327,"ĠìĬ¹ì°¨":12328,"ĠìĬ¬ê¸°":12329,"ìį¬":12330,"ĠìĦľë©´":12331,"ĠìĿ¼ëŁ¬":12332,"Ġìľ¡ìĿ´":12333,"ĠìĨ¡ì¹ĺ":12334,"Ġíķłëł¤ëĬĶ":12335,"Ġìĭľê·¸ëĦĲ":12336,"Ġì§Ģê·¹":12337,"ĠìĻĵ":12338,"ĠìĿ¼íļĮ":12339,"êµŃëĤ´":12340,"Ġì£¼ìŀĦ":12341,"ĠìĽĲíķ©ëĭĪëĭ¤":12342,"Ġíĺľìĺģ":12343,"Ġê²½ìĥģëıĦ":12344,"Ġìĺ¤ë§Ī":12345,"ĠìĬ¤íĨ±":12346,"Ġì²Ńìłķ":12347,"ĠëĿ¼ìĿ´íĬ¸":12348,"ìķĦíķĺ":12349,"Ġê°ľê°ľìĿ¸":12350,"ê±´ê°ķ":12351,"ĠìĤ´ìķĦê°Ī":12352,"ĠìĿ¼ê´Ħ":12353,"Ġê³¼ëĭ¤":12354,"Ġìĭ¤íĻĶ":12355,"Ġë³¸íļĮìĿĺ":12356,"ĠíĹī":12357,"Ġê¼¬ì§ĳ":12358,"Ġë¶Ģì§ĢëŁ°":12359,"ĠíķĺìĽĲ":12360,"Ġìĸ´ì¹ĺ":12361,"ìĬ¤íĦ´":12362,"Ġìŀ¬íķ´":12363,"ì§ģìłĳ":12364,"Ġê°ķìļ©ìĦĿ":12365,"Ġë²łë¥¼ë¦°":12366,"ĠëĵľëŁ¬ëĤ¸":12367,"Ġë¯¸ìĹŃêµŃ":12368,"ê¸°ë¶Ģ":12369,"ìŀĲìľł":12370,"ĠìĦ¸ìĬµ":12371,"ĠëĨįìĦ±":12372,"ĠíĮĿì½ĺ":12373,"Ġì´ĲëŀĳìĿ´":12374,"Ġê¸°ì¶ľ":12375,"Ġìĸ´ë²":12376,"ĠìĥĿê¹ģëĭĪëĭ¤":12377,"ĠìĦľê°ķ":12378,"Ġëĭ¹ë©´":12379,"Ġ22":12380,"ĠíĿĶíķĺ":12381,"ĠíĹ¤ë§¤":12382,"Ġê¸°íļįìĤ¬":12383,"ĠìĿ¼ê°Ħ":12384,"ĠìĦľìłķ":12385,"Ġìľłëŀĳ":12386,"Ġìľłìĭ¬íŀĪ":12387,"Ġë³ĦìĿ¼":12388,"íĺľìĺģ":12389,"ĠìķĦìī¬ìĽł":12390,"ĠìľłëĬ¥":12391,"ĠëıĮìĹ°":12392,"Ġë»Ķíķľ":12393,"Ġë¹ĦìĹĶ":12394,"Ġê¹Ģìľ¤":12395,"Ġìŀ¥ìĿ´":12396,"Ġë²ķìĤ¬":12397,"ĠíķĺìĸĹ":12398,"Ġìŀĥìĸ´ë²Ħëł¸":12399,"êµ¬ë©į":12400,"Ġëª©ìļķíĥķ":12401,"Ġë¯¸ì³Ĳ":12402,"Ġë¶Īê¸¸":12403,"Ġì¤Ħëŀĺ":12404,"ĠëıĮë¦´":12405,"ì¢ħìĽĲ":12406,"ĠíĹĮìłķ":12407,"Ġë¶Ģëĭ´ê°Ĳ":12408,"ĠìĿ´íļĮ":12409,"ĠìĦľì²ŃìĽĲ":12410,"êµŃíļĮ":12411,"Ġìķ¼ê·¼":12412,"Ġë³¸ìĥī":12413,"Ġê¹¨ìĸ´ëĤĺ":12414,"ĠìĻķëĶ°":12415,"ĠíķľëĪĪ":12416,"ĠìľłíĿ¥":12417,"ìĦ¸íı¬":12418,"Ġê°Ĳì¹ł":12419,"ĠëłĢ":12420,"Ġì±Ħê¶Į":12421,"ì½Ķìĺ¬":12422,"ìĵ°ê¸°":12423,"Ġë¶ĢëŁ¬ìĽĮ":12424,"Ġíĵ¨":12425,"Ġê¸°ë¥ĺ":12426,"Ġë¡ľì§ģ":12427,"ĠìĦłìĿĺ":12428,"Ġê°Ħëŀµ":12429,"ì¤ĳê°Ħ":12430,"íģ¬ë¡ľ":12431,"ĠíıŃíı¬":12432,"ĠíĶĮë¡ľ":12433,"ķĲ":12434,"ĠìĿ´ìĥī":12435,"íĺĲ":12436,"ĠìĦ±ìļ°":12437,"ìĺģíĳľ":12438,"ĠíĻĶëģĪ":12439,"Ġíģ¬ë¦¬":12440,"ĠíĺĪìķ¡íĺķ":12441,"ĠëĮĢê¸Ī":12442,"ĠìķĪëıĻ":12443,"Ġì°»":12444,"ì¹µ":12445,"Ġë§Īì¼ĵ":12446,"ĠëĨĵì³¤":12447,"Ġë²łê°ľ":12448,"Ġê¸°ë¡Ŀë¬¼":12449,"ĠëĤłì¹´ë¡ľìļ´":12450,"Ġëĵ¤ê¹¨":12451,"ĠìłľìĪĺ":12452,"ĠëıĻìļĶ":12453,"ĠìłĲíĶĦ":12454,"ĠìĨįë§ĪìĿĮ":12455,"Ġë°ĶëĿ¼ë³¸ëĭ¤":12456,"ĠìŀĲìŀĳ":12457,"ĠìĦ¸ë¡ľ":12458,"Ġì¡°ìĹ°":12459,"Ġëħ¸ê³¨":12460,"ĠìĦľëŀį":12461,"Ġë¹ĦìľĦ":12462,"ĠìĶ¨ë¦Ħ":12463,"Ġëħ¸ëħĦ":12464,"ĠíĺĦìĨ¡":12465,"Ġìķŀëĭ¹":12466,"Ġíĥľì¤Ģ":12467,"Ġìĸ´ëł¤ìĽĮìĦľ":12468,"Ġë°Ķëŀ¨":12469,"Ġìłľì¡°ìĹħ":12470,"ĠíĺķìĪĺëĭĺ":12471,"íķ¸ëĵľ":12472,"ĠìĿ¸ì²´":12473,"ëĿ¼íħĮìĬ¤":12474,"Ġê·¹ëĮĢ":12475,"ĠëĮĢìŀ¥ìķĶ":12476,"ĠìĬ¤ì½Ķ":12477,"Ġì¼ł":12478,"ĠëĨĢë¦¬":12479,"ĠìĿ´íĥľë¦¬":12480,"Ġê¸°ì¦Ŀ":12481,"ĠíĬķ":12482,"Ġêº¼ëĤ¸":12483,"ĠìĿ´ë³´":12484,"ĠìĤ¬íĥķ":12485,"ĠëĮĢêµŃ":12486,"Ġíĸīìŀ¥":12487,"ĠìĽĲê°Ģ":12488,"ĠëĦ¥íĥĢìĿ´":12489,"Ġê¹Ģê´ĳìĦĿ":12490,"¼ë¡ľ":12491,"ĠìĨ¡íĻĺ":12492,"Ġë°ĿíĺĢëĤ´":12493,"Ġì¢ĭìķĦíķ´":12494,"ĠìĬ¤íĨłìĸ´":12495,"ĠëıĦìĦ±":12496,"ĠìłĦëĿ¼ëıĦ":12497,"ĠìĹ¬ìŃ¤ë³¼":12498,"íļ":12499,"ĠêµŃëĤ´ìĻ¸":12500,"ĠìĿ´íĶ¼":12501,"ĠìķĦìĶ¨":12502,"ĠíĸĪìľ¼ëĤĺ":12503,"ĠìłĦì²ĺ":12504,"íķĺìĿ´":12505,"íĬ¸ë¥¨":12506,"Ġì±ħìłķ":12507,"ĠëıĮìķĦëĭ¤":12508,"Ġíİľìħĺ":12509,"Ġìłľìĸ´":12510,"Ġì¶ľìĨĮ":12511,"Ġíħħ":12512,"ĠìĿ´ëĮĢ":12513,"Ġë©´íļĮ":12514,"ĠìĦ¸ë¬´":12515,"ĠêµŃìĤ°":12516,"ĠìĻ¸ê³½":12517,"Ġì·¨íķ´ìĦľ":12518,"Ġìĸµìķķ":12519,"íĨ¨ë¦Ń":12520,"Ġê¸°ìļ°":12521,"ĠìĦľìĺģ":12522,"ĠìĹ°ìĭľ":12523,"Ġë³Ģíķł":12524,"ĠêµŃê³¼ìĪĺ":12525,"ĠìĨĮë°ķ":12526,"Ġê¶Įíķĺ":12527,"Ġíı¬ë¡ľ":12528,"ê·¸ë¦¬êµ¬":12529,"Ġë§Īë²ķ":12530,"Ġê²°ë§Ĳ":12531,"Ġíĺ¸ì¹Ń":12532,"ĠìķĮëłĪë¥´ê¸°":12533,"Ġíķľê»ı":12534,"ĠìłķíĺĦ":12535,"ĠìĨĮíĴĪ":12536,"Ġë³¸ìĦł":12537,"Ġíĸīê°ģ":12538,"ĠíĺĳìĹħ":12539,"ĠíĽĶì¹ĺ":12540,"Ġíķıì¤Ħ":12541,"Ġì²ľë¬¸":12542,"Ġì¶Ķê¶ģ":12543,"ĠëŁ¬ëĭĿ":12544,"Ġê·¹íķľ":12545,"Ġëĭ¥ì¹ĺ":12546,"ĠìĤ¬ë£Į":12547,"ìľĻ":12548,"ĠìłĪë¡ľ":12549,"ĠìĦ£":12550,"Ġìłķíĺ¸":12551,"Ġëª¨ì²ĺëŁ¼":12552,"Ġëĵľë¡ł":12553,"Ġë§ŀë¬¼ë":12554,"Ġì´Ŀê¸°":12555,"ĠëĮĢíı¬":12556,"Ġì§Ģì¹ľ":12557,"Ġíķ´ì§Ħëĭ¤":12558,"ĠëıĻë¬¼ìĽĲ":12559,"Ġëĵ¤ìĿ´ëĮĢ":12560,"Ġì§ĢíĶ¼":12561,"ì¡°íķ©":12562,"Ġìĸ¸ëįķ":12563,"Ġìŀ¬ë¬¼":12564,"ĠíĻĶìĤ°":12565,"ĠíĥľìĤ°":12566,"ĠíĴĢë¦´":12567,"Ġì¢ģíĺĢ":12568,"Ġíħĥë°Ń":12569,"Ġëĭ¤ë°©":12570,"ĠìĬ¤íĳ¼":12571,"Ġëŀį":12572,"ĠìĨ¡íĮĮ":12573,"ĠëĹĦ":12574,"ĠëĬĲëĭ·":12575,"Ġìľ¼ìħ¨ëįĺ":12576,"Ġê°Ŀê´Ģìłģìľ¼ë¡ľ":12577,"Ġê°±ìĭł":12578,"ëĵĢìĦľ":12579,"ĠìľĦì¦Ŀ":12580,"Ġë²Īë³µ":12581,"Ġë°ľíĥģ":12582,"ëĿ¼ë¹Ħ":12583,"ë¦°ëĭ¤ëĬĶ":12584,"ĠëıĮë´Ĳ":12585,"Ġë³µëĭ¹":12586,"Ġ300":12587,"ìį½":12588,"ìķĦëĥĲ":12589,"ĠìłĦì§Ħ":12590,"ê·¸ëĤł":12591,"Ġëª¨ìĭł":12592,"Ġì§ĪëŁ¬":12593,"ìĪľê°Ħ":12594,"Ġì°¾ìķĦê°Ħ":12595,"Ġì¡´ìĹĦ":12596,"ĠìĤ¬ìļ°ëĶĶ":12597,"Ġë°ĺê²©":12598,"Ġë³¸ëį°":12599,"ĠìĨįíķĺ":12600,"Ġìĺ¬ëł¤ìķ¼":12601,"ë¿Į":12602,"ìŀ¥ëĤľ":12603,"Ġê³µìĪĺ":12604,"Ġìľłìŀħ":12605,"Ġê¹Ģíı¬":12606,"Ġì¶ľëĳĲ":12607,"ĠìĪĻëªħ":12608,"Ġëħ¹ìĹ¬":12609,"Ġìľ¤ì¢ħìĭł":12610,"ëŁ¿":12611,"ĠìĬ¤ë©°":12612,"Ġê³¨ì¹ĺ":12613,"50":12614,"ĠìĿĢë¹Ħ":12615,"ì§Ģëħ¸":12616,"ĠìĤ¬ëªħ":12617,"ĠìĪĺìĽĶ":12618,"Ġê´Ģì¤ĳ":12619,"Ġë§¤ëĦĪ":12620,"ĠíĥľíĽĦ":12621,"ĠíĶĦëĿ¼ìĿ´ë¨¸ë¦¬":12622,"ĠëĳĲëĵ¤":12623,"ĠëĦĺëĤĺ":12624,"ĠëĴ·ëª¨ìĬµ":12625,"Ġëı¼ë²Ħëł¸":12626,"¡Ŀ":12627,"ĠìĿ´íĥĢ":12628,"ĠíĸĪìĸ´ìķ¼":12629,"Ġì£¼ìĭŃìĭľìĺ¤":12630,"Ġê²½ë³µê¶ģ":12631,"ĠëłĪìĿ´ìĬ¤":12632,"ĠìŀĶëį°":12633,"Ġê³µìĤ°ì£¼ìĿĺ":12634,"ê¸°ëĭ¤":12635,"Ġêµ¬íķľ":12636,"Ġê·¸ëŀĺíĶĦ":12637,"Ġë¬¸ë²ķ":12638,"íĻĶìĺģ":12639,"íħĮíģ¬":12640,"ĠíķŃêµ¬":12641,"ìĹ´ìĭ¬íŀĪ":12642,"Ġëľ¨ê±°ìĽĮ":12643,"ĠìĿ´ê³¼":12644,"Ġê³łê³ł":12645,"Ġì§Ģê¸°":12646,"Ġë¹¼ëĤ´":12647,"Ġê·¼ëł¥":12648,"Ġìī¬ìĽĮ":12649,"Ġë¯¸ì£¼":12650,"Ġë¶Īë¥ľ":12651,"ë°ĺì°¬":12652,"ĠíķŃìŁģ":12653,"ìķĦìĿ´êµ¬":12654,"Ġëĺĺëĺĺ":12655,"Ġëĵ¤ë¦´":12656,"Ġìłķë³µ":12657,"ìľĦìĽĲ":12658,"Ġì°¸ìłĦ":12659,"Ġíķ¨ëŁī":12660,"Ġë²Ħíĭ¸":12661,"ĠíĻĺìĤ°":12662,"Ġë°ĢëıĦ":12663,"Ġë½ķ":12664,"Ġê¹Ģì¢ħë¯¼":12665,"ĠëļĿëĶ±":12666,"Ġìĸ´ë¦¬ìĦĿ":12667,"ëĿ¼ë²ĦëĭĪ":12668,"ĠìĹ´ë³ĳìĭĿ":12669,"Ġìļ°ìľĦ":12670,"êµ¬ë§Į":12671,"íĻĶìĥģ":12672,"Ġì§ĳíķĦ":12673,"ê¹Ł":12674,"ĠëŃĶëį°ìļĶ":12675,"Ġì´Ŀë¬´":12676,"Ġíļ¨ìŀĲ":12677,"Ġìľ¼ìħ¨ëĬĶëį°":12678,"ë£»ë°¤":12679,"ĠìĿ´ìĭľ":12680,"ĠìĿ¼íĻĶ":12681,"Ġë¬´ëĤľ":12682,"ìĿĺìĭĿ":12683,"Ġê°Ħë³ĳ":12684,"Ġë¦¬ëĿ¼":12685,"Ġë¹µë¹µ":12686,"ĠìĦłíĴįê¸°":12687,"ĠìĹ°ëħĢ":12688,"ìĤ°ë¶Ģ":12689,"ĠìĿ´ìķ¼ê¸´":12690,"Ġì½Ķëģ¼ë¦¬":12691,"Ġíİĺë¯¸ëĭĪ":12692,"Ġê»įëį°ê¸°":12693,"Ġë¦¬íı¬íĬ¸":12694,"Ġê³łì¶©":12695,"ìłķíĺľ":12696,"ìļ°ì§Ħ":12697,"ĠìĬ¤íħĶ":12698,"ì¶Ķê°Ģ":12699,"Ġ08":12700,"Ġëĸłìĺ¬ëŀĲ":12701,"ĠìĤ¬ê´Ģ":12702,"ëĮĢíĨµëł¹":12703,"Ġìŀħì²´":12704,"ĠìķĮì½Ķìĺ¬":12705,"Ġëŀ´":12706,"ĠìĻ¸ë¬´":12707,"ĠíĶĦë¡ľëĵĢìĦľ":12708,"ĠíĮ¨ëĶ©":12709,"Ġì°¾ìķĦìĻĢìĦľ":12710,"ê¼¬ë¦¬":12711,"ĠìŀŃìĬ¨":12712,"Ġê±°ìĬ¬ëŁ¬":12713,"ĠêµŃê³ł":12714,"Ġì°¸ìĻ¸":12715,"Ġíı¬ì»¤ìĬ¤":12716,"ĠíĺĳìĿĺíļĮ":12717,"Ġëĭ¤ëĿ¼ë©´":12718,"Ġë¬¸ìł":12719,"ĠìĿ¼ë³¸êµ°":12720,"ĠìĹĺì§Ģ":12721,"Ġê·łìĹ´":12722,"ĠìłĦê¸°ì°¨":12723,"ĠëĤĺìĽĲ":12724,"Ġê¸°íĶ¼":12725,"Ġìŀ¥ëıĻ":12726,"Ġìŀ¬ì§ģ":12727,"Ġì¶©ë¶ģ":12728,"Ġì±ħìŀĦìł¸ìķ¼":12729,"ĠëĿµ":12730,"Ġth":12731,"ĠìķĦìĺ¤":12732,"Ġì§Ģë§Ŀ":12733,"ĠìĤ¬ë¬¸":12734,"Ġë¶Ģê²°":12735,"Ġì²ĺëħĢ":12736,"Ġìŀ¥ìŀĲìĹ°":12737,"ìĹ°íĿ¬":12738,"ìĺģìĪĻ":12739,"ĠíĻĶë³´":12740,"Ġë¬¼ëŁ¬ìĦľ":12741,"ĠìĻ¸ë¡ľìĽĢ":12742,"ĠíķľëĮĢ":12743,"ĠìĬĽ":12744,"Ġë°ľìŀĲ":12745,"Ġë²ķì¹ĺ":12746,"Ġë°©ìĨ¡ìĿ¸":12747,"Ġìĩ¼íĬ¸":12748,"Ġìľ¼ìħ¨ìĿĦ":12749,"Ġë²Ħë¬´ëł¤":12750,"Ġíķľì§Ħ":12751,"ëį°ë¯¸":12752,"ìĿ´ë¦¬":12753,"ĠìĦľíĽĪ":12754,"Ġì§Ħíķĺ":12755,"Ġë´īìĩĦ":12756,"Ġìĺ¤ë¦¬ì§Ģ":12757,"Ġê¹Ģê´Ģì§Ħ":12758,"Ġê³¼ê²©":12759,"ĠìĨĮìħľ":12760,"Ġë¹Ħë¦°ëĤ´":12761,"ĠìĽĲìłķ":12762,"ĠëıĻì¡°":12763,"ë®¤ì§Ģ":12764,"ĠìķĪëĭ¤ê³ł":12765,"ê°Ħìŀ¥":12766,"ĠìĦ¤ë¹Ħ":12767,"Ġíľĺëĳĺ":12768,"Ġë°°ìĭłê°Ĳ":12769,"Ġíĺ¼ëĤĺ":12770,"Ġìĺģë¬¸":12771,"ë¯¸ëĤĺ":12772,"Ġêµ°ìĪĺ":12773,"Ġì´ĪìĽĶ":12774,"Ġë§¡ê²¼":12775,"Ġë¹Įëł¤ìĦľ":12776,"ê°Ħëĭ¨":12777,"Ġëª»ëĤľ":12778,"Ġì¤Ħì§Ģ":12779,"ĠìłĪìłľ":12780,"Ġì¦īìĦĿ":12781,"Ġ09":12782,"Ġê¹Ģíķ´":12783,"Ġë°°ê¸ī":12784,"Ġì°©ìĺ¤":12785,"Ġì°©ë¥Ļ":12786,"ĠìĹĬê·¸ìłľ":12787,"Ġê°ķëĮĢ":12788,"ĠìĹ´ìĹ°":12789,"ĠíĹĪëĤĺ":12790,"ĠíĴĢëł¸":12791,"ĠìļĶë¦¬ìĤ¬":12792,"Ġê¹Ģë¬¸ìĪĺ":12793,"ĠìķĦíį¼":12794,"ĠìĹ¬ê³ł":12795,"Ġëª¨íħĶ":12796,"Ġìŀ¥ì°©":12797,"Ġ27":12798,"Ġë£©":12799,"ĠìĤ¬ìĹħìŀ¥":12800,"íĬ¹ë³Ħ":12801,"ĠìĤ¬ë¬´ê´Ģ":12802,"ĠìĥĿê²¨ìļĶ":12803,"Ġë°ķê²½":12804,"ĠíĮĮê¸°":12805,"ì³Ĳìķ¼":12806,"Ġê·Ģíķĺ":12807,"Ġì±Ļê²¨ìĦľ":12808,"ëĲĺê²Į":12809,"Ġê°Ĳì¹łë§Ľ":12810,"Ġë°į":12811,"ĠìĺĪìĸ¸":12812,"ìĿ¸ìĤ¬":12813,"Ġì°¸ëĭ´":12814,"Ġìļ´ìĨ¡":12815,"ĠíĶĦëŀĢ":12816,"Ġê³Ħìĭłì§Ģ":12817,"ĠíķŃê³µê¸°":12818,"ìħīíĬ¸":12819,"ìĥĺíĶĮ":12820,"ĠìĿ´ìĸ¸":12821,"ìĿĢì§Ģ":12822,"Ġê°ľì²Ļ":12823,"ë¹ĦìĬ·":12824,"ĠìĺģìĦł":12825,"ĠìķĶíĺ¸":12826,"ĠìĤ´íİ´ë´Ĳìķ¼":12827,"Ġë°ĽìķĦëĵ¤ìĹ¬ìķ¼":12828,"Ġâ":12829,"ĠìĤ¬ëĮĢ":12830,"Ġìĭľíļ¨":12831,"Ġì²ŃìĤ¬":12832,"Ġêµ°ìĤ°":12833,"ê°ķíĺ¸":12834,"Ġê°ĲìĤ¬ìĽĲ":12835,"ĠìĻķíĽĦ":12836,"Ġë§Ŀê°Ģì§Ģ":12837,"ĠëĨĶìĦľ":12838,"Ġë°ĶëĿ¼ë³¼":12839,"Ġê·¸ëł¤ì¡Į":12840,"Ġê·¸ëķĲ":12841,"ĠìĬµëĭĪëĭ¤ìļĶ":12842,"Ġë²ķìłľ":12843,"Ġê·¸ëĭĪê¹ĮëĬĶ":12844,"Ġíķ©ì°½":12845,"Ġì²´ë¥ĺ":12846,"íĤ·":12847,"ĠìĺĪìĪłëĭ¨":12848,"Ġë¬¼ìĸ´ë³¸":12849,"ĠëĦ¤ê±°":12850,"ëĤĺìĻĢ":12851,"íĥĢë¦¬":12852,"ëĦĪíĿ¬":12853,"Ġë³µíĿ¬":12854,"Ġì£¼ìĿĺìŀĲ":12855,"Ġëºıê¸°":12856,"Ġë§Ĳê¸°":12857,"ĠìłĲìľł":12858,"ê³µì£¼":12859,"Ġì±ĦíĮħ":12860,"ĠìĦ¼ìĦľ":12861,"Ġìĸ´ìļ¸ëł¤":12862,"ê³łë§ĪìĽĮ":12863,"ĠëĦ¤ìĿ¼":12864,"ë§µ":12865,"Ġìĺ¤ì°¬":12866,"ĠìĹ¬ê³łìĥĿ":12867,"Ġìĥģë°ĺ":12868,"ĠìĽĲíĶ¼ìĬ¤":12869,"Ġë¯¼ê¸°":12870,"Ġì´¬ìĺģìŀ¥":12871,"ĠëĮĢíķŃ":12872,"ìĸ´ìł¸ìĦľ":12873,"ĠìĹ´ë§Ŀ":12874,"Ġê´ĺ":12875,"ĠìĲ¬":12876,"Ġìĥģê¶Į":12877,"Ġë¶Ħíı¬":12878,"ĠëĤ¨íķĻìĥĿ":12879,"ĠëĮĢíķľíķŃê³µ":12880,"íıīìĥĿ":12881,"ĠìłľìĬ¤":12882,"íķĺìĦ±":12883,"ĠìĽĲë§Į":12884,"Ġê¹Ģë³´":12885,"Ġì¤ĢìĿ´":12886,"Ġë§¤ê°ģ":12887,"Ġíķĺì°¨":12888,"ĠìĪĺêµĲ":12889,"Ġì¤ĳíĺķ":12890,"Ġê³µë¬¸":12891,"Ġê¸ĪìĪĺ":12892,"ìĺ¬ëĿ¼":12893,"ĠëĤ´ëł¤ìĺ¨":12894,"®¬":12895,"ĠìĭľëĦ¤":12896,"Ġë§Įê¸°":12897,"Ġë°©ëıĦ":12898,"ëª¨ëĭĪ":12899,"ìĸĳíĺ¸":12900,"ĠìĿĳìĿĳ":12901,"Ġìļ´ëıĻê°Ģ":12902,"ĠìĬ¤íĬ¸ëĿ¼":12903,"ĠìĤ¬ë¦¬":12904,"ĠìłĢì¶ľìĤ°":12905,"Ġíķ¨ìľł":12906,"ìĦľìļĶ":12907,"ê¸°ëĭ¤ë¦¬":12908,"ìĬ¤íħĮ":12909,"ĠìĽĲìĪŃìĿ´":12910,"Ġê²ĢìĤ¬ìŀ¥":12911,"ĠëĨĶìļĶ":12912,"ĠìļĶìļ°":12913,"Ġëħ¸ìķĪ":12914,"ìĦ¸ìĿ´":12915,"Ġê´ĳë²Ķ":12916,"ĠìĪĺìĪľ":12917,"Ġì´Ŀì²´":12918,"ĠìłĪë²½":12919,"ĠìĻķì¡°":12920,"Ġëĭ¤ë¦ĦìĹĨ":12921,"Ġì¤Ħì¤ĦìĿ´":12922,"Ġë¹Ħë¡ľìĨĮ":12923,"łëį°":12924,"ĠìĭľìĬ¹":12925,"ĠëıĻìª½":12926,"Ġíĺ¼ìĪĺ":12927,"Ġì§Ģë°©ìĤ°":12928,"ĠìľĦíĥľ":12929,"ĠìľłìŀĲ":12930,"Ġë²Įëĸ¡":12931,"Ġê·¼ìĤ¬":12932,"ìĿ¼ëĵľ":12933,"íĿĲíĿĲ":12934,"ìłľìĿ¼":12935,"Ġë¶ĢìĬ¤":12936,"Ġê¹Įë§Į":12937,"ĠìĽĲê²©":12938,"ĠíĮĮëĿ¼":12939,"Ġì´Īì°½ê¸°":12940,"Ġë©Ģë¦¬ìĦľ":12941,"ĠìĪĺíĻķ":12942,"Ġì§Ń":12943,"ê·¸ëĤĺ":12944,"Ġì±Ħì·¨":12945,"Ġëį§ë¶ĻìĺĢ":12946,"Ġê³ĦìħĶìĦľ":12947,"ëı¼ì§Ģ":12948,"Ġê³¼ìĸ¸":12949,"ĠìĽĲë£Į":12950,"Ġëªħìĥģ":12951,"ì§Īëŀľëĵľ":12952,"Ġì¹¨ì°©":12953,"Ġê¹Ģë¶Ģê²¸":12954,"ĠìĿ´ìĭĿ":12955,"Ġê°Ģì°½":12956,"ìĨĮëĭĪ":12957,"Ġê¹Ģì°½":12958,"ìĦ¸ëĮĢ":12959,"ĠíĻĶëł¥":12960,"Ġë¦¬ìĬ¤íģ¬":12961,"ĠìłķìĦ¸ê·ł":12962,"ĠìķĦìĿ¼ëŀľëĵľ":12963,"ĠëĤ´ìĪĺ":12964,"ĠìĦ¸ìĿ´":12965,"ĠìľĦìķĶ":12966,"Ġì²ĺíķľ":12967,"Ġìŀ¥ìĸ´":12968,"ë°°ê¸°":12969,"ë³¶ìĿĮ":12970,"Ġì¹«ìĨĶ":12971,"Ġìłķì¡°":12972,"Ġìļ°ì¸¡":12973,"Ġê²½íķ©":12974,"íĥľíĺĦ":12975,"íĺĦìłķ":12976,"Ġíģ´ëŀĺìĬ¤":12977,"Ġë°ķìļ©ì§Ħ":12978,"ĠëĤĺíĬ¸ë¥¨":12979,"Ġë¡ľìĽĮ":12980,"Ġëª¨ìĭ¤":12981,"ìĺ¤íĶĦ":12982,"Ġìļ¸ìĿĮ":12983,"ĠíĥĲìĥī":12984,"łģ":12985,"Ġì°¨ê°ĳ":12986,"ĠìĬ¹ìŀĲ":12987,"Ġê³¨ëŀĲ":12988,"ëıĮìķĦ":12989,"Ġ1000":12990,"Ġíļįê¸°":12991,"ĠìķĦì¹´ëį°ë¯¸":12992,"Ġìłķë¥ĺ":12993,"Ġêµ¬ë¨¼":12994,"Ġìĭ¤ìĬµ":12995,"Ġê°ķë³Ģ":12996,"Ġë°ľëªħíĴĪ":12997,"ĠìľłëıĻ":12998,"ĠìľłíĿ¬":12999,"Ġìŀ¬ìĽĮ":13000,"Ġëĭ¬êµ°":13001,"ĠëĪĦëĿ½":13002,"Ġê¼Ńì§Ģ":13003,"ĠíħĮëłĪ":13004,"Ġê¸°ë¡Ŀë¶Ģ":13005,"ĠìłľìŀĳìĤ¬":13006,"ĠìĿ¸ë§¥":13007,"Ġìħľ":13008,"Ġê°ķìķķ":13009,"ĠëıĦìļ¸":13010,"ĠëĤ´ë¶Ħ":13011,"íĨµìĪĺ":13012,"ĠìĨĲë°ľ":13013,"ĠëĦĺì³Ĳ":13014,"Ġê³łê²ĥ":13015,"ĠìķĦíĿĶ":13016,"ëŀ©":13017,"ìŀĲê¾¸":13018,"ìĺģë¯¸":13019,"Ġ28":13020,"íĥĪë¡ľê·¸":13021,"Ġì°ľì§Īë°©":13022,"ĠìĹ¬ìĪĺ":13023,"Ġëĭ¹íĺ¹":13024,"Ġì¤Ģìĺģ":13025,"ĠìŀĦë°ķ":13026,"Ġëĭ´ìķĦ":13027,"Ġìĺ¬ëĿ¼ìĻĢìĦľ":13028,"Ġìĥ¤ìĿ´":13029,"ĠëłĪìĿ´ëįĶ":13030,"Ġë²łìĬ¤íĬ¸ìħĢëŁ¬":13031,"ĠìĨĮìļ©ìĹĨ":13032,"ĠìłĦìĤ¬":13033,"Ġë¯¸ë¶ĢìĿ¸":13034,"Ġë°ĺëĮĢìª½":13035,"Ġë³´ìķĪë²ķ":13036,"Ġì§Ģì²´":13037,"ìĪĺíĺĦ":13038,"ëł¤êµ¬":13039,"Ġëĭ¹ëĮĢ":13040,"Ġíķľëĭ¤ëįĺ":13041,"Ġì§ģë©´":13042,"ì§ĳíĬ¸":13043,"ĠìĿ´ìĸ´ìł¸":13044,"Ġë¹¡ë¹¡":13045,"ĠìĿĺì´Ŀ":13046,"ĠìĿ¸ìĩĦ":13047,"Ġìĭľì²´":13048,"ìķĦëĤĺ":13049,"ĠìĨĮëĿ¼":13050,"íĿ°":13051,"ĠëłĽ":13052,"Ġìķħëĭ¨":13053,"ëłĪìĿ´íĦ°":13054,"ì©Į":13055,"ëĬĶëį°ëıĦ":13056,"ĠìĬ¤ì¼ĢìĿ´íĬ¸":13057,"Ġëľ¬ê¸Ī":13058,"ĠìĿ´íĺ¸ìĦł":13059,"Ġï¼Ł":13060,"Ġìĸ´íĽĦ":13061,"Ġê¸°ë§ī":13062,"Ġìľ¼ë¯Ħ":13063,"ĠìķĪëĿ½":13064,"ĠìĥĿìĪĺ":13065,"Ġìĥģë¥Ļ":13066,"ĠìĨĮë§¤":13067,"Ġë°ĶëĬĺ":13068,"Ġë²Ħë¸Ķ":13069,"Ġìŀ¬ë¯¸ëĤľ":13070,"ĠíĿĳìĪĺ":13071,"ĠìĿ´ìĿĺë¯¼":13072,"Ġëĭ¤ê°Ħ":13073,"Ġëĭ¤ê¸ī":13074,"ìĭ¤íŀĪ":13075,"ìĹ¬ê¸´":13076,"ĠíĶ¼ìĬ¤":13077,"ĠìĿ¸ì§ĢëıĦ":13078,"ĠëĤĺëĪĶ":13079,"Ġíĳ¸íĭ´":13080,"Ġë¡ľì§ģìĬ¤":13081,"ĠìĪĺì°¨ë¡Ģ":13082,"Ġìĺ¤ìĬ¤íĬ¸":13083,"ĠíıīìĿ¼":13084,"Ġì¶©ê³ł":13085,"Ġì¹¼êµŃìĪĺ":13086,"ĠìĦ¼íĭ°ë¯¸íĦ°":13087,"Ġê³łì¹ł":13088,"ĠìķĦì°Ķ":13089,"Ġê´Ģì²ł":13090,"ìłĢìª½":13091,"ê¿Ķ":13092,"ìĻĦìłĦ":13093,"ìı":13094,"Ġê¹¼":13095,"Ġê±´ëĵľ":13096,"Ġë³¼ìĿ¼":13097,"Ġíĺ¸íĺ¸":13098,"Ġì¡°ìĤ¬ëĭ¨":13099,"ëĪĦêµ°":13100,"Ġì½ĺìħīíĬ¸":13101,"ĠíķľìĸĳëĮĢ":13102,"Ġëĵ¤ëłĢ":13103,"Ġê³µêµĲìľ¡":13104,"ĠìĨĮëıħ":13105,"Ġìĭ¤ìłĦ":13106,"ĠëĥīìĿ´":13107,"Ġ07":13108,"Ġíĺ¸íĿ¡ê¸°":13109,"ĠÂ·":13110,"íĢ":13111,"Ġì¡°ìľ¤ìĦł":13112,"ĠëĲľëĭ¤ë©´ìĿĢ":13113,"Ġê´ĳë²ĶìľĦ":13114,"Ġê³łìĭ¬":13115,"ëĮĢì¶ľ":13116,"ĠìĦľê²½":13117,"Ġìľ¼ìľ¼":13118,"ë²ĦíĬ¸":13119,"Ġê¸°ìĸµëł¥":13120,"Ġíľĺë§Ĳ":13121,"ĠìĤ¬ëıĦ":13122,"ìĨŁ":13123,"ĠìĨĮì§Ħ":13124,"Ġìĺ¬ì¼Ģ":13125,"Ġìĵ°ìĺĢ":13126,"ì½ĶìĿ¸":13127,"ìĹĦì²Ń":13128,"Ġê²½ë¹ĦìĽĲ":13129,"Ġë±ĥìĨį":13130,"Ġê±°ì·¨":13131,"Ġë¶Īëł¸":13132,"ĠëĪĪìį¹":13133,"ĠìĤ°ìŀ¬":13134,"íİł":13135,"Ġë©Ķëī´íĮĲ":13136,"ĠìĿ¼ìĽĲ":13137,"íķ´ëĭ¹":13138,"ĠìĦľìª½":13139,"íħĮëŀĳ":13140,"Ġê°ķì¢Į":13141,"ĠíĻķìĦ±ê¸°":13142,"ĠëıħëĮĢ":13143,"ĠëĥĶ":13144,"ĠìĬ¹ë§Ī":13145,"Ġë°ĺëĮĢíİ¸":13146,"Ġìĵ¸ëª¨":13147,"ĠëłĮíĬ¸":13148,"ĠêµĲìĦŃëĭ¨ì²´":13149,"ê°Ģë§Į":13150,"ĠìłķìĤ°":13151,"Ġë°©ìłĲ":13152,"Ġë¦¬ìĦľ":13153,"Ġê·¼ìłĪ":13154,"Ġìłķë³´ìĽĲ":13155,"ê²ĢìĤ¬":13156,"ĠëĮĢê¸°ìĭ¤":13157,"Ġë§ı":13158,"ë¬¸íĻĶ":13159,"Ġì°¸íĮ¨":13160,"Ġìĺ¨íĨµ":13161,"Ġê·¸ë£¨":13162,"Ġë§ŀì¶°ìķ¼":13163,"Ġìŀ¥ê¸°ê°Ħ":13164,"ĠíĶĮëŀ«íı¼":13165,"Ġë°°íı¬":13166,"ĠëĶ°ì§Ī":13167,"ëĭ´ëįķ":13168,"Ġíı¬ë¥´":13169,"íİĮ":13170,"íĬ¹ìľĦ":13171,"Ġìĭľìĭľê°ģê°ģ":13172,"Ġìĸ´ê¸°":13173,"ì§Ģìļ°":13174,"Ġì¤ĳíĻĶ":13175,"Ġì¶Ķì¶ľ":13176,"ĠìŀłìŀĲ":13177,"Ġì»¤ì§Ħ":13178,"Ġë¶ĪëŁ¬ìļĶ":13179,"ĠìĦ¸ìĽĮìķ¼":13180,"Ġìłķìľ¤":13181,"ĠíĸĪëĬĶëį°ëıĦ":13182,"ĠìłľìŀĲë¦¬":13183,"Ġê°ľê°ģ":13184,"Ġê²°íķ¨":13185,"Ġê·¼ìłĳ":13186,"Ġê¸°ìĹħìĿ¸":13187,"Ġìķ¡ì²´":13188,"Ġìłķíķ´ìĦľ":13189,"Ġë°Ľì³Ĳ":13190,"ĠìĺģìķĦ":13191,"Ġì§Ģë§ĮìĿĢ":13192,"ĠëªħìĨĮ":13193,"ĠìĹ´ê´ĳ":13194,"íıŃíĥĦ":13195,"Ġì½ľëĿ¼ê²Ĳ":13196,"ìłķìļ°":13197,"Ġì¡°ëĭ¬":13198,"ì§ĦìķĦ":13199,"ĠëĤ¨ë¯¸":13200,"Ġì²Ńìķ½":13201,"ĠëĴ¤ì§ĳìĸ´":13202,"Ġë¬¶ìĹ¬":13203,"ĠìĬ¤ì¹´ìĿ´":13204,"ĠëĮĢêµ°":13205,"ìĹ¿":13206,"Ġì¤ĳìľĦ":13207,"ĠìĹ°ê·¼":13208,"ĠìĻ¸ëıĦ":13209,"ë¸Ķë¦¬":13210,"¾°":13211,"ë¦ı":13212,"ĠìĪĺìĭĿ":13213,"ìĸ´ë¦°":13214,"Ġë¡ľë§Ŀ":13215,"ĠìĭłìĥĿ":13216,"ĠëıĻíĺ¸":13217,"Ġë¶Īëªħ":13218,"Ġë§ŀë¬¼ëł¤":13219,"Ġëĭ¨ì¶Ķ":13220,"ëłĪìĿ¸ì§Ģ":13221,"Ġìŀ¡ì±Ħ":13222,"Ġê°ĢìĿ´ëĵľëĿ¼ìĿ¸":13223,"ë¯¼ì£¼ëĭ¹":13224,"ĠìĿ´ê±´ìļ°":13225,"Ġëķ¡ê¸°":13226,"Ġê±´êµŃëĮĢ":13227,"Ġê·¸ëŁ°ëĭ¤":13228,"ìĭłê²½":13229,"Ġë°±ìĪĺ":13230,"ĠìĨįìĨį":13231,"Ġì±Ļê¸¸":13232,"ĠìĬ¬ë¡ľ":13233,"ĠíĬĢê¸°":13234,"Ġìĸ´ìĿ´ìĹĨ":13235,"ĠìĤ¬ì²´":13236,"ĠëĮĢë¶Ģ":13237,"Ġìłķëª½":13238,"ĠìłĦìĦ±ê¸°":13239,"Ġê³¤ì¶©":13240,"ĠìĮĢìĮĢ":13241,"ĠìĿ´ìĬ¬ëŀĮ":13242,"Ġê±°ê¸¸":13243,"Ġë§Įë£Į":13244,"Ġê²°ìĦ±":13245,"Ġë°ĺìĹŃ":13246,"Ġê°ķë¶ģ":13247,"Ġì¶Ķì§ķ":13248,"Ġê³łì³Ĳìķ¼":13249,"Ġì»¤ë®¤ëĭĪì¼ĢìĿ´ìħĺ":13250,"Ġê¸°íķĺ":13251,"Ġë¬»íŀĪ":13252,"ĠëĮĢì¤ĳêµĲíĨµ":13253,"ĠëĮĢëĳĲ":13254,"Ġì¶ľê²©":13255,"Ġìľ¤ê¸°":13256,"Ġë¹µì§ĳ":13257,"ĠìĿ´ìĺģìŀĲ":13258,"Ġì¼ĢìĿ´íĭ°ìĹĳìĬ¤":13259,"ĠìķĪìĵ°":13260,"Ġê³Ħì§ĳ":13261,"Ġìŀ¥ëł¤":13262,"Ġìŀ¬ì§Ī":13263,"ì°¨ë¦¼":13264,"ĠíĮĮìĤ°":13265,"Ġë¦¬ìĦ¤ì£¼":13266,"ĠìĿ´ê±´ëį°":13267,"ĠëŁ½":13268,"Ġì£¼ìľłìĨĮ":13269,"ìĦŃëĭĪëĭ¤":13270,"Ġë¶ĦìŀĲ":13271,"Ġë¬¸ìĭł":13272,"ĠìĨĮë©¸":13273,"ĠìĦłëĳĲ":13274,"ĠíĻĶê¸°":13275,"Ġë¬¼ê°ĪìĿ´":13276,"ë°Ģë¦¬":13277,"Ġì§ĳì¤ĳëł¥":13278,"ar":13279,"ĠìĦ¸ìĽĮìĦľ":13280,"Ġë¹Ħì°¸":13281,"Ġê°Ĳê²©":13282,"Ġê°ķíĸĪ":13283,"Ġì¢ħíİ¸":13284,"Ġìłĳìĸ´ëĵ¤":13285,"Ġìľ¡ìĿ´ìĺ¤":13286,"Ġê³łëłĩê²Į":13287,"Ġëĭ¤ìĺ¤":13288,"Ġìĭľíģ¬":13289,"Ġìĭ¬ìŀ¬":13290,"ĠíĬ¸ëłĪ":13291,"Ġì¹¨ì²´":13292,"Ġê²¬ìĿ¸":13293,"Ġì§ĳìķĪìĿ¼":13294,"ĠìĭľëĦĪì§Ģ":13295,"ĠìļĶìĹ¬":13296,"Ġìļ¸ì»¥":13297,"ĠìĬ¬ë¦¬":13298,"Ġë§Īì¹¨ëĤ´":13299,"Ġìł¤ë¦¬":13300,"Ġìļ°ëıĻ":13301,"Ġê·¸ë¦¬ìĽĮ":13302,"íĥľì¤Ģ":13303,"Ġë²ķìĥģ":13304,"ëłĪë§Ī":13305,"ĠëĨįê°Ģ":13306,"ĠìłĢìĨĮëĵĿì¸µ":13307,"Ġíķľëĵ¤":13308,"Ġì¡°ìĭĿ":13309,"ĠíļĮê´Ģ":13310,"Ġì±ĻíĶ¼":13311,"Ġì¶ľìĹ°ì§Ħ":13312,"ìĹ¬ë³´ìĦ¸ìļĶ":13313,"ĠìĿ´ìĨ¡":13314,"Ġì§Ģìĸ´ìĦľ":13315,"Ġìłģê¸Ī":13316,"Ġê²½ë³´":13317,"ìĦ¸ìŀĲ":13318,"ĠìĤ¬ìĹħê°Ģ":13319,"íıĲë¬¼":13320,"ĠìĦłë³´ìĿ¼":13321,"ĠìĬ¤íĶ¼ì»¤":13322,"Ġíķĺë£»ë°¤":13323,"ĠìĦ±ìĪĺ":13324,"Ġë§¡ê¸´":13325,"Ġë£¨ë¨¸":13326,"ĠìĥĿê¸´ëĭ¤":13327,"ĠíĬ¸ëłĪìĿ´ëĭĿ":13328,"Ġê¹ĢìĹ°ìķĦ":13329,"ĠìĦ±ëĮĢëª¨ìĤ¬":13330,"ëĭ¤ìĦ¯":13331,"ĠìĺĪê¸Ī":13332,"Ġì£¼ìŀħ":13333,"ìĭľê¸°":13334,"Ġë´ħ":13335,"ĠëŀĮ":13336,"Ġíİ¼ì¹ł":13337,"Ġê¸°ìĪĻìĤ¬":13338,"ĠìĦłìŀħ":13339,"Ġê´Ģë¡Ģ":13340,"Ġì²ĺíķĺ":13341,"Ġë³¼ê»ĺìļĶ":13342,"ĠìĸĳëıĦ":13343,"Ġê°Īì¹ĺ":13344,"Ġë¦Ń":13345,"Ġë¶ĢìĨį":13346,"Ġìŀħì£¼ë¯¼":13347,"Ġê¹Ģìĸĳ":13348,"Ġìŀ¬ìŀĳëħĦ":13349,"ĠìĤ¬ì§Ģ":13350,"Ġëħ¸ìĽĲ":13351,"Ġê¶ĮìĿµ":13352,"ĠëĤľëıĻ":13353,"Ġê¸īì¦Ŀ":13354,"ĠìĽĮíĦ°":13355,"Ġë°Ģì°©":13356,"ê¿Īì¹ĺ":13357,"Ġë¡ľìĬ¤ì¿¨":13358,"Ġì§Ģì³Ĳ":13359,"Ġì¡°ì§Ĳ":13360,"Ġëī´ì§Īëŀľëĵľ":13361,"ĠëĤ´ëł¤ìĻĢìĦľ":13362,"Ġê°ĢìĻķ":13363,"ê¸°ë¶Ħ":13364,"Ġê¸°ìłĢ":13365,"ĠìĦ±ëıĻ":13366,"ĠìĻ¸ìķķ":13367,"ĠëĸłìĦľ":13368,"Ġê·¹ìĭ¬":13369,"Ġë¬´ìĦľìĽł":13370,"ĠìĹŃíĴį":13371,"ĠìĻ¸íĻĺ":13372,"Ġë¶Ģíĥģëĵľëł¤ìļĶ":13373,"ĠìķłíĶĮë¦¬ì¼ĢìĿ´ìħĺ":13374,"ê°¯":13375,"Ġìĭ¤ì»·":13376,"Ġìľłë°©":13377,"Ġëħ¸íıĲë¬¼":13378,"Ġê°Ħìĭł":13379,"ĠíĬľë²Ħ":13380,"Ġìĭ¬ê·¼":13381,"ë²Ħê·¸":13382,"Ġê¸Īê°Ĳ":13383,"Ġê·¼ìĽĲ":13384,"ĠìŁģìĿ´":13385,"ê³łëª¨":13386,"ĠìĿĺìķ½":13387,"ĠíĸĪìĸ´ëıĦ":13388,"Ġë²łíħĮëŀĳ":13389,"ĠëĨ¨ëįĺ":13390,"ĠëĶľëłĪë§Ī":13391,"ĠìĬ¤íĶĦë§ģ":13392,"Ġêµ¬ë°ķ":13393,"ĠìĦłíĽĦ":13394,"ë§Īë¦¬":13395,"ì¤ĳê¸°":13396,"Ġì¤ĳìķĻìĿ¼ë³´":13397,"ĢëĵĿ":13398,"ì§ĢëıĦ":13399,"Ġë§¤ëıĦ":13400,"Ġëı¼ìķ¼ì§Ģ":13401,"Ġì½©íĮ¥":13402,"Ġê±´ì¶ķë¬¼":13403,"Ġë¬´ëĦĪì¡Į":13404,"Ġìĺ¤íĶĦëĿ¼ìĿ¸":13405,"Ġë°Ģìĸ´ë¶ĻìĿ´":13406,"Ġì¹ľìĿ¼íĮĮ":13407,"ĠìĿ´ì§ĳíĬ¸":13408,"ĠìļĶë¬¼":13409,"ĠìļĶë§ī":13410,"ĠìŀĺìĥĿê¸´":13411,"ĠëģĿëĥĪ":13412,"Ġë¹¨ê°ľ":13413,"ĠíıĲìķĶ":13414,"ìķ¡ìħĺ":13415,"Ġë§¨ëĵ¤":13416,"ĠëĲľìŀ¥ì°Įê°ľ":13417,"Ġê¹ĢëĤ¨êµŃ":13418,"Ġê°¯":13419,"Ġìłķìŀ¥":13420,"ĠìĦ±ê²½":13421,"Ġë°ķìŀĲ":13422,"Ġë§īë§ī":13423,"ĠëŀŃíĤ¹":13424,"Ġë°ķìľłì²ľ":13425,"ĠëĬĲëĭ·ìĹĨìĿ´":13426,"Ġì¨":13427,"Ġë¡ľê³ł":13428,"Ġë¶ĦëŀĢ":13429,"ĠìĦłëıĦ":13430,"ĠíĨµìĺģ":13431,"ĠíĻĺìľ¨":13432,"Ġê¸Ģìĵ°ê¸°":13433,"Ġê°ĢìĬ´ìĤ´":13434,"Ġê³µê¸°ìĹħ":13435,"ĠëĮĢìĹŃ":13436,"ìĽ¬":13437,"Ġë¹ĦëĪĦ":13438,"ìĨĮê¸Ī":13439,"Ġìĺģëĵ±":13440,"Ġëĭ¬ìĿ¸":13441,"Ġê´Ģëł¨ìŀĲ":13442,"Ġë¯¿ê¸°":13443,"ĠíĦ°ë¯¸":13444,"ĠëĲĺíĴĢìĿ´":13445,"ĠìĹ°íĥĦ":13446,"Ġë°±ì¢ħìĽĲ":13447,"ĠëĪĦëªħ":13448,"Ġì¹ĺìķĪ":13449,"ĠíĴĢìĿ´":13450,"Ġë¶ĢíĨµëł¹":13451,"ĠìĹ¬ìŀĶ":13452,"Ġì¤ĳì¦Ŀ":13453,"ĠìĹ°ìĨĮ":13454,"Ġë°ķì°¨":13455,"Ġê³ĦìĹ´ìĤ¬":13456,"ĠìĿ¼ìłľíŀĪ":13457,"Ġë¶Ħê¶Į":13458,"Ġë°Ķê°Ģì§Ģ":13459,"Ġìľłë³´":13460,"Ġìŀ¥ìľ¤ìłķ":13461,"Ġì§ģì±ħ":13462,"ĠìłĪìĹ¬":13463,"ìĪľíĻĺ":13464,"ìĹ¼ìŀ¥":13465,"íŀĮëĭ¤":13466,"Ġë¬´ì§Ģíķĺ":13467,"Ġêº¼ëĥĪ":13468,"Ġê³łê±¸":13469,"Ġì£¼ìĽĮ":13470,"ĠìĦ±ë³Ħ":13471,"ĠìĬ¤íĦ°":13472,"Ġë¶Īìĸ´":13473,"ĠíĹĪìĪł":13474,"Ġëĵ¤ëł¤ì£¼":13475,"ê·¸ë£¹":13476,"Ġëĭ¹ìĤ¬":13477,"ĠìłĪê°Ĳ":13478,"ĠìĿĳì§ķ":13479,"Ġì«ĳ":13480,"ĠìĤ¬ê°ģì§ĢëĮĢ":13481,"Ġíķľìĺ¥":13482,"ĠìłĦíĺĦ":13483,"Ġì§ĪíĥĢ":13484,
[...]
